{"version":"1.0","truncation":null,"padding":null,"added_tokens":[{"id":0,"special":true,"content":"<|endoftext|>","single_word":false,"lstrip":false,"rstrip":false,"normalized":false},{"id":1,"special":true,"content":"<eos>","single_word":false,"lstrip":false,"rstrip":false,"normalized":false}],"normalizer":null,"pre_tokenizer":{"type":"ByteLevel","add_prefix_space":false,"trim_offsets":true},"post_processor":{"type":"ByteLevel","add_prefix_space":true,"trim_offsets":true},"decoder":{"type":"ByteLevel","add_prefix_space":true,"trim_offsets":true},"model":{"type":"BPE","dropout":null,"unk_token":null,"continuing_subword_prefix":null,"end_of_word_suffix":null,"fuse_unk":false,"vocab":{"<|endoftext|>":0,"<eos>":1,"!":2,"\"":3,"#":4,"$":5,"%":6,"&":7,"'":8,"(":9,")":10,"*":11,"+":12,",":13,"-":14,".":15,"/":16,"0":17,"1":18,"2":19,"3":20,"4":21,"5":22,"6":23,"7":24,"8":25,"9":26,":":27,";":28,"<":29,"=":30,">":31,"?":32,"@":33,"A":34,"B":35,"C":36,"D":37,"E":38,"F":39,"G":40,"H":41,"I":42,"J":43,"K":44,"L":45,"M":46,"N":47,"O":48,"P":49,"Q":50,"R":51,"S":52,"T":53,"U":54,"V":55,"W":56,"X":57,"Y":58,"Z":59,"[":60,"\\":61,"]":62,"^":63,"_":64,"`":65,"a":66,"b":67,"c":68,"d":69,"e":70,"f":71,"g":72,"h":73,"i":74,"j":75,"k":76,"l":77,"m":78,"n":79,"o":80,"p":81,"q":82,"r":83,"s":84,"t":85,"u":86,"v":87,"w":88,"x":89,"y":90,"z":91,"{":92,"|":93,"}":94,"~":95,"¡":96,"¢":97,"£":98,"¤":99,"¥":100,"¦":101,"§":102,"¨":103,"©":104,"ª":105,"«":106,"¬":107,"®":108,"¯":109,"°":110,"±":111,"²":112,"³":113,"´":114,"µ":115,"¶":116,"·":117,"¸":118,"¹":119,"º":120,"»":121,"¼":122,"½":123,"¾":124,"¿":125,"À":126,"Á":127,"Â":128,"Ã":129,"Ä":130,"Å":131,"Æ":132,"Ç":133,"È":134,"É":135,"Ê":136,"Ë":137,"Ì":138,"Í":139,"Î":140,"Ï":141,"Ð":142,"Ñ":143,"Ò":144,"Ó":145,"Ô":146,"Õ":147,"Ö":148,"×":149,"Ø":150,"Ù":151,"Ú":152,"Û":153,"Ü":154,"Ý":155,"Þ":156,"ß":157,"à":158,"á":159,"â":160,"ã":161,"ä":162,"å":163,"æ":164,"ç":165,"è":166,"é":167,"ê":168,"ë":169,"ì":170,"í":171,"î":172,"ï":173,"ð":174,"ñ":175,"ò":176,"ó":177,"ô":178,"õ":179,"ö":180,"÷":181,"ø":182,"ù":183,"ú":184,"û":185,"ü":186,"ý":187,"þ":188,"ÿ":189,"Ā":190,"ā":191,"Ă":192,"ă":193,"Ą":194,"ą":195,"Ć":196,"ć":197,"Ĉ":198,"ĉ":199,"Ċ":200,"ċ":201,"Č":202,"č":203,"Ď":204,"ď":205,"Đ":206,"đ":207,"Ē":208,"ē":209,"Ĕ":210,"ĕ":211,"Ė":212,"ė":213,"Ę":214,"ę":215,"Ě":216,"ě":217,"Ĝ":218,"ĝ":219,"Ğ":220,"ğ":221,"Ġ":222,"ġ":223,"Ģ":224,"ģ":225,"Ĥ":226,"ĥ":227,"Ħ":228,"ħ":229,"Ĩ":230,"ĩ":231,"Ī":232,"ī":233,"Ĭ":234,"ĭ":235,"Į":236,"į":237,"İ":238,"ı":239,"Ĳ":240,"ĳ":241,"Ĵ":242,"ĵ":243,"Ķ":244,"ķ":245,"ĸ":246,"Ĺ":247,"ĺ":248,"Ļ":249,"ļ":250,"Ľ":251,"ľ":252,"Ŀ":253,"ŀ":254,"Ł":255,"ł":256,"Ń":257,"á»":258,"áº":259,"eo":260,"eos":261,"ng":262,"Ġt":263,"Ġc":264,".<":265,"ĠÄ":266,"ĠÄĳ":267,"Ãł":268,"Ã´":269,"nh":270,"Ġl":271,"Ġth":272,"Æ°":273,"Ġch":274,"Ã³":275,"Ġk":276,"Ġv":277,"Ġm":278,"Ġn":279,"Ġb":280,"Ã¡":281,"Ã´ng":282,"áº¿":283,"Ġkh":284,"Ã´i":285,"Ġs":286,"Ġh":287,"Ġg":288,"Æ°á»":289,"áº¥":290,"?<":291,"ĠlÃł":292,"Ġnh":293,"Ã¬":294,"Ġng":295,"iá»":296,"áº£":297,"ĠÄĳÃ":298,"ĠkhÃ´ng":299,"áºŃ":300,"Ġr":301,"áº¡":302,"á»ĳ":303,"Ãº":304,"Ġtr":305,"Ãª":306,"ĠtÃ´i":307,"á»Ļ":308,"ph":309,"Ġph":310,"ĠcÃ³":311,"Ġa":312,"Ġta":313,"iáº¿":314,"Ġcá»":315,"..":316,"Æ¡":317,"áº¥y":318,"á»Ľ":319,"Ãªn":320,"á»ĵ":321,"Ch":322,"áº¯":323,"Ã¢":324,"Ġthá»":325,"ĠnÃł":326,"Ŀi":327,"Ġanh":328,"ÄĲ":329,"á»į":330,"!<":331,"Ġd":332,"Ãºng":333,"TÃ´i":334,"ĠÄĳá»":335,"áº½":336,"Æ°á»£":337,"áº§":338,"§a":339,"ĠnÃ³":340,"Ġcá»§a":341,"ĠÄĳÃ¢":342,"Ġx":343,"ao":344,"uy":345,"ĠÄĳi":346,"ĠÄĳÃ£":347,"á»Ļt":348,"ĠvÃł":349,"on":350,"Ġsáº½":351,"Ġq":352,"Æ°á»£c":353,"áº¡i":354,"á»Ľi":355,"ĠgÃ¬":356,"Ġchá»":357,"á»ĵi":358,"áº¥t":359,"áº£i":360,"Ã¡c":361,"ĠÄĳÃ³":362,"Ġqu":363,"á»Ł":364,"iá»ĩ":365,"iáº¿t":366,"Æ°á»Ŀi":367,"Ġmá»Ļt":368,"Ġrá»ĵi":369,"á»¯":370,"ĠÄĳÆ°á»£c":371,"á»ĩ":372,"uá»ĳ":373,"ĠlÃłm":374,"ÃŃ":375,"Ġpháº£i":376,"Ġgi":377,"Ã¡i":378,"ĠngÆ°á»Ŀi":379,"ay":380,"ĠnÃły":381,"Ġcho":382,"Anh":383,"Ġngh":384,"Ġvá»":385,"ang":386,"em":387,"Ã²":388,"an":389,"áº§n":390,"Kh":391,"Ġbiáº¿t":392,"ĠchÃºng":393,"áºŃu":394,"Ġthá»ĥ":395,"in":396,"Th":397,"ĠÄĳÃ¢y":398,"á»«":399,"Ġá»Ł":400,"ĠcÃ´":401,"iá»ģ":402,"ĠnÃ³i":403,"áºŃy":404,"ĠmÃł":405,"ĠnhÆ°":406,"Ìģ":407,"Ã¬nh":408,"Ġvá»Ľi":409,"ong":410,"Ġra":411,"Ġláº¡i":412,"á»±":413,"Ġgiá»":414,"Ġsao":415,"Ġcon":416,"Nh":417,"Ä©":418,"...<":419,"Ġcáº£":420,"ch":421,"á»ĭ":422,"Ġtháº¿":423,"áº·":424,"áº¿t":425,"uyá»ĩ":426,"Ġáº¥y":427,"KhÃ´ng":428,"©ng":429,"áºŃt":430,"Æ°a":431,"ĠnÃło":432,"Äĥ":433,"Ã£":434,"uá»ĳn":435,"Ã¹":436,"áº¯n":437,"ĠÄĳang":438,"Æ¡i":439,"Ġem":440,"ÌĢ":441,"Æ°á»Ľ":442,"á»ı":443,"iá»ģu":444,"áº¿n":445,"ĠÃ´ng":446,"Ġmuá»ĳn":447,"Æ¡n":448,"...":449,"ĠÄĳá»ĥ":450,"uyá»ĩn":451,"Ã©":452,"ĠÄĳÃ¢u":453,"ai":454,"ĠcáºŃu":455,"Ġtrong":456,"á»¯ng":457,"ĠváºŃy":458,"Ã¢n":459,"ĠÄĳáº¿n":460,"ChÃºng":461,"á»ķ":462,"ĠcÃ¡i":463,"Ãłi":464,"ĠcÃ¡c":465,"Ã¢y":466,"Ã²n":467,"áº±":468,"Ng":469,"au":470,"iá»ĥ":471,"ĠnghÄ©":472,"Å©ng":473,"á»įi":474,"á»«ng":475,"á»¥":476,"áº¹":477,"Ġkhi":478,"Ġvá»ģ":479,"Ġhá»į":480,"ĠthÃ¬":481,"iÃªn":482,"er":483,"Ġtháº¥y":484,"Ġnhá»¯ng":485,"Ġchuyá»ĩn":486,"áº¡n":487,"Ġlá»":488,"Ġná»¯":489,"ĠÄĳáº¥y":490,"áº±ng":491,"Ġ1":492,"Ġbá»ĭ":493,"áº¿u":494,"ĠvÃło":495,"ĠcÅ©ng":496,"CÃ³":497,"Æ°á»Ľc":498,"Ì£":499,"ar":500,"ĠthÃ´i":501,"Æ°ng":502,"áº§u":503,"Ãły":504,"Ġchá»ī":505,"iá»ĩc":506,"Ġchá»©":507,"Ġgiá»Ŀ":508,"Ãłn":509,"Ġná»¯a":510,"CÃ´":511,"á»©":512,"VÃł":513,"anh":514,"Ã½":515,"áºŃn":516,"ĠcÃ²n":517,"ÃĶ":518,"inh":519,"Ãłng":520,"Ġcáº§n":521,"Æ°Æ¡":522,"Em":523,"Ã¹ng":524,"á»ĳi":525,"ĠM":526,"Ãªu":527,"Ãłnh":528,"ĠmÃ¬nh":529,"Ãºc":530,"ĠT":531,"Ġviá»ĩc":532,"Æ°á»Ŀ":533,"Ġthá»©":534,"Ã¡t":535,"á»ĳng":536,"Ġy":537,"áº¯c":538,"áº»":539,"ĠS":540,"Æ°á»Ŀng":541,"áº¯t":542,"Ġai":543,"NhÆ°ng":544,"ĠB":545,"áº«":546,"iáº¿n":547,"en":548,"Ġráº¥t":549,"á»ī":550,"Ġho":551,"NÃ³":552,"ĠlÃªn":553,"Ġsá»±":554,"ĠÃł":555,"ĠÄĳiá»ģu":556,"Ġtá»Ľi":557,"á»įn":558,"ĠtháºŃt":559,"á»ĳt":560,"ÃŃnh":561,"Ġháº¯n":562,"Ĺi":563,"Ìī":564,"ĠchÆ°a":565,"ĠhÆ¡n":566,"ÃĶng":567,"Ã¬m":568,"á»Ļi":569,"Ã¡u":570,"ÃŃch":571,"iá»ĩn":572,"Ã¡nh":573,"ĠnhÃł":574,"á»ĥ":575,"áº«n":576,"ĠH":577,"CáºŃu":578,"ĠvÃ¬":579,"Ã£y":580,"á»ıi":581,"Æ°Æ¡ng":582,"ĠC":583,"Ã¡ng":584,"Ġtá»«":585,"á»Ļc":586,"Ã´n":587,"á»Ń":588,"ĠÄĳáº§u":589,"á»£":590,"Ġbáº¡n":591,"Ã¢u":592,"iá»ĥu":593,"ĠtÃ¬m":594,"Ġbáº£":595,"Ph":596,"áº¯m":597,"Tr":598,"Ġcháº¿t":599,"ĠnÃªn":600,"Ã¡o":601,"ĠquÃ¡":602,"ia":603,"Ã²ng":604,"ĠkhÃ¡c":605,"Ġcá»©":606,"Ta":607,"Ãło":608,"á»ģ":609,"Ãºt":610,"Con":611,"ĠnhÆ°ng":612,"am":613,"Ġtin":614,"ĠL":615,"Ġcu":616,"áº©":617,"Ġnhiá»ģu":618,"ll":619,"ÄĲÆ°á»£c":620,"ĠÆ¡n":621,"Ġnháº¥t":622,"or":623,"Ġnghe":624,"ÄĲÃ³":625,"Äĥm":626,"á»§":627,"áº·t":628,"áº·p":629,"ĠÄĳá»ģ":630,"ĠtrÆ°á»Ľc":631,"Ġlá»Ĺi":632,"Ġmá»įi":633,"Náº¿u":634,"Ġbao":635,"Ã¬n":636,"Ġtá»ĳt":637,"VáºŃy":638,"Ġto":639,"ĠÄĳá»ĵ":640,"Ã¡m":641,"ĠtrÃªn":642,"ĠcÃ´ng":643,"Ġlu":644,"Ġtiáº¿":645,"Äĥng":646,"Ġlo":647,"Æ°á»Ł":648,"ĠD":649,"Ã¡n":650,"á»¥c":651,"im":652,"Ġqua":653,"uá»ĳng":654,"áº¥u":655,"ung":656,"Æ°á»Łng":657,"LÃł":658,"áº³":659,"iá»ĩt":660,"ĠthÃłnh":661,"áºŃp":662,"ĠCh":663,"ĠthÃŃch":664,"ĠA":665,"iá»ģn":666,"Ġláº¯m":667,"ĠmÃły":668,"Æ°Æ¡i":669,"áº¥n":670,"ĠyÃªu":671,"Ìĥ":672,"á»©c":673,"Ã¢m":674,"Ġsá»ĳng":675,"Ġgáº·p":676,"Ġhay":677,"ĠÄĳá»ĭ":678,"á»ķi":679,"ĠcÃ¹ng":680,"á»Ŀi":681,"âĻ":682,"Ãºp":683,"ĠÄĳÃº":684,"Ġnáº¿u":685,"Ġmá»Ľi":686,"Ġtheo":687,"ĠÄĳÃºng":688,"Ġxem":689,"ĠcÃ¡ch":690,"ĠtÃªn":691,"Ġmáº¹":692,"Ġváº«n":693,"es":694,"ĠngÃły":695,"á»Ļng":696,"Ġgiáº¿t":697,"âĻª":698,"Ġbáº¯t":699,"iÃª":700,"ĠG":701,"áº·c":702,"Ġquan":703,"ÄĲá»«ng":704,"Sao":705,"Xin":706,"ĠJ":707,"Má»Ļt":708,"Ġngay":709,"Ġháº¿t":710,"ĠR":711,"Ġthu":712,"iá»ĥm":713,"Ġsau":714,"Ġngo":715,"is":716,"ĠÃ½":717,"ÄĲÃ¢y":718,"áº³ng":719,"ĠÄĥ":720,"Ġbáº£o":721,"ĠÄĲ":722,"áº£y":723,"ĠÄĥn":724,"Ġgá»įi":725,"Äĥn":726,"Ġ2":727,"Ġbá»ĳ":728,"ĠgiÃºp":729,"ĠlÃºc":730,"Å©":731,"Ġtay":732,"at":733,"Ġtá»±":734,"Ġhiá»ĥu":735,"Ãºa":736,"á»įng":737,"Ġháº£":738,"Ġláº¥y":739,"ĠbÃł":740,"Ġráº±ng":741,"Ġmáº¥t":742,"Há»į":743,"Ġtao":744,"iá»ĩu":745,"Ġxin":746,"Ġtá»Ľ":747,"Ġvá»¥":748,"ĠnhÃ©":749,"áº©n":750,"Ġxe":751,"Ġcáº£m":752,"Ġ\"":753,"ĠnháºŃn":754,"Ġdo":755,"el":756,"Ġkhá»ıi":757,"ĠnhÃ¢n":758,"á»ģn":759,"ui":760,"Ã¡y":761,"Ġchá»ĭ":762,"Ġquy":763,"00":764,"Ġláº§n":765,"±c":766,"Ġnay":767,"Ġbá»ı":768,"HÃ£y":769,"ĠTh":770,"ĠÄĳÆ°a":771,"ĠnÄĥm":772,"ou":773,"ĠbÃ©":774,"ĠchÃ¡u":775,"CÃ¡i":776,"ĠÄĳá»ĭnh":777,"Ġcuá»Ļc":778,"Giá»":779,"ĠN":780,"iÃªu":781,"áº¡nh":782,"áº¯ng":783,"et":784,"ĠnhÃ¬n":785,"ĠP":786,"Ġhai":787,"ĠK":788,"Ġtáº¥t":789,"Ã³c":790,"ĠngÃłi":791,"al":792,"áº£m":793,"Ġnhau":794,"Ġá»ķ":795,"Ġtrá»Ł":796,"Ġxuá»ĳng":797,"Ãµ":798,"Ġcháº¯c":799,"Ġtiá»ģn":800,"Ġbá»įn":801,"Ġgia":802,"ĠgÃ¡i":803,"áº§m":804,"Ġla":805,"áº¡y":806,"uá»ķi":807,"ĠÄĳÆ°á»Ŀng":808,"Ġmáº·t":809,"ĠchÃŃnh":810,"ĠluÃ´n":811,"á»Ŀ":812,"ck":813,"ĠÄĳá»Ļng":814,"Ġthá»Ŀi":815,"as":816,"á»ĩnh":817,"«ng":818,"ĠcÆ¡":819,"CÃ¡c":820,",<":821,"áº£n":822,"Háº¯n":823,"á»±c":824,"Ġlá»Ŀi":825,"Ġtá»«ng":826,"Ġgiá»¯":827,"ĠsÃ¡t":828,"Qu":829,"ĠngÆ°Æ¡i":830,"ĠtoÃłn":831,"á»ĳc":832,"LÃłm":833,"áº¡o":834,"ĠÄĳo":835,"ĠchÃºt":836,"ĠngoÃłi":837,"TháºŃt":838,"Ġtáº¡i":839,"Chá»ī":840,"Ġkho":841,"th":842,"ĠnÆ¡i":843,"áº¡m":844,"ĠV":845,"á»ĳn":846,"á»Łi":847,"ĠnhiÃªn":848,"Ġchuy":849,"Ġtho":850,"ĠF":851,"áº¡c":852,"uyá»ĩt":853,"Ġco":854,"Ã¨":855,"Ġsá»ĳ":856,"Ġkáº»":857,"Ngh":858,"Tá»Ľ":859,"ĠhÃłng":860,"áº¥p":861,"ÄĲi":862,"ua":863,"Ġchá»Ĺ":864,"ÄĲÃºng":865,"ĠthÃª":866,"ĠphÃ²ng":867,"Ġhá»įc":868,"áº¹p":869,"Ġchiáº¿n":870,"ey":871,"Pháº£i":872,"Ġgian":873,"áº¯p":874,"ÄĲá»ĥ":875,"Ġhá»ıi":876,"Ã¡ch":877,"Ġvá»ĭ":878,"Ġnhá»Ľ":879,"ĠsÄ©":880,"ĠtÃ¢m":881,"ĠlÃ½":882,"Ńa":883,"«a":884,"Ġtrai":885,"Æ°á»£ng":886,"om":887,"ĠÄĳá»ģu":888,"ĳng":889,"Ġláº½":890,"ĠhÃ£y":891,"ĠÆ¡i":892,"Ġbáº¥t":893,"Ġxáº£y":894,"ĠW":895,"ĠbÃªn":896,"Ġvui":897,"Ġ?<":898,"Ġbáº±ng":899,"Ġquay":900,"Ġthá»±c":901,"Ġkia":902,"Ã´m":903,"á»ĵn":904,"ie":905,"NgÆ°á»Ŀi":906,"Ġlá»Ľ":907,"Ġmáº¥y":908,"78":909,"it":910,"áº£nh":911,"CÃ²n":912,"Ġtráº£":913,"Ġcá»ĳ":914,"\"<":915,"ĠÄĳÃª":916,"MÃły":917,"Ġsinh":918,"Ľi":919,"us":920,"ĠÄĳÃ¡nh":921,"ĠmÃ¡y":922,"ĠchÆ¡i":923,"Ġtiáº¿p":924,"Ġchu":925,"Ġá»ķn":926,"uá»ĳi":927,"Ġgh":928,"ĠÄĳá»ķ":929,"á»ĵng":930,"iá»ĩm":931,"Ġcá»©u":932,"Tháº¿":933,"ĠÄĳá»«ng":934,"Ġtháº±ng":935,"ĠtÃ¬nh":936,"ĠÄĳá»ĵng":937,"ChÃło":938,"Ġgiá»Ľi":939,"ĠvÃłi":940,"ĠhÃłnh":941,"re":942,"Ġcha":943,"ĠkhÃ³":944,"ĠnÆ°á»Ľc":945,"Ġbá»Ļ":946,"iáº¿m":947,"Æ°á»Ľi":948,"ĠthÆ°a":949,"Ã¢ng":950,"ĠtÆ°á»Łng":951,"Ġvá»«a":952,"Ã¡p":953,"Táº¡i":954,"Ġcháº³ng":955,"Giá»Ŀ":956,"ol":957,"áº¡t":958,"Táº¥t":959,"Ġ3":960,"Ġan":961,"Ġhiá»ĩn":962,"áº¡ch":963,"á»ĭch":964,"áº§y":965,"Ġkáº¿t":966,"Máº¹":967,"ĠcÃ¢u":968,"Ã©t":969,"Ġtrá»įng":970,"iá»ħ":971,"ĠÄĳáº¹p":972,"Ġsá»£":973,"ĠvÃ´":974,"Äĳ":975,"Ġtra":976,"ĠbÃ¡o":977,"Ġgiá»ĳng":978,"VÃ¬":979,"ĠviÃªn":980,"Tao":981,"Ã³ng":982,"Ġtá»ĳi":983,"ĠTr":984,"á»©ng":985,"ĠÄĳá»©":986,"Ġba":987,"Cho":988,"áº¡ng":989,"uyá»ģn":990,"Ġlá»Ľn":991,"ic":992,"Ġbiá»ĩt":993,"Ġváº»":994,"Ġtuyá»ĩt":995,"ĠlÃ¢u":996,"Ġcáº£nh":997,"Khi":998,"iáº¿c":999,"Nhá»¯ng":1000,"ĠthÆ°Æ¡ng":1001,"ing":1002,"á»Ĺi":1003,"uá»ĳc":1004,"Nghe":1005,"ĠchÃº":1006,"á»£p":1007,"24":1008,"Æ°á»Ľng":1009,"Ġko":1010,"Ġká»":1011,"Ġbu":1012,"Ã£i":1013,"á»ħ":1014,"ĠÄĳÃ¡ng":1015,"ĠsÃ¡ng":1016,"ĠhÃ¬nh":1017,"Chuyá»ĩn":1018,"ĠE":1019,"Ġcá»Ńa":1020,"ĠkÃ¬":1021,"ĠthÆ°á»Ŀng":1022,"á»ĥn":1023,"Má»įi":1024,"ĠthÃ´ng":1025,"Ġváº¥n":1026,"NÃły":1027,"ĠphÃŃ":1028,"ĠâĻª":1029,"os":1030,"Ġhá»£p":1031,"Ã©p":1032,"Ġgiáº£i":1033,"Ġtu":1034,"Ai":1035,"Ġca":1036,"il":1037,"ĠI":1038,"ĠdÃ¹ng":1039,"Ġnhanh":1040,"ĠbÃ¢y":1041,"ÃĶi":1042,"Ġtiáº¿ng":1043,"á»¥ng":1044,"ĠthÃ¢n":1045,"Ġbay":1046,"£i":1047,"Ġcá»ķ":1048,"ĠÄĳá»Ŀi":1049,"ĠxÃ¡c":1050,"ĠÄĳá»§":1051,"Ġnhá»ı":1052,"Ġcáº§u":1053,"iáº¿p":1054,"áº£ng":1055,"ĠÄĳá»ķi":1056,"Ġvá»ĩ":1057,"ad":1058,"Ãłu":1059,"ThÃ´i":1060,"Ġnhá»ī":1061,"ĠtiÃªn":1062,"Ġphá»¥":1063,"Ġxa":1064,"Bá»ĳ":1065,"Ġmang":1066,"Ġcuá»ĳi":1067,"Ġbáº£n":1068,"ChÃ¡u":1069,"á»įc":1070,"áº¿p":1071,"Ġthay":1072,"Ġngá»§":1073,"ĠÄĳáº¡i":1074,"Ġbáº¯n":1075,"ot":1076,"ĠÄĳá»©a":1077,"iá»ħn":1078,"áºµ":1079,"ĠthÃªm":1080,"iá»ĩp":1081,"ĠquÃ¢n":1082,"Ġtráº»":1083,"ĠÄĳiá»ĩn":1084,"ĠphÃ¡t":1085,"Ġtháº§n":1086,"áºµn":1087,"Cáº£m":1088,"iá»ĥn":1089,"ah":1090,"VÃ¢ng":1091,"Ġw":1092,"Cháº¯c":1093,"Cá»©":1094,"Ġhá»Ļi":1095,"Bá»įn":1096,"á»Ńa":1097,"uyÃªn":1098,"ĠÄĳá»Ļi":1099,"Ġtá»Ļi":1100,"áº£o":1101,"and":1102,"áº¥m":1103,"ĠbÃ¬nh":1104,"Ġchiáº¿c":1105,"ĠChÃºa":1106,"ÃĿ":1107,"ĠsÆ°":1108,"Ġvá»įng":1109,"ĠtÃŃnh":1110,"Ġma":1111,"Ġáº¡":1112,"ÃŃt":1113,"Gi":1114,"BÃł":1115,"á»±a":1116,"ow":1117,"ĠliÃªn":1118,"NÃ³i":1119,"ĠtrÆ°á»Ŀng":1120,"ĠnghÄ©a":1121,"Ġthá»§":1122,"ĠnÄĥng":1123,"ĠÄĳá»ĳi":1124,"ĠchÃło":1125,"ĠrÃµ":1126,"Ġquyáº¿t":1127,"Ġxu":1128,"NhÃ¬n":1129,"ĠhoÃłn":1130,"Ġchá»ĭu":1131,"ĠPh":1132,"Ġcháº¡y":1133,"Ġgáº§n":1134,"ill":1135,"Ġchá»Ŀ":1136,"ĠhÃ´m":1137,"ell":1138,"ĠÄĳÃªm":1139,"ĠsÃºng":1140,"á»ŀ":1141,"ĠâĻª<":1142,"Ġbá»ĩnh":1143,"Ġchuyá»ĥn":1144,"ĠO":1145,"ur":1146,"Ġchá»įn":1147,"ĠÄĳáº¥u":1148,"id":1149,"oo":1150,"ĠÄĳáº¥t":1151,"ĠÄĳÃ¬nh":1152,"ĠsÃłng":1153,"ĠgiÃ¡":1154,"ĠÄĳiÃªn":1155,"Ġcao":1156,"ĠváºŃt":1157,"le":1158,"Ġchá»©ng":1159,"Ġsáº¯p":1160,"Ġmáº¡nh":1161,"Ġmáº¯t":1162,"ĠdÆ°á»Ľi":1163,"Ġtá»Ń":1164,"ÃĢ":1165,"ĠquÃ¡i":1166,"Ġ5":1167,"Ä©nh":1168,"Ġkiáº¿m":1169,"ĠtrÆ°á»Łng":1170,"ĠlÃ²ng":1171,"Oh":1172,"Ġchá»§":1173,"av":1174,"ed":1175,"ĠphÃºt":1176,"Ġthá»ĳng":1177,"ĠbÃ¡c":1178,"ob":1179,"ĠtáºŃp":1180,"Ġ.<":1181,"iáº¿u":1182,"ĠthÆ°":1183,"ĠÄĳÃłn":1184,"Ã£o":1185,"NgÆ°Æ¡i":1186,"Ġáº£nh":1187,":<":1188,"ĠÄĳa":1189,"Ġcháº¯n":1190,"Ġdá»¥ng":1191,"ĠphÃŃa":1192,"Ġsai":1193,"Ġkiá»ĥm":1194,"Ġxong":1195,"Ġdá»±":1196,"Ġbá»Łi":1197,"Ġthá»©c":1198,"áº·ng":1199,"á»ª":1200,"Ġkáº¿":1201,"Ráº¥t":1202,"ter":1203,"Ġlá»±c":1204,"Ġtrá»Ŀi":1205,"NgÃłi":1206,"ĠkÃ¬a":1207,"Ġkhu":1208,"Ġuá»ĳng":1209,"un":1210,"Ġngu":1211,"Ġsáºµn":1212,".\"<":1213,"Ġthá»Ń":1214,"Ġngá»ĵi":1215,"Ġ!<":1216,"Ġbiáº¿n":1217,"Ġhá»Ļ":1218,"..<":1219,"NhÆ°":1220,"Ġmá»«ng":1221,"Ġloáº¡i":1222,"ĠtrÃŃ":1223,"Ġpháº§n":1224,"Ġduy":1225,"Ġká»ĥ":1226,"á»Ĺ":1227,"ĠÄĳiá»ĥm":1228,"ĠtÃłu":1229,"Ġthuá»ĳc":1230,"Ġdá»ħ":1231,"Trong":1232,"Ġtá»ķ":1233,"Ġminh":1234,"Rá»ĵi":1235,"ĠÆ°":1236,"BÃ¢y":1237,"ĠÄĳau":1238,"ig":1239,"Ġ4":1240,"ĠkhÃŃ":1241,"Ġtá»ĩ":1242,"Ho":1243,"ra":1244,"á»©a":1245,"Ġsá»©c":1246,"Ġquáº£":1247,"ĠhÆ¡i":1248,"Ġtrung":1249,"á»¹":1250,"Cha":1251,"Ġhiá»ĩu":1252,"ĠSt":1253,"tÃ´i":1254,"Ġmu":1255,"Ġthá»ĭ":1256,"ChÃºa":1257,"ĠphÃ©p":1258,"ĠÄĳá»£i":1259,"áºŃm":1260,"ĠchÃ¢n":1261,"Ġmá»Ł":1262,"áº±m":1263,"Ãºi":1264,"Nhanh":1265,"Ġná»ķi":1266,"ĠquÃªn":1267,"Ġ#":1268,"Ġphá»ĳ":1269,"ÄĲiá»ģu":1270,"ĠÄĳá»©ng":1271,"Ġtá»¥c":1272,"Ġmua":1273,"ĠÃŃt":1274,"Ġtuáº§n":1275,"oi":1276,"ĠnhiÃªu":1277,"Ġquyá»ģn":1278,"ĠtrÃ²":1279,")}":1280,"Ġhuy":1281,"Ġkhá»ĳn":1282,"Ġhiá»ĥm":1283,"ĠÄĳá»Ļ":1284,"Ġhá»ĩ":1285,"Ġmay":1286,"ĠyÃªn":1287,"ĠÄĳÃ´":1288,"Ã²a":1289,"Ġtáº¡o":1290,"ry":1291,"ĠtrÃ´ng":1292,"Ġ...":1293,"Ġdiá»ħn":1294,"ĠY":1295,"ĠphÃ¡":1296,"Ġtuá»ķi":1297,"ke":1298,"Ġmai":1299,"Ġna":1300,"CÃ¡m":1301,"á»Ĵ":1302,"kh":1303,"ĠvÅ©":1304,"Ġkhiáº¿n":1305,"Ġphá»¥c":1306,"ĠtÃłi":1307,"ĠtiÃªu":1308,"Ġdáº«n":1309,"Ġvá»£":1310,"ĠchÃŃ":1311,"á»Ľm":1312,"ĠthÃºc":1313,"Ã³n":1314,"ÄĲÃ£":1315,"ĠgÃ£":1316,"ÄĲÆ°a":1317,"á»¥i":1318,"Ġtiá»ĩt":1319,"Ġkinh":1320,"ĠtrÃ¡i":1321,"Ġháº¡":1322,"Ġká»³":1323,"ĠthÃ¡ng":1324,"MÃ¬nh":1325,"ĠkhÃ¡ch":1326,"Ġbuá»ķi":1327,"TÃªn":1328,"ĠquÃ½":1329,"ran":1330,"ĠcÃ¡":1331,"ĠÄĳáº·t":1332,"Ġno":1333,"Ġthoáº¡i":1334,"ĠhÃ´n":1335,"Ġ...<":1336,"ĠdÃ¹":1337,"ir":1338,"Ã³a":1339,"ĠbÃłi":1340,"ĠmÃ¡u":1341,"Ġyou":1342,"Ġmáº¡ng":1343,"ĠthÃº":1344,"ĠdÃ¢n":1345,"ag":1346,"Ġf":1347,"Chá»ĭ":1348,"Ã³m":1349,"ĠthoÃ¡t":1350,"Ġtranh":1351,"Ġtháº¯ng":1352,"Ġpháº¡m":1353,"Ġxáº¥u":1354,"ĠtÃ¹":1355,"ĠchÃ³":1356,"arl":1357,"á»Ļn":1358,"ĠÄĳÆ¡n":1359,"ĠtÆ°":1360,"ĠÄĳáº·c":1361,"Ġso":1362,"Æ°á»£t":1363,"ĠsÃ¡ch":1364,"oh":1365,"ĠbÃłn":1366,"ĠgÃ¢y":1367,"Ġse":1368,"Ã©o":1369,"Ġnghi":1370,"Ġtinh":1371,"á»·":1372,"ĠcÃ¢y":1373,"ĠtÆ°á»£ng":1374,"Ġláº¡c":1375,"Ġnhiá»ĩm":1376,"Ġtáº¥n":1377,"Ġ10":1378,"ĠtrÃ¬nh":1379,"Ġchi":1380,"Ġp":1381,"ıi":1382,"27":1383,"Ġhoáº¡ch":1384,"á»¯a":1385,"Ġxuáº¥t":1386,"Ġdanh":1387,"Ġtiáº¿n":1388,"ĠNh":1389,"ĠmáºŃt":1390,"Ġxá»Ń":1391,"ton":1392,"vÃł":1393,"á»§ng":1394,"ĠÃ¡o":1395,"Ġcáº¥p":1396,"79":1397,"Ġrá»Ŀi":1398,"iÃªm":1399,"Ã¹i":1400,"ĠluáºŃt":1401,"Hay":1402,"ick":1403,"ĠtÃŃ":1404,"ĠMar":1405,"Ġvá»Ŀi":1406,"Ġcoi":1407,"Tá»ĳt":1408,"áº¹n":1409,"Ġhoáº·c":1410,"Ġlá»ĩnh":1411,"uá»ĳt":1412,"á»Ńi":1413,"ĠtÄ©nh":1414,"Ġdá»ĳi":1415,"Sáº½":1416,"um":1417,"Ġva":1418,"Ġmáº·c":1419,"Ġo":1420,"Ġthe":1421,"iÃªng":1422,"ard":1423,"Ġthi":1424,"Ġnguy":1425,"Ġháº¡i":1426,"Sau":1427,"Ġthiáº¿t":1428,"ĠÄĳoÃ¡n":1429,"ĠbÃ¡n":1430,"ĠHo":1431,"Ġgiáº£":1432,"ack":1433,"ĠÄĳÃ´i":1434,"Ġsá»Ľm":1435,"ro":1436,"Ġ6":1437,"ce":1438,"ThÆ°a":1439,"ChÃº":1440,"ich":1441,"ĠkhÃ¡":1442,"Ġhá»©a":1443,"ĠtháºŃn":1444,"Ġpha":1445,"nd":1446,"ĠthuáºŃt":1447,"Ġtim":1448,"ĠhÆ°á»Ľng":1449,"son":1450,"ĠmÆ¡":1451,"ev":1452,"Ġngon":1453,"Ġtrá»ĳn":1454,"uyáº¿t":1455,"Ġtrá»ĭ":1456,"ine":1457,"Ġ,":1458,"Ġsá»Ń":1459,"ÄĲáº¿n":1460,"á»§y":1461,"10":1462,"Hai":1463,"Ġrá»ĳi":1464,"Ġpháº£n":1465,"Ġviáº¿t":1466,"Ġgiá»¯a":1467,"Ġmá»Ĺi":1468,"Ġchuáº©n":1469,"ĠnhÃ³c":1470,"Ġnghá»ī":1471,"ĠchÃłng":1472,"Ġngá»ĳc":1473,"ĠlÆ°á»£ng":1474,"ta":1475,"Æ°á»£u":1476,"ĠAnh":1477,"ĠcÃ¡nh":1478,"Ġtáº¿":1479,"ChÃŃnh":1480,"ĠÄĳá»ĭa":1481,"Ġhá»ģ":1482,"Cháº¿t":1483,"ĠÄĳÃ¡":1484,"á»ķng":1485,"Ġdáº¥u":1486,"Ġnáº¡n":1487,"Ġdá»«ng":1488,"Ġdi":1489,"ĠchÃºa":1490,"Ġliá»ĩu":1491,"ĠmÃ´":1492,"Æ°u":1493,"ĠdáºŃy":1494,"ĠÄĳÃ¹":1495,"ĠvÃ²ng":1496,"ĠláºŃp":1497,"ĠbÃ³ng":1498,"Ġgiao":1499,"Báº¡n":1500,"ĠÄĳá»įc":1501,"Ġgiá»ıi":1502,"Ġhá»ĵ":1503,"á»ıng":1504,"Ġviá»ĩn":1505,"Chu":1506,"CÅ©ng":1507,"ĠtÃ¡c":1508,"ĠgiÃł":1509,"Ġláº¡":1510,"Bá»Łi":1511,"ff":1512,"á»«a":1513,"Ġtham":1514,"ĠcÄĥn":1515,"ĠNg":1516,"ĠbÄĥng":1517,"Ġchá»¯":1518,"ĠcÃłng":1519,"Ġsáº¿p":1520,";#":1521,"á»ıe":1522,"Ġnghiá»ĩp":1523,"ĠgiÃ¡c":1524,"Tá»«":1525,"ĠphÃ¡p":1526,"\".<":1527,"244":1528,"ĠcÆ°á»Ŀi":1529,"Ġda":1530,"Ġphim":1531,"ĠbÆ°á»Ľc":1532,"ann":1533,"000":1534,"Ġtá»©c":1535,"ĠrÆ°á»£u":1536,"ChÃºc":1537,"ĠÃ":1538,"ĠÃ¡n":1539,"Ġnáº±m":1540,"Kho":1541,"ĠbÃŃ":1542,"Ġnghiá»ĩm":1543,"áº·n":1544,"all":1545,"DÃ¹":1546,"Ġmá»¥c":1547,"ab":1548,"ĠÄĳá»Ļc":1549,"Ġkiá»ĥu":1550,"ĠcÃ¡o":1551,"Vá»Ľi":1552,"ĠÄĳÃ¹a":1553,"Ġkiáº¿p":1554,"Ġháº¡nh":1555,"ĠMá»¹":1556,"Ġhy":1557,"ĠÄĳáº§y":1558,"tr":1559,"Ra":1560,"áº©m":1561,"ĠthÃ¹":1562,"ĠÄĳÆ°Æ¡":1563,"Cháº³ng":1564,"Láº¡i":1565,"Æ°á»¡":1566,"Ġtrang":1567,"Ã³t":1568,"Ġthanh":1569,"Ã³i":1570,"ew":1571,"60":1572,"khÃ´ng":1573,"Ġtháº¥t":1574,"ĠrÃ´":1575,"Dá»«ng":1576,"Ġmá»Ŀi":1577,"áº¡p":1578,"Ġsuy":1579,"Ġtiáº¿c":1580,"Ġvi":1581,"Ġmong":1582,"ĠmÃ£i":1583,"Ġmáº¯n":1584,"ĠÄĳÃ¡m":1585,"Ġngá»Ŀ":1586,"Ġquanh":1587,"Ġgá»Ńi":1588,"á»īnh":1589,"ĠlÃ¡i":1590,"Ġlá»Ńa":1591,"Ġtriá»ĩu":1592,"ĠÄĳÃ³ng":1593,"Ġkhá»§ng":1594,"ri":1595,"273":1596,"ĠhoÃłng":1597,"Ġná»ķ":1598,"Ġkhá»ıe":1599,"ĠriÃªng":1600,"ĠbÃ¡nh":1601,"Ngay":1602,"Coi":1603,"ĠdÃłi":1604,"ul":1605,"áº³n":1606,"Ġdá»ĭch":1607,"Ġhoáº¡t":1608,"Máº¥y":1609,"LÃºc":1610,"ĠdÃłnh":1611,"ĠlÅ©":1612,"ĠmÃ³n":1613,"ohn":1614,"Ġnháº£y":1615,"Ġkháº£":1616,"Ġcá»¥":1617,"ĠQu":1618,"ĠsÆ¡":1619,"Ġsuá»ĳt":1620,"eah":1621,"ĠÄĳá»¡":1622,"Ġtháº³ng":1623,"Ġgáº¯ng":1624,"Ġbiá»ĥn":1625,"ĠlÃ£":1626,"ĠtráºŃn":1627,"ĠSh":1628,"ĠTÃ´i":1629,"Ġmau":1630,"Tháº±ng":1631,"áº©u":1632,"Ġquen":1633,"Ġthuá»Ļc":1634,"ĠQ":1635,"HÃ´m":1636,"ĠvÄĥn":1637,"Ġtha":1638,"'s":1639,"ris":1640,"Ġbuá»ĵn":1641,"Ġly":1642,"ĠnháºŃp":1643,"ĠghÃ©t":1644,"ee":1645,"ĠcÅ©":1646,"ĠmÃłu":1647,"Ġdáº¡y":1648,"Ã©m":1649,"áº«u":1650,"ĠhÃ³a":1651,"Ġ-":1652,"Ġchá»©c":1653,"224":1654,"Ġ7":1655,"Cáº£":1656,"Ġchá»ĳng":1657,"NÃªn":1658,"ĠkhÃ³a":1659,"Ġhá»ĵi":1660,"ĠngÄĥn":1661,"ap":1662,"Ġlá»ĭch":1663,"iv":1664,"Ãµi":1665,"Ġthuyá»ģn":1666,"Ã¹a":1667,"ĠÄĳáº¡o":1668,"ĠgiÃ¡o":1669,"ĠÄĳáº¡n":1670,"ĠÄĳuá»ķi":1671,"ĠtÆ°Æ¡ng":1672,"Ġu":1673,"Ġquá»ĳc":1674,"Æ°á»Ľp":1675,"Ġláº¯ng":1676,"ThÃ¬":1677,"Ġá»ķng":1678,"Ġkiáº¿n":1679,"Ġhoa":1680,"Ġchá»«ng":1681,"Ġbá»©c":1682,"od":1683,"Ġbá»¯a":1684,"ak":1685,"ĠbiÃª":1686,"Chá»Ŀ":1687,"Ġbinh":1688,"Ġcháº¥t":1689,"ĠtrÃ¡ch":1690,"ac":1691,"á»£i":1692,"ĠlÃŃnh":1693,"Ġhá»§y":1694,"ĠthiÃªn":1695,"Ġláº§m":1696,"enn":1697,"te":1698,"Ġphi":1699,"Tuyá»ĩt":1700,"Táº¡m":1701,"Ã¨o":1702,"ark":1703,"Láº§n":1704,"ĠÄĳÃŃ":1705,"Ġtrá»£":1706,"Ġbáº¡i":1707,"Ġháº¹n":1708,"Xem":1709,"Ġvua":1710,"ĠdÃ¢y":1711,"Ġlá»£i":1712,"Ã£n":1713,"Ġchia":1714,"Ġban":1715,"ĠkÃ©o":1716,"ĠcÃ¢":1717,"784":1718,"Ġkhoáº£ng":1719,"ĠngÆ°Æ¡":1720,"Ġ8":1721,"se":1722,"Ġlá»±a":1723,"ĠÄĳem":1724,"Ġghi":1725,"Viá»ĩc":1726,"ĠcÆ°á»Ľi":1727,"Ġcháº¿":1728,"ĠvÃ¢":1729,"Ġbi":1730,"ĠkÃ½":1731,"ĠnguyÃªn":1732,"ĠrÃłng":1733,"ĠÄĳáº£m":1734,"Ġphiá»ģn":1735,"ĠtrÃ¡nh":1736,"ĠAl":1737,"Ġngá»±a":1738,"MÃł":1739,"ĠvÃłng":1740,"Ġtruyá»ģn":1741,"ĠthÃ¢":1742,"Ġcháº£":1743,"Bá»ı":1744,"ĠtÃ¡":1745,"Theo":1746,"ĠÄĳen":1747,"á»§a":1748,"Ġha":1749,"Ġcá»Ń":1750,"áº©y":1751,"Ġchung":1752,"á»Ļm":1753,"ĠGi":1754,"Báº¯t":1755,"Ġchá»ĵng":1756,"ĠFran":1757,"NgÃły":1758,"ĠdÃ¡m":1759,"Ġ9":1760,"ĠcÆ°á»Ľp":1761,"Ġcáº¯t":1762,"man":1763,"ĠngÃ´i":1764,"Ġtiá»ĩc":1765,"ĠphÃ¢n":1766,"ChÆ°a":1767,"25":1768,"Ġnghá»ĭ":1769,"Ġsá»Ł":1770,"ud":1771,"Ġquáº§n":1772,"VÃło":1773,"NG":1774,"Ġtháº§y":1775,"ĠnÃłng":1776,"á»ıa":1777,"Ġlinh":1778,"Ãªm":1779,"Ġtai":1780,"BÃ¡c":1781,"Ġná»Ńa":1782,"TrÃ´ng":1783,"Ġlai":1784,"Ġváº¿t":1785,"ĠÃ¢m":1786,"ĠrÆ¡i":1787,"Ġcháº¥p":1788,"ut":1789,"uÃ´i":1790,"Tháº¥y":1791,"ĠÄĲáº¡i":1792,"Ġtá»¥i":1793,"ĠX":1794,"Ġmá»ĳi":1795,"ent":1796,"igh":1797,"Ġnháº¯c":1798,"nhÆ°ng":1799,"ĠhÃ¡t":1800,"Sá»±":1801,"Ġtrá»«":1802,"ĠtÃŃch":1803,"ĠgiÃ¢y":1804,"ĠkhÄĥn":1805,"Ãºy":1806,"áº¥c":1807,"Ġháº³n":1808,"ian":1809,"ĠBr":1810,"ĠvÆ°á»£t":1811,"Ġ20":1812,"ĠthuáºŃn":1813,"ĠtÃ²a":1814,"á»¡":1815,"1060":1816,"Ġcáº§m":1817,"Ġlá»ĩ":1818,"Ġráº¯c":1819,"ÄĲá»©ng":1820,"ĠphÆ°Æ¡ng":1821,"eb":1822,"ĠÄĳÃ´ng":1823,"Vá»ģ":1824,"ĠtáºŃn":1825,"ÄĲá»ĵ":1826,"ĠsÄĥn":1827,"Thá»©":1828,"FF":1829,"ĠnghiÃªm":1830,"iá»ĩng":1831,"ath":1832,"á»Ķ":1833,"ĠsoÃ¡t":1834,"Ġthuyáº¿t":1835,"ĠÆ¡":1836,"ĠkÃŃch":1837,"ov":1838,"ĠnÃ³ng":1839,"ĠmÃ¡i":1840,"ĠphÃºc":1841,"ĠcÆ°":1842,"Ġthá»ĭt":1843,"Ġdá»¯":1844,"ip":1845,"Ġtrá»Ļm":1846,"Ġhu":1847,"ĠTrung":1848,"aw":1849,"oy":1850,"Ãłm":1851,"Ġtiáº¿t":1852,"TrÃ¡nh":1853,"ĠdÃµi":1854,"Ġthá»ı":1855,"ock":1856,"Ba":1857,"Ġnháº¡c":1858,"Ã¬a":1859,"ÄĲáº¡i":1860,"Ġyáº¿u":1861,"ĠgiáºŃn":1862,"TrÆ°á»Ľc":1863,"ne":1864,"Ġnhá»Ŀ":1865,"Ġmiá»ĩng":1866,"ess":1867,"ĠvÃ¹ng":1868,"ers":1869,"Ġchuyáº¿n":1870,"ĠÄĳoÃłn":1871,"BÃ¬nh":1872,"iáº¿ng":1873,"Ġbuá»Ļc":1874,"ĠnÃ¨":1875,"ood":1876,"uá»Ļc":1877,"Ġsu":1878,"Ġgiáº¥y":1879,"Ä©a":1880,"Ġsa":1881,"ĠphÃ¹":1882,"Ġquá»·":1883,"ĠÆ°á»Ľc":1884,"Ìģ.<":1885,"Ġngoáº¡i":1886,"Ġláº¡nh":1887,"ĠvÆ¡":1888,"ĠU":1889,"ĠchÄĥm":1890,"ĠÄĳáº¿":1891,"ĠxÃ©t":1892,"Ġty":1893,"ĠtÃºi":1894,"iá»ģm":1895,"ord":1896,"ĠJohn":1897,"eg":1898,"Ġmi":1899,"Ġsá»Ńa":1900,"Ġá»©ng":1901,"ty":1902,"ĠcÃł":1903,"ĠÃŃch":1904,"787":1905,"Ġlá»ħ":1906,"ĠlÃŃ":1907,"Ġin":1908,"ĠhÆ°á»Łng":1909,"Ġdu":1910,"Ġnha":1911,"23":1912,"GÃ¬":1913,"ĠcÆ°ng":1914,"ĠÄĳáº±ng":1915,"arry":1916,"ĠQuá»ĳc":1917,"Muá»ĳn":1918,"ion":1919,"Ġmá»©c":1920,"ĠtÄĥng":1921,"á»ĭp":1922,"cH":1923,"Ġlá»«a":1924,"ĠhÃ¹ng":1925,"Ġsáº£n":1926,"ĠCl":1927,"ĠÄĲá»©c":1928,"Tá»Ľi":1929,"Ġbom":1930,"ĠnhÃ³m":1931,"Ġthiáº¿u":1932,"NÃło":1933,"Váº«n":1934,"ĠtÃ³c":1935,"ond":1936,"my":1937,"ĠmÅ©":1938,"kay":1939,"ĠnháºŃt":1940,"Mau":1941,"Ġtá»īnh":1942,"ĠsÃ¢u":1943,"ĠlÃ£o":1944,"Ġme":1945,"ĠtÃŃn":1946,"Ġtháº£":1947,"ler":1948,"Giá»¯":1949,"Ġdiá»ĩn":1950,"ach":1951,"Ġlá»ĳi":1952,"chÃºng":1953,"Hoáº·c":1954,"Ġdiá»ĩt":1955,"Ġluyá»ĩn":1956,"Ġgiáº£n":1957,"{\\":1958,"ĠZ":1959,"Lu":1960,"ho":1961,"ĠxÃºc":1962,"Ġchá»¯a":1963,"Ġphá»§":1964,"Ġloáº¡n":1965,"Ġnáº·ng":1966,"Ġcáº©n":1967,"Yeah":1968,"ĠmÃ£":1969,"CÃ´ng":1970,"Ġcáº¡nh":1971,"Ġkhai":1972,"end":1973,"ĠsÃ³c":1974,"ĠbáºŃn":1975,"Ġthá»ģ":1976,"Æ¯":1977,"ĠcÃ¡m":1978,"ĠÄĳáº£o":1979,"Ġká»¹":1980,"ber":1981,"Ġlá»Ļ":1982,"ĠÃ¡c":1983,"Ġhá»ĵn":1984,"Ġcung":1985,"Ġsáº¡ch":1986,"Ãį":1987,"áº§ng":1988,"Hey":1989,"ere":1990,"ÄĲang":1991,"Giá»ĳng":1992,"NhÃł":1993,"Ġhá»ıng":1994,"Ġtá»ĵi":1995,"ĠÄĳÃ³n":1996,"Ġvá»±c":1997,"ĠphÃ³ng":1998,"og":1999,"Ġcuá»ĳn":2000,"ĠsÃ³t":2001,"Khoan":2002,"Ġsang":2003,"ight":2004,"ĠAn":2005,"á»³":2006,"ĠlÃłnh":2007,"ĠthÄĥm":2008,"Thá»±c":2009,"ĠÄĳá»Ļt":2010,"TÃ¬m":2011,"Láº¥y":2012,"cÃ³":2013,"Ġtáº¥m":2014,"Ġbiá»ĥu":2015,"Ġgiáº¥u":2016,"ĠÃ¢":2017,"á»įa":2018,"Ġlá»Ľp":2019,"to":2020,"Ġláº·ng":2021,"la":2022,"ĠchuyÃªn":2023,"Ġxáº¿p":2024,"á»ĵm":2025,"Ġtráº¡i":2026,"ĠnÃ£o":2027,"ĠthuÃª":2028,"Ġkáº¹":2029,"ĠhÃ²a":2030,"Tin":2031,"ik":2032,"Ġná»Ĺi":2033,"....<":2034,"á»ĩt":2035,"io":2036,"ĠkÃŃ":2037,"ĠÄĳá»ı":2038,"Ġkháº©u":2039,"Ġnháº¯n":2040,"Ġná»£":2041,"ĠháºŃu":2042,"ĠÄĳoáº¡n":2043,"Ġxanh":2044,"Ġ19":2045,"Ġti":2046,"ĠcÆ¡n":2047,"Ġtráº¯ng":2048,"ĠNew":2049,"Ġcá»±c":2050,"ash":2051,"ly":2052,"Ġnguyá»ĩn":2053,"ĠÄĳÃ¨":2054,"Ġthá»Ł":2055,"ĠnÃºi":2056,"Quay":2057,"Ãģ":2058,"Tá»ĳi":2059,"Ġmáº¯c":2060,"Ġthá»ıa":2061,"Ġháº¡n":2062,"Ġhuynh":2063,"Ġhá»Ļp":2064,"ĠlÃ¡":2065,"Ġim":2066,"art":2067,"ĠtÆ°á»Ŀng":2068,"Ġkháº¯p":2069,"ĠtháºŃm":2070,"ĠFrank":2071,"ĠÃ¡nh":2072,"ĠloÃłi":2073,"Ġtáº¯m":2074,"Ġcan":2075,"Ġchim":2076,"Ã¨n":2077,"ub":2078,"ley":2079,"ara":2080,"ind":2081,"Ġháº£o":2082,"Ġe":2083,"sh":2084,"á»¯u":2085,"Ġsay":2086,"Cháº¡y":2087,"ĠquÃł":2088,"Cuá»Ļc":2089,"ge":2090,"ĠAr":2091,"Báº£o":2092,"ĠJo":2093,"Ġmuá»Ļn":2094,"ĠÄĳá»ĳng":2095,"ĠÄĳÃŃch":2096,"Ġdá»±ng":2097,"Ġdá»ĭ":2098,"ĠsÃ¢n":2099,"ĠkÃŃnh":2100,"Trá»Ŀi":2101,"Cáº£nh":2102,"Ġngáº¡c":2103,"43":2104,"Biáº¿t":2105,"Ġcháº¡m":2106,"ĠchÆ°Æ¡ng":2107,"Ġon":2108,"ec":2109,"ith":2110,"Ġtá»ĵn":2111,"Ġtruy":2112,"Ġtáº§m":2113,"Ġtrá»±c":2114,"ĠmÃ¹i":2115,"ĠquÃ¡n":2116,"Báº¥t":2117,"Ġthá»«a":2118,"ĠCha":2119,"Ġthua":2120,"ĠrÃºt":2121,"co":2122,"Ġof":2123,"ĠlÃ£nh":2124,"ĠÄĳáºŃp":2125,"ĠgiÆ°á»Ŀng":2126,"Ġhi":2127,"Ġhá»¯u":2128,"Ġgiáº¥c":2129,"Ġbáº¡c":2130,"ĠBáº¯c":2131,"ĠNgÆ°á»Ŀi":2132,"ĠhÃºt":2133,"Ġnháº«n":2134,"Ġkiá»ĩn":2135,"Gá»įi":2136,"ĠpháºŃn":2137,"Ġ12":2138,"Ġtá»ķng":2139,"Ġcá»Ļng":2140,"á»įt":2141,"Ġxinh":2142,"onn":2143,"ĠNam":2144,"ĠtÃłn":2145,"Tiáº¿p":2146,"Ġtáº§ng":2147,"ĠtÆ°á»Ľng":2148,"Ġnháº§m":2149,"Ġchá»¥":2150,"ave":2151,"Ġquáº£n":2152,"ÄĲá»£i":2153,"ork":2154,"ÃĬ":2155,"Ġtuy":2156,"Æ°á»¡ng":2157,"789":2158,"Ġcháº·t":2159,"QuÃ¡":2160,"Ġthang":2161,"ĠmÃª":2162,"Ngá»ĵi":2163,"Tiáº¿n":2164,"ĠtÃ´n":2165,"by":2166,"ĠLu":2167,"Ġthá»§y":2168,"ĠJack":2169,"ĠphÃª":2170,"ĠhÃło":2171,"ant":2172,"Ġdá»įn":2173,"Cáº©n":2174,"Ġtáº¡m":2175,"ĠdÃŃnh":2176,"ĠÄĳÃ²":2177,"ĠthÆ¡":2178,"ĠÄĳÃ³i":2179,"Ġrá»«ng":2180,"ĠngÃłn":2181,"Ġ30":2182,"ĠtÃºc":2183,"Ġsá»ķ":2184,"ĠÄĳá»ĩ":2185,"ĠSam":2186,"Æ°á»¡i":2187,"Ġcháº·n":2188,"ĠtÃ´":2189,"ĠxÃ¢y":2190,"Ġ15":2191,"ĠlÆ°u":2192,"Ġáº©n":2193,"Ġtráº¥n":2194,"áº«y":2195,"ĠmuÃ´":2196,"791":2197,"ĠnuÃ´i":2198,"243":2199,"ĠlÆ°ng":2200,"ĠkhÃ³c":2201,"ĠdÃłng":2202,"ike":2203,"Ġkhoa":2204,"Ġtá»Ŀ":2205,"áº¢":2206,"ĠTÃ¢y":2207,"Ġtung":2208,"tor":2209,"Ġbe":2210,"Ġtá»Ļc":2211,"per":2212,"Ġbo":2213,"Ġngá»«ng":2214,"Cá»ĳ":2215,"Ġxá»©ng":2216,"qu":2217,"788":2218,"ĠÄĳÃłi":2219,"áº·m":2220,"ael":2221,"Ġit":2222,"ĠÃ¡p":2223,"Ġkhá»ķ":2224,"Ġná»Ļi":2225,"Ġtiá»ĥu":2226,"Ġkháº¯c":2227,"Ġháº§m":2228,"if":2229,"Má»Ĺi":2230,"Ġdá»įa":2231,"ĠchÆ°":2232,"790":2233,"eth":2234,"Ġphu":2235,"ĠSc":2236,"Ġtáº¯t":2237,"....":2238,"Ngo":2239,"ĠKh":2240,"á»ľ":2241,"ina":2242,"ĠvÃª":2243,"Ġtrá»ħ":2244,"DÄ©":2245,"ex":2246,"ĠluáºŃn":2247,"Ġvá»¡":2248,"'t":2249,"Ġnáº¯m":2250,"ĠngÃ¢n":2251,"432":2252,"Ġnghá»ĩ":2253,"Ġkhá»Łi":2254,"ok":2255,"Ġnguá»ĵn":2256,"Ġkhiá»ĥn":2257,"Co":2258,"ĠÃºy":2259,"RÃµ":2260,"á»©t":2261,"ĠAnd":2262,"Ġxo":2263,"Ġmá»ĩnh":2264,"ĠÄĳÃ¨n":2265,"ĠgiÆ¡":2266,"ĠchÃ¡y":2267,"ve":2268,"ĠEm":2269,"ĠváºŃn":2270,"ĠÄĳe":2271,"Ġmáº«u":2272,"Ġhá»Ĺ":2273,"Hiá»ĥu":2274,"ĠPet":2275,"Ġhoang":2276,"ĠÄĳáº©y":2277,"Ġdá»¥c":2278,"Ġtráº¡ng":2279,"Ġbá»Ļi":2280,"Sh":2281,"Ġga":2282,"ins":2283,"ĠsiÃªu":2284,"ĠchÃ¬a":2285,"Ġphong":2286,"Ġmá»ĩt":2287,"Ġngá»¥c":2288,"á»Ľt":2289,"Ca":2290,"con":2291,"ĠmÃ¹a":2292,"Má»Ł":2293,"Sáºµn":2294,"Ġand":2295,"Ã¨m":2296,"ĠchÃ¡n":2297,"iel":2298,"Mar":2299,"Ãįt":2300,"ĠÃ¡m":2301,"Ġtá»ĳc":2302,"Ġtráº£i":2303,"Ġká»·":2304,"cÃ´":2305,"Ġche":2306,"Nhá»Ľ":2307,"ĠTá»ķng":2308,"Cá»§a":2309,"ÄĤ":2310,"iz":2311,"ld":2312,"Ġtiá»ĩn":2313,"Ġhá»©ng":2314,"įng":2315,"Ġdao":2316,"Uh":2317,"ans":2318,"Giáº¿t":2319,"ax":2320,"Ġcá»¥c":2321,"Ġchá»¥p":2322,"ĠGr":2323,"Ã©n":2324,"ĠnÃ©m":2325,"An":2326,"ÄĲÃ¡ng":2327,"gh":2328,"ĠchÃºc":2329,"oss":2330,"Ġninh":2331,"ĠdÃ²ng":2332,"LÃªn":2333,"Ġgiáº£m":2334,"Ġtriá»ĥn":2335,"Ġtáº·ng":2336,"Ġdáº·m":2337,"ĠHoÃłng":2338,"Ã½t":2339,"NÆ¡i":2340,"Ġhá»ķ":2341,"dy":2342,"ett":2343,"ĠCar":2344,"á»Ķng":2345,"ĠYork":2346,"ass":2347,"ĠbÃ²":2348,"Ġcáº¯p":2349,"Ġcháº£y":2350,"ĠkÃªu":2351,"Ġvinh":2352,"Ġbáº§u":2353,"Nhiá»ģu":2354,"ĠthÃ¡i":2355,"Ġháº§u":2356,"lÃł":2357,"Chuáº©n":2358,"ĠsÃ´ng":2359,"Ã¹m":2360,"oll":2361,"Ġtá»ķn":2362,"ĠcháºŃm":2363,"Bao":2364,"Ko":2365,"Cá»ķ":2366,"sc":2367,"GiÃºp":2368,"orn":2369,"Káº»":2370,"Ġthiá»ĩu":2371,"ust":2372,"Ġlá»Ĺ":2373,"Cá»©u":2374,"ĠmÅ©i":2375,"Ġsáº¯c":2376,"Ġchá»ĳi":2377,"ean":2378,"ĠnghiÃªn":2379,"HÃ¬nh":2380,"ĠPhÃ¡p":2381,"ĠÄĳá»¥":2382,"Ġtrá»¥":2383,"Ġxung":2384,"Ġtá»ı":2385,"est":2386,"ÄĲá»Ļi":2387,"Ká»ĥ":2388,"Ġmy":2389,"ĠhÃ²":2390,"ĠgiÃ¡m":2391,"ĠvÄ©":2392,"ĠNga":2393,"Ġná»ĳi":2394,"Ġkim":2395,"ĠÃ´":2396,"Ġchiá»ģu":2397,"Ġgháº¿":2398,"TrÃªn":2399,"CÃ¢u":2400,"az":2401,"No":2402,"ĠÄĳÃło":2403,"our":2404,"ichael":2405,"ane":2406,"ĠvÆ°Æ¡ng":2407,"ĠcÃº":2408,"Ġbang":2409,"Ġcáº£n":2410,"ĠnÆ°":2411,"Ġgiam":2412,"ĠtÃ¡n":2413,"ĠngÆ°á»£c":2414,"ĠÃ¡":2415,"ĠSp":2416,"Ġbá»¥ng":2417,"ĠHoa":2418,"ĠhÃ£i":2419,"Gáº·p":2420,"Ġáº¥n":2421,"ĠkhÃ¡m":2422,"785":2423,"ĠtoÃ¡n":2424,"ĠthÆ°á»Łng":2425,"ĠhÆ°":2426,"ames":2427,"Ġrá»Ļng":2428,"ank":2429,"Ġchiáº¿m":2430,"Ġsáº¡n":2431,"Okay":2432,"Ġmá»Ļ":2433,"Ġru":2434,"lex":2435,"ĠhÃłi":2436,"ĠkÃª":2437,"ate":2438,"Ġthá»Ŀ":2439,"Cuá»ĳi":2440,"Ã³p":2441,"eon":2442,"ÄĲo":2443,"Ġvai":2444,"ĠbÃ¨":2445,"ome":2446,"ĠÄĳá»ĳc":2447,"ĠgiÃ³":2448,"ĠthÆ°á»£ng":2449,"Ġpháº©m":2450,"Ġá»ĳng":2451,"ĠCharl":2452,"Ġkhoáº£n":2453,"ĠEd":2454,"Bá»ĭ":2455,"ĠxÆ°a":2456,"īnh":2457,"ĠchuyÃª":2458,"Ġrá»ĵ":2459,"ice":2460,";<":2461,"att":2462,"ĠmÃ´ng":2463,"ĠBar":2464,"Báº±ng":2465,"ĠtrÄĥm":2466,"Ġhá»įp":2467,"lin":2468,"ky":2469,"ĠÄĳá»ĭch":2470,"ĠNgÃłi":2471,"Ġkhá»ī":2472,"ĠhÃ´":2473,"á»Ľn":2474,"Ġbá»ĳn":2475,"ĠghÃª":2476,"Ġváº½":2477,"To":2478,"Tá»¥i":2479,"ĠlÆ°Æ¡ng":2480,"Ġnhiá»ħ":2481,"Ġ00":2482,"Ġháº¥p":2483,"ĠnÃ´":2484,"ĠgÃł":2485,"Ġ100":2486,"Ġkhiáº¿p":2487,"Ġlao":2488,"Ġcá»¡":2489,"ÄĲÃ´i":2490,"Thá»Ŀi":2491,"Hy":2492,"ÄĲáº§u":2493,"Ġngoan":2494,"Ġká»ĭch":2495,"Ġnháº¹":2496,"Im":2497,"Ġkáº¹t":2498,"Ġtáº¡p":2499,"ĠÄĳá»ĳt":2500,"Ġtan":2501,"TÃ¬nh":2502,"ĠÄĳiá»ĩp":2503,"ĠÄĳiÃª":2504,"iss":2505,"Ġnam":2506,"Ġkhá»©":2507,"st":2508,"Ġtrao":2509,"ĠCon":2510,"ore":2511,"Ġtáº¯c":2512,"69":2513,"Ġmáº½":2514,"ĠnhÃ¢":2515,"lo":2516,"Ġthá»ķ":2517,"ĠthÃŃ":2518,"Ġcanh":2519,"old":2520,"Ġthiá»ĩn":2521,"BÃªn":2522,"ĠÄĳeo":2523,"Lo":2524,"Ġniá»ģm":2525,"Ġcá»Ŀ":2526,"ĠphÃ¡n":2527,"Trung":2528,"Ġháº¡t":2529,"ĠÄĳÃ¢m":2530,"Ġj":2531,"Ġthoáº£i":2532,"Ġwh":2533,"ĠthÃ¡nh":2534,"Ġpháº¡t":2535,"Ġchuá»Ļt":2536,"ĠtiÃª":2537,"Ġrá»ĵng":2538,"Ġbáº¡o":2539,"Ġtrá»ĳng":2540,"Ġcam":2541,"Chá»Ĺ":2542,"iam":2543,"Ġcá»©ng":2544,"ÌĢ.<":2545,"Ġcá»ķng":2546,"ast":2547,"red":2548,"Ġdáº¡ng":2549,"Ġnghá»ģ":2550,"Ġbáº©n":2551,"Ġsh":2552,"ÌĢ?<":2553,"ĠsÃ³ng":2554,"ĠmÃłn":2555,"Ġgo":2556,"ĠkhuyÃªn":2557,"ĠÄĳá»¥ng":2558,"Æ°á»£n":2559,"...?<":2560,"ĠMor":2561,"eor":2562,"ca":2563,"Ġláº«n":2564,"225":2565,"Ġgiá»įng":2566,"Ġcáº·p":2567,"ChÃł":2568,"Ġtáº£i":2569,"now":2570,"Ġáº£":2571,"ĠtÃ³m":2572,"Ġká»ĭp":2573,"ĠrÄĥng":2574,"ĠxuyÃªn":2575,"inc":2576,"een":2577,"Ġ0":2578,"ĠHar":2579,"ica":2580,"Ġtháº£m":2581,"ĠDo":2582,"Ġhiá»ĩp":2583,"ĠcáºŃn":2584,"Ġnga":2585,"ĠcÃ³c":2586,"ĠTom":2587,"Tháº§n":2588,"ĠbÆ¡i":2589,"ĠxÆ°Æ¡ng":2590,"7871":2591,"Ġngá»įn":2592,"ĠBen":2593,"ĠÄĳua":2594,"ĠlÃ´i":2595,"ĠLa":2596,"ĠlÃ£ng":2597,"Tháº£":2598,"Ġdáº§n":2599,"Ġthiá»ĩt":2600,"ĠsÃ´":2601,"ĠgiÃłu":2602,"\"?<":2603,"ott":2604,"Ġgáº¥p":2605,"Tráº£":2606,"ĠcÃ¢n":2607,"ĠtrÆ°a":2608,"âĻ«":2609,"CÃ¡ch":2610,"**":2611,"ĠÄĳÃ¡p":2612,"Ġkhoan":2613,"ĠtrÃ¹ng":2614,"ĠJim":2615,"Ġdá»¥":2616,"ĠÄĳÃ²i":2617,"ÄĤn":2618,"Ġ50":2619,"--":2620,"áº¤":2621,"Ìģ?<":2622,"ook":2623,"Ġchá»Ľ":2624,"ĠÄĳá»±":2625,"ĠrÃ¡c":2626,"Ġsá»©":2627,"Ġhá»ĳi":2628,"ĠÂ":2629,"Bu":2630,"Ġthá»£":2631,"Váº¥n":2632,"Ġtá»ĳ":2633,"Bá»Ļ":2634,"ĠRob":2635,"ĠcÃ£i":2636,"ĠÄĳu":2637,"ĠxÃ¢m":2638,"Ġmá»ĵm":2639,"Ġngá»±c":2640,"ver":2641,"ĠEl":2642,"Gáº§n":2643,"aul":2644,"ĠMon":2645,"cáºŃu":2646,"yn":2647,"ĠWh":2648,"NÄĥm":2649,"Ġbá»Ŀ":2650,"Ġtháº»":2651,"ĠnÃ¡t":2652,"ĠFl":2653,"22":2654,"Ġtháº¥p":2655,"ner":2656,"ÄĲÃ¢u":2657,"MÃ¡y":2658,"Ġcáº¥t":2659,"Ġthai":2660,"ĠtÃ¢y":2661,"one":2662,"ĠvÃµ":2663,"ose":2664,"Fran":2665,"Sá»ĳ":2666,"ĠlÄ©nh":2667,"ĠgiÃły":2668,"ĠtÆ¡":2669,"ĠÄĲÃ´ng":2670,"out":2671,"ĠÄĳá»±ng":2672,"nÃ³":2673,"Ġrá»Ńa":2674,"ĠngÃ£":2675,"NhÃ¢n":2676,"Ġmáº£nh":2677,"ĠngÆ¡i":2678,"St":2679,"ĠmÃ¨o":2680,"Ġcá»Ľ":2681,"ĠKhÃ´ng":2682,"ĠÄĳá»ĵn":2683,"20":2684,"ĠlÃ¢":2685,"ĠÃ©p":2686,"GÃ£":2687,"Káº¿t":2688,"Ġtreo":2689,"Ġnhiá»ĩt":2690,"ĠlÃ´":2691,"ĠÄĳá»©c":2692,"ĠbÃ£i":2693,"Tá»±":2694,"Ġáº¥m":2695,"Ġhe":2696,"ĠAm":2697,"Al":2698,"Ġchiáº¿u":2699,"Chuy":2700,"ish":2701,"Máº·c":2702,"ĠÄĳáº¡t":2703,"Ġphiáº¿u":2704,"NghÄ©a":2705,"má»Ļt":2706,"ĠdÆ°Æ¡ng":2707,"aire":2708,"Ġnhiá»ħm":2709,"Ġmiá»ħn":2710,"ma":2711,"Ġkháº©n":2712,"Xe":2713,"ĠsÃ¡u":2714,"Tháº§y":2715,"ĠTH":2716,"ĠTháº§n":2717,"Ġthat":2718,"ĠWill":2719,"ĠcáºŃp":2720,"ÄĲÃ¡nh":2721,"ĠBa":2722,"Ġnhi":2723,"Well":2724,"ĠthÄĥng":2725,"Ġtháº©m":2726,"mm":2727,"ren":2728,"Báº¯n":2729,"liv":2730,"Ġngang":2731,"ĠlÃłng":2732,"ĠMáº¹":2733,"Ġ11":2734,"ĠBl":2735,"Ġuh":2736,"ĠthÃ¨m":2737,"ĠWal":2738,"Cáº§n":2739,"Trá»«":2740,"ĠcÄĥng":2741,"Ġvá»Ľ":2742,"Má»Ŀi":2743,"?\"<":2744,"yl":2745,"Wh":2746,"Ġbáº«y":2747,"Ġyour":2748,"ull":2749,"Ġlá»¡":2750,"Ġlang":2751,"avid":2752,"áº¹o":2753,"ĠNháºŃt":2754,"uck":2755,"ĠviÃª":2756,"TháºŃm":2757,"Náº±m":2758,"Ġgan":2759,"The":2760,"ThÃłnh":2761,"op":2762,"ĠBe":2763,"Khá»ĳn":2764,"Cl":2765,"Mang":2766,"Ġáº£o":2767,"Ġliá»ģu":2768,"PhÃ²ng":2769,"Ġdung":2770,"236":2771,"ĠdÅ©ng":2772,"Ġtá»ĳng":2773,"ĠgÃ¡c":2774,"Ġ'":2775,"Ġcháº¥m":2776,"ĠngÃ³n":2777,"ĠxÃ£":2778,"ug":2779,"Ġchai":2780,"Ġchá»©a":2781,"ĠMc":2782,"Ġis":2783,"ÄĲá»ĵng":2784,"ert":2785,"Xong":2786,"ĠÄĳÄĥng":2787,"ĠmÆ°u":2788,"Ġniá»ĩm":2789,"ĠThe":2790,"CÃ¹ng":2791,"ĠtrÃł":2792,"áº±n":2793,"Ġváº©n":2794,"Ġmáº¡ch":2795,"Ġbia":2796,"ĠvÃ©":2797,"ĠvÃ¢ng":2798,"NH":2799,"Ã£ng":2800,"Ã²i":2801,"Æ°á»Ŀn":2802,"ib":2803,"Láº¡y":2804,"Tuy":2805,"ĠmÃ¹":2806,"Vui":2807,"ĠchÃª":2808,"Ġhoáº¡i":2809,"Ġbáº¿p":2810,"Ġlá»¥c":2811,"ĠchÃ´n":2812,"á»Ļp":2813,"ĠThÃ¡i":2814,"Tiá»ģn":2815,"ĠbiÃªn":2816,"ĠLan":2817,"ĠlÃ¡t":2818,"ĠthÃ¡m":2819,"Ġphá»©c":2820,"ale":2821,"ĠtrÃºng":2822,"Gia":2823,"VÃłi":2824,"Chiáº¿n":2825,"Vá»£":2826,"Æł":2827,"ĠlÃ¹ng":2828,"ĠÄĳÃ©":2829,"ony":2830,"ÄĲáº·c":2831,"ĠVÃł":2832,"rist":2833,"ake":2834,"ÄĲá»§":2835,"Ġlui":2836,"Va":2837,"Ġhá»ıa":2838,"ron":2839,"ĠPar":2840,"ĠDan":2841,"ĠTrÃ¡i":2842,"Ġtri":2843,"CÆ¡":2844,"ĠtÆ°á»Ľc":2845,"ald":2846,"Háº¿t":2847,"Ġngáº¯n":2848,"ĠÄĳiáº¿m":2849,"Ġdá»©t":2850,"Ha":2851,"LÃ¹i":2852,"ĠlÆ°á»£t":2853,"Ġhung":2854,"uk":2855,"ĠlÆ¡":2856,"Ġsáº»":2857,"ĠBob":2858,"'m":2859,"era":2860,"NÃ¨":2861,"Ġá»©c":2862,"ĠtrÄĥng":2863,"Ġhoáº£ng":2864,"Ġnáº¥u":2865,"BI":2866,"ĠchÄĥ":2867,"Ġhuáº¥n":2868,"ĠthÃ¡ch":2869,"ĠmÃ¡t":2870,"lÃłm":2871,"ĠmÃ´n":2872,"ĠÄĳáº¿m":2873,"anny":2874,"Ġdoanh":2875,"Chiáº¿c":2876,"7845":2877,"za":2878,"row":2879,"ern":2880,"ĠmÆ°a":2881,"Ġmiáº¿ng":2882,"ĠbáºŃt":2883,"ThÃªm":2884,"La":2885,"oth":2886,"ĠgÆ°Æ¡ng":2887,"Thá»Ń":2888,"Ġlá»Ļn":2889,"Ġngáº¡i":2890,"BÃ¡o":2891,"Kiá»ĥm":2892,"cy":2893,"Ġ18":2894,"ĠhiÃª":2895,"Äĳá»ĥ":2896,"ÄĲÆ°á»Ŀng":2897,"You":2898,"ĠbÃ¡m":2899,"ĠÄĳá»īnh":2900,"ny":2901,"And":2902,"LÅ©":2903,"ĠtÃ¡i":2904,"ĠÄĳÃ©o":2905,"ĠbÄĥ":2906,"Ã£nh":2907,"ever":2908,"John":2909,"ĠThiÃªn":2910,"Khá»ī":2911,"ĠphÃ³":2912,"erry":2913,"Ġmáº¡o":2914,"Ġhá»įa":2915,"Ġnháº¯m":2916,"ĠxÃŃ":2917,"á»ĭnh":2918,"ĠgiÃ£n":2919,"ĠnÃ£y":2920,"ĠtÃºy":2921,"ĠgÃ³c":2922,"Ã¹n":2923,"ĠCÃ´":2924,"ĠrÃ¢":2925,"Ġfor":2926,"Mi":2927,"Ġphe":2928,"Vá»¥":2929,"Ġtháº£o":2930,"Ġyeah":2931,"Ġchá»īnh":2932,"ĠtÃ¹y":2933,"ĠkhÃ´":2934,"á»Ĺng":2935,"ĠPeter":2936,"ĠbÃª":2937,"ĠthÃ¹ng":2938,"Láº½":2939,"land":2940,"ĠRe":2941,"ÃĤ":2942,"ade":2943,"ily":2944,"ico":2945,"ĠVÆ°Æ¡ng":2946,"eorge":2947,"ĠChÃ¢u":2948,"ity":2949,"Ġkha":2950,"á»¥p":2951,"hoa":2952,"Tay":2953,"fsc":2954,"Ġvá»Ŀ":2955,"ens":2956,"ÌĢ,":2957,"HoÃłn":2958,"cho":2959,"ĠbuÃ´n":2960,"Ma":2961,"ĠÄĳc":2962,"Ġcáº£i":2963,"ÄĲÃªm":2964,"Do":2965,"7843":2966,"ue":2967,"ĠÄĳáºŃu":2968,"ĠdÃ¬":2969,"Ġá»§ng":2970,"ĠtÃ¢":2971,"do":2972,"ep":2973,"Charl":2974,"ĠnÃ´ng":2975,"ÄĳÆ°á»£c":2976,"Ġmo":2977,"Uá»ĳng":2978,"ĠÄĳá»Ľn":2979,"Ġsáº¯t":2980,"Ġcá»±":2981,"ĠgiÃłnh":2982,"QuÃ¢n":2983,"ĠchÃ³ng":2984,"Ġcá»ĳc":2985,"ĠBill":2986,"Ġtrá»©ng":2987,"Tu":2988,"Ġvu":2989,"Sáº¿p":2990,"ĠLong":2991,"ĠmÃ³c":2992,"LuÃ´n":2993,"Ġliá»ģn":2994,"Ġcáº¯n":2995,"Ġdáº¡o":2996,"HÃłng":2997,"Ġmá»¥":2998,"ĠAlex":2999,"Ġli":3000,"ĠPr":3001,"Ġxá»©":3002,"Biáº¿n":3003,"na":3004,"Ġtá»ī":3005,"ĠPhi":3006,"Ġchá»Ł":3007,"Ġbáº£ng":3008,"ney":3009,"ÄĳÃ³":3010,"Ġháº£i":3011,"Æ°á»Ľt":3012,"ĠtÃ¡ch":3013,"ĠbÃło":3014,"ĠxÃ³a":3015,"ĠtrÃ¡":3016,"ĠJames":3017,"Ġtáº£":3018,"Ġpháº«u":3019,"Háº¹n":3020,"Ġmá»ĵi":3021,"ĠháºŃn":3022,"Ġdáº§u":3023,"ort":3024,"ist":3025,"NÆ°á»Ľc":3026,"Ġhá»ĵng":3027,"ouse":3028,"Ġlá»ĵ":3029,"á»§i":3030,"ToÃłn":3031,"Ãĥ":3032,"ĠhÄĥ":3033,"Ġdáº¹p":3034,"náº¿u":3035,"ĠtuyÃªn":3036,"á»Ľp":3037,"ĠCÃ´ng":3038,"Ġá»«":3039,"ĠCol":3040,"ĠchÃ¬m":3041,"ĠChÃºng":3042,"Ġphá»ıng":3043,"ĠSan":3044,"Liá»ĩu":3045,"ÄĲáº¥y":3046,"Ġsá»¹":3047,"HÆ¡n":3048,"cus":3049,"Sam":3050,"Ġngá»įt":3051,"ĠkÃŃn":3052,"ary":3053,"ĠÄĳáº¥m":3054,"226":3055,"Ġthá»ķi":3056,"Ġnguyá»ģn":3057,"NgoÃłi":3058,"CÃ¢":3059,"Lá»ĳi":3060,"Ġmá»Ļng":3061,"wood":3062,"thÃ¬":3063,"ĠmÃ¢":3064,"ĠtrÆ°Æ¡":3065,"ĠMa":3066,"Ġkhá»ķng":3067,"ĠbÃ£o":3068,"Ġgáº¥u":3069,"ĠmÆ°á»£n":3070,"May":3071,"Ġnho":3072,"Ġ40":3073,"30":3074,"me":3075,"ĠAb":3076,"Ġtá»¥":3077,"ĠÃģ":3078,"ĠghÃ©":3079,"ĠStark":3080,"ĠkÄ©":3081,"Ġgáº¯n":3082,"Ġnhu":3083,"Chi":3084,"ĠJon":3085,"\",":3086,"Ġquang":3087,"ĠÄĳÆ°":3088,"ĠVua":3089,"Ġngá»¯":3090,"ĠdÃ¢m":3091,"áº¢nh":3092,"ington":3093,"LÃ£o":3094,"250":3095,"á»Ķn":3096,"ĠtrÃ´i":3097,"á»ĳm":3098,"ink":3099,"Ġ200":3100,"ĠphiÃªn":3101,"á»ĭa":3102,"ius":3103,"Ġtráº§n":3104,"Ġah":3105,"Tiá»ĥu":3106,"ier":3107,"ĠmÃ´i":3108,"ĠtrÆ°á»£t":3109,"ĠgiÃ¡n":3110,"50":3111,"Ġtá»ĳn":3112,"ĠbÃ´":3113,"7853":3114,"ĠkhÃ¡t":3115,"ĠÄĲáº¥t":3116,"ĠtÃ¡o":3117,"ĠÄĳuÃ´i":3118,"ĠsÃłn":3119,"go":3120,"ana":3121,"Thuyá»ģn":3122,"QuÃªn":3123,"ĠmÃ²":3124,"ĠGiÃ¡o":3125,"Ġráº¯n":3126,"ĠCarl":3127,"á»Ĳ":3128,"ÄĲáº¹p":3129,"enny":3130,"NÃłng":3131,"ĠKim":3132,"ĠÃ´m":3133,"Ġcáº¥m":3134,"ĠÃ³c":3135,"ĠWil":3136,"Káº¿":3137,"ngel":3138,"IA":3139,"SÃ¡ng":3140,"ChÆ¡i":3141,"Phá»¥":3142,"á»Łm":3143,"Ġcá»Ľm":3144,"Frank":3145,"ĠÃĩ":3146,"eet":3147,"á»ĩn":3148,"ka":3149,"ĠdÃ²":3150,"TáºŃp":3151,"ĠgÃ£y":3152,"Khoáº£ng":3153,"ĠhÃ©t":3154,"Ġdá»±a":3155,"Ngá»§":3156,"ix":3157,"Ġtuyáº¿n":3158,"ĠtrÃ¬":3159,"Â¿":3160,"ĠdÆ°":3161,"ĠkhiÃªu":3162,"ĠDe":3163,"Br":3164,"Ġngáº§m":3165,"ĠhÃ¨":3166,"Háº¡":3167,"ĠlÆ°á»¡i":3168,"ail":3169,"ĠquÃª":3170,"Cháº£":3171,"Ġvá»Ļi":3172,"die":3173,"ĠlÃ´ng":3174,"ĠhÃ²n":3175,"ThÃ´ng":3176,"'re":3177,"ĠGre":3178,"Ráº±ng":3179,"Ġtá»§":3180,"ĠphÃ¡o":3181,"ĠCr":3182,"cis":3183,"liver":3184,"Ġcá»Ł":3185,"áº«m":3186,"ite":3187,"ĠnhiÃª":3188,"ĠCal":3189,"Jo":3190,"SÆ°":3191,"NghÄ©":3192,"Ġmanh":3193,"Ġknow":3194,"Ġquyá»ĥn":3195,"ĠbÃły":3196,"way":3197,"á»ĭt":3198,"Ġokay":3199,"Ġleo":3200,"ĠniÃªn":3201,"obot":3202,"agg":3203,"Ġtháº£i":3204,"Ġtráº¡m":3205,"ĠvÃ¢y":3206,"uynh":3207,"ÄĲá»ĳi":3208,"Ah":3209,"11":3210,"Ġthá»¥":3211,"ki":3212,"Cáº§m":3213,"Ġst":3214,"ous":3215,"ĠmÃ¬":3216,"Ìī.<":3217,"ĠlÃ¹i":3218,"ĠbÆ¡":3219,"Ġ24":3220,"pháº£i":3221,"Ġwe":3222,"DÃ¹ng":3223,"ĠMer":3224,"Ġcá»Łi":3225,"Jack":3226,"ĠkhuÃ´n":3227,"ĠHá»Ļi":3228,"Ġtuyáº¿t":3229,"Ġliá»ĩt":3230,"elle":3231,"ĠkhÃ¹ng":3232,"Ġháº¡ng":3233,"ĠHarry":3234,"own":3235,"Ġhuyáº¿t":3236,"ĠKá»³":3237,"á»ģm":3238,"ĠtháºŃp":3239,"ĠMichael":3240,"ĠLiÃªn":3241,"Ġnghiá»ĩn":3242,"ĠmáºŃp":3243,"Ġnhá»¥c":3244,"Ġmáº¡n":3245,"ĠnÆ°á»Ľng":3246,"Ġ..":3247,"ĠkhÃ¡ng":3248,"ĠhÃ¨n":3249,"ĠFBI":3250,"ĠchiÃª":3251,"Ġmáº¿n":3252,"Ġgá»ĳc":3253,"Máº·t":3254,"ĠnÃ¢ng":3255,"Pháº§n":3256,"ĠtÆ°Æ¡i":3257,"ĠOr":3258,"ĠsÃ³i":3259,"Thanh":3260,"Ġcá»ı":3261,"Sáº¯p":3262,"ĠkhÃ´n":3263,"ĠÄĳuá»ĳi":3264,"ĠAd":3265,"ĠmÄĥ":3266,"age":3267,"Máº¥t":3268,"Ġ14":3269,"Bá»ĩnh":3270,"Ġchá»£":3271,"ĠBan":3272,"ita":3273,"ĠParis":3274,"ĠIs":3275,"ÄĲÆ°Æ¡":3276,"Ġdá»Ł":3277,"ire":3278,"Ġbá»ıng":3279,"Ġung":3280,"ĠÄĳiá»ĩu":3281,"ThÆ°":3282,"ĠtrÆ¡":3283,"ĠGod":3284,"ĠlÄĥ":3285,"ĠBá»Ļ":3286,"itt":3287,"ĠÄĳáº§n":3288,"CÃ¢m":3289,"ĠÄĳÃŃt":3290,"der":3291,"7889":3292,"ox":3293,"pe":3294,"ĠRach":3295,"GiÃ¡o":3296,"ĠCharlie":3297,"ain":3298,"Ġkem":3299,"Ġsá»¯a":3300,"Ġnhá»ĳt":3301,"ĠbÃ´ng":3302,"ĠAll":3303,"ĠthÃ´":3304,"Ġmá»ıi":3305,"ĠnÃºt":3306,"Má»¥c":3307,"Ġtro":3308,"Ġ--":3309,"ĠRoss":3310,"ace":3311,"17":3312,"ictor":3313,"ĠgÃ³i":3314,"Hi":3315,"ĠMike":3316,"rey":3317,"ĠhÃ´i":3318,"ĠThÃ¡nh":3319,"VÃ´":3320,"Ġsá»ĳt":3321,"ĠhÃ¢n":3322,"ĠNhÃł":3323,"Ġnáº¡":3324,"ene":3325,"Tá»ķng":3326,"ĠnhÃ¡t":3327,"tin":3328,"Vá»«a":3329,"Ġby":3330,"Ġbá»ķ":3331,"Ãľ":3332,"Ġki":3333,"Ġmá»ĵ":3334,"¡n":3335,"ĠÃĶng":3336,"ÄĲáº·t":3337,"Ġthoáº£ng":3338,"Ġchá»įc":3339,"Tiáº¿ng":3340,"ould":3341,"osh":3342,"ĠvÃŃ":3343,"iet":3344,"669":3345,"Ġbá»¥i":3346,"ĠkiÃªn":3347,"Ġ13":3348,"He":3349,"Lá»Ŀi":3350,"ason":3351,"Mu":3352,"ester":3353,"áº¿m":3354,"ĠgiÃ¡p":3355,"giá»":3356,"Ġall":3357,"Ġtang":3358,"Xuá»ĳng":3359,"Ġman":3360,"Ġmáº¡c":3361,"ĠSar":3362,"olm":3363,"áº¤n":3364,"12":3365,"ÃŃn":3366,"ngÆ°á»Ŀi":3367,";.<":3368,"ĠphÃ¡i":3369,"chá»ī":3370,"ĠNha":3371,"amb":3372,"ĠcÆ°Æ¡ng":3373,"á»µ":3374,"7841":3375,"ĠlÃ²":3376,"ĠbÃ³p":3377,"Ġtrá»«ng":3378,"YÃªu":3379,"ĠThÆ°á»£ng":3380,"Ġxáº¡":3381,"ĠchÄĥng":3382,"Qua":3383,"obb":3384,"ĠrÅ©":3385,"ĠTiÃªn":3386,"7879":3387,"mer":3388,"ĠHy":3389,"Ġbá»ĳc":3390,"Ġhang":3391,"hÃ£y":3392,"Giáº£i":3393,"Pet":3394,"Æ°á»Łi":3395,"ichard":3396,"ker":3397,"Ġná»ģn":3398,"ĠthiÃªu":3399,"Ġngáº¯m":3400,"Ġkhá»ĳi":3401,"'ll":3402,"org":3403,"Ġheo":3404,"Ġ16":3405,"ĠÄĳÄ©a":3406,"Ġbáº¯c":3407,"Ġbar":3408,"cHFF":3409,"ĠMÃ£":3410,"sy":3411,"ĠhÃª":3412,"Jim":3413,"1000":3414,"ĠÃ°":3415,"Quáº£":3416,"Ġquáº£ng":3417,"ĠthÃ¡p":3418,"Quan":3419,"trong":3420,"Ġká»ī":3421,"Ġlan":3422,"cÃ¡i":3423,"ĠmÃ©t":3424,"Gh":3425,"ĠcÆ°á»£c":3426,"ĠtrÃ²n":3427,"oug":3428,"Ġ.":3429,"Ġ:":3430,"Ġ25":3431,"Ed":3432,"ĠRay":3433,"ĠEr":3434,"Ġ17":3435,"Trá»Ł":3436,"á»¥y":3437,"ĠDavid":3438,"les":3439,"ĠkÃ©m":3440,"ĠdÃ¢u":3441,"Ġbá»ĵi":3442,"ĠIn":3443,"Ġláº»":3444,"ĠÃĤ":3445,"ĠJoe":3446,"Ġkáº¹o":3447,"ield":3448,"KÃ©o":3449,"Thay":3450,"Hiá»ĩn":3451,"ĠlÃª":3452,"Ġlá»£":3453,"Ġtá»Łm":3454,"ĠvÃ£i":3455,"ĠhÆ°Æ¡ng":3456,"Ġvá»©":3457,"ide":3458,"ĠTV":3459,"ĠcuÃ´":3460,"ĠNá»¯":3461,"Ġmuá»Ļi":3462,"da":3463,"ÃĮ":3464,"ÄĲáº±ng":3465,"ino":3466,"icky":3467,"ĠClaire":3468,"Ġ#<":3469,"7901":3470,"pp":3471,"amp":3472,"Ġbáº£y":3473,"Ġthá»ĳi":3474,"Sc":3475,"ena":3476,"ÄĳÃºng":3477,"Ġhá»Ĺn":3478,"Ġxoay":3479,"ĠxÃ³m":3480,"ĠbÃ¡u":3481,"á»ªm":3482,"Ġruá»Ļt":3483,"uz":3484,"ÄĲÆ°":3485,"Ġcá»©t":3486,"ÄĲá»©a":3487,"Ar":3488,"Ġá»ĳm":3489,"Ġvá»©t":3490,"ĠÄĳá»ģn":3491,"ÄĳÃ¢y":3492,"ĠÃ¢n":3493,"ĠgiáºŃt":3494,"ĠPark":3495,"Ġtiá»ĩm":3496,"ĠGeorge":3497,"ÃŃa":3498,"Ġhiáº¿n":3499,"Ìģ<":3500,"Ġtá»·":3501,"Ġláº§u":3502,"CH":3503,"Ġmiá»ģn":3504,"Michael":3505,"Ġmá»ģm":3506,"ĠvÃ¢n":3507,"Ġmá»ı":3508,"ĠngÅ©":3509,"ĠdÃ¡ng":3510,"ThÃ¢":3511,"ĠSm":3512,"rian":3513,"Ġle":3514,"ory":3515,"Ãĵ":3516,"ĠxÃŃch":3517,"Ìģ,":3518,"ĠsuÃ½t":3519,"Ġtoa":3520,"Ġup":3521,"ĠquÃ©t":3522,"ada":3523,"ound":3524,"Äĳi":3525,"Háº§u":3526,"ĠkiÃª":3527,"Ġcá»Ļt":3528,"Ġká»ĩ":3529,"Khu":3530,"evin":3531,"are":3532,"ĠHe":3533,"ÄĲÃ³ng":3534,"Kiá»ĥu":3535,"ĠtiÃªm":3536,"ĠMax":3537,"á»¦":3538,"ChÃłng":3539,"GiÆ¡":3540,"Loáº¡i":3541,"irus":3542,"ĠRachel":3543,"Háº³n":3544,"ĠDon":3545,"umb":3546,"Ġgiai":3547,"HoÃłng":3548,"Äĳá»«ng":3549,"alf":3550,"Ġwith":3551,"onnie":3552,"vÃ¬":3553,"ĠKat":3554,"ĠÄĳá»ĵi":3555,"ase":3556,"Ġhuá»ĳng":3557,"Ġgá»Łi":3558,"inn":3559,"Ġcuá»ĵng":3560,"Ġ$":3561,"ondon":3562,"ĠcÃ¡t":3563,"ĠmÆ°á»Ŀi":3564,"ĠTy":3565,"app":3566,"LÃ¢u":3567,"Ġcai":3568,"Ġgiá»¡n":3569,"ama":3570,"ĠÄĳáº¡p":3571,"KhÃ¡":3572,"ĠCH":3573,"Ġlong":3574,"Huynh":3575,"Ġtruyá»ĩn":3576,"xi":3577,"Ġtá»ĭch":3578,"Chá»§":3579,"Car":3580,"Ġthis":3581,"Ġváº§y":3582,"ĠtÃłng":3583,"ĠdÄ©":3584,"ĠkhoÃ¡c":3585,"anda":3586,"Ġvá»¯ng":3587,"athan":3588,"áº¾":3589,"Chá»ĵng":3590,"ella":3591,"15":3592,"Ġhiáº¿p":3593,"Ġgá»¥c":3594,"Ġgá»£i":3595,"ĠngÃ´n":3596,"ather":3597,"ĠtrÃłn":3598,"Ġhiáº¿m":3599,"Ġvá»ı":3600,"ÄĳÃ£":3601,"...\"<":3602,"áºŃc":3603,"ĠLau":3604,"NÃª":3605,"Di":3606,"ThiÃªn":3607,"BÃłi":3608,"Dá»ħ":3609,"ĠÄĳáº»":3610,"ĠMan":3611,"eve":3612,"Ok":3613,"ĠGl":3614,"ngh":3615,"Ġnháº£m":3616,"ĠTu":3617,"ĠtrÃ³i":3618,"ĠvÃ¡y":3619,"Ġdiá»ĩu":3620,"andler":3621,"ĠtÃª":3622,"ĠAngel":3623,"ĠEll":3624,"Ì£.<":3625,"ĠchÃ¢u":3626,"ĠgÄĥ":3627,"VÃ¢":3628,"de":3629,"ĠdÃ£":3630,"ĠTÆ°":3631,"ĠthÃ¡o":3632,"Ġbá»ĳi":3633,"thÆ°a":3634,"Ġngáº©n":3635,"ĠdÆ°á»Ŀng":3636,"Ġxá»ī":3637,"ons":3638,"rick":3639,"xin":3640,"56":3641,"sao":3642,"Ġtháº¯c":3643,"ery":3644,"Cáº§u":3645,"gi":3646,"Ġlá»£n":3647,"Ġgá»ĳi":3648,"Ġbá»ĵ":3649,"ings":3650,"ĠnÆ°Æ¡ng":3651,"uh":3652,"Ġlá»ģ":3653,"ĠâĻ«":3654,"rie":3655,"van":3656,"Ġthiá»ĩp":3657,"ĠTa":3658,"Há»ıi":3659,"há»į":3660,"ĠMark":3661,"Buá»ķi":3662,"ĠkhÃŃch":3663,"ĠNor":3664,"ĠÆ°u":3665,"ĠHáº£i":3666,"ĠNhÆ°ng":3667,"Báº£n":3668,"ĠmÃ£n":3669,"á»Ľc":3670,"ĠbÃ©o":3671,"enry":3672,"Ġgá»Ĺ":3673,"ost":3674,"ĠBer":3675,"itz":3676,"Giá»ıi":3677,"Ġkhoang":3678,"234":3679,"Ġláº·n":3680,"Ġná»Ļp":3681,"ÃĴ":3682,"ĠnhÃŃ":3683,"BiÃªn":3684,"ĠkhÃ³i":3685,"ĠvÆ°á»Ŀn":3686,"Ġtrá»¥c":3687,"ĠLou":3688,"ĠÄĳÃłng":3689,"ĠÆ°a":3690,"TrÃ¡i":3691,"Ġchá»§ng":3692,"yan":3693,"ĠÃĿ":3694,"ĠtÃ²":3695,"Ġbá»±c":3696,"!\"<":3697,"rew":3698,"Ġright":3699,"Ġvá»ĳn":3700,"Ġcá»§":3701,"ĠMal":3702,"bie":3703,"eel":3704,"ĠtuÃ¢n":3705,"ĠMary":3706,"ĠLondon":3707,"MÃ´":3708,"Ġro":3709,"ĠchuÃ´ng":3710,"ĠnÃª":3711,"ĠLee":3712,"exico":3713,".\"":3714,"ĠTR":3715,"ĠPaul":3716,"ise":3717,"Há»ĵi":3718,"Iá»":3719,"ĠCÃ³":3720,"ĠTráº¯ng":3721,"ĠgÃ¡nh":3722,"Cá»Ńa":3723,"Ġngá»Ľ":3724,"Ġghen":3725,"Ġbá»±":3726,"Thuá»ĳc":3727,"itch":3728,"Ġpho":3729,"Ġquyáº¿n":3730,"rodo":3731,"Dáº¡":3732,"ĠtrÃºc":3733,"Ġde":3734,"ĠtÃ¹ng":3735,"Ġviá»ħn":3736,"Ġthiáº¿p":3737,"lock":3738,"rag":3739,"Ġná»¥":3740,"Ġgá»¡":3741,"ĠnghÃ¬n":3742,"ĠBarry":3743,"Ġsá»¥p":3744,"QuÃ½":3745,"li":3746,"Ġthan":3747,"Æ¯á»Ľc":3748,"ĠgiÃª":3749,"Ġkhoáº»":3750,"ChÃ¢n":3751,"Ġ1060":3752,"cher":3753,"Ġsá»£i":3754,"7875":3755,"Ġhuyá»ģn":3756,"ĠnhÃłng":3757,"ĠTá»Ń":3758,"nhá»¯ng":3759,"ĠxÄĥng":3760,"iá»ħu":3761,"ĠGar":3762,"Ġráº»":3763,"andy":3764,"lyn":3765,"Vi":3766,"Vá»ĭ":3767,"ĠvÄ©nh":3768,"ÄĲiá»ĩn":3769,"Ġgot":3770,"ÄĲÆ°Æ¡ng":3771,"Ġngá»Ńi":3772,"Ġcá»«":3773,"ĠdÃły":3774,"ĠCap":3775,"eed":3776,"váºŃy":3777,"ĠJul":3778,"Ġthao":3779,"ĠdÃ¹m":3780,"ĠSim":3781,"mÃł":3782,"net":3783,"ĠngÆ°á»¡ng":3784,"Ġcháº¥n":3785,"ĠdÆ°á»¡ng":3786,"Ġ01":3787,"ĠnhÆ¡":3788,"ĠsÆ¡n":3789,"iro":3790,"áº¿ch":3791,"Ġdon":3792,"bert":3793,"Sp":3794,"Ġchui":3795,"Ġbá»ĩ":3796,"Nháº¥t":3797,"ĠGiÃ¡ng":3798,"ĠMexico":3799,"7897":3800,"ÄĲÆ¡n":3801,"ally":3802,"ĠtrÃº":3803,"uss":3804,"ĠJoey":3805,"Ġare":3806,"ss":3807,"ĠSÄ©":3808,"LuáºŃt":3809,"Má»Ľi":3810,"ĠÄĳÃ²n":3811,"ĠHá»ĵng":3812,"oon":3813,"Ġgáº¡t":3814,"Ġsuáº¥t":3815,"Ġke":3816,"ĠtÆ°Æ¡":3817,"ĠÄĳáº¯n":3818,"Ġquá»¹":3819,"ger":3820,"ĠBro":3821,"ĠFrancis":3822,"ĠlÃ³t":3823,"ĠgÃ³p":3824,"ĠtÃ¡m":3825,"ĠÄĳÆ°Æ¡ng":3826,"ĠlÃ©n":3827,"ĠMr":3828,"ister":3829,"ĠkhoÃ¡":3830,"ÄĲem":3831,"227":3832,"ĠngÆ°":3833,"Ġthá»ī":3834,"TrÃ²":3835,"bur":3836,"cÃ¡c":3837,"ĠThÃłnh":3838,"ĠPat":3839,"ese":3840,"HÆ¡i":3841,"ĠPhil":3842,"field":3843,"ĠHouse":3844,"ĠcÆ¡m":3845,"Ġcáº¯m":3846,"Ġcá»Ĺ":3847,"TÃłu":3848,"Ġnhe":3849,"ĠThuyá»ģn":3850,"Ġvoi":3851,"7873":3852,"ĠchiÃªu":3853,"Ġnáº¯ng":3854,"ĠchÃŃn":3855,"ĠÄĳÆ¡":3856,"ĠrÄĥ":3857,"Bl":3858,"DÃ¬":3859,"áº»o":3860,"khi":3861,"HÃłnh":3862,"Ġout":3863,"Ġbá»Ľt":3864,"ough":3865,"up":3866,"ĠchÃ´":3867,"Ġmá»įc":3868,"Nhiá»ĩm":3869,"ille":3870,"âĢ":3871,"Ġláº¡y":3872,"ĠbÃ¢":3873,"Tom":3874,"sáº½":3875,"áº¬":3876,"19":3877,"ini":3878,"Ġi":3879,"ĠxÃ©":3880,"ĠnghÃ¨o":3881,"ko":3882,"Ġdáº¡":3883,"ĠhoÃłi":3884,"ĠDave":3885,"Ben":3886,"ĠVal":3887,"Tá»«ng":3888,"Ġbá»įc":3889,"Ġloáº¡t":3890,"CÃ¡":3891,"ĠhÆ°á»Ľc":3892,"ĠCáº£nh":3893,"ĠNo":3894,"ĠngÃło":3895,"ree":3896,"ĠSe":3897,"Ġphá»ķi":3898,"ĠAi":3899,"ander":3900,"TÃ¹":3901,"Ġá»ĵn":3902,"Ngon":3903,"ĠLy":3904,"lor":3905,"ero":3906,"ĠOliver":3907,"Ġ60":3908,"ĠLuc":3909,"Ġwas":3910,"Ġrá»§a":3911,"ĠÃĤu":3912,"Ġthá»īu":3913,"BÃ¡nh":3914,"7913":3915,"ĠcáºŃy":3916,"Ġcamera":3917,"Ġvong":3918,"Ġbá»ģ":3919,"ÄĲu":3920,"ora":3921,"hay":3922,"Ġrobot":3923,"illy":3924,"ĠbáºŃc":3925,"Ġráº½":3926,"ĠEn":3927,"ChÃ³":3928,"ashington":3929,"7899":3930,"Ġhave":3931,"ĠSinh":3932,"Ġwhat":3933,"NA":3934,"Ġgá»ĵm":3935,"Ġnhá»ĭp":3936,"ĠÆ°á»Ľt":3937,"áºł":3938,"rom":3939,"ÄĲÃª":3940,"DÆ°á»Ľi":3941,"Ġnot":3942,"inch":3943,"ĠSher":3944,"KhÃ³":3945,"ĠChá»ī":3946,"ĠDar":3947,"ĠÂ½":3948,"ĠCIA":3949,"ĠRa":3950,"272":3951,"Ġchá»ĳt":3952,"isa":3953,"ies":3954,"ĠÄĲÃ´":3955,"BÆ°á»Ľc":3956,"Ġbáº¿n":3957,"ĠJe":3958,"elly":3959,"ĠrÃło":3960,"ĠtrÃ¹m":3961,"BÃ¡m":3962,"ĠbuÃ½t":3963,"Ġláº·p":3964,"ÄĲa":3965,"nie":3966,"nhÆ°":3967,"Ġbiá»ĩn":3968,"á»¥t":3969,"ĠAv":3970,"ĠJimmy":3971,"ĠtÃ¢n":3972,"ĠchÃ³c":3973,"ĠnÃ´n":3974,"Thiáº¿u":3975,"rell":3976,"olly":3977,"uch":3978,"ĠÄĳÃłm":3979,"Ġlau":3980,"ÄĲá»ģ":3981,"ĠMat":3982,"Sinh":3983,"ĠDa":3984,"Ġkhoáº£nh":3985,"ct":3986,"ĠsÆ°á»Ľng":3987,"7907":3988,"ĠTe":3989,"Ġhá»ĩt":3990,"Ġtá»ıa":3991,"ĠDel":3992,"mond":3993,"Ġvo":3994,"Ġvirus":3995,"Ġkhá»Ľp":3996,"ars":3997,"igg":3998,"Ġtuyá»ĥn":3999,"bo":4000,"ĠlÆ°á»£c":4001,"ĠlÆ°á»Ľi":4002,"ĠhÃ¢m":4003,"ThÃŃch":4004,"Alex":4005,"OK":4006,"ideo":4007,"ĠNhÃ¢n":4008,"eron":4009,"ĠnhÃ¡":4010,"ÄĲau":4011,"LiÃªn":4012,"Su":4013,"Táº¯t":4014,"xy":4015,"Ġve":4016,"Å©i":4017,"Ġ500":4018,"Peter":4019,"Ġlike":4020,"ĠÄĳiá»ĥn":4021,"ÄĲÃ¡m":4022,"tháºŃt":4023,"Ná»¯":4024,"ĠTony":4025,"Am":4026,"TÆ°á»Ľng":4027,"ĠCam":4028,"Tá»ĩ":4029,"áº¹t":4030,"ford":4031,"ĠmÃ¡":4032,"Nháº£y":4033,"ait":4034,"ĠDÆ°Æ¡ng":4035,"ON":4036,"ĠhÃł":4037,"Ġdáº¯t":4038,"arta":4039,"ĠCan":4040,"ĠNick":4041,"Ġwhoa":4042,"ĠJones":4043,"vá»Ľi":4044,"ĠlÆ°":4045,"ĠRobert":4046,"Ġmá»Ŀ":4047,"ĠHiá»ĩp":4048,"Ġkhuy":4049,"lan":4050,"yr":4051,"Ġtáº¡":4052,"ÄĲá»ĩ":4053,"ĠngoÃ¡i":4054,"Ġ..<":4055,"Ġlá»ĳ":4056,"Ġbá»ĥ":4057,"ĠMá»Ļt":4058,"ĠÄĳoáº¡t":4059,"iley":4060,"ĠÄĳáº¡c":4061,"ĠbÃºt":4062,"Ġcáº£ng":4063,"ĠRom":4064,"ĠÄĳá»©t":4065,"AR":4066,"Ġpháº¥n":4067,"ÄĲÃłn":4068,"Don":4069,"So":4070,"Ġmá»Ľ":4071,"Ġtia":4072,"ĠMill":4073,"ĠHÃ£y":4074,"ĠJake":4075,"ĠTháº¿":4076,"Charlie":4077,"67":4078,"CÄĥn":4079,"Tá»Ļi":4080,"ĠbÃ³":4081,"ĠrÃ¢u":4082,"Ġrá»Ļn":4083,"ĠWe":4084,"21":4085,"ĠcÃ¢m":4086,"ĠngÃ´":4087,"Ġtru":4088,"ĠQueen":4089,"tein":4090,"Ġtrá»¯":4091,"ame":4092,"GiÃ¡":4093,"ĠTur":4094,"Ġbáº¯p":4095,"onna":4096,"Ġbá»į":4097,"andalf":4098,"oeb":4099,"zo":4100,"ĠMay":4101,"ĠWilliam":4102,"Bá»¯a":4103,"Ġtrinh":4104,"Ġchá»ķ":4105,"ĠSte":4106,"ĠÄĳÃ¡o":4107,"Ġdáº¡i":4108,"7891":4109,"Ngoáº¡i":4110,"Ġbá»ĵn":4111,"ĠBur":4112,"ĠHam":4113,"ors":4114,"Ġsá»ĳc":4115,"All":4116,"ĠthÄĥ":4117,"ĠJes":4118,"7911":4119,"Ġcá»ĳng":4120,"Ġlá»ĵng":4121,"ĠmÆ°Æ¡i":4122,"ĠngÃłnh":4123,"ĠcÃ²":4124,"Ġngáº¯t":4125,"YÃªn":4126,"Ġgiu":4127,"eep":4128,"SA":4129,"ĠthÃł":4130,"ĠhÆ°u":4131,"ĠTed":4132,"uddy":4133,"CÆ°ng":4134,"Will":4135,"ĠngáºŃp":4136,"Ġhoáº¡n":4137,"fscx":4138,"fscy":4139,"Ġal":4140,"ĠWashington":4141,"ody":4142,"Æ¯á»ľ":4143,"ĠtrÃ¡ng":4144,"ĠphÃ´":4145,"ĠDá»ĭch":4146,"Æ°Æ¡m":4147,"ĠRed":4148,"PhÃŃa":4149,"ther":4150,"ile":4151,"100":4152,"Ġvang":4153,"gan":4154,"Â¶":4155,"ĠthÃ¡c":4156,"Ġgiáº·t":4157,"erm":4158,"ĠThanh":4159,"LÃ½":4160,"ward":4161,"ĠhÃŃt":4162,"annah":4163,"Ġmá»ķ":4164,"ĠQuÃ¢n":4165,"AN":4166,"ette":4167,"gar":4168,"Ġáº¤n":4169,"Ġcáº¡n":4170,"Ġkhen":4171,"ĠngÆ°ng":4172,"Ġrun":4173,"ĠMur":4174,"BuÃ´ng":4175,"We":4176,"Ġvá»Ł":4177,"Ġgá»įn":4178,"Má»«ng":4179,"SÃºng":4180,"ĠSch":4181,"Ġvan":4182,"Ġphá»ĳi":4183,"eman":4184,"Um":4185,"fe":4186,"ĠchÃ©p":4187,"ĠtÃ©":4188,"thur":4189,"ÄĲá»©c":4190,"ush":4191,"MÃ³n":4192,"Ġcuá»Ļn":4193,"ĠTrá»Ŀi":4194,"ĠÄĳá»Ļn":4195,"ĠChrist":4196,"ĠgáºŃy":4197,"Ġtaxi":4198,"omas":4199,"TÆ°á»Łng":4200,"ont":4201,"13":4202,"wn":4203,"Ġlá»ıng":4204,"Ġxáº¿":4205,"KhÃ¡ch":4206,"orm":4207,"Ġváº¯ng":4208,"Ġrá»Ĺng":4209,"Nhá»Ŀ":4210,"ez":4211,"Ġum":4212,"Ġrad":4213,"Ngu":4214,"ĠMac":4215,"Há»Ļi":4216,"ĠvÆ°":4217,"Ġváº£":4218,"ĠkhÃºc":4219,"ĠdÃ¢":4220,"ison":4221,"Ġpin":4222,"ĠScott":4223,"Chá»©":4224,"ĠMin":4225,"ĠFrodo":4226,"ĠMartin":4227,"Ġcá»¥t":4228,"Tá»ķ":4229,"XÃ¡c":4230,"ĠcÆ°á»¡ng":4231,"ĠÄĳáº£ng":4232,"agn":4233,"Ġjust":4234,"ĠvÃ¡n":4235,"Há»ĩ":4236,"Ġong":4237,"ba":4238,"ĠdÃª":4239,"ĠdÃ£y":4240,"ĠghÃ©p":4241,"ĠmÃ³ng":4242,"ĠTim":4243,"lly":4244,"FFFF":4245,"El":4246,"Ġná»ĳt":4247,"NghiÃªm":4248,"ĠxÃŃu":4249,"Ġtáº£ng":4250,"Ġtháº¯t":4251,"Thu":4252,"ĠÄĳáº¿ch":4253,"Na":4254,"Ġsong":4255,"ĠGiá»":4256,"ĠDanny":4257,")\\":4258,"oe":4259,"ĠÄĳáº¯t":4260,"Ġget":4261,"ĠcÃłi":4262,"ĠxÃłi":4263,"ĠSara":4264,"ĠAt":4265,"ĠdÃłn":4266,"ello":4267,"Ġngá»įc":4268,"ĠMil":4269,"ĠVictor":4270,"ĠWat":4271,"RÃºt":4272,"Sá»ĳng":4273,"ipp":4274,"rid":4275,"ĠcÆ°á»Ŀng":4276,"ĠCas":4277,"Ġthuáº¿":4278,"Tim":4279,"cÃ²n":4280,"Phi":4281,"mÃły":4282,"Ġná»į":4283,"ĠTiáº¿n":4284,"ali":4285,"Âī":4286,"Ġnháº¡y":4287,"Ġbl":4288,"Ngá»«ng":4289,"ĠMinh":4290,"ĠnhÃ©t":4291,"Kinh":4292,"ĠxÃ¬":4293,"ĠHá»ıa":4294,"ĠEddie":4295,"ĠâĻ«<":4296,"ĠkÃ©t":4297,"ĠChris":4298,"Mong":4299,"OR":4300,"Quy":4301,"ĠSo":4302,"ĠSky":4303,"ĠLe":4304,"Bar":4305,"cia":4306,"ĠlÃ¢m":4307,"Ġlove":4308,"HÆ°á»Ľng":4309,"Ġngoa":4310,"Ġ\"<":4311,"ĠKar":4312,"Ġchuá»Ļc":4313,"29":4314,"Mai":4315,"va":4316,"pha":4317,"LÃŃnh":4318,"Ġkiá»ĩt":4319,"ĠChá»§":4320,"raz":4321,"Bay":4322,"ÄĲá»Ļng":4323,"ence":4324,"Ban":4325,"Bob":4326,"Kim":4327,"ĠchÄĥn":4328,"Ġhiá»ģn":4329,"Ġgiang":4330,"ĠgiÃ¹m":4331,"It":4332,"Ġcá»į":4333,"ĠxÄĥm":4334,"ĠÄĳÃ£i":4335,"ĠRam":4336,"Cu":4337,"Ġre":4338,"Ġdá»Ĺ":4339,"Hoa":4340,"uel":4341,"ĠxÃ´ng":4342,"Ġ300":4343,"ĠRome":4344,"gg":4345,"Ġsi":4346,"ady":4347,"TH":4348,"Ġvideo":4349,"ĠgÃµ":4350,"Chá»«ng":4351,"7869":4352,"ago":4353,"inda":4354,"ha":4355,"erson":4356,"ĠSub":4357,"ĠRo":4358,"16":4359,"ation":4360,"á»ĥm":4361,"ĠThá»§":4362,"oung":4363,"sa":4364,"tá»Ľ":4365,"ĠSarah":4366,"Har":4367,"ayne":4368,"Ġ1000":4369,"ĠÄĳinh":4370,"und":4371,"Gá»Ńi":4372,"Ġcáº¥u":4373,"ĠJane":4374,"14":4375,"Ġnuá»ĳt":4376,"Ġtriá»ģu":4377,"rel":4378,"ĠdÆ°á»£c":4379,"Tha":4380,"ĠrÆ°á»¡i":4381,"ĠNG":4382,"Chuyáº¿n":4383,"Ġhey":4384,"ĠMe":4385,"ĠTor":4386,"ĠCharles":4387,"iff":4388,"Ġthuáº§n":4389,"Ġnháº·t":4390,"ĠKy":4391,"ĠFor":4392,"ĠbuÃ´ng":4393,"ĠcÆ°á»¡i":4394,"ĠThiáº¿u":4395,"Hoan":4396,"ola":4397,"417":4398,"Ġquáº¥y":4399,"ano":4400,"ĠDoug":4401,"Tuáº§n":4402,"Máº¯t":4403,"ĠkÃªnh":4404,"Ġsá»Ŀ":4405,"aron":4406,"ĠBut":4407,"á»ĺ":4408,"Ġráº£nh":4409,"ĠtráºŃt":4410,"oul":4411,"tháº¿":4412,"Ġ80":4413,"CÃºt":4414,"Dá»ĭch":4415,"Ġná»Ĺ":4416,"ĠBÃ¡c":4417,"ĠTommy":4418,"Harry":4419,"CÃ¢y":4420,"MÆ°á»Ŀi":4421,"vin":4422,"ĠlÄĥn":4423,"ĠbÃ¡":4424,"á»±u":4425,"ĠhoÃ¡":4426,"ĠhoÃ£n":4427,"ĠLáº¡p":4428,"ĠRichard":4429,"ĠPH":4430,"ive":4431,"izza":4432,"ĠSal":4433,"ĠPal":4434,"Ġhuá»·":4435,"Ġhá»ĳ":4436,"Giáº£":4437,"\"...":4438,"James":4439,"Ã¤":4440,"Ġbáº§y":4441,"áº¥ng":4442,"ole":4443,"ĠtÄĥm":4444,"oln":4445,"TÃ³m":4446,"á»ĭn":4447,"istan":4448,"Ġá»«m":4449,"EA":4450,"táº¥t":4451,"Ġtiá»ģm":4452,"Ã£m":4453,"ĠkhoÃ¡i":4454,"háº¯n":4455,"£t":4456,"Ġcáº¡o":4457,"ĠlÃ¹n":4458,"Ġkháº¥u":4459,"ĠPer":4460,"ThÆ°á»Ŀng":4461,"Ġdown":4462,"Ġcá»«u":4463,"Bo":4464,"Rob":4465,"ii":4466,"ĠbÃ£":4467,"Ġquá»³":4468,"pt":4469,"ĠÄĳai":4470,"ĠchÃ©n":4471,"Ġváº·t":4472,"Ġnháº¥n":4473,"ĠCity":4474,"ĠChandler":4475,"Ġá»Ŀ":4476,"Ġhá»įng":4477,"ĠSong":4478,"Pha":4479,"Ġdá»įc":4480,"nder":4481,"ya":4482,"ĠcÃ´n":4483,"Ġtrá»Ļn":4484,"ĠTex":4485,"What":4486,"Ġmá»±c":4487,"ĠÃłh":4488,"than":4489,"Ġtá»ĥ":4490,"ĠláºŃt":4491,"Ġone":4492,"ĠMad":4493,"ĠxuÃ¢n":4494,"ĠbÃ¹":4495,"ĠgÆ°Æ¡m":4496,"uman":4497,"ER":4498,"ordon":4499,"Mr":4500,"ĠxÃ¡":4501,"ĠMatt":4502,"ÃĶNG":4503,"Ġ{\\":4504,"ĠNgh":4505,"ĠKinh":4506,"ida":4507,"ĠAnna":4508,"Ġat":4509,"PhÃ¡t":4510,"Ġkhoai":4511,"ĠBlack":4512,"Ġtiá»ħn":4513,"ĠÄĳÃł":4514,"ĠYou":4515,"7885":4516,"oebe":4517,"%.<":4518,"Â¡":4519,"Ġbáº»":4520,"ĠHan":4521,"anna":4522,"Tá»īnh":4523,"ĠMáº·t":4524,"Ġthuá»·":4525,"omb":4526,"Ġkiá»ĩm":4527,"ĠrÆ°á»Łi":4528,"ĠSao":4529,"ĠLann":4530,"ĠVan":4531,"CÃłng":4532,"Carl":4533,"Sá»©c":4534,"ÄĲoÃ¡n":4535,"incoln":4536,"Chuyá»ĥn":4537,"ĠchÃ©m":4538,"á»¡i":4539,"ĠFlor":4540,"Ìī?<":4541,"7855":4542,"Kat":4543,"Ġdá»ĭp":4544,"ĠViá»ĩt":4545,"MÃ¡u":4546,"uce":4547,"Ġas":4548,"ĠtoÃł":4549,"ĠFred":4550,"ĠMonica":4551,"David":4552,"ĠtáºŃt":4553,"ĠtrÆ°ng":4554,"ĠxÃł":4555,"Nháº¯c":4556,"ĠMos":4557,"ĠlÄĥng":4558,"NháºŃn":4559,"HÃ³a":4560,"vey":4561,"Ġrung":4562,"Thiáº¿t":4563,"Ġranh":4564,"ĠDom":4565,"ĠsÄĥ":4566,"TrÆ°á»Ŀng":4567,"Ġ:.<":4568,"Dan":4569,"Kiáº¿m":4570,"Ġxá»Ļn":4571,"ĠHel":4572,"ĠHobb":4573,"ĠxuÃ´":4574,"Ġnáº¡p":4575,"110":4576,"120":4577,"Miá»ħn":4578,"cá»§a":4579,"ThÃº":4580,"ĠTÆ°á»Ľng":4581,"ĠHenry":4582,"olas":4583,"ium":4584,"ĠÄĳÃ¡y":4585,"Ġháº±ng":4586,"ĠBá»ĳ":4587,"ĠDaniel":4588,"Ġbáº¡ch":4589,"ĠThá»ĳng":4590,"ĠKing":4591,"'ve":4592,"ira":4593,"ym":4594,"ÃĻ":4595,"Ġmáº¡i":4596,"ĠÄĳÄĥ":4597,"ĠchÃł":4598,"ĠDav":4599,"Cá»Łi":4600,"Ġváº¡n":4601,"ĠCáºŃu":4602,"Ġthá»īnh":4603,"ĠdÆ¡":4604,"Vua":4605,"Wow":4606,"má»įi":4607,"Ìģ!<":4608,"Rach":4609,"ric":4610,"Ġtáº©y":4611,"Ġnhá»Ł":4612,"ĠDu":4613,"olmes":4614,"Thá»īnh":4615,"ĠÄĳáºŃy":4616,"ĠMo":4617,"TráºŃn":4618,"ĠLang":4619,"nes":4620,"Ġrá»Ľt":4621,"olf":4622,"'<":4623,"Ã±":4624,"Ġláº¯p":4625,"ĠHank":4626,"ĠmÃ¢y":4627,"ĠLinh":4628,"Bá»ĳn":4629,"DáºŃy":4630,"Whoa":4631,"Ġloa":4632,"arlett":4633,"cel":4634,"eck":4635,"ĠthÃ©p":4636,"ĠmuÃ´n":4637,"ĠTexas":4638,"ÄĲá»ĭnh":4639,"thew":4640,"rá»ĵi":4641,"įt":4642,"Ġtá»ĭ":4643,"HÃ´n":4644,"Ġrá»§i":4645,"ĠHai":4646,"IN":4647,"Lau":4648,"ĠNÃ³":4649,"ĠAsh":4650,"hh":4651,"Ġtháº¡ch":4652,"giá»Ŀ":4653,"Ã¥":4654,"Ġváº¥t":4655,"ĠgÃłi":4656,"40":4657,"Ġab":4658,"ÄĲÃ´":4659,"Ìĥ.<":4660,"ĠVinc":4661,"ĠBilly":4662,"ĠAdam":4663,"PH":4664,"ĠthÃ¢m":4665,"icago":4666,"oun":4667,"Ġbuá»ĵng":4668,"ĠÄĲá»ĵng":4669,"ĠTo":4670,"ĠNH":4671,"ĠchÃ¢m":4672,"ĠnÃ£":4673,"den":4674,"Ġsung":4675,"Ġgiáº£ng":4676,"ĠCa":4677,"Å©a":4678,"ĠKH":4679,"Ġwant":4680,"Ab":4681,"ham":4682,"Ġrá»ī":4683,"ĠRos":4684,"etty":4685,"tao":4686,"ĠlÃ¢y":4687,"Ġcháº±m":4688,"ThÃ¡nh":4689,"Gr":4690,"Náº¯m":4691,"Sar":4692,"ĠÄĳiáº¿u":4693,"Ġmá»ī":4694,"Ġbá»Ļt":4695,"Ãªnh":4696,"tain":4697,"Â°":4698,"ĠÄĳá»Ĺ":4699,"ft":4700,"Ġtáº§u":4701,"Sá»Ľm":4702,"Tai":4703,"ĠkiÃªu":4704,"ĠmÃºa":4705,"*<":4706,"Ġ:<":4707,"atar":4708,"ĠEmily":4709,"Ġtháº§m":4710,"ĠnhÃ£":4711,"otch":4712,"ÄĲÃ¹a":4713,"egas":4714,"ecca":4715,"ĠxÆ°á»Łng":4716,"ĠShaw":4717,"ĠphiÃªu":4718,"ĠChu":4719,"ĠVÅ©":4720,"Ġkháº£o":4721,"Ġhere":4722,"Há»įc":4723,"tha":4724,"ado":4725,"MÃ¹i":4726,"táº¡i":4727,"Ġever":4728,"air":4729,"ĠChiáº¿n":4730,"ĠWilson":4731,"TÃ¹y":4732,"Bá»©c":4733,"Há»©a":4734,"ster":4735,"ĠRoy":4736,"36":4737,"Ġvá»ĭt":4738,"ear":4739,"ï¼":4740,"Ġtáº©u":4741,"Ġlá»į":4742,"ĠnÃ³n":4743,"urt":4744,"Ġradio":4745,"ĠthÆ¡m":4746,"ek":4747,"ĠtÃ¡t":4748,"ĠsÃºc":4749,"ĠSÆ¡n":4750,"ĠHáº¯c":4751,"Ġ21":4752,"ĠPhÆ°Æ¡ng":4753,"ĠOh":4754,"Ġ90":4755,"Ġhuh":4756,"su":4757,"Ġtáº£n":4758,"Ġsáº¹o":4759,"Ġphun":4760,"ĠHÃłn":4761,"Ġpr":4762,"VÅ©":4763,"Ġnon":4764,"ĠCor":4765,"ĠquyÃª":4766,"ĠFr":4767,"ĠSteve":4768,"wen":4769,"CÃ¡nh":4770,"Ġhim":4771,"eta":4772,"ornia":4773,"Ġá»§y":4774,"ĠÄĳáº³ng":4775,"Tho":4776,"ĠJess":4777,"TÃŃnh":4778,"eil":4779,"ĠÃ¡i":4780,"Ġthere":4781,"ĠWell":4782,"Claire":4783,"CÃºi":4784,"Váº¿t":4785,"Ġthoa":4786,"Da":4787,"ĠCá»Ļng":4788,"ĠLo":4789,"Táº¥n":4790,"lat":4791,"ĠÄĲá»ĭa":4792,"TÃłi":4793,"ĠsÃ©t":4794,"Thiá»ĩt":4795,"ĠAs":4796,"ĠWall":4797,"ĠUnder":4798,"Linh":4799,"ga":4800,"ĠgiÆ°":4801,"ĠSav":4802,"ifornia":4803,"ĠMy":4804,"Ġ23":4805,"âĢĵ":4806,"Ġmuá»ĳi":4807,"Thá»§":4808,"ThÆ°á»£ng":4809,"ĠCarol":4810,"ĠsÆ°u":4811,"tone":4812,"7903":4813,"Ġcá»±u":4814,"Mo":4815,"ance":4816,"DÆ°á»Ŀng":4817,"ĠthÃ³i":4818,"Khá»ıe":4819,"ĠHun":4820,"7915":4821,"terp":4822,"ĠGia":4823,"Ġchuá»ĵng":4824,"ĠPhong":4825,"amin":4826,"Ġká»µ":4827,"ÄĲá»ĭa":4828,"ĠBáº£o":4829,"máº¹":4830,"ĠcÄĥm":4831,"ĠthÆ°Æ¡":4832,"Ġchua":4833,"ĠJud":4834,"Ġbaby":4835,"Dá»±":4836,"ling":4837,"Ġláº¯c":4838,"Ġlá»ģu":4839,"ĠlÅ©ng":4840,"ĠKevin":4841,"ĠSmith":4842,"kins":4843,"Ġz":4844,"ÄĲiÃªn":4845,"ona":4846,"ĠTay":4847,"ĠHolmes":4848,"ĠLannister":4849,"Ġoh":4850,"Ġkhá»Ń":4851,"isk":4852,"ĠFel":4853,"Ġwill":4854,"ĠHill":4855,"Phu":4856,"ĠKr":4857,"ĠFar":4858,"ĠYi":4859,"656":4860,"Ad":4861,"TÃ´":4862,"Ġnhá»ĩn":4863,"ĠdÃ¢ng":4864,"Cáº¯t":4865,"que":4866,"Ġlá»Ļt":4867,"ĠtrÃ¢n":4868,"aus":4869,"ĠchiÃªn":4870,"ablo":4871,"ĠJohnny":4872,"ittle":4873,"CháºŃm":4874,"ĠHaw":4875,"nÃªn":4876,"ĠphÃº":4877,"ĠWalter":4878,"Ġgá»Ľm":4879,"ĠSy":4880,"Ġdá»ĭu":4881,"Wal":4882,"ĠkÃ¨n":4883,"ĠDun":4884,"ĠRog":4885,"DÃ¢n":4886,"HÃ¢n":4887,"oc":4888,"ĠLos":4889,";?<":4890,"Cam":4891,"ĠbÃºp":4892,"Ġngáº«u":4893,"Báº£":4894,"Ká»ĩ":4895,"cÅ©ng":4896,"Ġbá»ĭch":4897,"iana":4898,"45":4899,"Ġam":4900,"Ġsá»į":4901,"ĠSÆ°":4902,"ĠBrian":4903,"Nghá»ī":4904,"Ġnáº¿m":4905,"ĠsÃ¡nh":4906,"ÄĲiá»ĥm":4907,"NhÃ³c":4908,"Ġsee":4909,"Ġlá»įc":4910,"inter":4911,"ĠDr":4912,"80":4913,"Ġbanh":4914,"phÃª":4915,"ĠÄĳÃŃnh":4916,"ĠJackson":4917,"ĠBeck":4918,"Sá»£":4919,"ĠWayne":4920,"Ġmá»¹":4921,"ĠtrÃŃch":4922,"ĠHÃł":4923,"ĠnÃłn":4924,"Ġlá»Ŀ":4925,"ĠÄĲÆ°á»Ŀng":4926,"kin":4927,"ĠthiÃªng":4928,"ĠviÃªm":4929,"Ġhiá»ĥn":4930,"ĠTiá»ĥu":4931,"Me":4932,"Ġngáº¥t":4933,"ĠtrÃ¨o":4934,"asha":4935,"Ġá»§i":4936,"ĠtÃ¨":4937,"Ġsáº£nh":4938,"Ġtrá»ĵng":4939,"ĠBáº£n":4940,"TÃ³c":4941,"ĠcÃ²ng":4942,"NgÃ´i":4943,"err":4944,"ĠRock":4945,"ChÃ¬a":4946,"ĠChicago":4947,"Giao":4948,"ViÃªn":4949,"aa":4950,"ae":4951,"don":4952,"ĠcÃºi":4953,"ÌĢ<":4954,"âĻª<":4955,"Äĳáº¿n":4956,"abeth":4957,"ourne":4958,"á»¨":4959,"Ġsp":4960,"int":4961,"Ġchuá»ĵn":4962,"ĠrÃ¨n":4963,"NhÃ³m":4964,"aster":4965,"Ġthoáº£":4966,"ĠtÃ´ng":4967,"Ġgay":4968,"ĠdáºŃp":4969,"ĠRyan":4970,"Ġ45":4971,"03":4972,"HÄĥ":4973,"MÃłu":4974,"ĠchÄ©a":4975,"ĠdiÃª":4976,"ĠSu":4977,"In":4978,"Ã²m":4979,"Quá»·":4980,"ja":4981,"Ġváº¹n":4982,"ĠsÃª":4983,"Ãģo":4984,"RÆ°á»£u":4985,"ze":4986,"ĠCo":4987,"Ġ22":4988,"ura":4989,"ÃĲ":4990,"Ġhá»Ł":4991,"ĠquÃŃ":4992,"ĠAp":4993,"Ġtui":4994,"ĠthÆ°á»Ľc":4995,"Ġrá»£":4996,"ĠquáºŃn":4997,"ĠWard":4998,"can":4999,"Ġliá»ħu":5000,"ĠnÃŃt":5001,"ĠsÆ°á»Ŀn":5002,"ĠtrÆ°Æ¡ng":5003,"itler":5004,"hmm":5005,"win":5006,"ĠlÃ¡o":5007,"Ãºm":5008,"ĠLor":5009,"ĠWhite":5010,"báº¡n":5011,"nÃ³i":5012,"Ġus":5013,"ĠgiÃ¡ng":5014,"Ġkhinh":5015,"ĠRick":5016,"Ġdá»Ļi":5017,"chuyá»ĩn":5018,"ĠMeg":5019,"ĠJac":5020,"qui":5021,"ĠÄĲá»Ļ":5022,"rant":5023,"ffrey":5024,"ĠJam":5025,"aven":5026,"anne":5027,"Muá»Ļi":5028,"Cao":5029,"ĠbÃ¹a":5030,"ias":5031,"ĠStr":5032,"iano":5033,"TÆ°":5034,"ĠCá»±c":5035,"ats":5036,"ater":5037,"ĠAndy":5038,"Re":5039,"Ġcá»ĳt":5040,"ĠchÃły":5041,"Ġváº¡ch":5042,"ChÆ°Æ¡ng":5043,"ÄĲá»įc":5044,"ustin":5045,"Ġtáº·c":5046,"Ġhack":5047,"ĠTá»±":5048,"ĠNathan":5049,"thing":5050,"Ġchuá»Ĺi":5051,"NguyÃªn":5052,"orld":5053,"ates":5054,"race":5055,"Jimmy":5056,"Iá»Ĩ":5057,"IE":5058,"Xu":5059,"ĠcÃºp":5060,"ĠRiley":5061,"Chá»įn":5062,"ĠNÄĥm":5063,"ji":5064,"Ġcl":5065,"Khá»Łi":5066,"ĠHu":5067,"ĠHáº¡":5068,"7847":5069,"ĠUn":5070,"Lui":5071,"Ãī":5072,"Ġbáº¥m":5073,"ĠsáºŃp":5074,"ĠSn":5075,"ĠQuan":5076,"aggie":5077,"Danh":5078,"Ġkhá»ıa":5079,"Chá»©ng":5080,"áº¬T":5081,"Æ¯á»ľNG":5082,"18":5083,"Kia":5084,"Ġnghá»ĭch":5085,"ĠkhÆ¡i":5086,"ĠhÃłm":5087,"ĠdÃ¡n":5088,"ince":5089,"ĠSnow":5090,"ĠLi":5091,"aker":5092,"Rachel":5093,"TÃ¢":5094,"On":5095,"ÃĨ":5096,"Ġláº¥p":5097,"Ġnow":5098,"ĠkhÃ´i":5099,"ĠPot":5100,"Ġbuá»ĵm":5101,"ĠGreg":5102,"ráº¥t":5103,"ĠBÃł":5104,"Ġlung":5105,"ĠKen":5106,"Ġok":5107,"Mon":5108,"Suá»ĳt":5109,"Ãºn":5110,"even":5111,"7919":5112,"Ġchá»Ľp":5113,"artacus":5114,"SÆ¡":5115,"Ġuy":5116,"ĠhÃ£nh":5117,"ĠLeon":5118,"ĠÄĲÃ³":5119,"berg":5120,"ĠMiller":5121,"Dáº¥u":5122,"Máº¡nh":5123,"ĠláºŃn":5124,"ĠnhÃ¬":5125,"ĠhoÃł":5126,"itan":5127,"ĠThomas":5128,"ĠnÃ¢u":5129,"mp":5130,"Ġtráº§m":5131,"ÄĲuá»ķi":5132,"ĠquÃ£ng":5133,"Ġgiá»įt":5134,"ĠTre":5135,"ĠJan":5136,"ĠThor":5137,"ĠAlice":5138,"essa":5139,"ĠArthur":5140,"BÃłn":5141,"NÃ¢ng":5142,"ĠÄĳá»ĳ":5143,"Ġchinh":5144,"ĠMiss":5145,"ĠBern":5146,"ennis":5147,"KÃŃnh":5148,"Ġquáº§y":5149,"ĠSw":5150,"oody":5151,"48":5152,"eus":5153,"Ġvay":5154,"...!<":5155,"ĠTam":5156,"ĠRon":5157,"ĠOm":5158,"ĠÄĳá»£t":5159,"che":5160,"usan":5161,"otte":5162,"Ġchá»ĳn":5163,"Thá»©c":5164,"ĠMorgan":5165,"rence":5166,"Ġky":5167,"Ġkáº¹p":5168,"Ġváº£i":5169,"ĠlÃłn":5170,"Ġnháº±m":5171,"ĠCast":5172,"Æłn":5173,"LÃ¡i":5174,"ĠkhiÃª":5175,"GiÃ¡m":5176,"DÃ¡m":5177,"}<":5178,"ĠNhá»¯ng":5179,"Ġrá»ĥ":5180,"Christ":5181,"Ã©c":5182,"ĠSau":5183,"Ġhoan":5184,"ĠJer":5185,"Ġrá»ĳt":5186,"Ġchá»Ń":5187,"esar":5188,"Ġchuyá»ģn":5189,"Há»ĵ":5190,"Mm":5191,"NÃ©m":5192,"ĠBal":5193,"ĠHall":5194,"CÃł":5195,"Tá»©c":5196,"ĠÄĳÅ©a":5197,"Chá»¥p":5198,"ĠchoÃłng":5199,"áº»m":5200,"ĠBos":5201,"ĠVegas":5202,"ooper":5203,"Ġpizza":5204,"top":5205,"izabeth":5206,"Du":5207,"Ġcáº¥y":5208,"Ġar":5209,"ĠBang":5210,"ĠhÃ£ng":5211,"Thá»ıa":5212,"ĠHay":5213,"ĠnhÆ°á»Ŀng":5214,"ThÃª":5215,"erman":5216,"ĠLouis":5217,"Ġrá»Ĺi":5218,"ĠDean":5219,"atherine":5220,"Jul":5221,"PhÆ°Æ¡ng":5222,"Buá»ĵn":5223,"Rá»ĳt":5224,"ĠkÃ¨m":5225,"hoáº·c":5226,"99":5227,"Mike":5228,"Ġmoi":5229,"ChÄĥ":5230,"Ġ70":5231,"ĠCalifornia":5232,"Max":5233,"cá»©":5234,"Thi":5235,"ĠSand":5236,"ĠGordon":5237,"Ġcome":5238,"ĠParker":5239,"ÄĲá»ģu":5240,"ĠCÆ¡":5241,"ĠCáºŃp":5242,"Phong":5243,"irk":5244,"nghe":5245,"Ġxáº£":5246,"ĠBoy":5247,"ĠGal":5248,"ĠThu":5249,"Ġfrom":5250,"ien":5251,"ĠhÃ¢":5252,"ĠrÃ¡ch":5253,"Ġtre":5254,"Ġdáº·n":5255,"cha":5256,"Ġ35":5257,"Äĳang":5258,"Barry":5259,"RA":5260,"Pháº£n":5261,"eorg":5262,"ĠUnderwood":5263,"0000":5264,"ĠBrown":5265,"Ġxá»īn":5266,"Sai":5267,"Ġcáº·n":5268,"Ġkhiáº¿u":5269,"ĠLÃ½":5270,"Ġabout":5271,"ps":5272,"ĠmÃ²n":5273,"Ġkhao":5274,"Ġgen":5275,"ĠxÃ´":5276,"ĠAngeles":5277,"yo":5278,"ĠHor":5279,"its":5280,"ĠMont":5281,"ĠlÃ¡nh":5282,"Ġphá»ķ":5283,"uyÃª":5284,"athy":5285,"ĠScot":5286,"BÃ³ng":5287,"TÆ°Æ¡ng":5288,"Ãļ":5289,"Nháº¯m":5290,"Ġyá»ĥm":5291,"ata":5292,"Táº¡":5293,"87":5294,"ure":5295,"ĠPete":5296,"Iáº¾":5297,"Ġsáº¯m":5298,"ĠngÃ¢y":5299,"ĠxÃ¡ch":5300,"ĠÄĳoan":5301,"Je":5302,"Mua":5303,"Ġthey":5304,"ĠhÃ£m":5305,"ĠBÃ¬nh":5306,"atch":5307,"ĠPe":5308,"ĠÄĳÃ¡i":5309,"ĠsÃ¡o":5310,"ĠEv":5311,"Come":5312,"Dáº«n":5313,"Hu":5314,"bend":5315,"Ġláº©n":5316,"ĠWest":5317,"Joey":5318,"CÆ¡n":5319,"Richard":5320,"á»ļ":5321,"Ġthiá»ĥu":5322,"ĠBond":5323,"Ġtime":5324,"ĠAvatar":5325,"ĠbÆ°á»Ľ":5326,"Ġkhoe":5327,"omp":5328,"Ġfeet":5329,"agnar":5330,"UY":5331,"well":5332,"ĠhÆ°Æ¡":5333,"Ġvá»Ĺ":5334,"Nguy":5335,"ĠÄĲi":5336,"George":5337,"ĠLincoln":5338,"ĠBobby":5339,"Nguá»ĵn":5340,"ĠLÃ¢m":5341,"ĠÃªm":5342,"Ġmiá»ĩn":5343,"ĠkhÃ¡n":5344,"Lá»ĩnh":5345,"Oliver":5346,"ĠNáº¿u":5347,"ĠCÃ¡i":5348,"Jon":5349,"be":5350,"Khá»ıi":5351,"iona":5352,"Ray":5353,"ĠquáºŃy":5354,"chÃ¡u":5355,"ima":5356,"\"!<":5357,"Ġsá»ī":5358,"Ġkhuáº©n":5359,"onny":5360,"75":5361,"uc":5362,"ĠkhÃ©o":5363,"Ġgonna":5364,"Ġquáº·c":5365,"Man":5366,"Ġday":5367,"ĠSl":5368,"otham":5369,"ÃĤm":5370,"ĠbÆ¡m":5371,"dore":5372,"Ġnháº¡t":5373,"agh":5374,"ĠUS":5375,"Yo":5376,"Ġhon":5377,"Ġgood":5378,"emy":5379,"ĠBol":5380,"ump":5381,"enna":5382,"ove":5383,"BÃŃ":5384,"Victor":5385,"colm":5386,"tá»«":5387,"ĠcÃµi":5388,"ĠÄĳÄ©":5389,"nhÃ¬n":5390,"Ġham":5391,"ĠmÃłng":5392,"orth":5393,"ĠÄĲáº¿":5394,"ĠMaria":5395,"//":5396,"láº¡i":5397,"Ġneed":5398,"Ġweb":5399,"ordan":5400,"Ngoan":5401,"oseph":5402,"ĠWalker":5403,"VÃŃ":5404,"ĠÃ´i":5405,"ĠRh":5406,"ĠFlash":5407,"Dá»įn":5408,"Ġcháº©n":5409,"Ġsom":5410,"ĠAmy":5411,"Quá»³":5412,"ĠBerlin":5413,"cáº£":5414,"Ġná»Ł":5415,"ĠgÃ¢":5416,"Ġngá»Ļ":5417,"ĠMed":5418,"imus":5419,"ĠRiv":5420,"ĠNik":5421,"Ġpl":5422,"Cal":5423,"Quyáº¿t":5424,"Suy":5425,"ĠcÃ´i":5426,"ĠhÃ´ng":5427,"ĠMich":5428,"ĠOs":5429,"VÃ²ng":5430,"Ġvuá»ĳt":5431,"ĠxÆ°ng":5432,"ĠMel":5433,"olo":5434,"Ġcafe":5435,"ÃĬN":5436,"Ell":5437,"Leo":5438,"TiÃªu":5439,"Ġháº¡m":5440,"ĠConn":5441,"ĠKáº»":5442,"oto":5443,"BÄĥng":5444,"Ġkháº³ng":5445,"ĠphÃłn":5446,"ĠÄĲá»Ļi":5447,"ĠWells":5448,"ĠvÃº":5449,"chan":5450,"NgÆ°Æ¡":5451,"ĠNháº«n":5452,"ĠtuyÃª":5453,"VÄĥn":5454,"á»Ĭ":5455,"Ġkhung":5456,"ĠÄĲá»ı":5457,"Ġtáº§n":5458,"ĠBenn":5459,"appy":5460,"Ġcáº©u":5461,"ĠbáºŃy":5462,"ĠMarty":5463,"ĠJeff":5464,"ĠPotter":5465,"arth":5466,"ime":5467,"237":5468,"ĠÄĳáº½":5469,"ari":5470,"ĠJean":5471,"etro":5472,"ĠWinter":5473,"Â§":5474,"Ġnhá»ķ":5475,"ets":5476,"Ġfan":5477,"ĠnhuáºŃn":5478,"Danny":5479,"vá»ģ":5480,"Ġngáº¡o":5481,"Ġtrá»įn":5482,"Ġdid":5483,"Ġrau":5484,"igan":5485,"Mary":5486,"Ġmá»ıng":5487,"Chris":5488,"Ġbá»ĭa":5489,"ĠTá»Ľ":5490,"ĠÃło":5491,"ĠHer":5492,"IM":5493,"ĠláºŃu":5494,"ange":5495,"Ġemail":5496,"ĠMÃ´n":5497,"ĠPan":5498,"ĠPhÃ²ng":5499,"ĠMarcus":5500,"500":5501,"CÆ°":5502,"bá»įn":5503,"á»¤":5504,"Ġcould":5505,"ĠbÃ¹ng":5506,"Ġnháº¥c":5507,"Ġráº¡p":5508,"ThÃ¢n":5509,"ĠHow":5510,"tháº±ng":5511,"7921":5512,"ĠGreen":5513,"ĠsÃ´i":5514,"ĠÄĲÆ°á»£c":5515,"ĠFinch":5516,"Ġthá»§ng":5517,"ĠTHU":5518,"Ġmáº»":5519,"ĠHannah":5520,"etto":5521,"thÃ´i":5522,"ĠTriá»ģu":5523,"ando":5524,"eeta":5525,"==":5526,"SÃ¡u":5527,"Ġfeel":5528,"Ãģnh":5529,"EN":5530,"bÃł":5531,"ĠtrÃªu":5532,"7883":5533,",...":5534,"AT":5535,"PhÃ¡":5536,"ĠSherlock":5537,"SuÃ½t":5538,"ĠJesus":5539,"Ġtháº¥u":5540,"ÄĲá»ķi":5541,"ĠTÆ°á»Ŀng":5542,"Ġway":5543,"rison":5544,"ĠtH":5545,"Ġsoi":5546,"Ġgai":5547,"ĠBo":5548,"ream":5549,"ĠPhim":5550,"ĠAndrew":5551,"Ġtá»īa":5552,"ĠOrc":5553,"CÆ°á»Ŀi":5554,"zy":5555,"ĠSiÃªu":5556,"atal":5557,"ĠbuÃ´":5558,"ĠHobbit":5559,"91":5560,"BÃ´":5561,"Cá»Ļng":5562,"ĠtÃºng":5563,"ĠphÃ¢":5564,"ĠHa":5565,"Ġkhuáº¥t":5566,"672":5567,"Sarah":5568,"Ġkhá»Ŀ":5569,"Ġngá»Ļt":5570,"aham":5571,"irg":5572,"Luc":5573,"Ġxoa":5574,"ĠGray":5575,"ĠAllen":5576,"á»¦y":5577,"Jes":5578,"ĠCarter":5579,")<":5580,"Ná»Ńa":5581,"Ġ**":5582,"ĠchÆ¡":5583,"Thá»ĭ":5584,"That":5585,"Nga":5586,"isco":5587,"elia":5588,"riel":5589,",\"":5590,"33":5591,"Mark":5592,"ram":5593,"rad":5594,"wich":5595,"ye":5596,"Ġháº¹p":5597,"Ġtoi":5598,"ĠDam":5599,"Giá»įng":5600,"Ġ48":5601,"Giá»¯a":5602,"Ghi":5603,"ĠIt":5604,"ĠÃļ":5605,"rik":5606,"bá»ĳ":5607,"Ġngá»±":5608,"ĠDen":5609,"ĠÄĲá»«ng":5610,"Ġruá»ĵi":5611,"II":5612,"Ġlá»įt":5613,"ĠlÆ°á»£n":5614,"Ġnáº¥m":5615,"ĠkhiÃªn":5616,"ĠÄĳáº¯m":5617,"ĠngáºŃm":5618,"KhÃ³a":5619,"Thank":5620,"ĠDor":5621,"VÆ°Æ¡ng":5622,"sau":5623,"phy":5624,"Cháº¥t":5625,"ĠSa":5626,"rac":5627,"Há»£p":5628,"Hiá»ĩp":5629,"Ġtá»įa":5630,"Ġthung":5631,"ĠLeo":5632,"ĠÄĲáº§u":5633,"ĠPo":5634,"ffff":5635,"ĠRobin":5636,"Joe":5637,"BáºŃt":5638,"Ly":5639,"Láº¡":5640,"Se":5641,"vn":5642,"Ġnáº¥p":5643,"Khiáº¿n":5644,"ĠHáºŃu":5645,"Ross":5646,"ville":5647,"phen":5648,"Quáº§n":5649,"786":5650,"Äĳiá»ģu":5651,"ardo":5652,"indy":5653,"Ġchá»¥c":5654,"LÃ£nh":5655,"Sim":5656,"ski":5657,"Ġkhá»ĳng":5658,"Ġbut":5659,"MÃ¹a":5660,"á»Ģ":5661,"ĠbÃłng":5662,"ĠbÃºa":5663,"Ġback":5664,"ternet":5665,"Cuá»ĳn":5666,"ĠnÃ¡o":5667,"Ġxui":5668,"PhÃ¢n":5669,"ĠTráº§n":5670,"ĠCanada":5671,"km":5672,"ĠbÃ¹n":5673,"Chia":5674,"Ġdá»ĵn":5675,"ĠBell":5676,"ĠPablo":5677,"icity":5678,"ĠtÃŃm":5679,",...<":5680,"Ġá»ĳc":5681,"ĠÄĳáº§m":5682,"ĠthiÃª":5683,"ĠkhÃ¡i":5684,"ĠquÄĥng":5685,"ĠThá»ķ":5686,"acy":5687,"ĠScarlett":5688,"ble":5689,"ĠÄĳam":5690,"ĠThá»§y":5691,"ula":5692,"Sher":5693,"ĠEdward":5694,"nÃły":5695,"ves":5696,"Ġrá»±c":5697,"ĠNaz":5698,"ĠPháºŃt":5699,"ĠStan":5700,"oulson":5701,"dia":5702,"ĠcÃºt":5703,"ĠhÆ¡":5704,"ĠduyÃªn":5705,"ĠSant":5706,"ild":5707,"oki":5708,"Ġthink":5709,"ĠrÆ¡":5710,"ĠnÃ³c":5711,"ĠgiÃ¢":5712,"ĠGiÃ¡m":5713,"44":5714,"Tony":5715,"Ġgáº¡ch":5716,"ĠnhÃŃch":5717,"ĠTheo":5718,"Ġoxy":5719,"cHF":5720,"ĠtÃł":5721,"ĠnÆ°Æ¡":5722,"ĠChÃŃnh":5723,"ĠJason":5724,"ĠBruce":5725,"ife":5726,"Ġdá»Ŀi":5727,"orp":5728,"ĠPhoebe":5729,"Ġthá»ĭnh":5730,"ĠBoston":5731,"ĠcÆ°Æ¡":5732,"ThÃ¡ng":5733,"ĠRose":5734,"ĠQuá»·":5735,"ĠBat":5736,"ĠHitler":5737,"ĠDeb":5738,"ĠDNA":5739,"ĠÄĲá»ĥ":5740,"ury":5741,"ĠYoung":5742,"ChuyÃª":5743,"Charles":5744,"MÃ£":5745,"TÄĥng":5746,"rl":5747,"Ġváº§n":5748,"ÄĲáº¥t":5749,"ThÃ¡m":5750,"26":5751,"Sm":5752,"let":5753,"sen":5754,"entine":5755,"How":5756,"Mmm":5757,"Pr":5758,"Quyá»ģn":5759,"Ġif":5760,"Ġtráº·c":5761,"ĠSÆ¡":5762,"TuÃ¢n":5763,"Â£":5764,"Ġkiá»ģm":5765,"erg":5766,"ĠTrÆ°á»Łng":5767,"eller":5768,"Gar":5769,"ĠMau":5770,"ĠCho":5771,"ĠVi":5772,"Giáº¥y":5773,"ĠxuÃ´i":5774,"Hiá»ĩu":5775,"kes":5776,"Ìī<":5777,"ĠGandalf":5778,"eyes":5779,"vÃło":5780,"ÄĲá»Ŀi":5781,"ĠxÃ³t":5782,"PhÃ³ng":5783,"ĠlÃŃu":5784,"ouston":5785,"nhanh":5786,"Ġtháº¯n":5787,"ĠBay":5788,"ĠGotham":5789,"ĠVá»ĩ":5790,"Ġnhiá»ħu":5791,"Lá»Ĺi":5792,"PS":5793,"Ġlam":5794,"ĠsÃ²ng":5795,"cháº¯c":5796,"ĠGro":5797,"ĠRuss":5798,"ĠKate":5799,"adel":5800,"Ġsoáº¡n":5801,"04":5802,"Ká»³":5803,"ĠKhi":5804,"ĠbÃ¡t":5805,"ĠTáºŃp":5806,"Xuáº¥t":5807,"De":5808,"Táº§ng":5809,"á»°":5810,"ĠÄĳiá»ģn":5811,"Ġngai":5812,"Ġphá»¥ng":5813,"ĠgiÃ´":5814,"ĠÄĲÃªm":5815,"Ġevery":5816,"ness":5817,"Ġcay":5818,"Ġvá»ĵ":5819,"Ġnáº£y":5820,"Ġhis":5821,"Ġnghiá»ģn":5822,"ĠDi":5823,"cofield":5824,"Fel":5825,"My":5826,"fred":5827,"ĠcÃ":5828,"Ġkhe":5829,"ĠngÆ¡":5830,"Ġ27":5831,"ĠNa":5832,"LÃ²ng":5833,"wa":5834,"ĠsÃºp":5835,"Ġxi":5836,"Ġ400":5837,"ĠlÆ°á»Ľt":5838,"ĠsÆ°Æ¡ng":5839,"ĠnhÃºc":5840,"ĠGen":5841,"elf":5842,"ĠGrey":5843,"ĠEric":5844,"Sá»Ł":5845,"oot":5846,"Kháº£":5847,"QuÃ¡i":5848,"242":5849,"ĠSimon":5850,"'d":5851,"KÃªu":5852,"Âº":5853,"Ġmen":5854,"Ġnghiá»ĩt":5855,"ĠSean":5856,"ĠHá»ķ":5857,"kho":5858,"ĠmÃ£nh":5859,"But":5860,"Pat":5861,"Tháº¯ng":5862,"Ngáº¡c":5863,"ĠTÃłu":5864,"Trang":5865,"Trá»ĳn":5866,"ĠOK":5867,"icholas":5868,"ĠbÆ°á»Ľm":5869,"Cung":5870,"Gandalf":5871,"Ġchip":5872,"ĠLuke":5873,"ync":5874,"Ġsá»«ng":5875,"ĠAlpha":5876,"ms":5877,"Ġpháº¿t":5878,"ĠHuy":5879,"ĠLiz":5880,"ĠAf":5881,"ĠInd":5882,"Ġxuáº©n":5883,"ĠÄĳÃ¹i":5884,"ondor":5885,"ĠSavage":5886,"uth":5887,"ĠhÃ²ng":5888,"á»£m":5889,"avo":5890,"ĠWalt":5891,"terpris":5892,"200":5893,"Ġkm":5894,"ĠsÃ¢m":5895,"ĠgÅ©i":5896,"ĠHolly":5897,"Kevin":5898,"br":5899,"nt":5900,"á»¢":5901,"ĠSá»Ł":5902,"ĠStar":5903,"aby":5904,"William":5905,"Má»¥":5906,"ĠcÃ¡u":5907,"Ġná»©t":5908,"ĠkhÃ¢u":5909,"Chim":5910,"Ġvá»¥n":5911,"tral":5912,"KH":5913,"cer":5914,"he":5915,"aisy":5916,"ĠBáº£y":5917,"ĠÄĲen":5918,"ĠEsc":5919,"ĠLuÃ¢n":5920,"á»Ĳi":5921,"Ġláº»n":5922,"han":5923,"Ġká»ģ":5924,"ĠKai":5925,"Ġlá»ĩch":5926,"ĠClay":5927,"88":5928,"Mal":5929,"ĠhÃłn":5930,"ause":5931,"ĠChuck":5932,"ĠthuÃ´":5933,"ĠKhu":5934,"LoÃłi":5935,"Ġchá»Ńi":5936,"Cá»¥c":5937,"Mer":5938,"niss":5939,"ÄĲá»¡":5940,"ju":5941,"ĠgÄĥng":5942,"Ġnhai":5943,"Ġthá»į":5944,"ifer":5945,"ĠMatthew":5946,"Is":5947,"Máº¡ng":5948,"Paul":5949,"Ġná»Ļ":5950,"ĠÄĳá»±c":5951,"Ġwould":5952,"Nick":5953,"ĠchÃ¬":5954,"ĠchÃ¢":5955,"ĠvÃ£":5956,"chu":5957,"ĠTar":5958,"DÃ¢y":5959,"Jake":5960,"po":5961,"Â©":5962,"ĠThiáº¿t":5963,"ala":5964,"Ġnáº¿n":5965,"ito":5966,"Per":5967,"SiÃªu":5968,"bs":5969,"bá»Łi":5970,"Ġnáº¡t":5971,"Ġngáº§u":5972,"ĠCass":5973,"esh":5974,"ĠThá»¥y":5975,"ĠNap":5976,"ĠLucas":5977,"DE":5978,"Mc":5979,"fell":5980,"zz":5981,"ĠlÃµi":5982,"ĠChun":5983,"iami":5984,"ĠJacob":5985,"Ti":5986,"Ġpháº¿":5987,"ican":5988,"ashi":5989,"Dave":5990,"TÃ¢m":5991,"uan":5992,"ĠcÃ¡n":5993,"Ġhiáº¿u":5994,"Ġnháº¡o":5995,"phia":5996,"ani":5997,"Phim":5998,"ĠGid":5999,"ĠtÃ½":6000,"Truyá»ģn":6001,"oman":6002,"ĠTHUáº¬T":6003,"LE":6004,"Tinh":6005,"ĠnÃ©t":6006,"ĠCÃ¡c":6007,"Ġdoáº¡":6008,"ewis":6009,"Mat":6010,"XÃ©t":6011,"Ġbáº§m":6012,"ĠsÆ°á»Łi":6013,"ĠMÄ©":6014,"ĠBÃ³ng":6015,"Ġbáº£nh":6016,"ĠPep":6017,"ĠthoÃ¡ng":6018,"rael":6019,"ĠuÃ½":6020,"entin":6021,"ĠBrook":6022,"Lou":6023,"New":6024,"Ãĳ":6025,"ĠnhÃ¡y":6026,"Ġque":6027,"chi":6028,"Ġcua":6029,"ĠJay":6030,"umble":6031,"BÃ¡n":6032,"lad":6033,"low":6034,"ĠBáº¡n":6035,"ĠÄĲiá»ģu":6036,"awa":6037,"ĠAnton":6038,"uzz":6039,"bi":6040,"nold":6041,"Ġcm":6042,"ĠÄĳiáº¿c":6043,"Ġnhá»ĭ":6044,"Ġráº§y":6045,"ĠtrÆ°á»£ng":6046,"ĠdÆ°a":6047,"Ġquáº¡":6048,"ĠMi":6049,"Ġ26":6050,"illa":6051,"idd":6052,"arling":6053,"ohan":6054,"aku":6055,"ks":6056,"Ġnever":6057,"anc":6058,"Ġbá»ĭt":6059,"ĠBourne":6060,"ĠHá»į":6061,"ĠRá»ĵng":6062,"ĠVÃ¬":6063,"olt":6064,"ĠWatson":6065,"HÃŃt":6066,"Le":6067,"TÃ²a":6068,"VÃ¹ng":6069,"cáº£m":6070,"ĠcÃ²i":6071,"Ġkhiáº¿t":6072,"ĠhÃ¡i":6073,"Ġháº»m":6074,"ĠRagnar":6075,"ĠThá»ĭ":6076,"ĠEs":6077,"awrence":6078,"95":6079,"Yes":6080,"jamin":6081,"ĠxÃ¡m":6082,"ĠGrant":6083,"ilbo":6084,"ĠchÃ´m":6085,"ĠMag":6086,"ĠTá»ĳi":6087,"ĠSil":6088,"ĠNgÃły":6089,"ĠHarvey":6090,"ĠFlorida":6091,"'.<":6092,"Bill":6093,"TÆ¯á»ľNG":6094,"Ãĸ":6095,"ngay":6096,"Ġngá»£i":6097,"Ġxáº»":6098,"ĠTÃ¬nh":6099,"andwich":6100,"men":6101,"Ġváº«y":6102,"ĠtrÆ¡n":6103,"ĠBor":6104,"Ġany":6105,"ĠEthan":6106,"Ġwhen":6107,"90":6108,"En":6109,"Go":6110,"Lá»±c":6111,"MáºŃt":6112,"cow":6113,"ĠcÃ¡p":6114,"ĠvÆ°á»Ľng":6115,"ĠÄĲÃ¢y":6116,"Ãµm":6117,"itol":6118,"Rá»Ŀi":6119,"obar":6120,"ĠlÃ£m":6121,"Ġ911":6122,"ips":6123,"297":6124,".,":6125,"Ġun":6126,"Cháº·n":6127,"Ġdá»ĳc":6128,"Nháº¹":6129,"ĠhoÃłnh":6130,"ĠPro":6131,"ĠBrad":6132,"ebecca":6133,"ĠClark":6134,"bon":6135,"ĠlÆ°á»Ŀi":6136,"ĠbÃ³c":6137,"augh":6138,"Dá»±a":6139,"TR":6140,"hai":6141,"Ġláº«y":6142,"ĠÄĲÃłi":6143,"ully":6144,"Ná»Ĺi":6145,"las":6146,"mÃ¬nh":6147,"ĠbÆ°":6148,"Ġnháº½":6149,"Ġtrá»į":6150,"ĠSun":6151,"ĠLat":6152,"Ġ28":6153,"ĠVirg":6154,"Ġtuá»ĩ":6155,"Ġmake":6156,"ĠXÃ´":6157,"other":6158,"Scott":6159,"ĠxÃ´i":6160,"ĠCá»©":6161,"ĠChi":6162,"Ġwell":6163,"ogan":6164,"ĠTyler":6165,"Gre":6166,"oáº¡i":6167,"rich":6168,"ĠtrÃ¡n":6169,"Thiáº¿p":6170,"Thá»ĭt":6171,"ĠGeorg":6172,"Ġ36":6173,"uri":6174,"Ġpiano":6175,"Ġá»Ľt":6176,"ĠlÃºt":6177,"Ġnáº¯p":6178,"ĠbÆ°u":6179,"ĠnhÃ£n":6180,"ĠÄĳÃ£ng":6181,"trÆ°á»Ľc":6182,"........":6183,"ĠTurner":6184,"ĠGideon":6185,"xp":6186,"Ġcong":6187,"ĠchÆ°á»Ľc":6188,"Ġthá»±":6189,"ĠgÃ¬n":6190,"ĠSung":6191,"ĠSing":6192,"ĠBá»©c":6193,"anslat":6194,"House":6195,"Ty":6196,"TáºŃn":6197,"Ġtá»§y":6198,"Ġroi":6199,"ÄĲÃ¡":6200,"ĠTá»ķ":6201,"ĠTer":6202,"ĠLinda":6203,"ĠChase":6204,"ĠGu":6205,"ĠEmma":6206,"ĠWhit":6207,"Ġkhuyáº¿n":6208,"Henry":6209,"Nam":6210,"vis":6211,"oney":6212,"inia":6213,"ĠSer":6214,"ĠAg":6215,"ĠJoy":6216,"ĠRand":6217,"ĠClar":6218,"ĠFrancisco":6219,"35":6220,"PD":6221,"VáºŃt":6222,"áº¦":6223,"ĠrÃ¹a":6224,"ĠTinh":6225,"ĠCao":6226,"ĠLÃ£nh":6227,"ĠTrÆ°á»Ŀng":6228,"attan":6229,"ĠthÃ©t":6230,"Ġgáº§y":6231,"Ġngáº§n":6232,"any":6233,"ĠLÃłm":6234,"BA":6235,"Ste":6236,"Ġnu":6237,"Tra":6238,"Ġlook":6239,"ĠNic":6240,"ĠStorm":6241,"ĠAnnie":6242,"Ġkhuya":6243,"Â¾":6244,"ĠchÃ¨o":6245,"ĠnhÃºng":6246,"ĠphÆ¡i":6247,"ĠBá»ĩ":6248,"ied":6249,"Ġwho":6250,"Ġsex":6251,"ĠVincent":6252,"Cr":6253,"HD":6254,"KÃŃch":6255,"SÄ©":6256,"Ġte":6257,"ĠmÆ°":6258,"Ġher":6259,"aney":6260,"Emily":6261,"ĠKe":6262,"Ġheart":6263,"ĠMolly":6264,"ĠMiami":6265,"ĠGh":6266,"agol":6267,"ĠvÃ¡c":6268,"Ġváº¡t":6269,"ĠmÃ¡nh":6270,"Ġnight":6271,"Ġbáº¿":6272,"ĠAng":6273,"outh":6274,"ĠPier":6275,"BÃ©":6276,"tá»ĳt":6277,"ĠXin":6278,"Ġ*<":6279,"Ġnhá»ĵi":6280,"ÄĲáº¿m":6281,"chá»ĭ":6282,"Tráº»":6283,"ote":6284,"ĠÄĳÆ°Æ¡c":6285,"ĠxoÃ¡y":6286,"Ã©ng":6287,"ĠÄĳao":6288,"ĠvÃ²i":6289,"ĠColl":6290,"ĠLisa":6291,"ĠTeddy":6292,"Ráº½":6293,"Ted":6294,"di":6295,"uff":6296,"Ġbus":6297,"Ġxen":6298,"ĠTÃło":6299,"ĠNá»Ļi":6300,"Nghi":6301,"ĠSanta":6302,"55":6303,"bá»ĭ":6304,"Ġen":6305,"ĠbÃ´i":6306,"ĠBau":6307,"ĠGall":6308,"atron":6309,"ĠStone":6310,"Sherlock":6311,"EC":6312,"Er":6313,"cul":6314,"ĠbÃ¬":6315,"Ġhá»ķng":6316,"Ġnhá»±a":6317,"ChÃ¡n":6318,"ÄĲáºŃp":6319,"ĠMord":6320,"ĠMik":6321,"ĠDra":6322,"ĠAth":6323,"ĠÄĲáº£ng":6324,"ĠIris":6325,"Ġoff":6326,"áºłI":6327,"ĠTeam":6328,"83":6329,"LL":6330,"Viáº¿t":6331,"ĠnÄĥ":6332,"ĠpháºŃt":6333,"ĠnghÃªnh":6334,"eland":6335,"ĠQU":6336,"line":6337,"ring":6338,"ĠvÃ£n":6339,"Ġvali":6340,"sei":6341,"Ġboong":6342,"Ġlen":6343,"ĠlÆ°á»¡ng":6344,"Ġphanh":6345,"ĠTá»Ļc":6346,"ĠBeth":6347,"ĠÄĳoa":6348,"Eddie":6349,"San":6350,"ĠcH":6351,"Ġbá»«a":6352,"ĠnhÃ¡nh":6353,"ines":6354,"Tham":6355,"Ġgiá»Ł":6356,"ĠSol":6357,"ĠKn":6358,"ĠEver":6359,"ird":6360,"ĠXu":6361,"ĠHarold":6362,"ĠPalmer":6363,"Daniel":6364,"DÃ²ng":6365,"Ġláº¡m":6366,"ĠnhÆ°á»£ng":6367,"ĠtrÃło":6368,"Ġphiáº¿n":6369,"Ġxáº£o":6370,"ĠBÃ¡":6371,"ĠDol":6372,"ector":6373,"ĠBarnes":6374,"ĠReese":6375,"cHFFFFFF":6376,"á»¦A":6377,"ĠvÃ¡ch":6378,"Ġbá»Ĺng":6379,"ĠrÃ¡n":6380,"ĠdÆ°Æ¡":6381,"ĠBinh":6382,"Ìī,":6383,"esa":6384,"aver":6385,"ĠRaymond":6386,"ĠEnterpris":6387,"Dáº¡o":6388,"Ġná»ģ":6389,"Ġngá»¥":6390,"ĠSáº¯t":6391,"ĠBáº¡ch":6392,"ĠHá»ĵi":6393,"ĠÄĲÃ´n":6394,"uill":6395,"Ġhuá»ĩ":6396,"ect":6397,"aint":6398,"ĠJesse":6399,"Bá»ĩ":6400,"Binh":6401,"Dom":6402,"ST":6403,"Sa":6404,"TiÃªn":6405,"yatt":6406,"Ġour":6407,"Ġthem":6408,"Ġtháº¹n":6409,"Ġsandwich":6410,"ĠJosh":6411,"ĠReg":6412,"ely":6413,"ridge":6414,"CÃº":6415,"Doug":6416,"mb":6417,"Ġáº©m":6418,"Ġchá»ĵn":6419,"Ġrá»¡":6420,"ĠdÆ°ng":6421,"ĠTroy":6422,"ivi":6423,"TÆ¡":6424,"Ġcar":6425,"ĠgÃło":6426,"ĠrÃłnh":6427,"Ġphiá»ĩn":6428,"NgÃ¢n":6429,"ĠWar":6430,"oster":6431,"Há»¡i":6432,"tÃªn":6433,"Ġláº§y":6434,"Ġmore":6435,"phie":6436,"Nhi":6437,"anhattan":6438,"ĠCá»¦A":6439,"ider":6440,"\"Â":6441,"28":6442,":.<":6443,"Jess":6444,"wo":6445,"ancy":6446,"ĠTÃ²a":6447,"ĠBing":6448,"odd":6449,"ĠDavis":6450,"Mor":6451,"day":6452,"mi":6453,"Chandler":6454,"ĠMia":6455,"ĠMick":6456,"ĠGary":6457,"ĠRen":6458,"ĠAnn":6459,"iskey":6460,"Hel":6461,"Ġmá»¡":6462,"uyáº¿n":6463,"ĠSA":6464,"icia":6465,"azar":6466,"ĠBarb":6467,"ĠMoscow":6468,"DN":6469,"Mart":6470,"Xo":6471,"Ġlet":6472,"Ġtake":6473,"ĠMÃ¬nh":6474,"ĠHong":6475,"Bi":6476,"ĠcÆ°a":6477,"ĠnÃ©":6478,"orry":6479,"ĠGood":6480,"ĠJerry":6481,"lake":6482,"MÃ£i":6483,"Ġor":6484,"Ġri":6485,"ĠGrayson":6486,"py":6487,"ĠchÃŃch":6488,"ĠkÃ¨o":6489,"ĠCooper":6490,"ĠCapitol":6491,"tit":6492,"áº®":6493,"Ġbáº¥y":6494,"Ġsir":6495,"ÌĢ...<":6496,"ĠÄĳá»ĥu":6497,"ĠMaggie":6498,"ĠSÃ¡u":6499,"erys":6500,"Ġná»ĵng":6501,"ĠCat":6502,"ĠDur":6503,"Ġ....<":6504,"Ġshow":6505,"Báº£y":6506,"Billy":6507,"Wil":6508,"sá»±":6509,"ĠLily":6510,"ĠNhá»ĩn":6511,"ĠAlb":6512,"ope":6513,"ĠLance":6514,"Carol":6515,"Hank":6516,"Sang":6517,"hoo":6518,"ngÆ°Æ¡i":6519,"Ġlá»±u":6520,"ĠhÃ¹":6521,"Ġdinh":6522,"ĠDEA":6523,"Val":6524,"ĠthÃ¢y":6525,"Ġaway":6526,"Æ°á»£m":6527,"ĠNe":6528,"edy":6529,"iper":6530,"Francis":6531,"enstein":6532,"Ġtruá»ĵng":6533,"Good":6534,"Náº¡n":6535,"ĠlÆ°á»Ŀng":6536,"ĠmÃ¬n":6537,"ĠmÃ©p":6538,"Ġguy":6539,"ÄĲá»ĳt":6540,"Kháº©u":6541,"áº³m":6542,"udev":6543,"ĠKaren":6544,"IC":6545,"Má»ĳi":6546,"biáº¿t":6547,"sey":6548,"ĠtrÃ´":6549,"ĠphÆ°á»Ľc":6550,"ĠchoÃ¡ng":6551,"ĠMak":6552,"ĠTháºŃt":6553,"Äĳá»ĵ":6554,"okyo":6555,"ĠThea":6556,"ĠReid":6557,"ĠEscobar":6558,"Sub":6559,"uj":6560,"etch":6561,"oyd":6562,"ANG":6563,"ĠcháºŃt":6564,"Ġgu":6565,"ĠCen":6566,"ĠCháº¿t":6567,"ĠÂ¶":6568,"Cáº¥p":6569,"Dáº¹p":6570,"Let":6571,"ĠtÃ´m":6572,"Ġnáº£n":6573,"Ġgáº§m":6574,"NgÄĥn":6575,"ĠNgá»įc":6576,"ĠNguyÃªn":6577,"ude":6578,"ĠBrody":6579,"ĠWinterfell":6580,"Tiáº¿c":6581,"Ġchuá»ĳi":6582,"ĠhÄĥng":6583,"Ġhá»¥t":6584,"Cháº¥p":6585,"Ġdáº«m":6586,"ĠCá»¥c":6587,"ĠMarsh":6588,"ĠAshley":6589,"ĠBennet":6590,"LáºŃp":6591,"bl":6592,"san":6593,"ven":6594,"Ł<":6595,"Thá»Ł":6596,"arty":6597,"ĠTin":6598,"ĠCos":6599,"Tráº¡m":6600,"ĠJun":6601,"ersey":6602,"anks":6603,"ĠKatie":6604,"ï¼Ł<":6605,"\"...<":6606,"Xá»Ń":6607,"bord":6608,"Ġcháº£i":6609,"Ġsan":6610,"ĠphÃłm":6611,"ĠTÃ¢m":6612,"ĠCuddy":6613,"ĠFitz":6614,"ota":6615,"avis":6616,"Khoa":6617,"ĠJohnson":6618,"ĠLaurel":6619,"ĠMordor":6620,"udeviet":6621,"ci":6622,"ctor":6623,"ĠÃ´n":6624,"Ġviáº¿ng":6625,"ĠmÃ¡ch":6626,"Ġbá»ķng":6627,"Ġrá»§":6628,"Ġphang":6629,"Ġtam":6630,"ĠGondor":6631,"Ġthuáº«n":6632,"aggins":6633,"ĠScotland":6634,",\"<":6635,"Cá»±c":6636,"Lá»ĭch":6637,"Leon":6638,"SÃ¡t":6639,"ces":6640,"Â¥":6641,"ĠtÃ¡ng":6642,"Ġcá»ĳi":6643,"Ġkáº½":6644,"anie":6645,"ThÃ¡i":6646,"ĠHans":6647,"Ġtháº£y":6648,"Ġthá»«ng":6649,"ÄĲáº©y":6650,"ĠHá»įc":6651,"ĠKÃ´ng":6652,"uro":6653,"Ġbeen":6654,"42":6655,"Lá»¡":6656,"ĠÄĳáº¯p":6657,"ĠchÃ¹i":6658,"ĠrÃ£i":6659,"Ġduyá»ĩt":6660,"á»¥a":6661,"ĠSyl":6662,"imo":6663,"rix":6664,"Be":6665,"TÃŃn":6666,"bing":6667,"dd":6668,"ĠsÃ©c":6669,"ĠnhÃ£i":6670,"Robert":6671,"lu":6672,"Ġchanh":6673,"uba":6674,"ombia":6675,"Monica":6676,"Can":6677,"Lá»ħ":6678,"dock":6679,"sky":6680,"Ġá»¦y":6681,"ÄĲÃ¨n":6682,"ĠDick":6683,"ĠJordan":6684,"ĠJoseph":6685,"ĠKong":6686,"ĠWick":6687,"ega":6688,"ĠLucy":6689,"Ġáº¢":6690,"ĠtÃło":6691,"ĠmiÃªu":6692,"ĠbÃ¡ch":6693,"ĠHá»ĵ":6694,"ĠHal":6695,"ĠGo":6696,"ĠJersey":6697,"elt":6698,"ĠVá»¥":6699,"ĠFiona":6700,"ĠPhu":6701,"ĠQuyá»ģn":6702,"Uhm":6703,"ĠBarney":6704,"uko":6705,"Sá»Ń":6706,"so":6707,"ĠliÃªng":6708,"ĠGab":6709,"Ġcall":6710,"ower":6711,"riend":6712,"aka":6713,"Ġchá»£t":6714,"02":6715,"Lor":6716,"king":6717,"oom":6718,"Ã«":6719,"ĠÃ¢u":6720,"Ġgame":6721,"ĠtrÃºt":6722,"ĠGPS":6723,"ĠOx":6724,"burg":6725,"Táº¡o":6726,"born":6727,"gy":6728,"ĠdÃŃ":6729,"Ġxá»ĭt":6730,"chÃło":6731,"ĠMir":6732,"ĠSum":6733,"ĠAz":6734,"ĠViÃªn":6735,"ÄĲoÃłn":6736,"Steve":6737,"Ġlon":6738,"ĠlÃ¡ch":6739,"Ġtráº¯c":6740,"Ġag":6741,"á»£n":6742,"ĠLyn":6743,"ĠRáºŃp":6744,"GiÃ¡ng":6745,"azz":6746,"ĠAmanda":6747,"Ġcá»įc":6748,"?\"":6749,"Dr":6750,"ĠÄĳáº¯c":6751,"Ġbáº©m":6752,"ĠbÃ©n":6753,"ĠFox":6754,"ova":6755,"Tommy":6756,"01":6757,"vi":6758,"ĠÄĳiá»ģm":6759,"Ġchá»įi":6760,"ĠnÃ©n":6761,"Ġrá»ķ":6762,"aya":6763,"Ġngháº¿ch":6764,"KhÃ¡c":6765,"aid":6766,"ĠSÃ¡t":6767,"ĠBuck":6768,"ĠCung":6769,"ĠJin":6770,"ĠRod":6771,"theo":6772,"ÄĳÆ°a":6773,"ahl":6774,"erek":6775,"05":6776,"EO":6777,"HÃłi":6778,"IT":6779,"MÆ¡":6780,"aff":6781,"Ġgiáº§y":6782,"ĠkhiÃªm":6783,"ĠTao":6784,"ĠLÆ°u":6785,"ĠRich":6786,"ĠVÃ´":6787,"Ġvá»ĭnh":6788,"ĠQuáºŃn":6789,"team":6790,"lymp":6791,"Diá»ħn":6792,"Thá»ģ":6793,"ĠManhattan":6794,"amm":6795,"ĠRio":6796,"ĠNed":6797,"QuÃ¡n":6798,"Ġ32":6799,"ĠElizabeth":6800,".'<":6801,"Ken":6802,"book":6803,"Ġváº·n":6804,"Ġsc":6805,"Ġhad":6806,"Ġdáº»o":6807,"Phá»¥c":6808,"ĠÄĲiá»ĩn":6809,"ĠVÃµ":6810,"ĠHoward":6811,"TÃŃ":6812,"Ġlá»Ļng":6813,"ĠxÆ¡":6814,"7887":6815,"issa":6816,"ĠCaesar":6817,"Sky":6818,"rough":6819,"uf":6820,"ĠlÆ°Æ¡":6821,"Ġcháº·ng":6822,"Ġráº£i":6823,"ÄĲáº¥u":6824,"Ġdá»¡":6825,"Ì£<":6826,"ĠÄĲáº·c":6827,"ĠthoÃ¡i":6828,"ucker":6829,"ĠCastle":6830,"Lá»Ľn":6831,"mons":6832,"ple":6833,"Ġtell":6834,"Ġná»±c":6835,"ĠrÃ¬nh":6836,"Ġao":6837,"ChÄĥm":6838,"Ġxá»ĭn":6839,"Ġgiá»Ŀi":6840,"ĠJai":6841,"ision":6842,"ĠThá»©":6843,"ĠKenn":6844,"aly":6845,"ĠEvan":6846,"ĠStarling":6847,"259":6848,"Lá»±a":6849,"ÂŃ":6850,"Ġtivi":6851,"ĠcÄĥ":6852,"Ġbong":6853,"ĠkhÄĥng":6854,"Ġgirl":6855,"NÃ³ng":6856,"ores":6857,"ĠNA":6858,"ĠKirk":6859,"Ġ150":6860,"ollo":6861,"garet":6862,"ĠVictoria":6863,"Her":6864,"Láº¡nh":6865,"Sara":6866,"Ã¬u":6867,"ÄĲá»Ļt":6868,"Ġbá»ĭp":6869,"ĠTÃ´n":6870,"iago":6871,"ĠRy":6872,"raine":6873,"lÃºc":6874,"á»Ĩ":6875,"ĠcÃºng":6876,"ĠngÃ³":6877,"ĠSat":6878,"ĠScofield":6879,"ĠPl":6880,"oog":6881,"ĠAndre":6882,"47":6883,"Ġne":6884,"Chá»¯":6885,"ĠAaron":6886,"ĠKelly":6887,"Ġxoáº¯n":6888,"ĠcÃºn":6889,"ĠGiá»Ŀ":6890,"Adam":6891,"Mur":6892,"Matt":6893,"mo":6894,"Ġá»ŀ":6895,"ĠkÃ¬m":6896,"Ġgiáº¿ng":6897,"Ġdang":6898,"Ãµng":6899,"reak":6900,"áºµng":6901,"ĠBrand":6902,"7881":6903,"Brian":6904,"Dar":6905,"Rick":6906,"TÃĶi":6907,"bor":6908,"hi":6909,"ni":6910,"Ġmáº©u":6911,"ĠnÆ¡":6912,"Ġngáº¡t":6913,"Thá»§y":6914,"ĠBig":6915,"ĠLock":6916,"ĠAh":6917,"iego":6918,"ĠCentral":6919,"32":6920,"ĠlÃ¬n":6921,"Ġchay":6922,"ĠnÄĥn":6923,"ĠMá»įi":6924,"ĠKit":6925,"ghan":6926,"ĠVÃłng":6927,"Ġcá»§i":6928,"IP":6929,"gr":6930,"Ġnáº¥y":6931,"Chiá»ģu":6932,"Thá»£":6933,"iá»ģng":6934,"ĠGold":6935,"ryan":6936,"ĠMarie":6937,"ansa":6938,"**<":6939,"Bobby":6940,"Ġtháº£n":6941,"Ġnai":6942,"Ġrock":6943,"ĠVer":6944,"ĠViá»ĩn":6945,"odka":6946,"ĠNghá»ĭ":6947,"FBI":6948,"Táº¥m":6949,"gÃ¬":6950,"rice":6951,"ĠPháº£i":6952,"Ġliáº¿m":6953,"Ġbá»įt":6954,"This":6955,"Tháº©m":6956,"ĠSk":6957,"ĠBuzz":6958,"ĠDÃ¢n":6959,"Fl":6960,"INH":6961,"iot":6962,"ĠnhÄĥn":6963,"ÄĲáº£m":6964,"ThÃ¡o":6965,"Ġhot":6966,"ĠLind":6967,"ĠTrong":6968,"inger":6969,"Ġbá»ķn":6970,"Angel":6971,"ĠcÃło":6972,"ĠvÃ¹i":6973,"Ġngá»©a":6974,"Ġngá»¥y":6975,"ĠvÃłnh":6976,"ĠnghiÃª":6977,"ĠHotch":6978,"ĠCall":6979,"ĠOk":6980,"iko":6981,"Anna":6982,"LÃ¡":6983,"OM":6984,"Van":6985,"tus":6986,"Â®":6987,"Ġláº¹":6988,"Ġháº¡ch":6989,"ĠLá»¥c":6990,"raw":6991,"ething":6992,"ÃĤN":6993,"ĠRoger":6994,"96":6995,"Ġsáº¥u":6996,"ĠquÃ¡ng":6997,"They":6998,"ÌĢ!<":6999,"ĠBiÃªn":7000,"Ġcom":7001,"ĠWes":7002,"reet":7003,"ether":7004,"uki":7005,"ÄĲá»ĩch":7006,"Háº£i":7007,"ĠkH":7008,"ĠvÃ©t":7009,"Ġnhá»įn":7010,"Ġdai":7011,"ÃĶm":7012,"ĠnhÃłm":7013,"ĠCoulson":7014,"ator":7015,"ÃĢY":7016,"Ġnguá»Ļi":7017,"ĠAlexander":7018,"ĠCameron":7019,"Ġchá»ķi":7020,"ĠSuper":7021,"At":7022,"For":7023,"Vinh":7024,"~<":7025,"Ġel":7026,"Ġtáº¡ng":7027,"Ġcáº±n":7028,"ĠvÄĥng":7029,"ĠcÃ³ng":7030,"chÃŃnh":7031,"ĠCL":7032,"ĠADN":7033,"IS":7034,"dra":7035,"pher":7036,"Ġxiáº¿c":7037,"ĠBel":7038,"ial":7039,"ĠLÃ£o":7040,"ĠÄĲÃło":7041,"uit":7042,"Ġwon":7043,"ĠPhÃ³":7044,"ĠTaylor":7045,"ĠÂ¶<":7046,"Kar":7047,"á»Į":7048,"ĠlÃ¢n":7049,"Ġtháº³m":7050,"Ġsuá»ĳi":7051,"ĠhÃ¡o":7052,"ĠTÃ´":7053,"ĠHáº§u":7054,"Trá»±c":7055,"ĠLewis":7056,"ĠChÃº":7057,"ĠVÄĥn":7058,"ĠOlymp":7059,"annis":7060,"ĠMerlyn":7061,"Or":7062,"ru":7063,"ÂĮ":7064,"Ġray":7065,"oni":7066,"ĠnghiÃªng":7067,"Ngá»įn":7068,"ĠMai":7069,"ĠMason":7070,"á»ģu":7071,"ĠDiá»ĩp":7072,"ĠthuÃ¢":7073,"ĠOz":7074,"KÃ½":7075,"Ġgáº¡o":7076,"ĠSid":7077,"Ġhoáº£":7078,"Phil":7079,"ĠÄĲo":7080,"abel":7081,"Ġ75":7082,"Ġinch":7083,"ĠHunt":7084,"LÃ´i":7085,"ĠbÃ¡ng":7086,"ĠtrÃ¢":7087,"ĠSel":7088,"enerys":7089,"ila":7090,"cept":7091,"ione":7092,"ache":7093,"Red":7094,"Ġláº£ng":7095,"ĠngÃµ":7096,"ĠrÃ²":7097,"ĠtrÃ¢u":7098,"ĠxÆ°":7099,"cháº¿t":7100,"ĠGrace":7101,"ĠVik":7102,"idt":7103,"ulu":7104,"ĠTuáº§n":7105,"ĠForeman":7106,"Jac":7107,"TiÃª":7108,"Ãŀ":7109,"Ġáº¥u":7110,"Ġneo":7111,"Ġgio":7112,"ango":7113,"ĠHáº¯n":7114,"ĠLarry":7115,"elyn":7116,"ĠTháº©m":7117,"ĠFace":7118,"abelle":7119,"ĠQuÃ½":7120,"ennifer":7121,"ghanistan":7122,"AY":7123,"CÆ°á»Ľp":7124,"Ram":7125,"SÃ¡ch":7126,"side":7127,"xem":7128,"chÃº":7129,"ĠquyÃªn":7130,"ĠÄĳá»ĩch":7131,"instein":7132,"Tiá»ĩc":7133,"Táº§m":7134,"bar":7135,"Ġlife":7136,"Ġchá»ĳc":7137,"ĠrÃ¡ng":7138,".....<":7139,"ĠSom":7140,"TráºŃt":7141,"ami":7142,"ĠOsc":7143,"utobot":7144,"ĠCole":7145,"ĠGarcia":7146,"cules":7147,"NÄĥng":7148,"Ġkeo":7149,"Ġsá»§a":7150,"Ġxáº»o":7151,"Thá»«a":7152,"ĠBraz":7153,"ĠCle":7154,"ĠCá»§a":7155,"á»£t":7156,"PhÃ¹":7157,"Ġ29":7158,"ĠTháº§y":7159,"asc":7160,"ĠOliv":7161,"ĠArk":7162,"Andy":7163,"Johnny":7164,"lanta":7165,"Ethan":7166,"uart":7167,"emo":7168,"Tháº»":7169,"Nháº£m":7170,"ĠHiro":7171,"iles":7172,"aki":7173,"ights":7174,"Ġ198":7175,"áº¤T":7176,"Ãĺ":7177,"Ġtáº»":7178,"Ġthen":7179,"ÄĲiÃª":7180,"ThÃŃ":7181,"á»ķn":7182,"ĠGer":7183,"lease":7184,"Ġ42":7185,"ĠAngela":7186,"Nathan":7187,"ĠÄĳáº£":7188,"Ġsome":7189,"Ġgom":7190,"ChuyÃªn":7191,"Tháº³ng":7192,"NháºŃt":7193,"á»ım":7194,"ĠBy":7195,"ĠBaker":7196,"ĠDaw":7197,"ato":7198,"etter":7199,"the":7200,"oly":7201,"249":7202,"Chá»ĭu":7203,"loe":7204,"41":7205,"VÆ°á»£t":7206,"cÃ´ng":7207,"zie":7208,"Ġáº¿ch":7209,"Ġnhá»©c":7210,"ÄĲeo":7211,"ĠHá»£p":7212,"ati":7213,"Äĳáº§u":7214,"icon":7215,"Ġover":7216,"Ġgoing":7217,"Onii":7218,"VÃ£i":7219,"fa":7220,"Ġson":7221,"ĠrÃªn":7222,"Ġtriáº¿t":7223,"ÄĲáº¡n":7224,"ĠTokyo":7225,"ĠHá»Ļ":7226,"ĠXÃ¡m":7227,"92":7228,"Kan":7229,"MÅ©i":7230,"fs":7231,"Ġnhá»Ń":7232,"Ġxáº¯n":7233,"Thá»ĳng":7234,"ĠGe":7235,"ĠPap":7236,"ĠKl":7237,"ĠHoll":7238,"ĠCarrie":7239,"atalie":7240,"Bá»ĵ":7241,"Lee":7242,"VÄ©nh":7243,"ĠMack":7244,"ĠTw":7245,"Ġ197":7246,"ĠSamuel":7247,"rows":7248,"ĠColombia":7249,"ĠIsrael":7250,"Cáº¥m":7251,"Morg":7252,"we":7253,"ĠÆ°Æ¡ng":7254,"Ġtá»©":7255,"Ġbá»Ŀi":7256,"Ġstr":7257,"Ġhá»Ń":7258,"Ġnhá»ĭn":7259,"Ġtrá»¥i":7260,"Che":7261,"erto":7262,"ĠBonnie":7263,"ĠGI":7264,"oli":7265,"ĠTrÄĥng":7266,"Ġworld":7267,"ĠKyle":7268,"ĠBrooklyn":7269,"Del":7270,"OL":7271,"rn":7272,"Âĭ":7273,"Ġáº§m":7274,"Ġnom":7275,"ĠnhÆ°á»£c":7276,"Ġgive":7277,"Ì£,":7278,"ĠTuyáº¿t":7279,"ĠFish":7280,"ĠEy":7281,"ĠAlfred":7282,"ĠJessica":7283,"Ãİ":7284,"ĠÄĳÃły":7285,"Ġmá»£":7286,"Ġbá»Ľi":7287,"Ġcoca":7288,"oku":7289,"ĠGiá»Ľi":7290,"ĠMoses":7291,"AC":7292,"Mel":7293,"Meg":7294,"Quá»ĳc":7295,"ĠcÆ°á»Ľc":7296,"Ġdá»ĳt":7297,"Khai":7298,"ĠchÃ³t":7299,"endy":7300,"ĠÄĳá»ĩt":7301,"ĠMalcolm":7302,"ĠPatrick":7303,"361":7304,"37":7305,"AE":7306,"báº¯t":7307,"dÃ¹":7308,"zel":7309,"ÂĨ":7310,"nhÃł":7311,"ĠxÃŃt":7312,"ĠBab":7313,"ĠLÃł":7314,"ete":7315,"ĠchÃ³i":7316,"ĠRoman":7317,"ptimus":7318,"Ġmá»īa":7319,"AI":7320,"Cáº·p":7321,"bin":7322,"raham":7323,"Ġlá»Ļi":7324,"ĠbÄĥn":7325,"Ġnhá»§":7326,"Ġnhiáº¿p":7327,"ĠrÃ³t":7328,"Ġdáº£i":7329,"cháº³ng":7330,"ĠBud":7331,"ĠLand":7332,"ĠkhoÄĥn":7333,"ilet":7334,"ĠIan":7335,"Ġwanna":7336,"ĠBeau":7337,"ragorn":7338,"Ros":7339,"Ġlittle":7340,"Ġtháº¯p":7341,"Ġná»ĵi":7342,"Ġnháº±n":7343,"Ġpháº³ng":7344,"Ġxá»ı":7345,"ĠSusan":7346,"Ġtá»±a":7347,"ĠWade":7348,"á»ħn":7349,"Ann":7350,"ĠOrle":7351,"BÄĥ":7352,"Fred":7353,"ĠliÃª":7354,"Ġhá»©c":7355,"TrÆ°á»Łng":7356,"ansas":7357,"ĠJudy":7358,"ĠVirginia":7359,"ĠEnterprise":7360,"49":7361,"TÃºi":7362,"Ġtua":7363,"ĠkiÃªng":7364,"KhÃŃ":7365,"ĠBog":7366,"asa":7367,"olis":7368,"ign":7369,"âĻ«<":7370,"Spartacus":7371,"aitlin":7372,"MÃłn":7373,"Roy":7374,"Vá»Ľ":7375,"rin":7376,"ress":7377,"Ġlá»¥a":7378,"ĠbÃ¬a":7379,"ones":7380,"ĠSáº¿p":7381,"7909":7382,"othy":7383,"relli":7384,"Ke":7385,"less":7386,"ĠthÃ´n":7387,"ChÃºt":7388,"ĠCáº§u":7389,"Phiá»ģn":7390,"ĠKiá»ĩt":7391,"QuÃł":7392,"ĠFe":7393,"ĠFinn":7394,"Ġwere":7395,"ĠSpock":7396,"ĠSpartacus":7397,"Ġlá»ĳp":7398,"ORG":7399,"ĠAfghanistan":7400,"ĠXuÃ¢n":7401,"07":7402,"Lá»Ľp":7403,"ken":7404,"ret":7405,"ĠgÃ³a":7406,"Ġráº¡ch":7407,"ĠBaggins":7408,"PhÃ©p":7409,"use":7410,"Æ¯á»ľI":7411,"38":7412,"Vinc":7413,"Ġlanh":7414,"ĠlÃºa":7415,"ĠgÃ¡y":7416,"Ġquáº¥n":7417,"arin":7418,"ĠMÃły":7419,"ĠTerry":7420,"Tráº§n":7421,"ĠLam":7422,"ĠÄĳÃºc":7423,"Ãµa":7424,"ĠTrÆ°Æ¡ng":7425,"rella":7426,"ID":7427,"máº¥y":7428,"right":7429,"ĠcÃłnh":7430,"Ġmáº¯ng":7431,"Phoebe":7432,"ĠPort":7433,"una":7434,"Ġpound":7435,"ĠShire":7436,"Ġshh":7437,"Ġ.:<":7438,"ĠToretto":7439,"Walter":7440,"Hannah":7441,"Hello":7442,"Jane":7443,"Náº¡p":7444,"Ġtá»µ":7445,"ĠLane":7446,"ÄĲoáº¡n":7447,"liff":7448,"Thoáº£i":7449,"ÄĲáº¡o":7450,"Tháº¥t":7451,"ÃĶI":7452,"ĠBá»ĵ":7453,"ĠBull":7454,"ĠÄĲá»ĩ":7455,"alcon":7456,"ĠuÃ´":7457,"233":7458,"ĠÄĳá»ĩm":7459,"ĠValentine":7460,"eronica":7461,"ĠMurphy":7462,"ĠSubbing":7463,"Ġ****":7464,"weet":7465,"Ġgr":7466,"ÄĲÃ©o":7467,"Ġyo":7468,"ĠBuddy":7469,"ĠCÃ¡nh":7470,"ĠChÃ¢n":7471,"ĠArrow":7472,"ĠJoffrey":7473,"Ġagain":7474,"LÃ¡t":7475,"RÃ´":7476,"TÃ´n":7477,"á»®":7478,"ngÃłi":7479,"ĠÄĳá»ĳn":7480,"Ġgáº¯t":7481,"ĠtriÃª":7482,"ÄĲáº§y":7483,"Ġquá»µ":7484,"ĠTi":7485,"ĠDennis":7486,"Ġvá»¥ng":7487,"ĠNháº¥t":7488,"ĠoÃ¡n":7489,"trÃªn":7490,"hop":7491,"Marty":7492,"ibal":7493,"46":7494,"BB":7495,"lt":7496,"vard":7497,"ĠÆ°á»Ľp":7498,"ngÃły":7499,"ĠnháºŃu":7500,"Thor":7501,"Thomas":7502,"ĠBilbo":7503,"Ġhow":7504,"Ġtoo":7505,"ela":7506,"oud":7507,"ĠWins":7508,"ode":7509,"Marcus":7510,"ĠGrim":7511,"ĠSparta":7512,"ĠCharlotte":7513,"Xoay":7514,"ser":7515,"ti":7516,"ĠÄĳáº«m":7517,"ĠsÃ¹ng":7518,"ÄĲÃ´ng":7519,"á»īa":7520,"ĠCÃ¡t":7521,"ĠÄĲÃºng":7522,"Ġtuáº¿":7523,"ĠtuÃ½":7524,"eder":7525,"giá»ĳng":7526,"7863":7527,"Cap":7528,"HÃ²a":7529,"Há»§y":7530,"Máº«u":7531,"oid":7532,"Ãĩ":7533,"ĠnÃ¡u":7534,"Ġboy":7535,"ĠphÃ²":7536,"ĠdÆ¡i":7537,"TrÃºng":7538,"Ġ2000":7539,"ĠFort":7540,"Ġ37":7541,"ĠAli":7542,"Muá»Ļn":7543,"Cáº¥t":7544,"Col":7545,"]<":7546,"ts":7547,"ĠchÆ°á»Łng":7548,"ĠmiÃªn":7549,"Ġsm":7550,"ĠtrÆ°":7551,"ĠDiv":7552,"ĠChe":7553,"ĠÄĲá»Ļng":7554,"Quáº£n":7555,"ĠUmb":7556,"Æ¯á»¢":7557,"IET":7558,"adelphia":7559,"ĠOrleans":7560,"Gl":7561,"Tá»Ń":7562,"cc":7563,"pton":7564,"Ġláº±n":7565,"ĠHÃ¡n":7566,"ĠLas":7567,"ĠLÃ¹n":7568,"ĠDev":7569,"ĠKiáº¿m":7570,"asm":7571,"ĠVáºŃt":7572,"urai":7573,"udy":7574,"Alice":7575,"Matthew":7576,"31":7577,"Beck":7578,"RÃ¢":7579,"VN":7580,"fn":7581,"gon":7582,"lm":7583,"muá»ĳn":7584,"tÃ¬m":7585,"ĠtÄĥ":7586,"Ġchen":7587,"Ġná»ī":7588,"Ġquáº©n":7589,"enzo":7590,"PhÃ¡p":7591,"ĠLogan":7592,"ĠDory":7593,"ĠDaisy":7594,"thá»©":7595,"ĠQuáº£":7596,"over":7597,"Ġ196":7598,"GhÃª":7599,"ĠAtlanta":7600,"Lá»¥c":7601,"Ro":7602,"qua":7603,"váº«n":7604,"ĠVáºŃy":7605,"Ġsiáº¿t":7606,"ĠrÃ£":7607,"Ã©agol":7608,"ĠBlake":7609,"ĠLawrence":7610,"ĠGus":7611,"ĠÄĲáº¥ng":7612,"ĠNorman":7613,"Ġmá»īm":7614,"bender":7615,"ĠHollywood":7616,"ĠBrazil":7617,"DÃłnh":7618,"ráº±ng":7619,"ÂĬ":7620,"ĠgÃ´n":7621,"ĠTáº¥t":7622,"ĠSáº½":7623,"ĠChÃło":7624,"ĠJill":7625,"Ġ600":7626,"ĠNgÃ¢n":7627,"ĠZeus":7628,"ĠVinci":7629,"As":7630,"Jan":7631,"VÃµ":7632,"fan":7633,"jo":7634,"mon":7635,"ĠsÆ°ng":7636,"ĠBow":7637,"ĠHend":7638,"ĠCáº£m":7639,"Triá»ĩu":7640,"ĠPenn":7641,"usk":7642,"ĠQuáº£ng":7643,"Ġonly":7644,"Ġcá»¡i":7645,"Edward":7646,"39":7647,"Hung":7648,"Mich":7649,"Ġ=":7650,"Ġrá»ħ":7651,"ĠManny":7652,"ĠBoo":7653,"ĠHÃ²a":7654,"ĠCrow":7655,"ĠCuba":7656,"addy":7657,"ĠÄĳÃ´la":7658,"arlet":7659,"ĠIsa":7660,"lynn":7661,"ĠStephen":7662,"Ash":7663,"Bro":7664,"Niá»ģm":7665,"Ron":7666,"láº§n":7667,"mar":7668,"ĠÄĳáºŃm":7669,"ĠnH":7670,"ĠrÃ¡p":7671,"Ġcá»ıi":7672,"ChÃŃn":7673,"Ġquá»ī":7674,"aux":7675,"ĠHouston":7676,"ĠCá»ķ":7677,"ĠCisco":7678,"Ġtoilet":7679,"atter":7680,"ĠbÃ©t":7681,"ĠPow":7682,"ĠVá»ĭnh":7683,"ads":7684,"oween":7685,"ĠNhi":7686,"ermione":7687,"ĠFlorence":7688,"Vincent":7689,"Cá»Ń":7690,"Dáº¡y":7691,"gard":7692,"lÃªn":7693,"Ġhá»¡i":7694,"Ġrá»¯a":7695,"Nháº¡c":7696,"ĠSi":7697,"ĠCamp":7698,"ĠLav":7699,"ĠGiÃª":7700,"ĠTháº¥t":7701,"ĠNy":7702,"alia":7703,"adia":7704,"idon":7705,"ĠAmer":7706,"Far":7707,"Huyáº¿t":7708,"Molly":7709,"Nik":7710,"ras":7711,"Ġlay":7712,"Ġsing":7713,"Ġrá»¥i":7714,"Trá»ħ":7715,"ĠTháºŃp":7716,"ĠKent":7717,"idge":7718,"ives":7719,"ĠAlbert":7720,"ĠDebbie":7721,"umbledore":7722,"BÃ¡":7723,"Tui":7724,"bÃ¢y":7725,"cÃ¹ng":7726,"mont":7727,"nÆ¡i":7728,"viá»ĩc":7729,"ãģ":7730,"Ġtá»¥ng":7731,"Ġmá»ĳc":7732,"Ġbáº¡":7733,"Ġdiá»ħu":7734,"ĠSon":7735,"PhÃ¡o":7736,"ĠAk":7737,"ĠGuy":7738,"ĠNicholas":7739,"alo":7740,"Ġsomething":7741,"ĠIsaac":7742,"Amy":7743,"Há»ıa":7744,"ĠlÃ³c":7745,"ĠmÃ¢u":7746,"Ġkhuyáº¿t":7747,"Ġngá»«a":7748,"ailey":7749,"ĠAT":7750,"Giá»Ľi":7751,"eter":7752,"ĠVáº¥n":7753,"ĠhÃ²m":7754,"vania":7755,"Jesse":7756,"06":7757,"34":7758,"no":7759,"ĠlÃ©o":7760,"Ġtháº§u":7761,"ĠTitan":7762,"ĠkhoÃ¡t":7763,"tháº¥y":7764,"ĠVen":7765,"GiÃ³":7766,"ĠNguyá»ĩt":7767,"ulf":7768,"ÄĤM":7769,"ĠHarris":7770,"ggsy":7771,"ĠHunter":7772,"ĠConnor":7773,"Cas":7774,"DÆ°":7775,"Diá»ĩp":7776,"IÃĬN":7777,"Ser":7778,"Sá»Ńa":7779,"ning":7780,"Ã®":7781,"Ġ+":7782,"ĠÄĳan":7783,"ĠmiÃª":7784,"ÄĲáºŃu":7785,"Ġgieo":7786,"Nhiá»ĩt":7787,"Nhá»¡":7788,"ĠMach":7789,"ĠSai":7790,"ĠHad":7791,"ĠLá»ħ":7792,"ĠJen":7793,"rypton":7794,"tron":7795,"Ġ800":7796,"ugene":7797,"Arthur":7798,"ĠChristian":7799,"ĠHelen":7800,"self":7801,"tá»Ľi":7802,"Ã¸":7803,"ĠÃĶ":7804,"Ġbiáº¿ng":7805,"Ġhá»ĳt":7806,"ĠMitch":7807,"ĠCÃ²n":7808,"Truy":7809,"ĠWyatt":7810,"osa":7811,"ĠPhill":7812,"ÃĢNH":7813,"7895":7814,"ourt":7815,"Black":7816,"ĠStein":7817,"Ġaround":7818,"LÃ¢":7819,"Rog":7820,"Viet":7821,"ys":7822,"Ã¯":7823,"ĠÄĳÃłnh":7824,"Ġtháº¥m":7825,"Ġmáº¡":7826,"ĠrÃ¬u":7827,"ĠSaint":7828,"ĠLes":7829,"ĠAri":7830,"oma":7831,"ĠWorld":7832,"Ġcá»ĳp":7833,"ili":7834,"Giáº¥c":7835,"Ġfind":7836,"akes":7837,"ĠAlan":7838,"Ãģp":7839,"ÃľÃĸ":7840,"ĠLydia":7841,"ĠSherman":7842,"ĠWilliams":7843,"ĠvÆ°Æ¡n":7844,"ĠTrev":7845,"Ráº¯c":7846,"UDE":7847,"YD":7848,"tim":7849,"Ġlá»ĳc":7850,"Ġbá»ī":7851,"Ġquáº¥t":7852,"Nháº¥c":7853,"ĠTá»©":7854,"ĠAang":7855,"ĠAir":7856,"ĠKo":7857,"ĠkhoÃ¡n":7858,"ilton":7859,"ellow":7860,"ĠmÃ´t":7861,"ĠLaura":7862,"ĠNoel":7863,"ĠKHÃĶNG":7864,"Li":7865,"VIET":7866,"kg":7867,"ĠNhÆ°":7868,"áº¨":7869,"Ġmáº¥u":7870,"ĠnÃ²ng":7871,"inus":7872,"Ngá»±a":7873,"ĠSab":7874,"ĠÄĲá»ĵ":7875,"Ġghe":7876,"ĠYan":7877,"ager":7878,"ĠBravo":7879,"ĠNoah":7880,"ĠBecky":7881,"Just":7882,"Nor":7883,"Sean":7884,"cÃ¡m":7885,"fia":7886,"kun":7887,"ĠtÆ°ng":7888,"Ġthrough":7889,"ĠnhÄĥ":7890,"Ġnhá»įc":7891,"ĠrÃ¬a":7892,"ĠxÆ°á»Ľc":7893,"ĠSally":7894,"ĠLA":7895,"ĠDiego":7896,"ĠChim":7897,"Ġláº½o":7898,"ĠQuÃ¡i":7899,"lace":7900,"ĠvuÃ´ng":7901,"Ġtá»¥t":7902,"giá»¯":7903,"HÃ¡t":7904,"Jam":7905,"LÆ°u":7906,"TÃ¡c":7907,"Xa":7908,"dá»«ng":7909,"Ġkn":7910,"Ġtry":7911,"ĠTÃŃ":7912,"ele":7913,"ĠOd":7914,"ĠStev":7915,"enda":7916,"Garcia":7917,"LD":7918,"Sal":7919,"Te":7920,"Ġá»ĭ":7921,"Ġsáº¥m":7922,"Ġhas":7923,"ĠrÆ°Æ¡ng":7924,"anger":7925,"ĠTan":7926,"ĠThat":7927,"omon":7928,"ĠWeb":7929,"iger":7930,"ĠStreet":7931,"rov":7932,"Æ¯á»ļ":7933,"ĠSammy":7934,"ĠDaenerys":7935,"ï¼Į":7936,"ĠhÆ°Æ¡u":7937,"ĠÃļc":7938,"ĠCá»©u":7939,"Morgan":7940,"UDEVIET":7941,".?<":7942,"Cá»¥":7943,"Ooh":7944,"bb":7945,"lant":7946,"ĠMaster":7947,"ĠSá»±":7948,"ĠLab":7949,"ĠDumbledore":7950,"Ġthoi":7951,"rion":7952,"etti":7953,"á»Ĳng":7954,"Ass":7955,"Deb":7956,"Kate":7957,"Neil":7958,"Ġvest":7959,"ĠnÃºp":7960,"ĠbÃŃt":7961,"Ġrá»¥ng":7962,"ĠdÃ´":7963,"Ġdream":7964,"chÆ°a":7965,"VÃłng":7966,"ĠnhÃło":7967,"TrÃŃ":7968,"ĠJar":7969,"etta":7970,"Ġfire":7971,"enness":7972,"ppie":7973,"MÃ¨o":7974,"NÃ£o":7975,"VáºŃn":7976,"gary":7977,"rus":7978,"vÃ¢ng":7979,"Ġxáº©y":7980,"There":7981,"Nhá»ı":7982,"ĠKi":7983,"olet":7984,"Äĳa":7985,"Ġoan":7986,"ebast":7987,"ĠÄĳá»¥c":7988,"Martin":7989,"Lá»Ńa":7990,"NE":7991,"NÃ£y":7992,"ĠthuyÃªn":7993,"ĠkhÃ©p":7994,"ĠNgoáº¡i":7995,"ĠAmber":7996,"ĠCLB":7997,"Canh":7998,"Long":7999,"báº¥t":8000,"gn":8001,"ria":8002,"Ġ*":8003,"á»¬":8004,"Ġnáº¡i":8005,"Ġkhá»ĳc":8006,"ĠxÆ¡i":8007,"ĠSur":8008,"ĠSeth":8009,"ĠApp":8010,"ĠÄĲa":8011,"ĠNar":8012,"aha":8013,"edd":8014,"unt":8015,"ĠShel":8016,"enne":8017,"ĠZoe":8018,"ĠLuáºŃt":8019,"ĠFelicity":8020,"Ger":8021,"SS":8022,"get":8023,"Ġ....":8024,"ĠhÃ©":8025,"Ġtrá»įc":8026,"Chá»ĳng":8027,"Thá»ĥ":8028,"ĠCatherine":8029,"Ġluá»ĵng":8030,"ĠThÆ°a":8031,"ĠNak":8032,"ĠVic":8033,"iá»ħm":8034,"ĠIf":8035,"unzel":8036,"rop":8037,"ĠBolton":8038,"Simon":8039,"anslated":8040,"YDRA":8041,"cliff":8042,"wan":8043,"Ġtáº¥p":8044,"Ġkg":8045,"Ġtriá»ĩt":8046,"ÄĲáº£o":8047,"ĠdÃ£i":8048,"Ġqui":8049,"ĠTob":8050,"ĠSaul":8051,"ĠJenny":8052,"ĠRebecca":8053,"ĠPil":8054,"ĠTra":8055,"Ġtuá»Ļt":8056,"ĠMart":8057,"acon":8058,"ĠXanh":8059,"Ġshe":8060,"ylvania":8061,"ĠMcC":8062,"Charlotte":8063,"Ġnhuá»Ļm":8064,"ĠDarcy":8065,"52":8066,"worth":8067,"ĠÄĳáº¯ng":8068,"Ġtháº¡o":8069,"Ġmá»įt":8070,"ĠSÃ¡ng":8071,"ĠBorg":8072,"llie":8073,"ĠNÆ°Æ¡ng":8074,"ĠNev":8075,"ĠWester":8076,"ilo":8077,"ĠIÃł":8078,"ĠOt":8079,"Ġ67":8080,"anner":8081,"Ġ88":8082,"ĠhuÃ¢n":8083,"ĠJulie":8084,"Amanda":8085,"Hiá»ĥn":8086,"Káº¹o":8087,"Riley":8088,"Tor":8089,"ĠkhÃ©ng":8090,"Ġser":8091,"ĠgáºŃt":8092,"chill":8093,"ĠMah":8094,"ĠMetro":8095,"ĠRonnie":8096,"alin":8097,"ĠErik":8098,"ĠShin":8099,"ÃģNG":8100,"Scarlett":8101,"ED":8102,"Tiá»ĩn":8103,"Xáº¿p":8104,"xit":8105,"ĠâĢĵ":8106,"ĠthÃŃnh":8107,"Ġak":8108,"Cháº¥m":8109,"ĠMoon":8110,"ĠCom":8111,"Treo":8112,"ĠPor":8113,"alem":8114,"ĠWoody":8115,"ĠIra":8116,"ĠPhá»¥c":8117,"ĠYoo":8118,"She":8119,"ĠPrime":8120,"ĠPhiladelphia":8121,"ĠMiles":8122,"bending":8123,"ĠKennedy":8124,"98":8125,"Song":8126,"Vá»ĩ":8127,"ĠlÃ£i":8128,"Ġdá»Ļt":8129,"ember":8130,"Ìģ...<":8131,"ĠBra":8132,"ĠBetty":8133,"encer":8134,"ĠHÃ¹ng":8135,"aline":8136,"ĠOb":8137,"ĠGrand":8138,"ĠBenjamin":8139,"Ġtá»¥y":8140,"Katie":8141,"ĠBauer":8142,"ĠSylar":8143,"Dam":8144,"gie":8145,"rig":8146,"ĠhiÃªn":8147,"ÄĲá»ķ":8148,"ĠMáºŃt":8149,"ĠJed":8150,"Ġngoáº¡n":8151,"ĠKá»µ":8152,"ĠMikey":8153,".!<":8154,"300":8155,"Cave":8156,"Dean":8157,"Frodo":8158,"Jason":8159,"midt":8160,"ux":8161,"}âĻª":8162,"Ġmá»³":8163,"Ġcá»ĵ":8164,"ĠquÃ¨":8165,"ĠMÃ¡y":8166,"ĠCD":8167,"ĠRey":8168,"ĠKings":8169,"annibal":8170,"udson":8171,"ĠJackie":8172,"Marie":8173,"áº¾T":8174,"Malcolm":8175,"ĠUmbrella":8176,"ebastian":8177,"57":8178,"kov":8179,"wald":8180,"ĠÄĳáº¥ng":8181,"ĠnÃªu":8182,"Ġgiá»ı":8183,"NgáºŃm":8184,"ĠMu":8185,"ĠBax":8186,"ĠÄĲang":8187,"ĠPac":8188,"ĠVÃĢ":8189,"ĠFall":8190,"igne":8191,"Clar":8192,"ĠEllis":8193,"ĠJamie":8194,"Hmm":8195,"VÆ¡":8196,"ZT":8197,"cÆ¡":8198,"gen":8199,"lon":8200,"Ġchuá»ĳc":8201,"Ġnan":8202,"Ġgara":8203,"Ġreo":8204,"Ġdz":8205,"ĠdÆ°á»£ng":8206,"ĠTáº¡":8207,"Ġair":8208,"Ġhome":8209,"ĠJi":8210,"ĠNina":8211,"thá»±c":8212,"adow":8213,"ĠxoÃ¡":8214,"Katniss":8215,"ANH":8216,"EM":8217,"RI":8218,"Ġtáº¹o":8219,"ĠtrÃ¡t":8220,"ĠdiÃªm":8221,"emp":8222,"Nhá»ĭp":8223,"ĠHard":8224,"ĠluÃ¢":8225,"ĠGun":8226,"ĠÄĲÆ°":8227,"ĠThÃ¡o":8228,"ĠWolf":8229,"ics":8230,"illo":8231,"ĠZoom":8232,"ĠFranklin":8233,"ÃĮNH":8234,"Bom":8235,"Lá»£i":8236,"SÃ¢n":8237,"Xáº¥u":8238,"báº±ng":8239,"huh":8240,"ls":8241,"eone":8242,"ĠvÃ¡":8243,"ĠhÆ°ng":8244,"ĠráºŃp":8245,"Ġthá»ĩ":8246,"aii":8247,"lla":8248,"ĠDay":8249,"ĠEarth":8250,"ĠOld":8251,"Ġ99":8252,"ĠJoon":8253,"ĠHarrison":8254,"ylan":8255,"ĠÃģo":8256,"ÃĴng":8257,"Elizabeth":8258,"Ġdidn":8259,"Jesus":8260,"ĠTargary":8261,"08":8262,"Bor":8263,"CC":8264,"Gab":8265,"Yá»ĥm":8266,"Â½":8267,"ĠchÃ¹m":8268,"Ġdáº±n":8269,"ThÆ°Æ¡ng":8270,"NgÆ°á»£c":8271,"ĠMáº·p":8272,"ĠRohan":8273,"ĠngoÃ£n":8274,"ĠThÃ¡m":8275,"ĠThá»Ŀi":8276,"ĠKid":8277,"Ġngá»§i":8278,"roe":8279,"odes":8280,"ĠsuÃ´n":8281,"giÃºp":8282,"ĠFacebook":8283,"ĠLavigne":8284,"ĠTrevor":8285,"58":8286,"Mad":8287,"Maggie":8288,"Sch":8289,"bro":8290,"ĠgÃ³t":8291,"ĠrÃ£nh":8292,"ĠdÃ³":8293,"Ġxao":8294,"Ġlap":8295,"thia":8296,"usalem":8297,"Ġtuá»³":8298,"Cá»©t":8299,"Gill":8300,"elli":8301,"ÃĢy":8302,"oseidon":8303,"ĠPercy":8304,"Felicity":8305,"ĠLatin":8306,"Váº£":8307,"fer":8308,"Ġbá»Ļc":8309,"Ġria":8310,"chá»Ŀ":8311,"ĠMira":8312,"Ġhoáº¡":8313,"ĠHÃ£n":8314,"ĠLá»±c":8315,"ĠGÃł":8316,"ĠÄĲá»ĳc":8317,"ĠThÃ¡p":8318,"ĠFord":8319,"Ġ5000":8320,"ĠMorg":8321,"ĠSubteam":8322,"Ġcmn":8323,"áº¦N":8324,"Mac":8325,"woo":8326,"Ġkeep":8327,"Ġhand":8328,"ĠngÃ²i":8329,"ĠxÃ¢":8330,"Khá»§ng":8331,"Nháº·t":8332,"ĠSeo":8333,"ĠBir":8334,"Ìī!<":8335,"ĠKend":8336,"ĠxuÃ¢":8337,"ĠPhá»ĳ":8338,"iller":8339,"ĠYÃªu":8340,"Ġwhere":8341,"ĠDoc":8342,"oshi":8343,"Pete":8344,"Greg":8345,"ĠMarshall":8346,"Aw":8347,"Bern":8348,"Há»Ļp":8349,"ril":8350,"ĠngÆ°á»£ng":8351,"Ġxua":8352,"Ġquáº³ng":8353,"Kháº©n":8354,"Nha":8355,"ĠSuz":8356,"Conner":8357,"ĠLar":8358,"ĠluÃ¢n":8359,"Ìĥ,":8360,"ĠkhoÃ¡ng":8361,"ĠOne":8362,"ĠNhá»ı":8363,"ĠMartha":8364,"Ġ72":8365,"oga":8366,"oko":8367,"Anton":8368,"attle":8369,"ĠMerc":8370,"ĠPhilip":8371,"Ham":8372,"Ná»ķ":8373,"Str":8374,"dney":8375,"Ã»":8376,"Ġráº¡ng":8377,"ĠráºŃm":8378,"ĠtrÃłng":8379,"Nháº«n":8380,"ĠMid":8381,"ĠTal":8382,"ĠThomp":8383,"ĠPhá»¥":8384,"roft":8385,"Ġ96":8386,"ĠXÃ¬":8387,"inder":8388,"very":8389,"Where":8390,"á»ĺT":8391,"agher":8392,"title":8393,"AA":8394,"Ná»Ļi":8395,"SI":8396,"TV":8397,"Vá»©t":8398,"Xáº£y":8399,"bum":8400,"Ã¼":8401,"ĠÃ©o":8402,"Ġ==":8403,"Ġcr":8404,"Ġná»ĥ":8405,"aut":8406,"ĠTÃ¹ng":8407,"ĠBiá»ĥn":8408,"ĠHand":8409,"ori":8410,"ĠPic":8411,"ĠVÃ¢n":8412,"Gid":8413,"ĠPhÃ¹":8414,"ĠOn":8415,"ĠOwen":8416,"ooh":8417,"oop":8418,"Ġ47":8419,"Ġcá»Ńu":8420,"ĠColumb":8421,"Bruce":8422,"ĠEllen":8423,"ĠSophie":8424,"ĠSauron":8425,"Happy":8426,"Ná»ĳi":8427,"mai":8428,"ĠhÃ¡":8429,"Ġgas":8430,"ĠphÃł":8431,"ĠÄĳiÃªu":8432,"ĠHÃłnh":8433,"ĠLester":8434,"ĠChá»īnh":8435,"ĠÄĲáº£o":8436,"ĠKal":8437,"itter":8438,"kee":8439,"abella":8440,"quang":8441,"lint":8442,"ĠBlu":8443,"Ġstill":8444,"burn":8445,"Ġrá»£n":8446,"ĠBaxter":8447,"84":8448,"GÃ¢y":8449,"Ã¦":8450,"ĠrÆ°Æ¡":8451,"Ġtrym":8452,"ÄĲÃ¢":8453,"ĠmÃłi":8454,"ĠMáº¯t":8455,"ĠSH":8456,"ĠChap":8457,"ĠÄĲinh":8458,"ilia":8459,"Chuck":8460,"212":8461,"54":8462,"Bing":8463,"Get":8464,"Ne":8465,"Now":8466,"ray":8467,"ÃŁ":8468,"ĠÆ¯":8469,"ĠtÃ£":8470,"ĠnÃŃn":8471,"Ġphá»ĵng":8472,"ÄĲÃłi":8473,"ĠdÄ©a":8474,"ersei":8475,"ĠDw":8476,"Ġbá»Ļn":8477,"Ġfriend":8478,"ika":8479,"7893":8480,"ĠMerlin":8481,"ragon":8482,"ĠJulia":8483,"Quyá»ĥn":8484,"ĠNASA":8485,"alcone":8486,"AS":8487,"Look":8488,"gom":8489,"gic":8490,"káº»":8491,"mail":8492,"Ġend":8493,"ĠlÄĥm":8494,"ĠTá»ĥ":8495,"ĠTak":8496,"ĠLittle":8497,"ĠChuyá»ĩn":8498,"ĠReyes":8499,"ĠKansas":8500,"alph":8501,"iri":8502,"Ġsub":8503,"Ġinternet":8504,"ĠkÃŃp":8505,"ĠPetrelli":8506,"ount":8507,"ĠMegan":8508,"ĠUSD":8509,"ĠkHÃ´ng":8510,"09":8511,"Biá»ĥu":8512,"Ind":8513,"LÆ°Æ¡ng":8514,"bÃ¡c":8515,"dor":8516,"ij":8517,"Ġláº¥n":8518,"ĠlÃ¬a":8519,"Ġmic":8520,"ĠkhÃ¢m":8521,"Ġsam":8522,"Ġngáº·t":8523,"ĠngÃ¢m":8524,"ĠdÄĥ":8525,"ĠHudson":8526,"ĠÄĲÃ¬nh":8527,"ouch":8528,"ĠNat":8529,"ĠPen":8530,"ilda":8531,"Ġ-**<":8532,"atheon":8533,"Ġwhiskey":8534,"uchot":8535,"ĠGeorgia":8536,"Biá»ĥn":8537,"Ġ,<":8538,"ĠlÃ¡ng":8539,"ĠbÃº":8540,"ĠrÃł":8541,"ĠBáº¥t":8542,"Tam":8543,"ĠÄĲá»Ģ":8544,"Ġwork":8545,"obo":8546,"ĠHop":8547,"7917":8548,"ifler":8549,"ĠbÃªnh":8550,"Harvey":8551,"urtis":8552,"ĠPepper":8553,"Aaron":8554,"BÆ¡":8555,"RÄĥng":8556,"Ryan":8557,"TU":8558,"tuyá»ĩt":8559,"|<":8560,"Ġ(":8561,"ĠÃĶi":8562,"Ġlim":8563,"Ġbáº½":8564,"Ġsho":8565,"Ġháº¯c":8566,"Ġxá»ķ":8567,"ĠquÃ¢":8568,"arao":8569,"ĠMet":8570,"ĠTáº¡i":8571,"ĠBag":8572,"ĠBailey":8573,"ĠCuá»Ļc":8574,"ĠLenny":8575,"ĠDale":8576,"etcher":8577,"ĠPoll":8578,"ĠSteven":8579,"irst":8580,"eebs":8581,"ipper":8582,"ĠWhen":8583,"ĠReed":8584,"ĠFelix":8585,"ĠApache":8586,"blur":8587,"GÃł":8588,"RÃ¡ng":8589,"Tá»ĳng":8590,"lÃ´":8591,"water":8592,"ĠÆ°ng":8593,"ĠÄĳá»ĳm":8594,"ÄĲá»Ļ":8595,"ĠJos":8596,"ouri":8597,"ĠPop":8598,"usty":8599,"ĠTrum":8600,"add":8601,"ĠkhÃŃa":8602,"risto":8603,"utch":8604,"ĠBaratheon":8605,"ĠBlue":8606,"ĠDecept":8607,"ĠMinion":8608,"Ã¥i":8609,"ountain":8610,"Victoria":8611,"Bye":8612,"If":8613,"TA":8614,"bÃ¬nh":8615,"bá»ı":8616,"bee":8617,"nam":8618,"sk":8619,"ĠlÆ°á»£m":8620,"Ġsun":8621,"ĠgÃ´":8622,"ĠnhÃ³t":8623,"ĠrÃ´i":8624,"ChÃ¢u":8625,"uyá»ĥn":8626,"emen":8627,"ĠBong":8628,"ĠHO":8629,"ĠHen":8630,"ĠHigh":8631,"ĠLoth":8632,"esi":8633,"ĠVIá»Ĩ":8634,"ooke":8635,"eda":8636,"Ġshit":8637,"ugg":8638,"ĠMickey":8639,"Gideon":8640,"!\"":8641,"Dá»¯":8642,"Há»Ĺ":8643,"Sl":8644,"TÃ¡m":8645,"sylvania":8646,"Ġváº¯t":8647,"Ġsáº£ng":8648,"Nháº¥n":8649,"ĠHá»Ļp":8650,"TrÃł":8651,"ĠAutobot":8652,"ĠÄĳÃºt":8653,"Queen":8654,"ĠtuÃ´":8655,"rab":8656,"Chappie":8657,"agi":8658,"ĠQui":8659,"ĠHarvard":8660,"ynthia":8661,"Stan":8662,"ensen":8663,"ĠDonald":8664,"Ġcá»§ng":8665,"ĠBernard":8666,"ĠOxford":8667,"BÃ£i":8668,"Dor":8669,"Ká»¹":8670,"TÃło":8671,"hÃłng":8672,"pen":8673,"ä¸":8674,"Ġáº¥p":8675,"Ġmá»Ļc":8676,"ĠHÃłng":8677,"ĠDonnie":8678,"eline":8679,"ĠNob":8680,"ĠNZT":8681,"ĠOak":8682,"Ġmuch":8683,"Ġmean":8684,"arts":8685,"Annie":8686,"á»µt":8687,"ĠSantiago":8688,"cHFAE":8689,"á»°C":8690,"ĠTargaryen":8691,"gomery":8692,"cHFAEBB":8693,"Tá»ĳc":8694,"lie":8695,"rine":8696,"ĠÃ³i":8697,"ĠÄĤ":8698,"Ġchang":8699,"Ġvá»Ľt":8700,"Ġhel":8701,"ĠgÃ¢n":8702,"ĠnhÃµm":8703,"ĠBad":8704,"PhÃ³":8705,"ĠDis":8706,"ĠDerek":8707,"ischer":8708,"riff":8709,"ivan":8710,"Ġ92":8711,"ĠLauren":8712,"ĠNorth":8713,"Iá»Ĥ":8714,"ĠKyung":8715,"Jean":8716,"KÃ¬a":8717,"Sy":8718,"more":8719,"Ġlá»Ļc":8720,"Ġtrá»Ĺi":8721,"Ġquáº¡t":8722,"iny":8723,"ThÆ¡":8724,"eresa":8725,"ĠCathy":8726,"atican":8727,"Ġ38":8728,"ÃĢN":8729,"ĠFrankie":8730,"Ġex":8731,"ĠMori":8732,"Ġreally":8733,"Lincoln":8734,"hall":8735,"ĠtÃº":8736,"Ġlá»Ł":8737,"Ġlive":8738,"Ġthing":8739,"ĠniÃªm":8740,"Ġgáº·m":8741,"ÄĲá»Ļc":8742,"Ġquáº¹o":8743,"arp":8744,"ĠCai":8745,"ĠLai":8746,"ĠChan":8747,"ĠJustin":8748,"Ġ250":8749,"ĠNÆ°á»Ľc":8750,"GiÃły":8751,"ĠOut":8752,"ryn":8753,"ĠÄĳÃ¹ng":8754,"iane":8755,"acher":8756,"rixus":8757,"Má»©c":8758,"col":8759,"gia":8760,"key":8761,"rett":8762,"ĠÃª":8763,"ĠlÃ¬":8764,"Ġbáº¡t":8765,"Ġhero":8766,"Ġgolf":8767,"ÌĢ...":8768,"ĠSouth":8769,"ĠSansa":8770,"ĠHector":8771,"amine":8772,"Ġmáº¹o":8773,"ĠNÄĤM":8774,"als":8775,"umi":8776,"alley":8777,"utt":8778,"ĠUl":8779,"Lucy":8780,"assus":8781,"stan":8782,"ĠPres":8783,"ixon":8784,"terpol":8785,"Cameron":8786,"Lucas":8787,"ĠIraq":8788,"Eric":8789,"Háº£":8790,"Táº·ng":8791,"cl":8792,"for":8793,"nor":8794,"ĠtÆ¡i":8795,"Ġláº£":8796,"ĠbÆ°Æ¡":8797,"Ġbel":8798,"Ġchá»«a":8799,"ĠNÃºi":8800,"ĠKrypton":8801,"ĠTrang":8802,"Ġwow":8803,"Ġinto":8804,"ĠFletcher":8805,"ÃĤn":8806,"Ġxá»īu":8807,"ĠRiver":8808,"Ġplay":8809,"ĠGallagher":8810,"Biá»ĩt":8811,"Bur":8812,"Gal":8813,"Rom":8814,"TÆ°á»Ŀng":8815,"Who":8816,"par":8817,"Ġtwo":8818,"emon":8819,"NgÃ³n":8820,"ĠJa":8821,"avan":8822,"agen":8823,"allas":8824,"Andrew":8825,"ĠWallace":8826,"ĠHawaii":8827,"ĠBatman":8828,"Louis":8829,"CO":8830,"Liz":8831,"Tá»·":8832,"fore":8833,"Ġvodka":8834,"Ġmáº¡t":8835,"ĠHarl":8836,"ĠPink":8837,"ĠEinstein":8838,"ĠIran":8839,"Ġwait":8840,"ÃĢI":8841,"uno":8842,"ĠAnne":8843,"ĠBurrows":8844,"ushi":8845,"ThoÃ¡t":8846,"ĠJerusalem":8847,"ĠHalloween":8848,"Ġcá»ĵn":8849,"tá»±":8850,"vie":8851,"Ãĭ":8852,"Ġá»ĵ":8853,"Ġtáº¿t":8854,"ĠlÃŃt":8855,"ĠthÃºi":8856,"Ġnáº·c":8857,"ĠgÄĥm":8858,"phine":8859,"Ġtal":8860,"ÄĲÃ¢m":8861,"elson":8862,"asy":8863,"thony":8864,"ĠWood":8865,"ĠShe":8866,"ĠbiÃªt":8867,"Æ¯Æł":8868,"ĠAnderson":8869,"ippi":8870,"Iáº¾N":8871,"ĠCollins":8872,"Ġlaptop":8873,"Nic":8874,"hy":8875,"ior":8876,"mers":8877,"ĠÃ¢y":8878,"Ġcháº§u":8879,"Ġnhá»¡":8880,"Ġtrá»Ļi":8881,"ÄĲÃło":8882,"ĠTá»«":8883,"ĠHÆ°Æ¡ng":8884,"ĠHood":8885,"ĠChang":8886,"ĠAur":8887,"ĠKang":8888,"Ġsaid":8889,"Ġ43":8890,"Rap":8891,"ionel":8892,"ways":8893,"ĠInternet":8894,"ĠKatniss":8895,"ĠStormborn":8896,"ĠPierce":8897,"ĠDivision":8898,"AM":8899,"Ian":8900,"XÃ´ng":8901,"ten":8902,"Ã°":8903,"Ġbá»ģn":8904,"Ġbetter":8905,"ĠsÃ²":8906,"Ġsorry":8907,"ĠhÃ³t":8908,"Ġtráº§y":8909,"áº½n":8910,"Ġxay":8911,"Thá»ķi":8912,"ĠChapp":8913,"ĠTháº¡ch":8914,"ĠFu":8915,"utter":8916,"achi":8917,"ÃģT":8918,"Ġshould":8919,"Com":8920,"joy":8921,"tra":8922,"ĠÆ°Æ¡":8923,"Ġká»ĭ":8924,"Ġnháº¹n":8925,"ĠxÃ¡o":8926,"Ġquyá»ĩt":8927,"inja":8928,"ĠSoo":8929,"ĠBu":8930,"ĠAug":8931,"ĠÄĲáº¿n":8932,"iter":8933,"ĠÃĩÃľ":8934,"ĠSaruman":8935,"ĠRusso":8936,"ĠLynch":8937,"ĠJaime":8938,"Buá»Ļc":8939,"ES":8940,"Ga":8941,"tÃ¬nh":8942,"Ġtem":8943,"ĠÄĳáº£n":8944,"Ġnew":8945,"antha":8946,"Nháº§m":8947,"ĠMarl":8948,"ĠTáº¿":8949,"ĠBÃłng":8950,"Phudeviet":8951,"Trá»£":8952,"aman":8953,"orado":8954,"ĠÄĲáº¥u":8955,"ĠKick":8956,"ĠEast":8957,"ĠIr":8958,"Andre":8959,"ĠTyrell":8960,"ĠLeonard":8961,"ĠÃļy":8962,"Jessica":8963,"Há»ĵng":8964,"MÃ¢":8965,"Par":8966,"nia":8967,"Ġbit":8968,"Ġlá»Ń":8969,"ĠTara":8970,"ĠGam":8971,"ĠJuan":8972,"ĠÄĲá»Ļc":8973,"ĠThung":8974,"cky":8975,"ĠchuÃ¢":8976,"Ġghim":8977,"Ġwr":8978,"ĠYeah":8979,"Ġsexy":8980,"eek":8981,"seus":8982,"ĠArt":8983,"iggs":8984,"Ġguys":8985,"GÃ¡i":8986,"Josh":8987,"SÃ´":8988,"Woo":8989,"pin":8990,"port":8991,"rÃºt":8992,"ĠáºŃp":8993,"nhiá»ģu":8994,"ĠcháºŃu":8995,"ĠchÃ©o":8996,"ChÃŃ":8997,"Ġdá»«a":8998,"ĠquáºŃt":8999,"ĠMath":9000,"oren":9001,"ĠChÃ¡u":9002,"ĠJust":9003,"ĠNight":9004,"ĠVel":9005,"reat":9006,"oland":9007,"Ġ34":9008,"avier":9009,"une":9010,"Hoáº¡t":9011,"kham":9012,"trÃ´ng":9013,"ĠFrankenstein":9014,"Jackson":9015,"âĢĭ":9016,"Donald":9017,"ĠOmar":9018,"ĠMontgomery":9019,"ĠClarke":9020,"Stephen":9021,"ĠSAU":9022,"Ġkáº½m":9023,"*.<":9024,"Houston":9025,"KÃª":9026,"VD":9027,"XÆ°Æ¡ng":9028,"Ġuá»ĳn":9029,"Ġ000":9030,"Ġtáº¡t":9031,"ĠthuyÃª":9032,"ĠchÆ°á»Ľng":9033,"Ġmáº£ng":9034,"Ġni":9035,"ĠbÃ¡i":9036,"ĠsÃºt":9037,"Ġsal":9038,"Ġcá»£t":9039,"Ġdiá»ģu":9040,"ĠMas":9041,"ĠMand":9042,"ĠLá»Ĺ":9043,"esis":9044,"ĠVÄ©":9045,"NghiÃªn":9046,"owal":9047,"ĠStannis":9048,"Ġ84":9049,"oyle":9050,"Whoo":9051,"ibb":9052,"IELD":9053,"Lá»«a":9054,"ool":9055,"ĠÃºp":9056,"ĠvÃ²":9057,"Ġmade":9058,"ĠkhÄĥ":9059,"ĠhÄĥm":9060,"ĠnhÅ©ng":9061,"Ġngá»«":9062,"ÄĲá»ĭt":9063,"NgÆ°ng":9064,"ĠTÃ¢n":9065,"ĠBas":9066,"enberg":9067,"ĠCÃ¡":9068,"Ġdoll":9069,"ĠPam":9070,"ĠViáº¿t":9071,"ĠtuÃ¢":9072,"ĠStuart":9073,"udd":9074,"Shaw":9075,"ĠElena":9076,"ugo":9077,"ĠHydra":9078,"Ġblog":9079,"ĠThorin":9080,"ĠBernie":9081,"Christian":9082,"ĠBoris":9083,"Russ":9084,"ball":9085,"frey":9086,"hm":9087,"tÃ´":9088,"ĠchÃ¡o":9089,"Thuá»Ļc":9090,"Ġgiá»¥":9091,"ĠHav":9092,"ĠCy":9093,"ĠCher":9094,"ĠRuth":9095,"ĠTha":9096,"ĠNancy":9097,"oba":9098,"abi":9099,"uda":9100,"quay":9101,"ĠNorm":9102,"ĠWesteros":9103,"Linda":9104,"VÃ©":9105,"báº£o":9106,"say":9107,"ĠkÃ©n":9108,"Ġviá»ĩt":9109,"Ġmáº§m":9110,"á»ĳp":9111,"ĠxÃ£y":9112,"ĠMem":9113,"ĠLáºŃp":9114,"ĠGates":9115,"ĠÄĲiÃªn":9116,"ĠKir":9117,"ĠFlynn":9118,"Giáº£m":9119,"ĠNgÃ´i":9120,"ĠNgá»¥c":9121,"ape":9122,"ĠSimmons":9123,"ĠGregory":9124,"ĠMississ":9125,"#<":9126,"Cast":9127,"Hall":9128,"Rose":9129,"láº¥y":9130,"Â¹":9131,"Ġ~<":9132,"eople":9133,"ĠÄĳá»Ľi":9134,"ĠlÃ³":9135,"Ġlá»¥y":9136,"ĠmÃºt":9137,"ĠkhÃ©t":9138,"Ġsá»¥c":9139,"ĠrÆ°á»£t":9140,"Ġráº©y":9141,"ĠquÃ´":9142,"ĠMun":9143,"á»£c":9144,"TrÃ³i":9145,"ĠRan":9146,"ĠThÆ°":9147,"ĠPak":9148,"ĠVas":9149,"ĠFeder":9150,"icah":9151,"ĠPhÃ¡t":9152,"ĠPhá»§":9153,"ĠAld":9154,"eger":9155,"erez":9156,"quÃ¡":9157,"ĠDead":9158,"burgh":9159,"ĠAtlant":9160,"ĠSkye":9161,"000000":9162,"Fitz":9163,"Gáº¥p":9164,"Ġ|<":9165,"Ġsáº¡c":9166,"Ġpháº«n":9167,"Ġxáº¡o":9168,"ĠMá»ħ":9169,"ĠHold":9170,"ĠCorn":9171,"ĠCraw":9172,"Trá»ĳng":9173,"ĠGai":9174,"ĠÄĲÃ£":9175,"ĠNSA":9176,"ĠPenny":9177,"ĠFury":9178,"iti":9179,"ĠIron":9180,"Ġxuá»ĵng":9181,")}...":9182,"icks":9183,"ĠÃĦ":9184,"ult":9185,"shaw":9186,"ĠLake":9187,"ĠÄĳuÃ´":9188,"Barb":9189,"ĠMichelle":9190,"ĠVienna":9191,"Roger":9192,"AL":9193,"Dory":9194,"LÃª":9195,"Má»¹":9196,"Say":9197,"hart":9198,"rat":9199,"Ġbr":9200,"ĠbÃ¹m":9201,"ĠngÃ¡y":9202,"ĠrÃ¨m":9203,"ĠgiÃłn":9204,"ThÃł":9205,"ĠTau":9206,"ĠCand":9207,"ĠLin":9208,"imb":9209,"ĠRap":9210,"ĠRac":9211,"aton":9212,"Ġtá»±u":9213,"ĠNicky":9214,"cker":9215,"ĠVince":9216,"ĠFer":9217,"ĠTri":9218,"igail":9219,"acks":9220,"ĠArm":9221,"áºłN":9222,"ĠDelaney":9223,"eila":9224,"ĠLoan":9225,"Walt":9226,"etroit":9227,"CU":9228,"Fiona":9229,"Nat":9230,"Park":9231,"SÃ¢u":9232,"TS":9233,"Tuá»ķi":9234,"bao":9235,"Ġeo":9236,"Ġcháº½":9237,"Ġphá»Ļng":9238,"Tháº¯t":9239,"arrow":9240,"ĠTuyá»ĩt":9241,"ĠBall":9242,"ĠCO":9243,"ĠCÃ¡m":9244,"ĠÄĲáº¡o":9245,"003":9246,"ĠVlad":9247,"reen":9248,"icus":9249,"ĠIv":9250,"ffman":9251,"iver":9252,"sex":9253,"atsby":9254,"oogle":9255,"Báº¯c":9256,"Han":9257,"Jin":9258,"MÅ©":9259,"cine":9260,"áº©ng":9261,"ĠchiÃªm":9262,"Ġváº¹t":9263,"Ġmá»©t":9264,"Cháº¿":9265,"Chung":9266,"aig":9267,"aro":9268,"ĠMig":9269,"iah":9270,"ÄĲÃ³i":9271,"els":9272,"ĠFre":9273,"ict":9274,"roy":9275,"ĠBrid":9276,"ĠTuco":9277,"ĠMaya":9278,"PHUDEVIET":9279,"ĠBarbara":9280,"AD":9281,"BÆ¡i":9282,"GÃ³c":9283,"KiÃªn":9284,"Miss":9285,"Nicholas":9286,"Ġthough":9287,"Ġbá»«ng":9288,"Ġganh":9289,"ÄĲáº¥m":9290,"ĠMass":9291,"ĠDeep":9292,"ĠKara":9293,"olph":9294,"owa":9295,"FFB":9296,"onder":9297,"endell":9298,"sha":9299,"razy":9300,"Harold":9301,"Tyler":9302,"ĠJoshua":9303,"ĠThompson":9304,"Há»Ļ":9305,"Máº£nh":9306,"Ná»¥":9307,"TÃ©":9308,"Xanh":9309,"boy":9310,"tinh":9311,"ĠvÅ©ng":9312,"Ġváº±n":9313,"Ġná»ĭnh":9314,"Ġkhiáº¿m":9315,"Ġphao":9316,"ema":9317,"cháº¡y":9318,"Ngá»įc":9319,"arch":9320,"ĠBÄĥ":9321,"ĠBÃ¡o":9322,"ĠLÃĢ":9323,"ĠChur":9324,"ĠÄĲiá»ĥn":9325,"ĠThÃ´ng":9326,"ĠThÃ¬":9327,"ĠKarl":9328,"Ġ31":9329,"ĠII":9330,"Ġwal":9331,"ĠOl":9332,"edes":9333,"ĠGru":9334,"Why":9335,"ĠBroad":9336,"ĠtÃ©i":9337,"ĠCaroline":9338,"ĠDunbar":9339,"Patrick":9340,"ĠVenice":9341,"Cass":9342,"Finch":9343,"Ki":9344,"Mir":9345,"Manny":9346,"Rh":9347,"uu":9348,"nhe":9349,"Ġnanh":9350,"Ġsen":9351,"ĠhÃº":9352,"Ġnhá»Ļn":9353,"Ġngá»Ĺng":9354,"Ġain":9355,"chiáº¿n":9356,"ĠTÃªn":9357,"Ġhoi":9358,"ĠCindy":9359,"ĠLeg":9360,"ĠRad":9361,"ĠÄĲÃ¡":9362,"ĠVol":9363,"Giáº¥u":9364,"ĠGiai":9365,"ogg":9366,"Ġ120":9367,"Ġstart":9368,"quila":9369,"53":9370,";,":9371,"HÃºt":9372,"Náº·ng":9373,"Tá»Ŀ":9374,"ká»ĥ":9375,"nÃło":9376,"ĠtÃ¨o":9377,"Ġlá»¥i":9378,"Ġcháº¡p":9379,"Ġad":9380,"ChÆ¡":9381,"ĠquÃ¡t":9382,"emis":9383,"inic":9384,"Tháº¥p":9385,"chez":9386,"ĠMá»Ļc":9387,"ĠCÃģ":9388,"ĠDia":9389,"ĠRaven":9390,"thá»Ŀi":9391,"itty":9392,"unny":9393,"ĠParkman":9394,"ĠLangley":9395,"ĠRogers":9396,"ĠkhiÃªng":9397,"akespe":9398,"Ag":9399,"Ang":9400,"Cá»ķng":9401,"Cá»±u":9402,"DÅ©ng":9403,"EE":9404,"Tiáº¿t":9405,"Xung":9406,"Ġ/":9407,"ĠÄĳáº¡m":9408,"Ġgar":9409,"Cháº·t":9410,"ĠxÃ©o":9411,"ĠMÃª":9412,"ĠTÃłi":9413,"ĠhoÄĥ":9414,"ĠHYDRA":9415,"Trá»©ng":9416,"ĠDong":9417,"ĠVo":9418,"ĠVatican":9419,"omir":9420,"unk":9421,"uto":9422,"ĠArnold":9423,"Caesar":9424,"Maria":9425,"Clane":9426,"ĠCasey":9427,"ÃĻt":9428,"Camera":9429,"ĠSatan":9430,"Cáº¡n":9431,"Jer":9432,"giáº¿t":9433,"īa":9434,"á»Ĥ":9435,"Ġcháº£o":9436,"Ġmind":9437,"Ġhuyá»ĩt":9438,"Ġnham":9439,"Ġrong":9440,"Ġaf":9441,"Æ°á»Ľn":9442,"Ġlá»§":9443,"ĠTáº§m":9444,"ĠSU":9445,"ĠBá»įn":9446,"amy":9447,"ĠDC":9448,"ĠChÃ©n":9449,"ĠThorn":9450,"ĠNeil":9451,"ĠWendy":9452,"Ġ39":9453,"ĠIll":9454,"agne":9455,"ichi":9456,"ĠUr":9457,"ĠArcher":9458,"Ġshot":9459,"agger":9460,"ambers":9461,"ĠButler":9462,"7865":9463,"ĠLothbro":9464,"Gen":9465,"Kl":9466,"Tur":9467,"Woody":9468,"bell":9469,"max":9470,"pi":9471,"Ġeyes":9472,"Ġtháº±n":9473,"ĠdÃ¬m":9474,"á»«m":9475,"chá»©":9476,"ĠMend":9477,"ĠTiáº¿ng":9478,"Ġyes":9479,"ĠSue":9480,"ĠHart":9481,"ĠDent":9482,"ĠAc":9483,"ĠKira":9484,"thÃłnh":9485,"ĠphÃŃm":9486,"Ġturn":9487,"adi":9488,"urf":9489,"Ġkhuáº¥y":9490,"Ġ669":9491,"ĠQuang":9492,"ĠcÃºm":9493,"redder":9494,"ugar":9495,"ÃĤY":9496,"á»ĲNG":9497,"ĠBrock":9498,"inchester":9499,"ĠDelta":9500,"Ap":9501,"CPD":9502,"Gáº¥u":9503,"HáºŃu":9504,"Sn":9505,"Ung":9506,"yeon":9507,"Â¢":9508,"Âĳ":9509,"áº¶":9510,"Ġmá»ĳt":9511,"Ġmá»§":9512,"Ġhá»Ŀi":9513,"Ġhigh":9514,"Ġngá»Ńa":9515,"Ġngáº«m":9516,"ĠtrÃ²ng":9517,"ĠBá»ĭ":9518,"Ġhold":9519,"ĠCÃ¢y":9520,"ĠDre":9521,"thazar":9522,"ĠchuÃ´":9523,"Ġfall":9524,"Ġsoda":9525,"ersh":9526,"ĠZach":9527,"ube":9528,"á»ĲI":9529,"iggy":9530,"ĠLizzy":9531,"ĠOscar":9532,"ĠLothbrok":9533,"Jar":9534,"Joseph":9535,"Ná»ķi":9536,"ONG":9537,"Rock":9538,"Â´":9539,"Ġáº©u":9540,"Ġcáº©m":9541,"ĠÄĳiá»ĥu":9542,"Ġláº£m":9543,"ĠlÃ²i":9544,"ĠchÃ¹a":9545,"ĠtrÄ©":9546,"Khá»ĳi":9547,"ĠBis":9548,"ĠJang":9549,"elot":9550,"ask":9551,"ĠVar":9552,"Ġplace":9553,"ĠNhÄ©":9554,"ĠCarson":9555,"Ġjazz":9556,"aleesi":9557,"ĠÃģc":9558,"Raymond":9559,"Jerry":9560,"body":9561,"Ġláº³ng":9562,"ĠchÃ¨":9563,"Ġráº¯m":9564,"ĠtrÃ¡o":9565,"ĠphÃ¡c":9566,"Ġngháº¹t":9567,"ĠTáº¡o":9568,"ĠSen":9569,"ĠHung":9570,"Trá»įng":9571,"ĠDer":9572,"ĠAle":9573,"ĠJu":9574,"ĠKÃ¬":9575,"ĠTracy":9576,"ingo":9577,"Ġtuá»Ļc":9578,"owski":9579,"shire":9580,"uka":9581,"ĠAbby":9582,"Benjamin":9583,"Ġalbum":9584,"ĠMurdock":9585,"celot":9586,"PHá»¤":9587,"uitar":9588,"akespeare":9589,"FC":9590,"GI":9591,"KÃ¬":9592,"Min":9593,"cuá»Ļc":9594,"sp":9595,"sá»ĳng":9596,"ved":9597,"zona":9598,"ĠÃ¡t":9599,"Ġvung":9600,"Ġaxit":9601,"ChÆ°":9602,"Chiáº¿u":9603,"Ġgiáº»":9604,"Ngá»Ļ":9605,"ĠCre":9606,"Tranh":9607,"ĠLáº¡c":9608,"ĠÄĳá»ĭt":9609,"ĠPeeta":9610,"ĠKra":9611,"ĠFBl":9612,"Nghá»ĭ":9613,"ingham":9614,"ĠIvan":9615,")}...<":9616,"agan":9617,"Ġfuck":9618,"abody":9619,"oker":9620,"cÃ´la":9621,"ĠCarm":9622,"ĠRobbie":9623,"ĠMcG":9624,"Carrie":9625,"ÃĴi":9626,"ĠSanders":9627,"Jeff":9628,"Jones":9629,"ĠÄĲoÃłn":9630,"ĠOlivia":9631,"$.<":9632,"Ġá»§":9633,"Ġá»ĩn":9634,"ĠcÃły":9635,"ĠthÃ¬nh":9636,"ĠrÃ¡o":9637,"ChÃª":9638,"ĠMinn":9639,"ĠSá»ĳ":9640,"ĠSandy":9641,"Trans":9642,"iatus":9643,"Ġloanh":9644,"ĠDallas":9645,"ĠRá»ĵi":9646,"ĠNE":9647,"ĠEle":9648,"adness":9649,"andal":9650,"andra":9651,"ĠsoÃ¡i":9652,"ents":9653,"Shh":9654,"Ġtrá»¥y":9655,"ĠRobb":9656,"ĠMonroe":9657,"Ġstay":9658,"aines":9659,"ĠDouglas":9660,"ĠRonan":9661,"SmÃ©agol":9662,"iddick":9663,"Ġgiá»¥c":9664,"59":9665,"Ru":9666,"res":9667,"Ġphá»Ľt":9668,"ĠHamp":9669,"ĠLÃ´i":9670,"ĠLord":9671,"ĠKev":9672,"ĠVern":9673,"oway":9674,"ĠMargaret":9675,"inez":9676,"ĠNgá»¥y":9677,"ulcan":9678,"áº¢I":9679,"torm":9680,"ĠColorado":9681,"ambur":9682,"uchi":9683,"Laurel":9684,"ĠSnart":9685,"ĠGabriel":9686,"Ġcocaine":9687,"Thorin":9688,"ĠPennsylvania":9689,"51":9690,"DS":9691,"NS":9692,"OC":9693,"banh":9694,"hÃ´m":9695,"lh":9696,"yle":9697,"á»Ī":9698,"ĠtÃ¬":9699,"Ġhapp":9700,"ThÆ°á»Łng":9701,"ĠBao":9702,"ĠBri":9703,"enix":9704,"ĠCec":9705,"ĠLip":9706,"ĠLola":9707,"ĠDetroit":9708,"Nghá»ĩ":9709,"itamin":9710,"uster":9711,"ĠID":9712,"ĠPha":9713,"ĠGiang":9714,"Luke":9715,"Æ¯u":9716,"ĠPrince":9717,"Scot":9718,"Ġcá»įp":9719,"ĠNazir":9720,"ĠDolores":9721,"Æ¯á»¢C":9722,"70":9723,"Cos":9724,"IV":9725,"Kem":9726,"cÃ¡ch":9727,"croft":9728,"ios":9729,"ĠtÃłnh":9730,"nhá»Ľ":9731,"Ġmt":9732,"ĠhÃ³i":9733,"Ġnguyá»ĩt":9734,"ĠrÃ¹ng":9735,"ĠMicky":9736,"ĠTir":9737,"ĠBá»ī":9738,"ĠCost":9739,"ĠLot":9740,"thor":9741,"ĠFalcone":9742,"oleon":9743,"osev":9744,"ĠIl":9745,"ĠPho":9746,"idi":9747,"ummer":9748,"ĠClau":9749,"topher":9750,"azel":9751,"Reid":9752,"Tá»Ļc":9753,"cáº§n":9754,"oa":9755,"yÃªu":9756,"ĠmÄ©":9757,"Ġmeta":9758,"ĠnÃ´i":9759,"Ġná»ĳc":9760,"ĠngÃ¡n":9761,"ĠrÃ¢m":9762,"Ġphá»ī":9763,"ĠphÃ©t":9764,"iness":9765,"ĠTáº§n":9766,"PhiÃªn":9767,"Ġ33":9768,"ĠPhiáº¿n":9769,"lee":9770,"avi":9771,"ĠQuentin":9772,"act":9773,"ovan":9774,"ÃģN":9775,"ĠScar":9776,"ernando":9777,"ĠAbu":9778,"ĠÃĩi":9779,"CuÃ´":9780,"Ġlá»Ńng":9781,"CIA":9782,"Dáº§u":9783,"Háº¡nh":9784,"Jae":9785,"Virus":9786,"hiá»ĥu":9787,"Ġtá»£n":9788,"Ġváº¥y":9789,"Ġbá»ĳt":9790,"Ġsáº§u":9791,"ĠgÆ°":9792,"aunt":9793,"ĠMÃ´":9794,"ĠTen":9795,"ĠTodd":9796,"ĠBella":9797,"TrÆ¡":9798,"ĠPas":9799,"Ġ52":9800,"Ġ101":9801,"ogway":9802,"Ġbefore":9803,"veng":9804,"ĠCarr":9805,"ĠMcGill":9806,"Frankie":9807,"Dá»±ng":9808,"ĠMissouri":9809,"Ġthá»įc":9810,"ujah":9811,"Æ¯á»ļC":9812,"66":9813,"Hiro":9814,"Hotch":9815,"Rebecca":9816,"TÃ¡i":9817,"TÃ¢y":9818,"coi":9819,"gá»įi":9820,"veland":9821,"ĠcÃºc":9822,"ĠÄĳuá»ĳc":9823,"ĠvÃ²m":9824,"ĠkhÃ¢":9825,"ĠgáºŃp":9826,"ĠphiÃª":9827,"..?<":9828,"ĠCáº£":9829,"TrÃ¡ch":9830,"ĠDes":9831,"ĠDVD":9832,"ĠVá»ģ":9833,"rez":9834,"ĠanH":9835,"ĠOng":9836,"aves":9837,"teroid":9838,"Ġplease":9839,"Ġother":9840,"aco":9841,"ighty":9842,"ĠAllah":9843,"Carter":9844,"ĠGroot":9845,"otein":9846,"araoh":9847,"Rapunzel":9848,"Gordon":9849,"Háº¡t":9850,"Larry":9851,"Po":9852,"lah":9853,"ns":9854,"Ġváº¥p":9855,"Ġmá»ĭ":9856,"Ġnang":9857,"ĠbÆ°á»Ľng":9858,"ĠsÃ«":9859,"ĠrÆ°":9860,"ÄĲá»ĳng":9861,"Ġgiun":9862,"Ì£?<":9863,"ĠMam":9864,"ĠHÃ¬nh":9865,"ĠHá»ĵn":9866,"ĠCÃĵ":9867,"ĠGáº¥u":9868,"Ġdoes":9869,"thra":9870,"itri":9871,"Ġ3000":9872,"urs":9873,"Ġ55":9874,"Ġmuá»Ĺi":9875,"rys":9876,"irl":9877,"Ġface":9878,"Khoang":9879,"abama":9880,"ordo":9881,"quan":9882,"ĠElsa":9883,"ĠBeach":9884,"Spock":9885,"ction":9886,"orsch":9887,"Ġblah":9888,"Ġeverything":9889,"Ġxáº»ng":9890,"etchen":9891,"400":9892,"Beth":9893,"Ná»¯a":9894,"Vai":9895,"Ġláº¿t":9896,"Ġná»ĩ":9897,"ĠsÃłnh":9898,"ĠgÃłng":9899,"Ġnháº¥m":9900,"ThÄĥ":9901,"ThÃ¡p":9902,"ĠMá»¥c":9903,"ĠCoh":9904,"ÄĲÃ³n":9905,"ĠChÃŃ":9906,"Ìĥ<":9907,"ĠGol":9908,"ĠKenny":9909,"ĠFischer":9910,"ĠWinchester":9911,"illian":9912,"annon":9913,"ries":9914,"Ġ700":9915,"ender":9916,"ĠEmm":9917,"ĠSpencer":9918,"Ġhead":9919,"TuyÃª":9920,"ĠÃ°i":9921,"arez":9922,"ĠElliot":9923,"eeler":9924,"bury":9925,"ĠNGÆ¯á»ľI":9926,"hhhh":9927,"ĠRosie":9928,"ĠSydney":9929,"Ġhacker":9930,"ĠPeabody":9931,"leton":9932,"KHÃĶNG":9933,"luÃ´n":9934,"osevelt":9935,"HÃłn":9936,"MÃ´ng":9937,"Tan":9938,"bott":9939,"xa":9940,"Âª":9941,"Ã¶":9942,"ÃĪ":9943,"ĠNhÃ¬n":9944,"ĠtÃºm":9945,"Ġmá»įn":9946,"ĠbÃ³i":9947,"Ġbáº©y":9948,"Ġrem":9949,"Chase":9950,"Tháº£o":9951,"ĠTul":9952,"Ġyáº¿n":9953,"ĠBlo":9954,"amir":9955,"ĠCháº³ng":9956,"Giá»¡n":9957,"ĠVu":9958,"Ġcock":9959,"ĠEc":9960,"ĠEx":9961,"ague":9962,"umber":9963,"erst":9964,"ĠUy":9965,"ques":9966,"Thea":9967,"ĠCross":9968,"ĠStrange":9969,"ĠJefferson":9970,"ĠLabs":9971,"Aragorn":9972,"BS":9973,"Bang":9974,"Báº¡ch":9975,"Ex":9976,"Hal":9977,"Robb":9978,"»a":9979,"Ġthings":9980,"Ġcháº§n":9981,"Ġkill":9982,"Ġbig":9983,"ĠnhÃºt":9984,"ĠnÃłi":9985,"Ġquáº¿":9986,"ÃŃu":9987,"ĠMob":9988,"ĠSonny":9989,"ĠBA":9990,"ĠBee":9991,"ĠHD":9992,"ĠGatsby":9993,"Äĳá»ĵng":9994,"ĠIng":9995,"under":9996,"ĠchÃŃp":9997,"irut":9998,"Ġpanh":9999,"Ġcá»¥m":10000,"ĠQuáº£n":10001,"Ġsure":10002,"Noah":10003,"ĠMae":10004,"ĠAbraham":10005,"ĠCarlos":10006,"Brad":10007,"Ãĵi":10008,"ĠTime":10009,"ĠcÃ»a":10010,"Jacob":10011,"ĠPakistan":10012,"MÆ°a":10013,"Pablo":10014,"come":10015,"du":10016,"gw":10017,"lass":10018,"vui":10019,"ĠcÃ¹i":10020,"ĠchÃ¡nh":10021,"ĠnÃºm":10022,"Ġbá»±a":10023,"Ġbá»£m":10024,"ario":10025,"ĠTs":10026,"ĠTá»ģ":10027,"Take":10028,"ĠDÆ¡i":10029,"ĠGoku":10030,"Ġdoing":10031,"Ġcopy":10032,"ĠWally":10033,"ĠEarl":10034,"Ġpeople":10035,"ĠMarcel":10036,"ĠKhÃŃ":10037,"Brand":10038,"ĠMilan":10039,"reland":10040,"nolds":10041,"ĠChapman":10042,"%<":10043,"CÄĥng":10044,"Lá»Ĺ":10045,"Pin":10046,"len":10047,"tail":10048,"via":10049,"ĠhÄ©nh":10050,"Ġnháº£":10051,"Ġnhung":10052,"ĠphÃ¡ch":10053,"Kha":10054,"ĠBryan":10055,"ĠCÃ¹ng":10056,"ĠCá»ķng":10057,"amper":10058,"Ġlogic":10059,"ĠJet":10060,"thá»ĥ":10061,"ĠVon":10062,"otts":10063,"Ġhear":10064,"ĠIsland":10065,"ssa":10066,"áº¬P":10067,"Alexander":10068,"ĠOhio":10069,"ĠScotty":10070,"ĠPhillips":10071,"Coulson":10072,"Gu":10073,"Mia":10074,"SÃ³ng":10075,"Viá»ĩn":10076,"Wall":10077,"Young":10078,"cu":10079,"ros":10080,"ĠÃºt":10081,"ĠNÃ³i":10082,"Ġháº±n":10083,"ChiÃª":10084,"ChÃ¡y":10085,"Ġquáº©y":10086,"Ngáº¯m":10087,"ĠLight":10088,"oria":10089,"ĠDark":10090,"ĠGin":10091,"ĠGard":10092,"ĠGust":10093,"ĠRemy":10094,"ĠÄĲan":10095,"ĠNÃły":10096,"ĠFrey":10097,"Äĳá»£i":10098,"ĠTriá»ĩu":10099,"Ġwater":10100,"ĠOptimus":10101,"avin":10102,"ĠYÃªn":10103,"Ġpáº£i":10104,"ĠlÅ©y":10105,"entiss":10106,"ĠCly":10107,"ĠtruyÃª":10108,"Ġbox":10109,"lando":10110,"ĠÃĤm":10111,"ĠHeather":10112,"ĠBerk":10113,"Ġgotta":10114,"ĠNGH":10115,"Ã¤i":10116,"ĠDorne":10117,"Catherine":10118,"Daisy":10119,"HÃ²n":10120,"HÃ¨n":10121,"Pap":10122,"dale":10123,"night":10124,"æĪ":10125,"ĠthÃ³c":10126,"Ġkung":10127,"Ġváº¯c":10128,"Ġbai":10129,"Ġhá»£m":10130,"ĠnhÄĥng":10131,"Cháº¡m":10132,"Ġdc":10133,"Ġding":10134,"ĠTusk":10135,"ĠSÃłi":10136,"ĠBecca":10137,"ĠCu":10138,"amo":10139,"ĠDonna":10140,"ĠAustin":10141,"ĠGil":10142,"ĠVÃ¢ng":10143,"ÄĳÃª":10144,"ĠStd":10145,"Ġfl":10146,"Ġfile":10147,"ÃĬU":10148,"ĠÃ°Ã½":10149,"raga":10150,"ĠHayes":10151,"ĠKeith":10152,"Ġngá»¥m":10153,"ĠDawson":10154,"Norman":10155,"ennessee":10156,"GÆ°Æ¡ng":10157,"Hobo":10158,"LÆ°á»¡i":10159,"Tia":10160,"Ġcáº±m":10161,"Ġmá»ģn":10162,"Ġmá»Ńa":10163,"Ġhá»§":10164,"Ġhappy":10165,"Ġnhá»ĥ":10166,"Ġngáº£":10167,"Ġrao":10168,"Ġdiáº¿m":10169,"ĠxÆ°á»£c":10170,"emma":10171,"ĠMÃł":10172,"ĠyÃª":10173,"enko":10174,"ĠCab":10175,"Ġkáº»o":10176,"omer":10177,"Ġball":10178,"Ġfax":10179,"anning":10180,"ĠGiun":10181,"Margaret":10182,"ĠTHÃģNG":10183,"ept":10184,"ÄĲÆ°Æ¡c":10185,"ctav":10186,"yria":10187,"Ġradar":10188,"Barney":10189,"ĠDuke":10190,"fnHobo":10191,"ÃľÃĸi":10192,"ĠStevens":10193,"ĠDecepticon":10194,"ĠMississippi":10195,"ĠClyde":10196,"Bia":10197,"Cá»Ľm":10198,"Cause":10199,"MÃ¡i":10200,"Tá»ī":10201,"Ward":10202,"ban":10203,"mas":10204,"nik":10205,"sá»ĳ":10206,"ste":10207,"Ġls":10208,"ĠbÃŃch":10209,"Ġhá»Ŀ":10210,"Ġráº«y":10211,"ĠnghÃª":10212,"chÆ¡i":10213,"Ngá»±c":10214,"ĠTess":10215,"ĠBá»Łi":10216,"Ġtoáº£":10217,"ĠRub":10218,"Ġanother":10219,"ÄĳÃ¢u":10220,"Äĳá»©ng":10221,"Ġcabin":10222,"Holly":10223,"ĠYuri":10224,"Ġ65":10225,"trá»«":10226,"ĠConrad":10227,"ĠÂ°":10228,"ĠCaptain":10229,"ĠTech":10230,"ĠVanessa":10231,"ĠJude":10232,"anslator":10233,"ĠVIá»ĨT":10234,"68":10235,"Evan":10236,"Hor":10237,"OU":10238,"TÃ¡ch":10239,"off":10240,"vers":10241,"wh":10242,"zer":10243,"ĠcÃłn":10244,"Ġká»ģn":10245,"Ġnáº¥ng":10246,"ĠngÃ³ng":10247,"Ġphai":10248,"ĠxÆ°á»Ľng":10249,"ĠBÃŃ":10250,"ĠCá»ĳ":10251,"ĠLen":10252,"ĠLex":10253,"ĠtoÃ¡i":10254,"ĠJennifer":10255,"ĠRip":10256,"ĠRalph":10257,"ĠNatalie":10258,"ĠPoseidon":10259,"Ġthose":10260,"omar":10261,"ieve":10262,"ĠEugene":10263,"oda":10264,"253":10265,"7851":10266,"ĠDothra":10267,"Scarlet":10268,"áº¬N":10269,"ĠLangdon":10270,"Huáº¥n":10271,"ĠArizona":10272,"timore":10273,"ristoff":10274,"ĠCrawford":10275,"Barbara":10276,"93":10277,"Ber":10278,"Bell":10279,"IL":10280,"MÃ¡":10281,"Susan":10282,"Ter":10283,"Vá»ı":10284,"deen":10285,"ful":10286,"mie":10287,"rah":10288,"ĠNgÆ°Æ¡i":10289,"ĠlÃ¬nh":10290,"ĠlÃ¹a":10291,"ĠvÆ°á»£ng":10292,"Ġvá»įt":10293,"Ġmust":10294,"Ġná»Ľi":10295,"Ġná»įc":10296,"Ġbáº¹p":10297,"ĠgÃ£i":10298,"ĠtrÆ°á»Ľng":10299,"Ġdáº»":10300,"ĠMáºŃp":10301,"ĠMul":10302,"ĠCobb":10303,"ĠCurtis":10304,"TrÆ°Æ¡ng":10305,"ĠChÆ°Æ¡ng":10306,"ĠKan":10307,"led":10308,"Chuá»Ļt":10309,"aba":10310,"ĠPetrov":10311,"ĠSanchez":10312,"ĠInterpol":10313,"nghÄ©":10314,"ĠCamelot":10315,"ippin":10316,"ĠDaniels":10317,"heim":10318,"Angela":10319,"asmine":10320,"Dá»ĳi":10321,"LÆ°á»£ng":10322,"Rich":10323,"dam":10324,"zan":10325,"ÃĽi":10326,"Ġteo":10327,"Ġcá»Ļ":10328,"Ġcare":10329,"ĠÄ©":10330,"Ġlá»¥t":10331,"Ġmorn":10332,"ĠbÃłnh":10333,"ĠngÃ¡ch":10334,"Ġthá»ıi":10335,"Ã¹y":10336,"ĠTai":10337,"ĠBiá»ĩt":10338,"ĠHas":10339,"ĠCEO":10340,"ĠChar":10341,"ĠNemo":10342,"aston":10343,"ĠVui":10344,"ĠVulcan":10345,"ĠTrans":10346,"ards":10347,"enner":10348,"ĠAlabama":10349,"endan":10350,"shin":10351,"ĠKhan":10352,"7857":10353,"ĠMorris":10354,"ullied":10355,"ĠBeat":10356,"isten":10357,"ĠPatty":10358,"Ġalways":10359,"ĠDuncan":10360,"Julie":10361,"ĠBradley":10362,"Hercules":10363,"',":10364,"Báº§u":10365,"Cá»Ĺ":10366,"God":10367,"Georg":10368,"OS":10369,"fu":10370,"fle":10371,"may":10372,"pa":10373,"tiáº¿p":10374,"town":10375,"eong":10376,"ngo":10377,"Ġtennis":10378,"ĠlÃºn":10379,"ĠmÄĥng":10380,"ÄĲá»ĭch":10381,"inal":10382,"Ã©s":10383,"ĠMen":10384,"ĠBael":10385,"Ìī...<":10386,"ĠÄĲá»ĺ":10387,"ĠPitt":10388,"ĠTrÃªn":10389,"ici":10390,"ĠInh":10391,"Giai":10392,"ĠSteel":10393,"Ġfree":10394,"ĠnguyÃª":10395,"ĠZe":10396,"Ġboa":10397,"MuÃ´":10398,"ambo":10399,"ĠRhodes":10400,"ĠAndrews":10401,"ĠGreyjoy":10402,"Foreman":10403,"Ġsamurai":10404,"Ġhelp":10405,"orschach":10406,"Jennifer":10407,"Lisa":10408,"Tuyáº¿t":10409,"af":10410,"wi":10411,"Ġes":10412,"Ġtáº©m":10413,"ĠhÃ¡m":10414,"Ġdáº¡t":10415,"ĠdÃ©p":10416,"inson":10417,"ĠSull":10418,"ĠLáº§u":10419,"ĠGwen":10420,"ĠÄĲÆ¯á»¢C":10421,"ĠKane":10422,"ols":10423,"ĠTrÃ¹m":10424,"ĠNhÃ£n":10425,"Khoai":10426,"abb":10427,"sea":10428,"ĠZh":10429,"laf":10430,"ĠKhal":10431,"Ġwhy":10432,"ĠDana":10433,"Ãľng":10434,"ried":10435,"iggle":10436,"ĠRomeo":10437,"ĠFrost":10438,"ĠBeckett":10439,"ĠNaples":10440,"Teddy":10441,"Wilson":10442,"ĠPorter":10443,"74":10444,"Av":10445,"Every":10446,"Minh":10447,"Oliv":10448,"wick":10449,"ĠtÆ°á»Ľi":10450,"Ġthese":10451,"ĠkÃ¨":10452,"ĠhÃ¹m":10453,"Ġguitar":10454,"ĠngÃ½":10455,"Ġdie":10456,"ĠxiÃªn":10457,"Ì£!<":10458,"ĠMot":10459,"ĠCÃ¢u":10460,"ĠCamb":10461,"orrow":10462,"ĠDub":10463,"ĠRow":10464,"ĠPerez":10465,"ĠVIP":10466,"Äĳáº¡i":10467,"ĠTravis":10468,")}âĻª":10469,"Ġ...?<":10470,"Ġuáº¿":10471,"ecause":10472,"lder":10473,"ĠElias":10474,"ĠWhat":10475,"Alan":10476,"Heather":10477,"ĠDaryl":10478,"ÃĨt":10479,"ĠHercules":10480,"ĠKaiju":10481,"ĠPierre":10482,"Karen":10483,"owalski":10484,"Cisco":10485,"Lily":10486,"Lawrence":10487,"Tiá»ĩm":10488,"cm":10489,"lÃª":10490,"psy":10491,"Å¨":10492,"ĠthÃ²":10493,"Ġvitamin":10494,"Ġmáº«n":10495,"ĠmÆ°á»Ľn":10496,"ĠxÃ³":10497,"Ġxá»Ł":10498,"...,":10499,"ĠSaw":10500,"ĠBran":10501,"ĠCot":10502,"TrÃ¬nh":10503,"ĠLoki":10504,"ĠThÃº":10505,"ĠNelson":10506,"ĠPri":10507,"ĠVeronica":10508,"ĠFil":10509,"ÄĳÃ¡nh":10510,"uru":10511,"Ġ46":10512,"oira":10513,"uma":10514,"ako":10515,"ĠXa":10516,"pera":10517,"load":10518,"Buzz":10519,"When":10520,"yrus":10521,"ĠHamilton":10522,"ĠFreddy":10523,"ĠMoore":10524,"Christine":10525,"ĠKlaus":10526,"ĠColumbia":10527,"DÆ°Æ¡ng":10528,"HÃ´":10529,"Jay":10530,"UNG":10531,"bu":10532,"bÃªn":10533,"cr":10534,"cá»ĳ":10535,"xe":10536,"Ã§":10537,"ÃĽ":10538,"ãĢ":10539,"ĠÆłn":10540,"Ġtáº¡c":10541,"ĠtÃŃt":10542,"ĠcÃį":10543,"ĠlÃµa":10544,"Ġmar":10545,"ĠmÃ¨":10546,"Ġbro":10547,"Thang":10548,"Thua":10549,"ĠMI":10550,"ĠMáº¡ch":10551,"Ġyáº¿m":10552,"ĠHi":10553,"ĠDÃ¬":10554,"ĠDal":10555,"ĠAveng":10556,"Ġchá»ĭch":10557,"ĠPla":10558,"Chá»īnh":10559,"iev":10560,"ellus":10561,"ÃĢi":10562,"Ġ44":10563,"ĠStifler":10564,"ĠYam":10565,"trom":10566,"ĠQuy":10567,"ovich":10568,"uller":10569,"ĠÃĩÃ¢y":10570,"ĠLorraine":10571,"ĠSunny":10572,"ĠAthens":10573,"ĠChappie":10574,"ĠTirith":10575,"CÃ¡o":10576,"Gá»Łi":10577,"Huy":10578,"Mik":10579,"Rá»Ńa":10580,"TO":10581,"XÃºc":10582,"com":10583,"rina":10584,"Â¯":10585,"Ġtá»ıi":10586,"Ġcáº¡p":10587,"ĠthÃ¢u":10588,"Ġváº£ng":10589,"Ġná»ĩn":10590,"ĠgÃ²":10591,"ÃŃp":10592,"Ìģ...":10593,"ĠMÆ°á»Ŀi":10594,"ĠMus":10595,"ĠTon":10596,"ĠTá»ĳt":10597,"ĠSÃ¡ch":10598,"ĠSec":10599,"ĠBry":10600,"ĠBean":10601,"ĠCaitlin":10602,"ĠDanh":10603,"ĠTráº¡i":10604,"ĠIreland":10605,"ido":10606,"idas":10607,"rain":10608,"Ġtheir":10609,"Ãģc":10610,"ĠArkham":10611,"Stark":10612,"isha":10613,"ĠMcK":10614,"ible":10615,"ĠWilkes":10616,"Ġchá»£p":10617,"ĠStefan":10618,"ĠSkyler":10619,"ĠUns":10620,"ĠGrodd":10621,"ĠAntonio":10622,"ĠNicole":10623,"Ev":10624,"Jenny":10625,"Lan":10626,"Má»ĩt":10627,"Ren":10628,"SH":10629,"Xinh":10630,"Your":10631,"gáº§n":10632,"si":10633,"tu":10634,"Ġá»īa":10635,"ngá»ĵi":10636,"Ġchao":10637,"Ġkáº¿p":10638,"Ġkind":10639,"Ġroll":10640,"Tháº£m":10641,"chester":10642,"amura":10643,"ĠLud":10644,"oro":10645,"ĠChá»įn":10646,"ĠGeller":10647,"ĠRá»«ng":10648,"ĠÄĲá»ĭch":10649,"olan":10650,"ĠOllie":10651,"ooth":10652,"leep":10653,"Ġ51":10654,"á»ªNG":10655,"Ġ49":10656,"umm":10657,"ĠNgÅ©":10658,"away":10659,"ĠJoan":10660,"ĠSeattle":10661,"ricia":10662,"ĠEvil":10663,"ĠRichie":10664,"Skyler":10665,"ĠSHIELD":10666,"Ġdollar":10667,"Ná»ģn":10668,"Tob":10669,"hÆ¡n":10670,"won":10671,"ĠKhoa":10672,"eok":10673,"Ġton":10674,"Ġlá»ıi":10675,"Ġnit":10676,"Ġgá»Ļi":10677,"ĠrÃ©t":10678,"phne":10679,"Chun":10680,"Ġdel":10681,"auss":10682,"ĠBÄĥng":10683,"ĠBanks":10684,"ĠLaw":10685,"ĠGy":10686,"ĠRV":10687,"ĠÄĲÆ°a":10688,"ĠPy":10689,"Ġbad":10690,"aden":10691,"ahan":10692,"ĠOogway":10693,"ooby":10694,"igo":10695,"Sauron":10696,"ĠShakespeare":10697,"ĠAnt":10698,"ĠKháº£":10699,"opez":10700,"ampagne":10701,"ekov":10702,"ĠAsgard":10703,"ĠHills":10704,"ĠRhett":10705,"ntze":10706,"ĠJune":10707,"Michelle":10708,"ĠPowers":10709,"Debbie":10710,"ĠNevada":10711,"Baby":10712,"Rod":10713,"Sá»©":10714,"XÃ³a":10715,"mann":10716,"rent":10717,"Ġcn":10718,"nhÃ¢n":10719,"Ġlá»«ng":10720,"Ġbon":10721,"Ġbáº§n":10722,"Ġbow":10723,"Ġbreak":10724,"Ġsushi":10725,"Ġháº¯t":10726,"áº½m":10727,"aomi":10728,"onel":10729,"Ġgien":10730,"ĠSang":10731,"Trao":10732,"Tráº¡i":10733,"Triá»ĥn":10734,"ĠDew":10735,"ĠChloe":10736,"ĠGriff":10737,"Ġdog":10738,"ĠNate":10739,"ĠFisk":10740,"ĠTranslated":10741,"obby":10742,"Ġnothing":10743,"aga":10744,"ulin":10745,"ĠQuinn":10746,"ĠShredder":10747,"ĠBrick":10748,"athcliff":10749,"quer":10750,"ourg":10751,"Iá»Ģ":10752,"ational":10753,"Ellis":10754,"ĠHotchner":10755,"ĠCleveland":10756,"ĠCairo":10757,"ĠDothraki":10758,"/<":10759,"DA":10760,"Hitler":10761,"Jordan":10762,"Rad":10763,"jorn":10764,"Ġeven":10765,"ĠlÃĥ":10766,"Ġthá»ĳn":10767,"ĠcháºŃp":10768,"Ġchá»Ļp":10769,"ĠmÃ³":10770,"Ã¡Âº":10771,"Ġsáº¥y":10772,"Ġstop":10773,"Ġhun":10774,"ÄĲÄĥ":10775,"Ġdáº¥n":10776,"ĠdÃ¨":10777,"onia":10778,"Ġchá»«":10779,"auer":10780,"ĠMoh":10781,"ĠCad":10782,"ĠCro":10783,"ĠLá»Ľn":10784,"lle":10785,"ĠGul":10786,"elujah":10787,"ales":10788,"ĠVá»Ľi":10789,"ĠkhÃ³e":10790,"olai":10791,"Ġput":10792,"ĠNgá»įn":10793,"trÃ¡nh":10794,"Ġname":10795,"ronos":10796,"ĠdÃ²m":10797,"ARK":10798,"Christina":10799,"ĠSlade":10800,"ĠUnsullied":10801,"Bilbo":10802,"LÃŃ":10803,"Natalie":10804,"Váº»":10805,"ĠlÃºng":10806,"ĠrÃŃch":10807,"ĠphÃ¬":10808,"ĠxÃ¡t":10809,"NhÃ¢":10810,"chÃłng":10811,"ĠSync":10812,"ĠBá»±":10813,"Pho":10814,"ĠLov":10815,"ĠLove":10816,"orah":10817,"ĠThi":10818,"ills":10819,"ffe":10820,"ĠNguy":10821,"teen":10822,"ĠXÃ£":10823,"áº¢o":10824,"ĠsÃ´cÃ´la":10825,"áº¤y":10826,"ĠWilly":10827,"Ãĥt":10828,"ĠnhoÃ¡ng":10829,"ĠErin":10830,"Ãĵng":10831,"KhuÃ´n":10832,"Ã±i":10833,"ĠChuáº©n":10834,"ĠClayton":10835,"Helen":10836,"Vanessa":10837,"Ġwrong":10838,"gwarts":10839,"Den":10840,"Exp":10841,"Háº¥p":10842,"Luyá»ĩn":10843,"Nina":10844,"Nancy":10845,"sie":10846,"ÍĢ":10847,"ĠÃ³":10848,"Ġlá»įi":10849,"ĠchÃ¡c":10850,"Ġmet":10851,"Ġnáº¿p":10852,"Ġnháº£i":10853,"Ġphiáº¿m":10854,"arn":10855,"ĠLáº¡i":10856,"ĠRita":10857,"aska":10858,"thday":10859,"ombie":10860,"ĠEggsy":10861,"ĠOver":10862,"Ġsoa":10863,"Ġ656":10864,"Khoáº»":10865,"ĠShane":10866,"quez":10867,"ĠBarn":10868,"á»ĲC":10869,"ĠAdrian":10870,"ĠTyrion":10871,"ĠGloria":10872,"Ġdead":10873,"ĠJules":10874,"iffany":10875,"ĠLorenzo":10876,"ĠPhimHD":10877,"ĠDamien":10878,"ĠrÆ¡m":10879,"ĠNapoleon":10880,"Ġenough":10881,"ĠWarren":10882,"Ãĺng":10883,"ĠFisher":10884,"ĠJenkins":10885,"Gabriel":10886,"ĠMoriarty":10887,"nheim":10888,"BÃ´ng":10889,"Caitlin":10890,"Gary":10891,"Máº¯c":10892,"Mos":10893,"Mick":10894,"One":10895,"TÃłn":10896,"Terry":10897,"ViÃªm":10898,"mau":10899,"oor":10900,"site":10901,"ÃĹ":10902,"Ġet":10903,"Ġom":10904,"Ġmui":10905,"Ġsá»ıi":10906,"Ġsweet":10907,"ĠhÃ³c":10908,"Ġgiáº¿m":10909,"......<":10910,"ChÃ©m":10911,"ÄĲÆ¡":10912,"Ġgiáº«m":10913,"Ġchocol":10914,"KhÃ³c":10915,"Nhá»ĭ":10916,"chÃºa":10917,"ĠMÃ´ng":10918,"ĠBre":10919,"á»Ńu":10920,"Trá»Ļm":10921,"ĠLiam":10922,"ĠDung":10923,"ĠDec":10924,"esota":10925,"asse":10926,"ĠViet":10927,"Ġcomp":10928,"ĠOre":10929,"berty":10930,"Gháº¿":10931,"Ġleave":10932,"Howard":10933,"ĠGenesis":10934,"Ġanything":10935,"ĠViking":10936,"ĠCrowley":10937,"ĠReynolds":10938,"Ġná»ĩm":10939,"Táº¯m":10940,"bÃ´ng":10941,"gun":10942,"ianne":10943,"loyd":10944,"pus":10945,"wicky":10946,"Ġund":10947,"ĠÄĳáº·n":10948,"ĠvÆ°Æ¡":10949,"Ġsl":10950,"ĠrÃ²ng":10951,"Ġphá»ĭch":10952,"ĠxÃª":10953,"NháºŃp":10954,"ĠMountain":10955,"ĠTÆ°á»Ľc":10956,"ĠBak":10957,"ĠBelle":10958,"Pháº¡m":10959,"ĠRex":10960,"eld":10961,"ĠNinh":10962,"ĠKurt":10963,"ĠKling":10964,"QuÃ©t":10965,"Äĳá»ģu":10966,"ĠTris":10967,"ĠExp":10968,"ades":10969,"otta":10970,"andora":10971,"ĠQuill":10972,"ĠGiáº£":10973,"Marsh":10974,"ĠGrady":10975,"ĠÃĩÃ£":10976,"Ġthá»¥c":10977,"Ġheroin":10978,"Æ¯ÆłNG":10979,"Bal":10980,"WAT":10981,"soo":10982,"tÆ¡":10983,"Ġow":10984,"Ġtuá»ĳt":10985,"ĠlÃ¡c":10986,"Ġlight":10987,"Ġthá»ĳt":10988,"Ġvon":10989,"ĠmÃ©o":10990,"Ġmeth":10991,"Ġhen":10992,"Ġnháº¥p":10993,"ChiÃªu":10994,"chá»Ĺ":10995,"ĠMiá»ģn":10996,"ĠSebastian":10997,"ĠBuch":10998,"ĠHorn":10999,"ĠLÃ¢u":11000,"ĠLow":11001,"ĠDuy":11002,"ĠDim":11003,"ĠDex":11004,"ĠRox":11005,"ista":11006,"ĠÄĲao":11007,"ĠÄĲÃłn":11008,"elope":11009,"Ġlaser":11010,"Nghá»ģ":11011,"ĠWit":11012,"Äĳo":11013,"ĠPháº¡m":11014,"ĠPheebs":11015,"rance":11016,"Ġpro":11017,"ĠsuÃ´":11018,"ĠArryn":11019,"coon":11020,"bye":11021,"ĠSparrow":11022,"anko":11023,"Ġruá»ĵng":11024,"ĠEdgar":11025,"Albert":11026,"ĠCalvin":11027,"ĠJulian":11028,"ĠFring":11029,"Iá»ĨN":11030,"UYá»Ģ":11031,"ĠSaiyan":11032,"UYá»ĢN":11033,"Cá»¡":11034,"LÃ´ng":11035,"NÃºi":11036,"VÃª":11037,"lar":11038,"áºº":11039,"ĠtÃ¡nh":11040,"ĠthÃ³p":11041,"Ġmad":11042,"Ġmoney":11043,"ĠbÃ³n":11044,"Ġnhá»«":11045,"ĠngÃ¡ng":11046,"Ġdone":11047,"ays":11048,"Ġngháº½n":11049,"...\"":11050,"Ngá»įt":11051,"ĠTang":11052,"ĠSin":11053,"ĠHiá»ĥu":11054,"ĠHá»©a":11055,"ĠHir":11056,"ĠCrixus":11057,"ĠDem":11058,"ĠKiáº¿n":11059,"Quáº£ng":11060,"ĠFoster":11061,"ĠWang":11062,"Äĳáº¥y":11063,"Ġ900":11064,"ĠXÃł":11065,"Ġduá»ĩ":11066,"astan":11067,"Alpha":11068,"ĠCrassus":11069,"Joffrey":11070,"ĠGlenn":11071,"ĠDamon":11072,"ĠRussell":11073,"ĠCassie":11074,"áº¨n":11075,"Scotty":11076,"97":11077,"BÃ£o":11078,"Hermione":11079,"Kai":11080,"Kiáº¿n":11081,"Kelly":11082,"PA":11083,"Sk":11084,"TiÃªm":11085,"cÃ¢u":11086,"rand":11087,"sin":11088,"vÃłi":11089,"ĠluyÃª":11090,"Ġthiá»ģn":11091,"Ġmin":11092,"Ġmor":11093,"Ġbest":11094,"ĠhÃŃ":11095,"Ġrang":11096,"Ġass":11097,"onz":11098,"erta":11099,"Ġlá»©":11100,"ĠBÃ©":11101,"ĠHass":11102,"ĠCome":11103,"ĠCynthia":11104,"ĠDai":11105,"ĠRicky":11106,"elsea":11107,"ĠPau":11108,"ĠVÃ¹ng":11109,"ĠFree":11110,"itor":11111,"ĠEnd":11112,"illon":11113,"Ġnguá»Ŀi":11114,"anni":11115,"trá»Ł":11116,"seng":11117,"ĠUp":11118,"ookie":11119,"Clay":11120,"Ġmá»¥n":11121,"ampire":11122,"ĠJamal":11123,"ĠJanice":11124,"ĠOlympic":11125,"ĠJedi":11126,"Cor":11127,"Donnie":11128,"LA":11129,"PE":11130,"Rá»«ng":11131,"Syl":11132,"hk":11133,"vo":11134,"Ġtá»Ļt":11135,"ĠtÃ¢ng":11136,"ĠhÃªn":11137,"Ġdis":11138,"KhÃ´":11139,"ĠmÃło":11140,"ĠSÃ´":11141,"ĠBuff":11142,"ĠCur":11143,"PhÃŃ":11144,"Trá»¥":11145,"ĠCháº¯c":11146,"ĠChen":11147,"ĠRoll":11148,"ĠNY":11149,"eto":11150,"ĠVa":11151,"ĠWol":11152,"ĠEng":11153,"GiÃł":11154,"ava":11155,"ulk":11156,"ival":11157,"NGÃĢY":11158,"ereen":11159,"ĠRobot":11160,"ÃĴNG":11161,"ĠChristina":11162,"Ġprotein":11163,"ergus":11164,"á»®NG":11165,"Becky":11166,"ĠMandarin":11167,"querque":11168,"BiÃª":11169,"Kit":11170,"LáºŃt":11171,"Not":11172,"iott":11173,"pos":11174,"wulf":11175,"Ġláº£i":11176,"ĠchÃ²m":11177,"Ġsn":11178,"Ġrá»įi":11179,"ĠtrÄĥn":11180,"ĠxÃ¹":11181,"aige":11182,"ĠCree":11183,"ĠLim":11184,"ĠChÃºc":11185,"ĠChoi":11186,"ĠThá»£":11187,"ĠNÆ¡i":11188,"ĠKÃ½":11189,"asper":11190,"ĠVale":11191,"ĠFair":11192,"icc":11193,"icate":11194,"ĠEve":11195,"ĠPhilly":11196,"idan":11197,"Ġ85":11198,"Ġ95":11199,"ĠUk":11200,"stant":11201,"ĠConway":11202,"ooka":11203,"ĠAmaz":11204,"renaline":11205,"ullen":11206,"ĠÃģnh":11207,"ĠJanet":11208,"ĠTheodore":11209,"ĠDrake":11210,"Caroline":11211,"Ġcocktail":11212,"94":11213,"Bá»Ľt":11214,"Dennis":11215,"Grace":11216,"Iris":11217,"Káº¹t":11218,"Som":11219,"bot":11220,"dal":11221,"gu":11222,"má»Ł":11223,"mÃ¡y":11224,"rigan":11225,"som":11226,"stone":11227,"Â³":11228,"ä½":11229,"Ġ?":11230,"ĠNghe":11231,"ĠnÃŃu":11232,"Æ¡ng":11233,"ChÃ¨o":11234,"onne":11235,"aritan":11236,"ĠSS":11237,"ĠHannibal":11238,"ĠLon":11239,"ĠLiv":11240,"ĠChá»Ľp":11241,"ated":11242,"ĠWay":11243,"ĠPhÃºc":11244,"rane":11245,"Ġfight":11246,"Ġpass":11247,"ĠHoffman":11248,"ighton":11249,"ians":11250,"stal":11251,"ĠCarlo":11252,"ĠCaleb":11253,"Ġláº»o":11254,"ĠMinas":11255,"ĠSkynet":11256,"ĠHugh":11257,"ĠPhoenix":11258,"BáºŃn":11259,"Bat":11260,"Háº¯c":11261,"Jai":11262,"MÃ³c":11263,"Optimus":11264,"RE":11265,"Sáº£n":11266,"Sá»¯a":11267,"XÃ¢y":11268,"cáº£nh":11269,"uardo":11270,"ving":11271,"nham":11272,"Ġhao":11273,"Ġtráº«m":11274,"uya":11275,"ĠTÆ°Æ¡ng":11276,"ĠBert":11277,"ĠBá»Ĭ":11278,"ĠCÃ¡ch":11279,"ĠCáº¢":11280,"ĠCersei":11281,"Ġluá»ĵn":11282,"ĠDown":11283,"Ìĥ!<":11284,"ĠPol":11285,"ĠVampire":11286,"ĠEuro":11287,"ĠIP":11288,"Ġwind":11289,"ĠPharaoh":11290,"ÃĢNG":11291,"7849":11292,"Ġ1944":11293,"ĠEmil":11294,"Ġ04":11295,"ĠHammond":11296,"uela":11297,"ĠRoosevelt":11298,"Laura":11299,"sterdam":11300,"ĠBaltimore":11301,"ildur":11302,"Ashley":11303,"Castle":11304,"æĪĳ":11305,"Buddy":11306,"Lam":11307,"LÃ£ng":11308,"Miá»ĩng":11309,"Sav":11310,"cre":11311,"gether":11312,"á»ĸ":11313,"Ġten":11314,"ĠÄĳá»į":11315,"ĠkhÃ¡nh":11316,"ĠsÃªn":11317,"Ġhard":11318,"Ã¬i":11319,".....":11320,"ThiÃªu":11321,"ĠthÃ¬a":11322,"ĠHim":11323,"ĠHermione":11324,"Phá»©c":11325,"amel":11326,"Ġtogether":11327,"eton":11328,"ited":11329,"ĠTristan":11330,")}<":11331,"rya":11332,"ires":11333,"arly":11334,"ĠMarc":11335,"eva":11336,"ĠXÃŃch":11337,"ions":11338,"ĠAnthony":11339,"ĠvÃµng":11340,"Ġheh":11341,"ĠJonathan":11342,"ĠCraig":11343,"ĠApollo":11344,"Merlin":11345,"ĠAndrea":11346,"Ġcoming":11347,"ourtney":11348,"Ġgarage":11349,"auntless":11350,"lahoma":11351,"ĠBaelish":11352,"ANh":11353,"Cá»Ļt":11354,"Roman":11355,"Sw":11356,"Sá»£i":11357,"Sant":11358,"ViÃª":11359,"báº¯n":11360,"ears":11361,"liá»ĩu":11362,"och":11363,"pir":11364,"pere":11365,"Ã·":11366,"Ġáº¯t":11367,"Ġbá»£":11368,"ĠsÃ¡m":11369,"Ġgone":11370,"Ġngá»ĳ":11371,"ĠngÃ¢":11372,"Ġtanh":11373,"Ġdance":11374,"ems":11375,"KhÄĥn":11376,"NgÆ°":11377,"arm":11378,"ĠHáº¡nh":11379,"ĠHerm":11380,"TrÆ°á»£t":11381,"ĠChÃ³":11382,"ĠThÃ´i":11383,"ĠStella":11384,"ĠNgÃ´":11385,"trung":11386,"Ġ007":11387,"AlÃ´":11388,"Ġbye":11389,"iggins":11390,"ĠMadison":11391,"INE":11392,"ĠOmega":11393,"Ġfeeling":11394,"entinel":11395,"ĠSuperman":11396,"ascal":11397,"ĠMinnesota":11398,"ĠSullivan":11399,"Báº£ng":11400,"Cooper":11401,"Joy":11402,"Ká»µ":11403,"LÃ´":11404,"Lenny":11405,"Madel":11406,"Veronica":11407,"mang":11408,"min":11409,"ĠNhanh":11410,"ĠlÃ¡u":11411,"ĠkÃ©p":11412,"Ġbung":11413,"Ġsá»įc":11414,"Ġtrc":11415,"Chá»¯a":11416,"Chloe":11417,"ĠgiÃ²":11418,"Nhá»ĳt":11419,"ĠMÃ¡u":11420,"ĠMÅ©":11421,"ĠMyr":11422,"ĠTop":11423,"ĠCop":11424,"ĠDá»±":11425,"este":11426,"ĠGau":11427,"ĠJae":11428,"ĠJensen":11429,"ĠTháº±ng":11430,"thel":11431,"ĠFerr":11432,"ĠOf":11433,"urn":11434,"avers":11435,"rystal":11436,"ffer":11437,"ĠthÃ¹y":11438,"ĠGiao":11439,"eggy":11440,"ÃģO":11441,"ĠDante":11442,"ĠÃĩÃ³":11443,"ĠEllie":11444,"ĠQueens":11445,"gaery":11446,"Ġchá»Ńng":11447,"ĠThuáºŃt":11448,"adstone":11449,"CÃłi":11450,"Duy":11451,"HÃª":11452,"Hobb":11453,"Máº¡ch":11454,"Pier":11455,"Rá»ĵng":11456,"SÄĥn":11457,"Sonny":11458,"gÃł":11459,"human":11460,"ique":11461,"rÃ´":11462,"Ġlá»¯":11463,"Ġláº·t":11464,"ĠchÃĴng":11465,"ĠniÃª":11466,"Ġsáº£y":11467,"ĠhÃ©o":11468,"ĠnhÄ©":11469,"ĠtrÃª":11470,"Ġphung":11471,"ÄĲe":11472,"ÄĲen":11473,"ÄĲÃ¨":11474,"ÄĲá»ĩt":11475,"KhiÃªu":11476,"ĠMiÃª":11477,"ĠTuyÃªn":11478,"ĠHuyáº¿t":11479,"ĠDiá»ĩn":11480,"ĠDiana":11481,"imir":11482,"ĠChambers":11483,"ĠGor":11484,"ĠGÃ³c":11485,"ĠJung":11486,"ĠRin":11487,"ĠThá»±c":11488,"ĠPike":11489,"ĠPerry":11490,"ĠVá»ĭ":11491,"ĠFour":11492,"ĠTrai":11493,"ĠYale":11494,"Ġ64":11495,"ĠSharon":11496,"shi":11497,"Star":11498,"rench":11499,"Clau":11500,"ĠxÃŃa":11501,"ĠCHO":11502,"ĠWeaver":11503,"á»ĺC":11504,"ĠRichards":11505,"ĠHobbs":11506,"ĠToÃłn":11507,"auser":11508,"á»ĬCH":11509,"ĠPoint":11510,"ĠPlay":11511,"ĠCampbell":11512,"ĠBroadway":11513,",..<":11514,"Báº¡o":11515,"GiÃª":11516,"Leg":11517,"Lind":11518,"Má»ĩnh":11519,"RiÃªng":11520,"dington":11521,"gáº·p":11522,"lov":11523,"sburgh":11524,"Ġown":11525,"Ġbá»ĵng":11526,"Ġsá»ĵi":11527,"Ġráº¡n":11528,"Emma":11529,"ĠTook":11530,"Ġyoga":11531,"á»Ńng":11532,"ĠLet":11533,"ĠLinc":11534,"ĠDÅ©ng":11535,"ĠDylan":11536,"ĠChaney":11537,"ĠRoland":11538,"isky":11539,"ĠPizza":11540,"Äĳáº·c":11541,"Ġvá»ĩt":11542,"igel":11543,"ĠYu":11544,"ĠNhÃ¢":11545,"Chuá»ĵn":11546,"allon":11547,"rive":11548,"ĠFrances":11549,"ĠBron":11550,"Ġearth":11551,"ĠCarver":11552,"ollum":11553,"ishio":11554,"yland":11555,"ĠCruchot":11556,"ĠHeights":11557,"ĠTywin":11558,"ricks":11559,"ĠLouise":11560,"ĠEnc":11561,"Sophie":11562,"ĠHammer":11563,"ĠCastor":11564,"á»ļI":11565,"Ġwebsite":11566,"iddle":11567,"ĠProctor":11568,"ĠGhul":11569,"Delta":11570,"ĠGiÃªsu":11571,"ĠYankee":11572,"Pep":11573,"VÃ¢y":11574,"Ġcuá»ĳng":11575,"Ġláº¡ng":11576,"Ġgáº¡c":11577,"Ġngá»ı":11578,"Chai":11579,"Ġdes":11580,"Ġxá»Ńa":11581,"ĠxÃºi":11582,"ĠÄĳÃ³a":11583,"NhÃło":11584,"ĠMÃ¹a":11585,"ĠTia":11586,"ĠSully":11587,"ĠBon":11588,"ĠCÆ°Æ¡ng":11589,"ĠLionel":11590,"ĠAragorn":11591,"ĠPope":11592,"ĠWoo":11593,"ĠStacy":11594,"Ġmuá»Ĺng":11595,"Ġfine":11596,"rog":11597,"ĠÃ±":11598,"ĠÃĥ":11599,"ÃģI":11600,"quin":11601,"ĠSpark":11602,"ĠAbe":11603,"ĠRaph":11604,"ĠMeereen":11605,"ĠBoyd":11606,"khoáº£ng":11607,"Ãĳn":11608,"ĠRenly":11609,"ĠDisney":11610,"65":11611,"Bourne":11612,"Flor":11613,"Honey":11614,"Láº·p":11615,"MÃ´i":11616,"Ny":11617,"Os":11618,"Ragnar":11619,"Váº½":11620,"hr":11621,"Ġáº»o":11622,"Ġvery":11623,"Ġmáº·n":11624,"Ġkhá»ĳ":11625,"ĠgÃ¡n":11626,"ĠphÃ¤i":11627,"Ġxiá»ģng":11628,"ĠMelly":11629,"ĠBá»ĩnh":11630,"ĠHáº¡ng":11631,"TrÃ¹ng":11632,"Tracy":11633,"ĠLem":11634,"ĠLá»ĩnh":11635,"ĠGÃ²n":11636,"ĠRav":11637,"atur":11638,"ĠNova":11639,"usco":11640,"GiÃ´":11641,"GiÆ°":11642,"tern":11643,"agle":11644,"ĠSheila":11645,"ĠGiáº£i":11646,"ĠZack":11647,"á»³nh":11648,"Ãģi":11649,"ĠScy":11650,"á»ľI":11651,"Shane":11652,"oldem":11653,"ĠWheeler":11654,"ĠMain":11655,"ĠDonovan":11656,"Amber":11657,"ĠCaster":11658,"ĠAdams":11659,"Abraham":11660,"cá»©u":11661,"ĠEvelyn":11662,"Isabelle":11663,"ĠDurant":11664,"Janet":11665,"ĠMorgana":11666,"ĠOutis":11667,"ĠLotso":11668,"800":11669,"Bon":11670,"Bá»¥ng":11671,"Dao":11672,"Dol":11673,"Gan":11674,"Un":11675,"Wyatt":11676,"back":11677,"dan":11678,"káº¿t":11679,"ment":11680,"ĠXem":11681,"Ġooh":11682,"Ġnung":11683,"ĠbÄĥm":11684,"Ġbá»īnh":11685,"Ġhá»ĳc":11686,"Ġtrá»Ľn":11687,"phis":11688,"ĠMagn":11689,"ĠTennessee":11690,"ĠSasha":11691,"ĠSugar":11692,"ĠBÃ¢y":11693,"ĠBul":11694,"ĠHell":11695,"Translator":11696,"Ġtop":11697,"Ġtoan":11698,"ĠDream":11699,"Ġ\".<":11700,"ĠThÃ¡ng":11701,"oux":11702,"Quáº¹o":11703,"thers":11704,"ĠVaugh":11705,"ĠWith":11706,"Ġgháº¹o":11707,"Hoáº¯c":11708,"ĠYemen":11709,"Ġpao":11710,"ĠMarvin":11711,"Saul":11712,"ĠHoang":11713,"apore":11714,"acey":11715,"iani":11716,"ÃįCH":11717,"Ġexp":11718,"ĠArc":11719,"ifu":11720,"inski":11721,"ault":11722,"ĠAmelia":11723,"ĠPeterson":11724,"Ġstand":11725,"Ãĵn":11726,"ĠHelena":11727,"quiao":11728,"ĠBoyka":11729,"grim":11730,"ĠATM":11731,"Natasha":11732,"Ġbowling":11733,"ĠKlingon":11734,"ĠCreek":11735,"BÃ¢":11736,"Bri":11737,"Dáº«u":11738,"Háº¡m":11739,"Xi":11740,"ges":11741,"ih":11742,"kie":11743,"wig":11744,"yon":11745,"Ġln":11746,"Ġlá»įng":11747,"ĠthÃªu":11748,"Ġku":11749,"ĠmÃ¡ng":11750,"Ġmatter":11751,"Ġkhuynh":11752,"Ġháº¥n":11753,"Ġháº»o":11754,"Ġgáº«y":11755,"ĠgiÃ²n":11756,"Ngá»ĳc":11757,"Emil":11758,"ĠMall":11759,"ĠTina":11760,"ĠSEA":11761,"ĠCá»Ńu":11762,"ĠKay":11763,"ĠWright":11764,"Ġbur":11765,"illin":11766,"ĠOlaf":11767,"ĠÄĳag":11768,"igt":11769,"á»·u":11770,"ndicate":11771,"eech":11772,"ĠZero":11773,"Ġeuro":11774,"ĠKhá»§ng":11775,"ext":11776,"ĠthÃŃm":11777,"ĠÂ¿":11778,"rene":11779,"Samuel":11780,"pps":11781,"567":11782,"ĠJuliet":11783,"ĠRomano":11784,"á»¨ng":11785,"ĠJeremy":11786,"ĠMichigan":11787,"Felix":11788,"Perseus":11789,"................":11790,"ĠMartinez":11791,"ĠDwar":11792,"oldemort":11793,"BO":11794,"Cáº¯n":11795,"GÃ³i":11796,"Gá»¡":11797,"HÃ£ng":11798,"LÃ²":11799,"MA":11800,"Med":11801,"Nicky":11802,"Pad":11803,"Rá»ĳi":11804,"Rox":11805,"Soo":11806,"Scofield":11807,"cola":11808,"sinh":11809,"stein":11810,"wall":11811,"yer":11812,"Ġtá»ģ":11813,"Ġchat":11814,"ĠmÃµm":11815,"Ġninja":11816,"Ġbir":11817,"Ġkhay":11818,"Ġsá»¥t":11819,"Ġháº½m":11820,"ĠnhÃ¡p":11821,"ĠngÃ³c":11822,"á»ĩp":11823,"aun":11824,"ĠMang":11825,"ĠTá»ĳ":11826,"ĠHáº¡m":11827,"ĠCáº£ng":11828,"ĠRáº¥t":11829,"ĠRiddick":11830,"ĠKathy":11831,"asim":11832,"ĠTrinh":11833,"ĠIowa":11834,"Ġ567":11835,"keeter":11836,"ĠdÃ¹i":11837,"ĠHogwarts":11838,"abe":11839,"Ġuá»·":11840,"ĠGiÃ¡":11841,"udi":11842,"endelle":11843,"ĠArg":11844,"Ġcame":11845,"ĠIsabelle":11846,"Art":11847,"CHÃºng":11848,"ĠEverdeen":11849,"ĠBingley":11850,"ĠHades":11851,"ĠPinkman":11852,"Az":11853,"Báº§y":11854,"Bryan":11855,"Dá»ĭ":11856,"Derek":11857,"ING":11858,"Ká»·":11859,"Láº¯ng":11860,"Miáº¿ng":11861,"Please":11862,"Sol":11863,"äº":11864,"Ġtáº¥c":11865,"Ġvá»ĵng":11866,"Ġmá»ģ":11867,"Ġgá»ī":11868,"Chá»Ľ":11869,"ÄĲá»¥":11870,"ĠxÃ©m":11871,"Ġcáº£u":11872,"chÃºc":11873,"aria":11874,"ĠSok":11875,"ĠHaku":11876,"ĠLá»Ńa":11877,"Ġluá»Ļc":11878,"ĠPiper":11879,"ĠFab":11880,"ĠWu":11881,"7867":11882,"uran":11883,"Ġper":11884,"Ġparty":11885,"ĠGiÃ¡c":11886,"ipe":11887,"toÃłn":11888,"ĠLuis":11889,"Buck":11890,"aldi":11891,"ĠGodfrey":11892,"ĠRossi":11893,"ĠApril":11894,"Ġnháº½o":11895,"ĠBrandt":11896,"ĠToby":11897,"ĠMercedes":11898,"Cai":11899,"Corp":11900,"Hans":11901,"Liá»ģu":11902,"Raven":11903,"ei":11904,"mu":11905,"nut":11906,"sw":11907,"ugh":11908,"yt":11909,"Ġold":11910,"Ġcent":11911,"ĠÄĳá»įa":11912,"ĠchÃ©t":11913,"Ġvs":11914,"ĠvÆ¡i":11915,"Ġgáº£":11916,"ĠngÃľ":11917,"Ġngá»£m":11918,"ĠrÆ°á»Ľc":11919,"phanie":11920,"KhÃ¡ng":11921,"Kháº¯p":11922,"NhiÃª":11923,"ĠMá»ĩnh":11924,"ĠBáº¯t":11925,"ĠBart":11926,"ĠHom":11927,"ĠHuyá»ģn":11928,"ĠHado":11929,"ĠLamb":11930,"ĠDÃ¹":11931,"ĠAss":11932,"ĠJr":11933,"ĠJong":11934,"ĠRic":11935,"ĠRun":11936,"elcome":11937,"thÃ´ng":11938,"rek":11939,"rect":11940,"ĠTráºŃn":11941,"ĠEM":11942,"ĠOoh":11943,"igs":11944,"Ġfirst":11945,"ĠNgÃ´n":11946,"aper":11947,"ĠBruno":11948,"oven":11949,"etting":11950,"ĠMcClane":11951,"ĠSchmidt":11952,"ĠChristine":11953,"ĠChristopher":11954,"razen":11955,"Ġreal":11956,"Julia":11957,"Jonathan":11958,"ĠNikita":11959,"ĠMiranda":11960,"ĠSummer":11961,"ĠPapa":11962,"ĠMetatron":11963,"Ġlá»©a":11964,"sengard":11965,"##":11966,";...<":11967,"Betty":11968,"Cá»ĳc":11969,"Erik":11970,"Eggsy":11971,"Justin":11972,"KÃŃ":11973,"Reg":11974,"Robot":11975,"TÆ°Æ¡":11976,"vÃ´":11977,"yy":11978,"á»İ":11979,"Ġtong":11980,"ĠÄĳay":11981,"ĠvÃ¡ng":11982,"ĠkhÆ°":11983,"ĠsÃ¡p":11984,"Ġsteroid":11985,"Ġhmm":11986,"Ġgiá»ģng":11987,"Ġres":11988,"ĠrÄĥn":11989,"ÄĲÃ¡p":11990,"Nháº¯n":11991,"erick":11992,"ĠMuá»ĳn":11993,"ĠTÃĶI":11994,"amer":11995,"ĠLev":11996,"ĠDutch":11997,"ĠNov":11998,"ĠKam":11999,"QuÃª":12000,"ĠVáº»":12001,"ĠWin":12002,"leg":12003,"eville":12004,"essler":12005,"ĠCliff":12006,"Ġ1945":12007,"ÃģC":12008,"ĠJoker":12009,"ĠKhá»ķng":12010,"Ġyourself":12011,"ĠPrinc":12012,"ĠMarks":12013,"ĠCapua":12014,"Super":12015,"Quyn":12016,"ĠCarolina":12017,"á»¨C":12018,"Ġsomeone":12019,"Lydia":12020,"ĠLinderman":12021,"ĠTitanic":12022,"amburger":12023,"ĠBloom":12024,"ĠOregon":12025,"Boy":12026,"LÆ°á»£n":12027,"Si":12028,"US":12029,"del":12030,"nÄĥm":12031,"xuá»ĳng":12032,"ĠtÃ²ng":12033,"Ġthuy":12034,"Ġkid":12035,"Ġkháº¯t":12036,"Ġsá»ĩt":12037,"ĠnhÃºn":12038,"Ġngáº¥y":12039,"ĠráºŃn":12040,"Ġtrue":12041,"ChÃ´n":12042,"Ġdá»ım":12043,"Ġchá»ĩ":12044,"Ġvá»īa":12045,"ĠSven":12046,"ĠSÃģT":12047,"ĠBÃ¡nh":12048,"ĠHÃ´":12049,"Trai":12050,"ĠChá»ĭ":12051,"ĠRico":12052,"elin":12053,"aser":12054,"Ġkhoanh":12055,"ĠFle":12056,"iling":12057,"ĠIves":12058,"Ġ41":12059,"ĠAlf":12060,"ĠAlvin":12061,"ords":12062,"ĠAna":12063,"laine":12064,"ĠBenji":12065,"ĠEli":12066,"Alfred":12067,"aldo":12068,"derman":12069,"ĠAllison":12070,"ARS":12071,"ĠTimes":12072,"chuáº©n":12073,"áº¦U":12074,"ĠWinston":12075,"ĠAppa":12076,"Dorothy":12077,"Ġtalk":12078,"Ġlá»§ng":12079,"ĠÃ°Ã½c":12080,"Marshall":12081,"BÃ³p":12082,"CA":12083,"EL":12084,"Há»ıng":12085,"Láº¡c":12086,"Lá»±u":12087,"Logan":12088,"NÃ´ng":12089,"Pe":12090,"SÄĥ":12091,"Sil":12092,"Sir":12093,"gÃ£":12094,"hÃ¬nh":12095,"leman":12096,"máº¥t":12097,"mÃ´n":12098,"mel":12099,"tá»ĳi":12100,"táº¡m":12101,"zooka":12102,"çļ":12103,"Ġsync":12104,"ĠhÃ¢u":12105,"ĠhÃ¡n":12106,"Ġhell":12107,"Ġngáº¥m":12108,"Ġngá»ım":12109,"ĠrÃ¹i":12110,"ĠgiÄĥng":12111,"KhÃ¡m":12112,"Äĥc":12113,"ĠMáº¡nh":12114,"ĠHey":12115,"ĠCN":12116,"Ġtoáº¡c":12117,"ĠChip":12118,"ĠGui":12119,"ĠRahl":12120,"ĠThiáº¿n":12121,"ĠNag":12122,"ĠPoe":12123,"thÃŃch":12124,"Ġgháº»":12125,"rans":12126,"Ġfoot":12127,"ĠMarion":12128,"ĠMarco":12129,"ĠcÅ©i":12130,"ĠAlaska":12131,"ento":12132,"ĠBrandy":12133,"egan":12134,"berius":12135,"tok":12136,"ĠSpr":12137,"Bull":12138,"ucky":12139,"iban":12140,"Ġnhuá»ĩ":12141,"lorer":12142,"ĠDarhk":12143,"ĠButch":12144,"nesto":12145,"ĠBennett":12146,"rader":12147,"ĠRobinson":12148,"ĠStanley":12149,"Leonard":12150,"ĠOklahoma":12151,"ĠWinstone":12152,"ĠLeslie":12153,"ĠdzáºŃy":12154,"Ġthought":12155,"emaine":12156,"ĠBishop":12157,"fleet":12158,"ĠPlaza":12159,"DÃŃnh":12160,"MÃ´n":12161,"Sync":12162,"Yáº¿n":12163,"crys":12164,"dog":12165,"hel":12166,"pson":12167,"vá»¥":12168,"Ġcor":12169,"Ġmight":12170,"Ġná»¡":12171,"Ġbá»¥c":12172,"Ġháºµng":12173,"Ġgam":12174,"phÃ²ng":12175,"ChÃ¢m":12176,"ÄĲá»īnh":12177,"KhÃ´n":12178,"Khá»ķng":12179,"ĠMugg":12180,"ĠLá»ĩ":12181,"ĠDauntless":12182,"ĠRÄĥng":12183,"uir":12184,"ĠThÆ°Æ¡ng":12185,"ĠNÃ´":12186,"ĠKap":12187,"QuáºŃn":12188,"tháºŃm":12189,"ĠPháº§n":12190,"Ġfar":12191,"ĠNhÃ³c":12192,"ĠMaroni":12193,"tae":12194,"oder":12195,"Anne":12196,"assili":12197,"ĠHarper":12198,"Ġ180":12199,"Sammy":12200,"ĠGreene":12201,"áº¾N":12202,"ĠRamon":12203,"saac":12204,"Robin":12205,"ĠMedici":12206,"ĠtHáº¿":12207,"ĠItaly":12208,"pool":12209,"ĠSolomon":12210,"titles":12211,"Lorenzo":12212,"ĠRodrig":12213,"ĠFeng":12214,"Ġ672":12215,"Ġbelieve":12216,"Paris":12217,"ä½ł":12218,"Ġchá»ĩch":12219,"BÃ²":12220,"Cá»¥ng":12221,"Dick":12222,"Mason":12223,"RS":12224,"Sadness":12225,"bridge":12226,"cock":12227,"máº·c":12228,"pper":12229,"sÆ°":12230,"sub":12231,"Âļ":12232,"nguy":12233,"Ġcuá»ĳc":12234,"ĠlÃ¥i":12235,"Ġthong":12236,"Ġchiáº¿t":12237,"Ġsur":12238,"Ġnhoi":12239,"Ġngá»¡":12240,"NgÃ´":12241,"ĠMann":12242,"ĠMá»ĺT":12243,"Æ°á»Ŀm":12244,"ĠBenny":12245,"ĠCU":12246,"Ġtour":12247,"Ġlot":12248,"ĠGamb":12249,"ĠGeeta":12250,"ĠRem":12251,"ĠÄĲá»ģ":12252,"ĠNav":12253,"ĠPandora":12254,"ÄĳÆ°á»Ŀng":12255,"ĠTrÆ°á»Ľc":12256,"ĠIm":12257,"tráº£":12258,"uture":12259,"ĠXi":12260,"ĠXuyÃªn":12261,"iza":12262,"ĠHarmon":12263,"ĠÂ¡":12264,"ĠAmsterdam":12265,"ĠÃģi":12266,"GhÃ©t":12267,"ÃĵNG":12268,"ĠElliott":12269,"ĠEllcrys":12270,"ctic":12271,"ĠChristmas":12272,"ĠRosen":12273,"ĠIndy":12274,"Percy":12275,"umblebee":12276,"ĠMitchell":12277,"ĠMasters":12278,"Ġhappen":12279,"çļĦ":12280,"2000":12281,"Bá»ĵi":12282,"Becca":12283,"Guy":12284,"Il":12285,"Les":12286,"MÃª":12287,"NÃ´":12288,"Ronnie":12289,"Sáº¡ch":12290,"Tua":12291,"cuá»ĳi":12292,"mÃ¡t":12293,"má»Ĺi":12294,"Ġáº£m":12295,"ĠÄĳun":12296,"Ġthiáº¿n":12297,"ĠcháºŃn":12298,"ĠhÅ©":12299,"Ġgl":12300,"ĠgÃłn":12301,"Ġtrá»ĳi":12302,"Ġpháº£":12303,"ÄĲiá»ĩp":12304,"ÄĲáº¡p":12305,"ĠdÃ¡i":12306,"Ġdáº§m":12307,"á»«u":12308,"eral":12309,"erner":12310,"ĠSig":12311,"ĠBark":12312,"Trinh":12313,"iad":12314,"isenberg":12315,"ĠPu":12316,"ĠPin":12317,"ĠPeck":12318,"Ġlast":12319,"ĠlaÃĮ":12320,"asia":12321,"ĠVog":12322,"Ġnhá»Ľt":12323,"ĠWon":12324,"ĠWis":12325,"aving":12326,"Ġfun":12327,"trá»Ŀi":12328,"Ġtrá»£n":12329,"ĠAlicia":12330,"ovsky":12331,"shon":12332,"ĠGraham":12333,"innie":12334,"ĠMurph":12335,"ĠWater":12336,"ĠThorne":12337,"ĠUSS":12338,"racian":12339,"ĠMatthews":12340,"LEY":12341,"ĠAngie":12342,"Flash":12343,"Philip":12344,"Casey":12345,"ĠSuresh":12346,"ĠAugust":12347,"Ġmorning":12348,"ĠFreeza":12349,"Bá»Ĺng":12350,"CR":12351,"Cá»©ng":12352,"FK":12353,"Lud":12354,"Lewis":12355,"Miles":12356,"Pro":12357,"QU":12358,"Son":12359,"TÆ°á»£ng":12360,"XuyÃªn":12361,"fy":12362,"med":12363,"nic":12364,"tay":12365,"vy":12366,"±t":12367,"Ãĳng":12368,"ĠcÃ¡ng":12369,"Ġcred":12370,"Ġspe":12371,"Ġgreat":12372,"Chiáº¿m":12373,"ÄĲá»ı":12374,"ĠquÃłng":12375,"ĠgiÃ´ng":12376,"Nhiá»ħm":12377,"aulder":12378,"ĠTes":12379,"ĠBaby":12380,"ĠBjorn":12381,"ĠHol":12382,"ĠHoo":12383,"ĠHind":12384,"ĠHale":12385,"TrÃ¨o":12386,"Tak":12387,"ĠLÃª":12388,"ĠGog":12389,"ĠGoogle":12390,"ĠÄĲI":12391,"elo":12392,"ĠWars":12393,"ĠPhÃº":12394,"obi":12395,"kees":12396,"Ġmail":12397,"Ġfu":12398,"apolis":12399,"ĠGiÃ¡p":12400,"ĠUt":12401,"Ãģn":12402,"Ġonce":12403,"Stu":12404,"Ġxá»īa":12405,"ĠBlackwood":12406,"ĠSyndicate":12407,"ĠAlbu":12408,"Ġboxing":12409,"pirin":12410,"Cec":12411,"Dav":12412,"Karl":12413,"Kenny":12414,"Má»Ļc":12415,"Mitch":12416,"ND":12417,"Yáº¿u":12418,"tiáº¿n":12419,"Ġteen":12420,"Ġcle":12421,"ĠÄĳáº¿u":12422,"Ã´c":12423,"Ġliáº¿c":12424,"ĠchÃ¨n":12425,"Ġmov":12426,"Ġnáº§n":12427,"ĠnÃĢy":12428,"ĠkhÄĥm":12429,"Ġrum":12430,"Chuyá»ģn":12431,"ÄĲáº¥ng":12432,"ĠgiÃ£":12433,"TháºŃp":12434,"Ġ160":12435,"ĠTiÃªu":12436,"ĠBun":12437,"ĠhoÃ¡n":12438,"ĠHugo":12439,"ĠCutter":12440,"Connor":12441,"ĠLloyd":12442,"ĠDá»ĭ":12443,"ĠDrey":12444,"ĠDiane":12445,"ĠGeo":12446,"ĠGIA":12447,"ĠRorschach":12448,"ĠÄĲá»ĭnh":12449,"ĠÄĲÃĥ":12450,"eley":12451,"ĠThan":12452,"ĠKre":12453,"ingle":12454,"ĠNháº¡i":12455,"icho":12456,"Ġuá»ķng":12457,"ĠGib":12458,"Ġ2016":12459,"Ġmeet":12460,"áº¢N":12461,"tory":12462,"ĠKha":12463,"Steven":12464,"ylon":12465,"Whiskey":12466,"arys":12467,"ĠTae":12468,"ĠSimba":12469,"upiter":12470,"Allison":12471,"ThuÃª":12472,"ĠMontana":12473,"Iáº¾T":12474,"Iáº¾NG":12475,"á»¤C":12476,"ĠDenver":12477,"ĠSingapore":12478,"ĠSerge":12479,"Ġground":12480,"Ã®i":12481,"Boris":12482,"Ġshoot":12483,"ĠCostello":12484,"ĠSEAL":12485,"ĠAlbuquerque":12486,"Are":12487,"Call":12488,"Eun":12489,"Hun":12490,"Láº¯c":12491,"OW":12492,"Right":12493,"Sá»ĳt":12494,"TT":12495,"Vo":12496,"fi":12497,"her":12498,"mund":12499,"nÆ°á»Ľc":12500,"nell":12501,"Ãħ":12502,"Ġáº¯ng":12503,"Ġcau":12504,"Ġpháº¯n":12505,"ĠphÃŃch":12506,"Æ¡c":12507,"aye":12508,"Ġngháº¹n":12509,"anga":12510,"ĠSÄĥn":12511,"ĠSWAT":12512,"ĠCog":12513,"ĠDj":12514,"ĠDro":12515,"ĠAI":12516,"esta":12517,"ĠRu":12518,"Ġthun":12519,"ĠÄĲÆ¡n":12520,"ĠThis":12521,"ÄĳÃ´i":12522,"ĠtuÃ´ng":12523,"ÃĢO":12524,"ĠStig":12525,"Ġfound":12526,"ĠMargaery":12527,"aber":12528,"entina":12529,"ĠBrighton":12530,"ondu":12531,"ĠSamantha":12532,"ĠCharley":12533,"Stannis":12534,"ÃĤU":12535,"ĠPrice":12536,"cuse":12537,"ĠCarly":12538,"ĠNGÃĢY":12539,"ĠMoz":12540,"ĠLoras":12541,"ĠBatiatus":12542,"Antonio":12543,"Ã¼ntze":12544,"ightyear":12545,"ĠInhuman":12546,"iccup":12547,"600":12548,"Bonnie":12549,"CK":12550,"Cuddy":12551,"Fly":12552,"Hong":12553,"HiÃª":12554,"Hara":12555,"Men":12556,"Nay":12557,"Reed":12558,"Váº¡n":12559,"Zoe":12560,"má»Ľi":12561,"sáºµn":12562,"vet":12563,"ĠÃº":12564,"Ġká»īnh":12565,"Ġbá»Ł":12566,"ĠhÃ³":12567,"Ġhá»ķi":12568,"ĠnháºŃm":12569,"ĠngÃł":12570,"Chui":12571,"ÄĲÄĥng":12572,"ĠxÃło":12573,"onto":12574,"ais":12575,"erie":12576,"ÃĶa":12577,"ĠBub":12578,"ĠHum":12579,"ĠLazar":12580,"ĠLuna":12581,"ĠDaddy":12582,"ĠChung":12583,"ĠChester":12584,"ĠRandy":12585,"Ġthuá»Ł":12586,"ĠÄĥng":12587,"ĠNash":12588,"ĠKeen":12589,"ĠKeller":12590,"QuÄĥng":12591,"Äĳá»Ļi":12592,"ĠTráº¡m":12593,"ĠIg":12594,"adin":12595,"ĠNhá»ĭ":12596,"ĠHoÃłn":12597,"ĠhuÃ½t":12598,"ĠArch":12599,"ĠGretchen":12600,"ĠSpeed":12601,"ĠElf":12602,"Alvin":12603,"Ġuhm":12604,"ĠviÃªc":12605,"Clark":12606,"ÃĤM":12607,"ierra":12608,"ĠWilder":12609,"ĠPatricia":12610,"lanet":12611,"Cuá»Ļn":12612,"ĠNghi":12613,"ĠJessup":12614,"khoan":12615,"KHÃ´ng":12616,"ĠAmerica":12617,"Brandon":12618,"erguson":12619,"ĠScylla":12620,"%,":12621,"Ele":12622,"HH":12623,"Osc":12624,"Sid":12625,"kok":12626,"late":12627,"xÃŃt":12628,"Ġá»ĳi":12629,"ĠtÃ³":12630,"Ġláº±ng":12631,"Ġles":12632,"ĠliÃªu":12633,"ĠthÃ²ng":12634,"Ġkar":12635,"ĠvÆ°á»£n":12636,"Ġmom":12637,"Ġsw":12638,"Ġgáº·t":12639,"Ġnhá»į":12640,"ĠnhÃ¡c":12641,"ĠphÃ¬nh":12642,"ĠdÃ³c":12643,"Ġdark":12644,"Ngá»Ńi":12645,"ĠMU":12646,"ĠMicah":12647,"ĠHee":12648,"ĠCá»ĳt":12649,"ĠCTU":12650,"ĠCyrus":12651,"ĠLá»°C":12652,"Ġtold":12653,"ĠDÃ²ng":12654,"ĠDog":12655,"ĠRoth":12656,"tham":12657,"Ġ53":12658,"ĠNhÃ³m":12659,"7927":12660,"Ġopera":12661,"ĠQuay":12662,"Ġ98":12663,"7877":12664,"ĠClem":12665,"ĠZuko":12666,"Æ¯i":12667,"ĠÄĳÃ¨o":12668,"ĠScotch":12669,"ĠKhá»ĳi":12670,"Shin":12671,"ÄĤN":12672,"ÆłI":12673,"ĠOrlando":12674,"Benji":12675,"ĠSweet":12676,"ĠSingh":12677,"ĠRandall":12678,"ĠMachete":12679,"Iá»ĤM":12680,"Joshua":12681,"ĠDiaz":12682,"ĠSUV":12683,"Jarvis":12684,"Robbie":12685,"ĠPittsburgh":12686,"ĠCambridge":12687,"ĠWitwicky":12688,"ĠAmazon":12689,"Big":12690,"GB":12691,"HÆ°":12692,"Kristoff":12693,"Lang":12694,"Náº¥u":12695,"SÆ°á»Ľng":12696,"Sally":12697,"Tá»Łm":12698,"loo":12699,"lish":12700,"Ġluyáº¿n":12701,"ĠkÃ¬nh":12702,"Ġven":12703,"ĠmÃ¡c":12704,"ĠnÄ©a":12705,"Ġside":12706,"Ġgang":12707,"Ġnheo":12708,"ĠngÃ²":12709,"Ġcá»Ĺi":12710,"ChÃ´":12711,"ÄĲua":12712,"ĠÄĳÃ³m":12713,"NhÃ©t":12714,"aise":12715,"ĠTiá»ģn":12716,"ĠSulu":12717,"Truyá»ĩn":12718,"TrÆ°Æ¡":12719,"ĠLenn":12720,"ĠChÆ°a":12721,"ĠKel":12722,"ĠVill":12723,"Ã¨re":12724,"ĠWong":12725,"ĠEur":12726,"osau":12727,"ellÃŃn":12728,"Ġ57":12729,"á»ªa":12730,"ĠStock":12731,"ĠStamper":12732,"khá»ĳn":12733,"inea":12734,"ĠXÆ°Æ¡ng":12735,"ĠScarlet":12736,"ourke":12737,"ĠFloyd":12738,"ĠBlade":12739,"ĠLancelot":12740,"ĠAlexand":12741,"liu":12742,"ĠDae":12743,"ĠMills":12744,"orsche":12745,"Allen":12746,"ĠNghá»ĩ":12747,"ĠMaurice":12748,"ĠChurchill":12749,"Ã©sar":12750,"Ġbirthday":12751,"Dun":12752,"Face":12753,"Finn":12754,"Gro":12755,"Here":12756,"Sasha":12757,"Vá»Ł":12758,"car":12759,"jin":12760,"máº·t":12761,"tá»¥i":12762,"Ġ~":12763,"ĠcÃ¹":12764,"ĠÄĳong":12765,"ĠthÄĤ":12766,"ĠmÃĻt":12767,"ĠhÃ£":12768,"Ġgá»Ł":12769,"Ġgá»ĳm":12770,"ĠnhÃłn":12771,"ĠrÃĴi":12772,"pho":12773,"Ġgiá»±t":12774,"ĠMerry":12775,"ĠTah":12776,"ĠST":12777,"ĠSus":12778,"ĠBÃ¡u":12779,"ĠHark":12780,"PhÃ´":12781,"Phá»ĳ":12782,"PhÃ¡n":12783,"ĠLady":12784,"ĠtoÃ¡t":12785,"ĠDiá»ĩt":12786,"ĠDrazen":12787,"ĠGem":12788,"asley":12789,"itus":12790,"Ġtuáº¿ch":12791,"oton":12792,"andar":12793,"illac":12794,"lein":12795,"ĠStalin":12796,"ĠYo":12797,"Ġpa":12798,"Ġpo":12799,"roll":12800,"Khoáº£nh":12801,"ĠbÃŃp":12802,"ewart":12803,"ĠQuÃ¡n":12804,"utler":12805,"ĠKhá»ī":12806,"ĠMoria":12807,"ĠDoe":12808,"ĠMonte":12809,"NHÃĢ":12810,"ÃĤy":12811,"Charley":12812,"ĠWild":12813,"Brenda":12814,"inois":12815,"Ġleft":12816,"Ã¤t":12817,"ĠRosa":12818,"Walker":12819,"ĠBalthazar":12820,"Ġhoney":12821,"ĠPanama":12822,"ĠLockwood":12823,"eddis":12824,"ĠSeoul":12825,"ĠKendra":12826,"ĠVaughn":12827,"'?<":12828,"ALL":12829,"Báº©m":12830,"Dylan":12831,"Eugene":12832,"Gun":12833,"Judy":12834,"Kara":12835,"Vince":12836,"bach":12837,"vath":12838,"Ġtáº©n":12839,"ĠvÃ£ng":12840,"Ġmáº£i":12841,"ĠmÃŃt":12842,"Ġngáº©ng":12843,"Ġphone":12844,"Chang":12845,"ÄĲáº¿":12846,"Ġ110":12847,"ĠMama":12848,"ĠBank":12849,"ĠBates":12850,"ĠHá»ĩ":12851,"ĠHÃ³a":12852,"ĠCÅ©ng":12853,"ĠCav":12854,"PháºŃt":12855,"ĠLetty":12856,"ĠLopez":12857,"ĠDak":12858,"ĠDicky":12859,"ĠChin":12860,"ĠANH":12861,"ĠGina":12862,"ĠRA":12863,"ĠRi":12864,"ĠNÃªn":12865,"ĠKut":12866,"thay":12867,"ĠSton":12868,"ĠMars":12869,"ĠBrooke":12870,"onda":12871,"ĠLucky":12872,"ĠElij":12873,"Stuart":12874,"ĠBlood":12875,"Doc":12876,"ĠPrentiss":12877,"ĠÃ°Ã³":12878,"ĠSmurf":12879,"nghÄ©a":12880,"itchen":12881,"ĠAven":12882,"Reese":12883,"ĠIndian":12884,"ĠAntony":12885,"ĠEvery":12886,"Rosie":12887,"ĠIsaacs":12888,"ĠFalls":12889,"ĠPreston":12890,"Miranda":12891,"ĠSteele":12892,"ĠElijah":12893,"Fuck":12894,"Há»ķ":12895,"Hee":12896,"Los":12897,"bat":12898,"panh":12899,"varez":12900,"Ġtáº¥u":12901,"ĠcÃĶa":12902,"Ġká»ģm":12903,"Ġnua":12904,"ĠkhÆ°á»Ľc":12905,"Ġdáº¥y":12906,"onzo":12907,"ĠgiÅ©":12908,"Ngáº¯t":12909,"ĠMoss":12910,"ĠSir":12911,"ĠHiá»ĩu":12912,"ĠLÆ°á»£ng":12913,"ĠRollo":12914,"isle":12915,"ĠNeb":12916,"asar":12917,"ĠÄĳÃªn":12918,"Ġghiáº¿c":12919,"ĠPhÃ¡i":12920,"able":12921,"á»ĶI":12922,"ondie":12923,"ize":12924,"ourse":12925,"Blue":12926,"ĠNHÃĢ":12927,"ĠMycroft":12928,"ĠJudith":12929,"ĠNiki":12930,"ĠViolet":12931,"ĠSilver":12932,"Leonardo":12933,"Ġelse":12934,"Ġelderman":12935,"ĠNakamura":12936,"ĠPacquiao":12937,"Ġfriends":12938,"Ġwalk":12939,"Báº¥m":12940,"CL":12941,"Cathy":12942,"Lyn":12943,"RÃ³t":12944,"bird":12945,"zen":12946,"Ä¨":12947,"ĠcÃĢ":12948,"Ġlá»Łm":12949,"Ġlimo":12950,"Ġkiáº¿ng":12951,"Ġmother":12952,"Ġgá»Ŀ":12953,"ĠrÃ¡t":12954,"ĠtrÃ¹":12955,"Ġtrá»įt":12956,"Ġdáº¡n":12957,"Ġquáº¹t":12958,"Thuyáº¿t":12959,"NgÃ´n":12960,"ĠMA":12961,"ĠMom":12962,"ĠMits":12963,"ĠTÃ¬m":12964,"ĠSá»ĳng":12965,"ĠHag":12966,"ĠHait":12967,"ĠCoun":12968,"ĠLÆ°Æ¡ng":12969,"ĠJoh":12970,"ĠJody":12971,"atcher":12972,"ĠTheresa":12973,"ĠKáº¿t":12974,"Quanh":12975,"ĠVÃ²ng":12976,"Äĳá»ĳi":12977,"GiÆ°á»Ŀng":12978,"edo":12979,"Ġkhuá»·u":12980,"ĠYáº¿n":12981,"ĠYuki":12982,"Ġsocola":12983,"ĠsuÃ´ng":12984,"lain":12985,"ĠNewton":12986,"oken":12987,"redi":12988,"ĠRoberto":12989,"ishi":12990,"ristina":12991,"ĠColt":12992,"ĠCruz":12993,"ĠLyle":12994,"ĠGiá»¯":12995,"ĠSkyl":12996,"THE":12997,"Ã¤n":12998,"ĠDunne":12999,"ĠNikki":13000,"Dominic":13001,"Daryl":13002,"ĠBooth":13003,"agertha":13004,"Ġknew":13005,"Ġknock":13006,"Ġairbender":13007,"ĠRaccoon":13008,"ĠHampton":13009,"ngoÃłi":13010,"eechum":13011,"))":13012,"150":13013,"Hen":13014,"Kyle":13015,"London":13016,"Micky":13017,"Má»ĺT":13018,"Náº¥p":13019,"OÃĢN":13020,"SU":13021,"Sansa":13022,"Sebastian":13023,"lÅ©":13024,"rÃ©":13025,"Ãķ":13026,"Íģ":13027,"ĠVÃło":13028,"ħu":13029,"ĠlÃ©t":13030,"Ġváº¹o":13031,"Ġmun":13032,"Ġsá»¡":13033,"ĠhÃ¡ng":13034,"ĠngÃ¹ng":13035,"ĠrÃ¡m":13036,"ÄĲÃŃch":13037,"ÄĲá»£t":13038,"anor":13039,"KhÃ¡n":13040,"ĠTÃ¡m":13041,"ĠBed":13042,"ĠByr":13043,"ĠLá»ĭch":13044,"Ġtoday":13045,"ĠDJ":13046,"ĠDane":13047,"ĠChiáº¿c":13048,"uild":13049,"ĠPav":13050,"ĠVinh":13051,"ĠVá»įng":13052,"ĠFin":13053,"ĠFog":13054,"real":13055,"ÄĳÃ¡ng":13056,"ileen":13057,"ĠIM":13058,"Ġ54":13059,"ĠYour":13060,"Ġsec":13061,"ĠMarse":13062,"ĠHope":13063,"ĠShadow":13064,"eez":13065,"apest":13066,"cHC":13067,"ecial":13068,"Ġmyself":13069,"7859":13070,"ĠBlan":13071,"ront":13072,"ĠAbigail":13073,"Ġalone":13074,"ĠMurray":13075,"ĠSubtitles":13076,"ĠShawn":13077,"Thoáº£":13078,"Ãīp":13079,"ĠPeach":13080,"Ġdays":13081,"Ġcarbon":13082,"ĠWickham":13083,"ĠSummers":13084,"á»ĨN":13085,"Murphy":13086,"ĠKitÃ´":13087,"ĠOdin":13088,"ĠJarvis":13089,"ĠPilgrim":13090,"ĠKingsman":13091,"Bernard":13092,"Ġmicro":13093,"Há»Ĺn":13094,"Cat":13095,"Giam":13096,"Huyá»ģn":13097,"Hannibal":13098,"Isaac":13099,"LV":13100,"MiÃªu":13101,"Ned":13102,"Ráº¯n":13103,"SP":13104,"Seth":13105,"VÃ¢n":13106,"Vlad":13107,"Yuri":13108,"ceman":13109,"sol":13110,"seok":13111,"váº¥n":13112,"wal":13113,"á»¸":13114,"Ġlm":13115,"Ġláº«m":13116,"ĠchÅ©i":13117,"Ġmiá»ĩt":13118,"ĠmÃ³i":13119,"ĠmÃºn":13120,"Ġhan":13121,"Ġgáº«u":13122,"ĠnhÃ¡i":13123,"Ġnhá»įt":13124,"ĠphÃĢi":13125,"ÄĲinh":13126,"Ġdr":13127,"ĠdáºŃt":13128,"Ġxáº¯c":13129,"á»ĩch":13130,"Ġgiá»ħu":13131,"ĠMis":13132,"ĠMister":13133,"ĠBiáº¿t":13134,"ĠBáº§u":13135,"ĠBanner":13136,"ĠCáº©m":13137,"ĠCON":13138,"ĠLightyear":13139,"ĠDonn":13140,"ĠDiggle":13141,"ĠGran":13142,"ĠThere":13143,"ĠPorsche":13144,"ĠKung":13145,"ĠKey":13146,"ĠKatherine":13147,"Ġlaze":13148,"ĠFlint":13149,"ĠWy":13150,"ĠStu":13151,"evie":13152,"ĠNgÆ°u":13153,"ĠShifu":13154,"ĠXÃ¡c":13155,"ordy":13156,"ĠClub":13157,"uben":13158,"ĠScorp":13159,"ĠScully":13160,"ourbon":13161,"ĠTHE":13162,"Tuá»³":13163,"Ġvuá»Ļt":13164,"enez":13165,"ĠErshon":13166,"ĠMalik":13167,"ĠReddington":13168,"Carlos":13169,"ĠHawk":13170,"ÃĨy":13171,"ĠSandra":13172,"ĠEvans":13173,"Simba":13174,"ĠWhitney":13175,"ĠVerde":13176,"Ġstress":13177,"ĠAtlantic":13178,"erstand":13179,"ĠCadillac":13180,"ĠCasterly":13181,"Bel":13182,"Kn":13183,"Kirk":13184,"MAN":13185,"Nak":13186,"Ran":13187,"RÆ¡i":13188,"TÃ¡n":13189,"cÃ¢":13190,"know":13191,"rol":13192,"tiá»ģn":13193,"ule":13194,"ĠlÃµng":13195,"ĠkiÃªm":13196,"ĠmÃ¢m":13197,"Ġmove":13198,"Ġkhong":13199,"ĠsÆ°a":13200,"phÃ¡t":13201,"ĠphÃło":13202,"Ġac":13203,"Ġdee":13204,"Ġnghiáº¿n":13205,"ania":13206,"iner":13207,"Ġchá»īa":13208,"ĠMoira":13209,"ĠTá»Ļi":13210,"ĠSov":13211,"ĠSentinel":13212,"ĠBÃªn":13213,"ĠHuynh":13214,"ĠCong":13215,"ĠCage":13216,"ĠComp":13217,"ĠLÃ¡":13218,"oran":13219,"ĠDá»«ng":13220,"ĠDora":13221,"ĠChad":13222,"ĠGaines":13223,"ĠJFK":13224,"ĠÄĲáº±ng":13225,"oup":13226,"oms":13227,"ital":13228,"usa":13229,"adre":13230,"Ġwatch":13231,"GiáºŃn":13232,"leh":13233,"eds":13234,"edict":13235,"sons":13236,"ĠQua":13237,"Ġ---":13238,"odin":13239,"Ġ82":13240,"Marion":13241,"estiny":13242,"aza":13243,"Ġruá»Ļng":13244,"Whit":13245,"Ġwithout":13246,"ĠtÃ²an":13247,"itchie":13248,"Tá»ķn":13249,"Elsa":13250,"ĠRamal":13251,"aaaa":13252,"ÃļNG":13253,"ucc":13254,"IMI":13255,"ĠBaymax":13256,"Lorraine":13257,"ĠOscorp":13258,"ĠGerald":13259,"ĠBudapest":13260,"Brody":13261,"ĠYankees":13262,"Jamal":13263,"Jamie":13264,"ĠBorgia":13265,"ĠMendez":13266,"rezia":13267,"ĠGustave":13268,",.<":13269,"76":13270,"By":13271,"Bá»ģ":13272,"CS":13273,"FT":13274,"Hang":13275,"Ir":13276,"Ivan":13277,"JU":13278,"Máº¡n":13279,"Pam":13280,"Sáº¯c":13281,"kiá»ĥm":13282,"náº±m":13283,"polis":13284,"tÃŃnh":13285,"Ġmáº§u":13286,"ĠmÆ°á»£t":13287,"Ġmine":13288,"Ġnong":13289,"Ġbass":13290,"Ġhit":13291,"Chá»įc":13292,"ĠdÃ¡y":13293,"Ġdá»Ĺi":13294,"ĠxÃ¢u":13295,"ĠTA":13296,"ĠTá»ĳng":13297,"ĠTNS":13298,"ĠTiffany":13299,"ĠHÃºng":13300,"ĠCÆ°":13301,"ĠCá»±u":13302,"PhÃª":13303,"Tráº£i":13304,"Triá»ģu":13305,"ĠLink":13306,"ĠLáºłI":13307,"ĠGob":13308,"ĠRory":13309,"Ġdoo":13310,"ĠNur":13311,"ĠPon":13312,"ĠPotts":13313,"ĠKÃŃnh":13314,"ĠFen":13315,"Ġ58":13316,"Ã©oden":13317,"umin":13318,"roc":13319,"roid":13320,"ĠAlison":13321,"Theodore":13322,"eba":13323,"ĠZur":13324,"ĠArms":13325,"pert":13326,"ĠKhaleesi":13327,"ollow":13328,"azu":13329,"áº¤N":13330,"ĠAlexis":13331,"ĠJonah":13332,"á»¦a":13333,"ĠTorrance":13334,"ymore":13335,"Iá»ĨU":13336,"ĠLeonidas":13337,"ĠLouisiana":13338,"ĠEdwards":13339,"ĠPepes":13340,"ĠViktor":13341,"ĠHollis":13342,"ĠEyes":13343,"Megan":13344,"ĠBoov":13345,"Ġtrying":13346,"ĠAurora":13347,"âĢĭâĢĭ":13348,"ibbiani":13349,"Russell":13350,"TÃ©i":13351,"rected":13352,"Báº¿n":13353,"Cáº¯m":13354,"Cole":13355,"Dra":13356,"JJ":13357,"KÃªnh":13358,"Mag":13359,"Miller":13360,"NÃºt":13361,"SÆ¡n":13362,"Táº¥p":13363,"bá»Ļ":13364,"biáº¿n":13365,"bá»ĳt":13366,"háº¿t":13367,"jor":13368,"tá»«ng":13369,"Ġcrazy":13370,"Ġnao":13371,"ĠnÃį":13372,"Ġkhan":13373,"ĠsÃĨ":13374,"Ġnhang":13375,"Ġnhan":13376,"ĠnhÃ¨":13377,"Ġngá»Ŀi":13378,"Ġrá»©t":13379,"Ġrá»ĩp":13380,"ĠtrÄĥ":13381,"pháº§n":13382,"Ġdá»ĩt":13383,"Thung":13384,"Nhu":13385,"NhÃľng":13386,"ĠMao":13387,"ĠMindy":13388,"enzie":13389,"ĠHiá»ģn":13390,"ĠHann":13391,"ĠCC":13392,"ĠCOL":13393,"Phe":13394,"Pháº«u":13395,"Ġlow":13396,"ĠGavin":13397,"ĠRes":13398,"ĠRid":13399,"Ġdoor":13400,"ĠThiá»ĩu":13401,"ĠPascal":13402,"ĠKur":13403,"ĠVy":13404,"ĠVÄ©nh":13405,"ĠFusco":13406,"ical":13407,"ĠIáº¡i":13408,"ĠIII":13409,"ĠState":13410,"ĠmuÃĵn":13411,"Ġpar":13412,"Ġoanh":13413,"udio":13414,"ĠXavier":13415,"ĠBrenda":13416,"ship":13417,"ĠxoÄĥn":13418,"ĠConne":13419,"Ġgoes":13420,"ĠMorrison":13421,"ĠMormont":13422,"meagol":13423,"ĠÃģn":13424,"ĠDeath":13425,"Ġ140":13426,"umba":13427,"ĠNora":13428,"ĠAva":13429,"ĠDaphne":13430,"ĠMartini":13431,"ĠSophia":13432,"ĠMadrid":13433,"Saruman":13434,"Ġprob":13435,"ĠMedellÃŃn":13436,"ĠDenise":13437,"ĠcHÃºng":13438,"Subtitle":13439,"ĠMiguel":13440,"Ġtonight":13441,"Ġmorphine":13442,";/":13443,"CÆ°á»Ľi":13444,"Little":13445,"MÄĥ":13446,"Má»ĭa":13447,"Of":13448,"Pal":13449,"Ts":13450,"Toi":13451,"XÃ£":13452,"cao":13453,"cáº©n":13454,"cle":13455,"hÃłnh":13456,"met":13457,"sel":13458,"val":13459,"å¤":13460,"Ġláº©m":13461,"Ġmá»ĭa":13462,"ĠbÃĤn":13463,"Ġsil":13464,"Ġdong":13465,"ĠquÃły":13466,"inton":13467,"Thá»ķ":13468,"ThÃ¹ng":13469,"aum":13470,"ĠMá»Ľi":13471,"ĠMáº«u":13472,"ĠSet":13473,"ĠBO":13474,"enic":13475,"ĠHive":13476,"ĠHoney":13477,"Trá»¥c":13478,"ĠDoyle":13479,"ĠGao":13480,"atus":13481,"ĠKa":13482,"ĠKub":13483,"ĠVit":13484,"ĠFernando":13485,"usuf":13486,"ĠTribbiani":13487,"ĠIÃłm":13488,"andro":13489,"ident":13490,"oob":13491,"edro":13492,"Ġ68":13493,"ChuÃ´ng":13494,"ĠShen":13495,"ĠSharp":13496,"Ġ74":13497,"ĠGian":13498,"ĠXe":13499,"toine":13500,"shot":13501,"Ġonline":13502,"quáº£":13503,"everus":13504,"everly":13505,"ĠAdler":13506,"ĠIsildur":13507,"Heh":13508,"NASA":13509,"á»ĺI":13510,"ĠJessie":13511,"ĠzÃ¬":13512,"ĠbÆ°á»Ľu":13513,"Thanks":13514,"ancey":13515,"Cruchot":13516,"ĠIrish":13517,"ĠEnterprises":13518,"áº®NG":13519,"ĠLestr":13520,"ĠStevie":13521,"Ġafter":13522,"helm":13523,"ĠngÃ²ai":13524,"Cáº¡o":13525,"Fr":13526,"KiÃª":13527,"Krist":13528,"Lao":13529,"Marl":13530,"NC":13531,"Owen":13532,"Ollie":13533,"VÃ¡y":13534,"Vas":13535,"Vá»ĳn":13536,"bay":13537,"rÃµ":13538,"vá»ĭ":13539,"xu":13540,"ÃĦ":13541,"ĠuyÃªn":13542,"Ġlá»±":13543,"ĠthÃ³":13544,"Ġtháº©n":13545,"ĠvÃ³c":13546,"Ġmon":13547,"Ġmat":13548,"Ġnáº¯n":13549,"Ġsleep":13550,"Ġnháº§y":13551,"ĠnhÃ³i":13552,"ĠngÄĥ":13553,"phi":13554,"ĠxÃ³c":13555,"Ġgin":13556,"NhÆ¡":13557,"Nhá»ķ":13558,"ĠTÃ¡":13559,"ĠTessa":13560,"ĠSad":13561,"Ìī...":13562,"ĠHur":13563,"ĠHub":13564,"ĠHÃĴ":13565,"ĠLis":13566,"ĠLeb":13567,"Ġtom":13568,"ĠloÃ£ng":13569,"ĠDrag":13570,"ĠChá»ĳng":13571,"ĠAus":13572,"ĠGaston":13573,"ĠGonz":13574,"ĠJav":13575,"iser":13576,"ĠÄĲÃ´i":13577,"ĠThunder":13578,"ĠPlanet":13579,"ĠKu":13580,"ĠKath":13581,"asma":13582,"tháº§n":13583,"thá»Ń":13584,"ĠFur":13585,"eyer":13586,"ĠTrÃ¢n":13587,"andall":13588,"ÃĢh":13589,"Ġsofa":13590,"ĠHoáº¯c":13591,"cean":13592,"ĠNgay":13593,"Ġhyd":13594,"ĠGiÃł":13595,"Ġins":13596,"Ãģm":13597,"artan":13598,"ĠArendelle":13599,"Coll":13600,"Sherman":13601,"ĠGraves":13602,"ĠSpring":13603,"ĠTHá»¨":13604,"uez":13605,"ĠMichaels":13606,"ĠCHáº¾T":13607,"ĠWatch":13608,"Ġask":13609,"ÃĻNG":13610,"ĠMegatron":13611,"ĠSnape":13612,"ĠMelanie":13613,"Ellen":13614,"etsuko":13615,"ĠHerbie":13616,"ĠBellick":13617,"ĠWhitaker":13618,"Captain":13619,"ĠHendricks":13620,"Ã°i":13621,"Andrea":13622,"Ġsalad":13623,"ĠMammy":13624,"Wallace":13625,"Ġunderstand":13626,"Bá»¥i":13627,"Daw":13628,"Hec":13629,"Lester":13630,"NT":13631,"Rip":13632,"Tung":13633,"Under":13634,"buck":13635,"cov":13636,"dong":13637,"fl":13638,"fly":13639,"hÆ¡i":13640,"hua":13641,"here":13642,"sburg":13643,"tan":13644,"táºŃp":13645,"tis":13646,"xcÆ¡":13647,"ĠÃ¡y":13648,"ĠcáºŃt":13649,"ĠcÃµng":13650,"Ġthiá»ĥn":13651,"Ġthree":13652,"Ġváº©y":13653,"ĠmÃºi":13654,"Ġsáº©y":13655,"Ġsoul":13656,"ĠhÃ£o":13657,"ĠgÆ¡":13658,"ĠgÆ°á»£ng":13659,"ĠnhÃ´":13660,"phim":13661,"onius":13662,"emlin":13663,"TháºŃn":13664,"Ġrain":13665,"Ngá»¥y":13666,"ĠSÃ³i":13667,"ĠHiáº¿n":13668,"ĠHá»¯u":13669,"ĠCÃł":13670,"ĠCáº¥p":13671,"ĠCron":13672,"ĠLÃªn":13673,"ĠLÅ©ng":13674,"ĠLib":13675,"Ġtoáº¡i":13676,"Ġtouch":13677,"Ìĥ...<":13678,"ĠGIá»":13679,"Ġthui":13680,"Ġvá»¥t":13681,"ĠPaige":13682,"ĠKitchen":13683,"thu":13684,"ĠTráº¥n":13685,"ĠOkay":13686,"ĠStewart":13687,"khÃ¡c":13688,"rano":13689,"Ġpop":13690,"ĠNgá»Ļ":13691,"ĠShar":13692,"Ġ77":13693,"apu":13694,"egrin":13695,"hoÃłn":13696,"beria":13697,"ĠCarn":13698,"Toa":13699,"ĠWales":13700,"Samantha":13701,"ĠÃģp":13702,"Bravo":13703,"Ahh":13704,"Suá»µt":13705,"ĠSalt":13706,"Ã±a":13707,"ĠMiriam":13708,"ĠBrandon":13709,"ĠPapi":13710,"Ã¯ng":13711,"ĠTanya":13712,"ĠJosÃ©":13713,"ĠÄĤn":13714,"ThÆ¡m":13715,"Parker":13716,"ĠLonely":13717,"ĠPrinceton":13718,"Ġkarate":13719,"\",<":13720,"911":13721,"Ale":13722,"BáºŃc":13723,"Cersei":13724,"Eli":13725,"HÃł":13726,"Lá»Ļt":13727,"Mas":13728,"Mak":13729,"Malley":13730,"Ow":13731,"Sel":13732,"Suz":13733,"Tau":13734,"Tá»įa":13735,"Xui":13736,"jan":13737,"tai":13738,"æĺ":13739,"Ġcháº±ng":13740,"ĠvÃŃt":13741,"Ġmiss":13742,"Ġbring":13743,"Ġkháº£i":13744,"Ġsá»©a":13745,"Ġhá»Ľp":13746,"Ġnháº±ng":13747,"ĠngÃľÃĸi":13748,"ĠrÃŃt":13749,"Ġtrá»Ŀ":13750,"Ġphudeviet":13751,"Ġap":13752,"Ġdá»ĥ":13753,"uá»ĳm":13754,"inem":13755,"chiáº¿c":13756,"Æ°á»Ľm":13757,"ĠSá»©":13758,"ĠBi":13759,"ĠHÆ°á»Ľng":13760,"ĠHazel":13761,"ĠCer":13762,"ĠLá»Ŀi":13763,"Ġlost":13764,"ĠDastan":13765,"imi":13766,"imes":13767,"ĠAst":13768,"ĠGill":13769,"ĠJasmine":13770,"ĠRaul":13771,"atin":13772,"ouble":13773,"ĠNational":13774,"thy":13775,"ĠFerguson":13776,"olin":13777,"Ġanymore":13778,"ĠTro":13779,"Ġ59":13780,"igu":13781,"ĠHod":13782,"evil":13783,"ĠQuáº§n":13784,"Ġ89":13785,"ĠthÃ¢t":13786,"ĠXandar":13787,"ĠBrendan":13788,"eca":13789,"quÃ½":13790,"ĠEmp":13791,"ĠSpider":13792,"BuÃ´n":13793,"Maya":13794,"Frankenstein":13795,"ĠCali":13796,"ĠNorton":13797,"ĠTRÆ¯á»ļC":13798,"Abigail":13799,"ĠzáºŃy":13800,"ĠSwan":13801,"ĠCastiel":13802,"Jules":13803,"ĠStarfleet":13804,"ĠBoromir":13805,"Ġunder":13806,"ĠTalbot":13807,"ctavia":13808,"Richie":13809,"ĠEncode":13810,"uirfield":13811,"ĠCogburn":13812,"Cáº¥u":13813,"Gáº¯n":13814,"Gus":13815,"Kay":13816,"Kend":13817,"LÃłng":13818,"Miá»ģn":13819,"Math":13820,"Sandy":13821,"Todd":13822,"cin":13823,"dÃ¹ng":13824,"ku":13825,"sáº¿p":13826,"tle":13827,"Ġ@":13828,"Ġ^":13829,"Ġáº»m":13830,"ĠâĢĭâĢĭ":13831,"áº¼":13832,"nháº¥t":13833,"ĠkÃ©":13834,"Ġnoi":13835,"Ġnero":13836,"Ġsáº³n":13837,"ĠhuyÃªn":13838,"Ġhamburger":13839,"Ġgram":13840,"ĠnhÃ£ng":13841,"Ġtrá»ķ":13842,"phin":13843,"ÄĲc":13844,"Ġxá»ĳp":13845,"Ġquai":13846,"aynor":13847,"ĠMÆ°u":13848,"ĠMÃ£n":13849,"ĠTown":13850,"ĠSÃ´ng":13851,"ĠSá»¹":13852,"ĠSfor":13853,"ĠBá»ĳn":13854,"ĠCob":13855,"ĠChÃŃn":13856,"ĠAeg":13857,"ĠJob":13858,"ĠJenn":13859,"ĠPolly":13860,"ĠPeggy":13861,"ĠFuller":13862,"ĠEner":13863,"ader":13864,"terson":13865,"Ġ66":13866,"rish":13867,"iva":13868,"ĠUh":13869,"ĠLuther":13870,"Shel":13871,"ĠEddy":13872,"Ġnháº¹t":13873,"iamond":13874,"Ġmoon":13875,"Ġvoice":13876,"AND":13877,"ĠRamona":13878,"ĠForce":13879,"Ã¥ch":13880,"Ġclub":13881,"ĠUnion":13882,"ĠLiberty":13883,"Ãļp":13884,"Ġsá»īn":13885,"Ġplasma":13886,"Smith":13887,"Ġtequila":13888,"ĠCosette":13889,"ĠWesley":13890,"ĠLanding":13891,"ĠAmerican":13892,"ĠSheldon":13893,"Toretto":13894,"Ġ==<":13895,"Indy":13896,"ĠHopkins":13897,"ĠPollock":13898,"ĠIvar":13899,"ĠAvengers":13900,"ĠFerrari":13901,"DÃłi":13902,"DáºŃp":13903,"Donna":13904,"Flint":13905,"Geeta":13906,"Gyeon":13907,"King":13908,"LÃ¢m":13909,"LÆ°á»£t":13910,"Láº·n":13911,"Love":13912,"NY":13913,"RÃ¢u":13914,"Wes":13915,"Washington":13916,"Wendy":13917,"XÆ°a":13918,"eat":13919,"hee":13920,"káº¿":13921,"kill":13922,"til":13923,"wang":13924,"xes":13925,"æľ":13926,"ĠÃ£n":13927,"Ġá»Ľn":13928,"eowulf":13929,"Ġcry":13930,"ĠmÃ²ng":13931,"ĠnÃ¡":13932,"Ġnick":13933,"Ġkhanh":13934,"Ġkháº¡o":13935,"ĠgÃ¹":13936,"ĠgÃī":13937,"Ġnhá»Ļng":13938,"Ġnhuá»ĳm":13939,"Ġtrá»Ľ":13940,"ĠphÃ´ng":13941,"Ġpháº¥t":13942,"Ġxáº¥c":13943,"Ã²e":13944,"Than":13945,"ĠTake":13946,"ĠSáº¯c":13947,"ĠSÃºn":13948,"ĠBÃłn":13949,"iak":13950,"amily":13951,"ĠLil":13952,"ĠLilly":13953,"orin":13954,"Ġlum":13955,"ĠArya":13956,"ĠGa":13957,"ĠRug":13958,"ĠngoÃ¡y":13959,"ĠÄĲá»©a":13960,"ĠThá»ı":13961,"ĠTháº¯ng":13962,"ĠThey":13963,"thi":13964,"ĠVera":13965,"eyt":13966,"ĠEg":13967,"ĠIp":13968,"ahm":13969,"Ġmafia":13970,"iden":13971,"edith":13972,"á»Ĵn":13973,"Ġpoker":13974,"Ġoáº¯t":13975,"Ġ63":13976,"ĠQuant":13977,"ĠGiÃ³":13978,"iki":13979,"ÃģY":13980,"Ġbeh":13981,"ĠDoctor":13982,"Wells":13983,"ĠDeacon":13984,"ĠIsabella":13985,"Ġlá»£m":13986,"ĠMrs":13987,"ĠSeason":13988,"ĠlÆ°Æ¡n":13989,"ĠMei":13990,"ÃļC":13991,"ĠJeanine":13992,"ATO":13993,"ĠVirgil":13994,"ĠDrago":13995,"ĠRyu":13996,"Murdock":13997,"ĠtuÃ½p":13998,"á»¬A":13999,"ĠPenelope":14000,"ĠAlec":14001,"Moses":14002,"ĠHaiti":14003,"71":14004,"Bá»į":14005,"Báº»":14006,"Cáº£i":14007,"CÃºp":14008,"Dana":14009,"Hm":14010,"Jen":14011,"Má»Ļ":14012,"Nar":14013,"Port":14014,"Peeta":14015,"With":14016,"Zoom":14017,"dÆ°á»Ľi":14018,"ea":14019,"foot":14020,"gat":14021,"jean":14022,"lay":14023,"lá»Ŀi":14024,"of":14025,"sty":14026,"vid":14027,"Ġcáº³ng":14028,"Ġnáº¥c":14029,"Ġste":14030,"Ã¬t":14031,"Ġrest":14032,"pheus":14033,"Cháº£y":14034,"anan":14035,"á»±ng":14036,"cháº·n":14037,"ĠTÃ³c":14038,"ĠTerr":14039,"ĠTango":14040,"ĠSay":14041,"ĠSyria":14042,"ĠBus":14043,"ĠHess":14044,"ĠCel":14045,"ĠLie":14046,"ĠDod":14047,"ĠDixon":14048,"ĠÄĳÃºp":14049,"ĠGÃ¬":14050,"ĠGaul":14051,"ĠRain":14052,"ĠThÃ¢":14053,"ĠPur":14054,"Quang":14055,"Quá»¹":14056,"ĠField":14057,"ĠWho":14058,"ĠtuÃ´n":14059,"rap":14060,"Ġfly":14061,"ĠNgo":14062,"ĠNgu":14063,"KhoÃ¡":14064,"ĠShishio":14065,"ĠAlam":14066,"uts":14067,"ĠXá»©":14068,"ĠClA":14069,"Ġthá»ģm":14070,"7890":14071,"assage":14072,"***":14073,"áº¤U":14074,"ĠTHáº¾":14075,"Ġforever":14076,"lands":14077,"Ġcá»±a":14078,"ĠAbbott":14079,"inkle":14080,"ĠSmÃ©agol":14081,"ĠDarius":14082,"ĠGiá»ĳng":14083,"ĠPHIM":14084,"ĠLannisters":14085,"aghan":14086,"umpy":14087,"ĠRivendell":14088,"Simmons":14089,"ĠBaudel":14090,"Damien":14091,"ĠRancho":14092,"ĠHasan":14093,"cticut":14094,"ĠMisterT":14095,"eytiri":14096,"Cá»Ŀ":14097,"Crow":14098,"DÃ¢":14099,"Dale":14100,"Eh":14101,"Fox":14102,"Gold":14103,"Gordo":14104,"Háº¡ng":14105,"Hunt":14106,"Láº¯p":14107,"OV":14108,"Pan":14109,"Sta":14110,"SÃ³i":14111,"Sulu":14112,"Táº¿":14113,"Tá»ĵi":14114,"Táº¡p":14115,"XÃ¬":14116,"fus":14117,"gas":14118,"ktra":14119,"nn":14120,"wise":14121,"Ġtáº£o":14122,"Ġchampagne":14123,"Ġváº¿u":14124,"Ġmáº©n":14125,"Ġnuá»ĳi":14126,"Ġbin":14127,"ĠnhÃ²m":14128,"Ġreg":14129,"phone":14130,"Ġxá»ķng":14131,"ĠMore":14132,"ĠTÆ°á»Łng":14133,"ĠTÄ©nh":14134,"ĠBin":14135,"ĠBard":14136,"ĠCA":14137,"ĠCÃ¡o":14138,"Phá»ķi":14139,"TrÆ°":14140,"Trev":14141,"amander":14142,"ĠChá»Ŀ":14143,"ĠPry":14144,"ĠPont":14145,"ĠVoldemort":14146,"ĠFoot":14147,"Ġ350":14148,"ĠTrá»įng":14149,"ĠTrip":14150,"ĠTravers":14151,"ĠwÃ¡":14152,"Ġworry":14153,"obody":14154,"ĠnguÃ´i":14155,"Ġpower":14156,"ĠMaryland":14157,"trid":14158,"ĠQuÃ´":14159,"......":14160,"Marc":14161,"etts":14162,"ops":14163,"ĠCÃ´n":14164,"doch":14165,"ĠMafia":14166,"Ġknows":14167,"amba":14168,"uhm":14169,"ĠJeffrey":14170,"ĠSchrader":14171,"ĠToronto":14172,"ĠDavos":14173,"ĠOswald":14174,"Ellie":14175,"ĠConnors":14176,"aught":14177,"ĠCosta":14178,"ĠOlive":14179,"bbons":14180,"NET":14181,"ĠAmberle":14182,"Clarke":14183,"abbit":14184,"ĠDexter":14185,"Ġcredit":14186,"estapo":14187,"Oscar":14188,"Bá»ĳc":14189,"CÆ°á»£c":14190,"DD":14191,"Dong":14192,"DÃłn":14193,"Did":14194,"Duk":14195,"Fish":14196,"Hector":14197,"Ja":14198,"Like":14199,"Mama":14200,"OO":14201,"Pizza":14202,"Quill":14203,"SÃ´ng":14204,"SÃ¢m":14205,"Tang":14206,"Ul":14207,"Ver":14208,"War":14209,"bow":14210,"bul":14211,"fire":14212,"láº¡y":14213,"ãĤ":14214,"ĠtÃ¢u":14215,"Ġcourse":14216,"ĠÄĳá»įng":14217,"Ġmm":14218,"ĠnÃ²i":14219,"Ġná»ĭt":14220,"Ġnext":14221,"ĠkhÆ¡":14222,"ĠkhÃªu":14223,"Ġsit":14224,"Ġháº¥t":14225,"Ġguá»ĳc":14226,"Ġgun":14227,"ĠnhÃ½":14228,"Chá»©c":14229,"ĠÄĳá»ħ":14230,"ĠquÃ¨n":14231,"ĠMIN":14232,"ĠMIT":14233,"ĠCÃĶNG":14234,"ĠLino":14235,"ĠLeed":14236,"ĠDig":14237,"ĠChev":14238,"ĠChelsea":14239,"ĠAK":14240,"ĠGiáº¿t":14241,"ĠGry":14242,"ĠJew":14243,"ĠKer":14244,"ĠKGB":14245,"ĠFrench":14246,"ĠTranh":14247,"ĠIsengard":14248,"adeo":14249,"Ġfool":14250,"ĠtÃ¹m":14251,"ĠQUYá»ĢN":14252,"NGÆ¯á»ľI":14253,"ĠZo":14254,"ĠmÃ£ng":14255,"berto":14256,"ĠSamaritan":14257,"ĠScooby":14258,"ĠScamander":14259,"consin":14260,"ĠBarbie":14261,"ĠFloki":14262,"Frances":14263,"ixie":14264,"Ġstars":14265,"oshiro":14266,"Heil":14267,"ĠDarren":14268,"Ġready":14269,"ĠPeru":14270,"ĠFreddie":14271,"ÃĲÃ³":14272,"ĠGalavan":14273,"ĠBrooks":14274,"Leh":14275,"Ġlooking":14276,"áº®N":14277,"OME":14278,"ĠTiberius":14279,"Beckett":14280,"ĠPowell":14281,"oucheb":14282,"ĠCherevin":14283,"ĠTesla":14284,"ĠHagrid":14285,"ĠSforza":14286,"700":14287,"BE":14288,"Bá»Ļt":14289,"Cá»ı":14290,"CÃ¡t":14291,"Des":14292,"Gam":14293,"Gá»Ľm":14294,"ILL":14295,"Kaulder":14296,"Láº¹":14297,"LÆ°ng":14298,"Ninh":14299,"Ná»Ĺ":14300,"Rourke":14301,"Sue":14302,"Vik":14303,"Wins":14304,"XÃ©o":14305,"cam":14306,"cles":14307,"hand":14308,"pot":14309,"vá»£":14310,"yeah":14311,"Ġ78":14312,"Ġáº¿m":14313,"ngoáº¡i":14314,"Ġcat":14315,"ĠcÃ¹n":14316,"Ġkiá»ģu":14317,"ĠbÃ¨o":14318,"Ġkháº½":14319,"ĠkhÃŃt":14320,"Ġsky":14321,"Ġgetting":14322,"Ġnhá»Ļt":14323,"Ġden":14324,"Ġdiá»ĩp":14325,"Ġxiáº¿t":14326,"erxes":14327,"ĠTus":14328,"Ġya":14329,"ĠBald":14330,"Ġhouse":14331,"ĠHÃĢNH":14332,"ĠCart":14333,"ĠLike":14334,"ĠÄĲÃł":14335,"atic":14336,"ĠThao":14337,"ĠNico":14338,"ĠNolan":14339,"ĠPost":14340,"ĠKowalski":14341,"Quen":14342,"thÃªm":14343,"ĠVicky":14344,"ĠFogg":14345,"ĠTry":14346,"ĠEva":14347,"Giu":14348,"Giang":14349,"GiÆ°Æ¡ng":14350,"ĠYang":14351,"ĠNhÃ¬":14352,"ĠMario":14353,"iving":14354,"Ġhuá»ģ":14355,"Ġinside":14356,"ĠClan":14357,"ĠClara":14358,"quÃªn":14359,"ĠCarmen":14360,"ustang":14361,"ĠBarton":14362,"áº¤Y":14363,"ÆłN":14364,"ĠColonel":14365,"ppa":14366,"giáº£i":14367,"uha":14368,"ĠMalick":14369,"NAL":14370,"ĠBurke":14371,"Ġalong":14372,"ThuáºŃt":14373,"ĠAtt":14374,"ations":14375,"Ġaspirin":14376,"tainer":14377,"ĠGregor":14378,"ĠBangkok":14379,"UYá»ĨN":14380,"ĠOsborn":14381,"Beat":14382,"ĠKitty":14383,"ĠCallahan":14384,"Faramir":14385,"Serge":14386,"ĠWebb":14387,"ĠPhilippe":14388,"addington":14389,"ä¸į":14390,"Cosette":14391,"ĠCohen":14392,"irestorm":14393,"Pierre":14394,"Pepper":14395,"ĠÃĥy":14396,"ĠSprings":14397,"ĠtÃ³e":14398,"ĠIMF":14399,",//":14400,"61":14401,"BÃª":14402,"Dáº¡ng":14403,"IÃĬU":14404,"LiÃª":14405,"Net":14406,"Qui":14407,"RÃ¡c":14408,"Wade":14409,"XÃ¢m":14410,"_<":14411,"non":14412,"names":14413,"rr":14414,"robot":14415,"ĠcÃ¡y":14416,"Ġlisten":14417,"Ġcháº£nh":14418,"Ġbre":14419,"Ġsá»¥":14420,"Ġsáº·c":14421,"phyr":14422,"ĠxÃłm":14423,"ĠquÃ¡ch":14424,"ayton":14425,"arine":14426,"ĠMÃ¢y":14427,"ĠSide":14428,"ĠBáº±ng":14429,"ĠBach":14430,"ĠBatt":14431,"ĠHang":14432,"ĠHÃ´m":14433,"ĠHolt":14434,"ĠConnie":14435,"ĠCora":14436,"ĠCá»¨":14437,"TrÆ°a":14438,"ĠLiá»ĩt":14439,"ĠDrac":14440,"ĠGerry":14441,"ĠTham":14442,"ĠNile":14443,"ĠNixon":14444,"ĠKá»¹":14445,"ĠKov":14446,"ĠKoba":14447,"asaki":14448,"ĠVerm":14449,"ĠVandal":14450,"ÄĳÃ³ng":14451,"Ġwa":14452,"ĠPhÃ¡o":14453,"iday":14454,"unch":14455,"Ġ4000":14456,"khiáº¿n":14457,"Ġvá»£t":14458,"Ġfr":14459,"Ġfin":14460,"Ġpap":14461,"ĠMardon":14462,"ebanks":14463,"Ġsuá»µt":14464,"ego":14465,"chÃºngta":14466,"ĠPeters":14467,"ĠÃĤn":14468,"ĠLaurie":14469,"ĠElle":14470,"ONT":14471,"ippy":14472,"Roberto":14473,"Calvin":14474,"ĠDorothy":14475,"ĠTarzan":14476,"Keith":14477,"Ġpounds":14478,"Nikita":14479,"ĠÆ¯ng":14480,"Stanley":14481,"halla":14482,"ĠJaeger":14483,"ĠVladimir":14484,"Klaus":14485,"ĠKraken":14486,"lhlh":14487,"Ġdoesn":14488,"ĠEcbert":14489,"randir":14490,"ĠSkylark":14491,"82":14492,"?\".<":14493,"BC":14494,"Bag":14495,"Bee":14496,"Div":14497,"Gil":14498,"Gá»£i":14499,"HÃ¡":14500,"Mach":14501,"NÃŃn":14502,"Ry":14503,"Remy":14504,"Tw":14505,"Tá»§":14506,"Tá»ĳn":14507,"Var":14508,"Wat":14509,"bÃ¡o":14510,"dad":14511,"fort":14512,"hold":14513,"lÃ¢u":14514,"nst":14515,"rond":14516,"Ã§a":14517,"Ġtá»ĭt":14518,"ĠthÃ©":14519,"Ġcháº»":14520,"Ġváº¿":14521,"ĠnÃ¢":14522,"Ġsame":14523,"Ġtrá»ĩt":14524,"Ġang":14525,"ĠÄĳá»Ŀ":14526,"Ġchá»ı":14527,"NhiÃªu":14528,"ĠMell":14529,"ĠMÃ¼ntze":14530,"ĠTU":14531,"ĠTemp":14532,"ĠSkeeter":14533,"ĠBet":14534,"ĠBush":14535,"ĠBraga":14536,"ĠHIV":14537,"ĠCuá»ĳn":14538,"ĠCuá»ĳi":14539,"ĠCir":14540,"Tristan":14541,"Tad":14542,"ĠloÃ©t":14543,"ĠAy":14544,"ĠÄĲá»©ng":14545,"uiz":14546,"ĠNich":14547,"Quentin":14548,"ĠWind":14549,"rebor":14550,"ahub":14551,"Ġwish":14552,"Girl":14553,"oof":14554,"avir":14555,"ental":14556,"ĠBrenn":14557,"Ġ2014":14558,"ebe":14559,"awk":14560,"ÃģNH":14561,"ecter":14562,"ĠLuthor":14563,"Ġboom":14564,"ĠAndie":14565,"ĠConstant":14566,"loáº¡i":14567,"redence":14568,"ĠBenedict":14569,"áº¤m":14570,"ĠElvis":14571,"Mira":14572,"ĠPrim":14573,"ĠvÃŃu":14574,"ĠSmo":14575,"ĠCHIáº¾N":14576,"ĠTuáº¥n":14577,"ĠSimpson":14578,"Ġrunning":14579,"ĠRoch":14580,"ĠKyoto":14581,"ĠWaller":14582,"ĠHawkins":14583,"ĠRocky":14584,"ÃĲá»«ng":14585,"ĠHuÃ¢n":14586,"ĠHayley":14587,"ĠGeorges":14588,"ĠNicolas":14589,"ĠGoodman":14590,"ĠRyder":14591,"ĠOlympus":14592,"ĠMackenzie":14593,"ĠChech":14594,"ĠPaso":14595,"ĠRuby":14596,"Ġchocolate":14597,"Dolores":14598,"ĠCOLOR":14599,"æĺ¯":14600,"ĠMINDS":14601,"BÃ¡i":14602,"Blake":14603,"FO":14604,"Jos":14605,"LÃłn":14606,"Lá»Ļn":14607,"Lov":14608,"Má»ĵi":14609,"Ná»ĵng":14610,"Ricky":14611,"Sá»ķ":14612,"Tá»©":14613,"Up":14614,"XÃŃch":14615,"bÃ¡nh":14616,"bard":14617,"cat":14618,"down":14619,"far":14620,"gee":14621,"light":14622,"pine":14623,"Ġá»ĳ":14624,"Ġá»ī":14625,"Ġá»ıi":14626,"ĠÃĢ":14627,"ĠtÄ©":14628,"nháºŃn":14629,"Ġchy":14630,"Ġchange":14631,"Ġvisa":14632,"ĠnÃ¡ch":14633,"Ġráº§u":14634,"Ġround":14635,"Chao":14636,"Ġchá»Ńa":14637,"anon":14638,"NgÃ£":14639,"ĠTem":14640,"ĠTiÃª":14641,"ĠTá»ĭnh":14642,"ĠSex":14643,"ĠCourtney":14644,"ĠLÃºc":14645,"ĠDow":14646,"ĠAL":14647,"ĠJing":14648,"ĠRáº¯n":14649,"ĠRik":14650,"Há»įp":14651,"elius":14652,"uie":14653,"ĠThiÃª":14654,"ĠNÄĥng":14655,"ĠNow":14656,"tho":14657,"ĠWE":14658,"ĠWex":14659,"Äĳá»ĭnh":14660,"ĠEst":14661,"Ġcap":14662,"GiáºŃt":14663,"á»ŀNG":14664,"unks":14665,"rack":14666,"Ġ...\"<":14667,"ĠYoon":14668,"irteen":14669,"Ġoáº£i":14670,"rod":14671,"ffy":14672,"abad":14673,"Æ¯á»ŀNG":14674,"berry":14675,"Ġ1980":14676,"ithrandir":14677,"ĠÂ£":14678,"ĠÄĳuá»£c":14679,"Ġ'<":14680,"istler":14681,"wayne":14682,"ĠIsabel":14683,"ĠlÃªnh":14684,"ĠMaxim":14685,"ĠMance":14686,"ĠLyla":14687,"ĠWei":14688,"ĠSchw":14689,"ĠMeade":14690,"ĠSwagger":14691,"ĠHorus":14692,"Louise":14693,"ĠTerrence":14694,"ĠPhillip":14695,"ĠNobel":14696,"Lizzy":14697,"ĠIllinois":14698,"ĠBriar":14699,"Ġkungfu":14700,"ĠFilip":14701,"ĠDewey":14702,"ĠPaula":14703,"Ġcorrected":14704,"Trevor":14705,"ahubali":14706,"Ak":14707,"Ald":14708,"CáºŃp":14709,"Grant":14710,"Has":14711,"HÃĥ":14712,"LÃ©n":14713,"Ná»£":14714,"Poll":14715,"Vá»Ĺ":14716,"XÃł":14717,"dard":14718,"jack":14719,"lia":14720,"pat":14721,"rer":14722,"Ãı":14723,"Ã«ng":14724,"Ġcáº·c":14725,"ĠchÃ²i":14726,"Ġmil":14727,"Ġmill":14728,"Ġmod":14729,"Ġmá»ĭn":14730,"Ġmassage":14731,"Ġbal":14732,"Ġbeg":14733,"Ġbird":14734,"Ġhn":14735,"ĠhÃ³ng":14736,"Ġgao":14737,"ĠrÃ¡i":14738,"Ġrá»ĳn":14739,"ĠphÆ°á»Ŀng":14740,"Ġphoto":14741,"Chicago":14742,"ÄĲÃłnh":14743,"á»įe":14744,"Ġxáº¥p":14745,"ĠquÃ¢y":14746,"ĠgiÆ°Æ¡":14747,"Khung":14748,"KhÃ³i":14749,"chÃ¢n":14750,"ĠTill":14751,"ĠSah":14752,"ĠSak":14753,"ĠBR":14754,"eno":14755,"ĠHáº¡t":14756,"Translated":14757,"ĠLing":14758,"ĠLara":14759,"ĠChÃłng":14760,"ĠGra":14761,"ĠGale":14762,"ĠGrac":14763,"ĠGCPD":14764,"ĠGollum":14765,"ĠRever":14766,"ĠRusty":14767,"iselle":14768,"ĠTheon":14769,"thuá»ĳc":14770,"ĠVos":14771,"ĠFal":14772,"ĠFire":14773,"omi":14774,"uste":14775,"ready":14776,"Äĳáº·t":14777,"leen":14778,"Ġkhuáº¿ch":14779,"khu":14780,"Ġfull":14781,"Ġpart":14782,"Ġoai":14783,"Ġopen":14784,"Chul":14785,"ĠNgÆ°":14786,"Khoáº£n":14787,"ivers":14788,"utz":14789,"ĠBrent":14790,"á»ľm":14791,"ĠvÃªnh":14792,"live":14793,"ĠBeirut":14794,"ĠMcQueen":14795,"ibi":14796,"ĠColin":14797,"ĠLeague":14798,"ĠRamsey":14799,"ĠHelm":14800,"ĠKremlin":14801,"ĠTreadstone":14802,"California":14803,"ĠGalloway":14804,"ĠAthena":14805,"Santa":14806,"ĠApple":14807,"ĠMooney":14808,"shaan":14809,"Jeremy":14810,"Ġhá»Ŀn":14811,"ĠBuchanan":14812,"IMINAL":14813,"Aug":14814,"CÃ¢n":14815,"CáºŃn":14816,"Cindy":14817,"Diana":14818,"Four":14819,"Jill":14820,"Ká»ĭch":14821,"Koba":14822,"MÆ°á»£n":14823,"Snow":14824,"TuyÃªn":14825,"box":14826,"cing":14827,"lic":14828,"raid":14829,"vel":14830,"ä»":14831,"Ġtháº¯m":14832,"ĠkÆ°ng":14833,"ĠvÃ¡t":14834,"Ġbot":14835,"Ġbitch":14836,"Ġsáº¥t":14837,"ĠsÃło":14838,"Ġhá»ī":14839,"ĠhÃłu":14840,"Ġgá»«ng":14841,"ĠnhÃľ":14842,"ĠngÃ´ng":14843,"Ġtráº£m":14844,"Ġapp":14845,"ÄĲá»ĵn":14846,"Ġgiáº·c":14847,"chia":14848,"...âĻª<":14849,"aug":14850,"ĠMÃ¡t":14851,"ĠMess":14852,"ĠTad":14853,"ĠTuck":14854,"Ġyards":14855,"ĠSall":14856,"ĠBÃ¡t":14857,"ĠCup":14858,"ĠAR":14859,"ĠThurs":14860,"ĠKrist":14861,"alan":14862,"ĠVarys":14863,"ieu":14864,"Äĳá»§":14865,"ĠTrá»«ng":14866,"osp":14867,"ĠIb":14868,"Ġngá»§m":14869,"ahad":14870,"oooo":14871,"Ġ56":14872,"HoÃ¡":14873,"ĠYoko":14874,"á»ĴNG":14875,"Marcel":14876,"ÄĤNG":14877,"Ana":14878,"estine":14879,"Loa":14880,"Ġjob":14881,"Ġshock":14882,"ÃĤi":14883,"Ghen":14884,"onso":14885,"rewe":14886,"ĠiPad":14887,"ĠCaspere":14888,"Barnes":14889,"ĠSalv":14890,"ĠHobbes":14891,"ucci":14892,"ĠUSB":14893,"ĠStanton":14894,"ĠEssex":14895,"ĠTeresa":14896,"Subteam":14897,"ĠWessex":14898,"á»ĮC":14899,"ĠEywa":14900,"Ã®t":14901,"ĠMachine":14902,"chilles":14903,"avanaugh":14904,"ĠBridget":14905,"ĠEmmett":14906,"ĠHassan":14907,"Legolas":14908,"ĠEnergon":14909,".-":14910,"AV":14911,"Diá»ĩt":14912,"GÃ£y":14913,"Háº§m":14914,"Juan":14915,"Lá»Ļ":14916,"Mons":14917,"Night":14918,"PO":14919,"Pen":14920,"ben":14921,"bolt":14922,"ead":14923,"eine":14924,"house":14925,"kuru":14926,"sm":14927,"zi":14928,"ĠKho":14929,"ngon":14930,"ĠcÃ¤":14931,"ĠchÃİ":14932,"Ġkiá»ĩu":14933,"Ġmess":14934,"ĠmÃŃa":14935,"ĠnÃ¡y":14936,"Ġná»Ļm":14937,"ĠsÃłi":14938,"Ġgá»Ļt":14939,"ĠnhÃ´m":14940,"Ġnháº·n":14941,"Ġcá»įng":14942,"Chester":14943,"ÄĲM":14944,"Thá»ı":14945,"Ġrap":14946,"chÃ³":14947,"chel":14948,"ĠMÃªn":14949,"ĠTá»Ľi":14950,"ĠSÃºng":14951,"ĠBáº¡c":14952,"ĠBird":14953,"á»ĥu":14954,"ĠCT":14955,"ĠCent":14956,"Tris":14957,"ĠLung":14958,"orf":14959,"ĠChekov":14960,"ĠGestapo":14961,"ĠRou":14962,"ĠÄĲÃ¡nh":14963,"ĠThracian":14964,"ĠThÃ©oden":14965,"ĠKiÃªn":14966,"ĠVá»Ģ":14967,"ĠghÃ©m":14968,"ÄĳÃ´":14969,"Äĳáº¹p":14970,"ters":14971,"Ġ97":14972,"awi":14973,"ants":14974,"áº¢O":14975,"ĠAnders":14976,"azio":14977,"Ġwhole":14978,"ĠElrond":14979,"ĠWhip":14980,"ĠWillie":14981,"ylie":14982,"uken":14983,"rown":14984,"Amelia":14985,"ĠTura":14986,"Ġblue":14987,"ĠSubtitle":14988,"celona":14989,"ĠRonald":14990,"áº®T":14991,"ĠSkipper":14992,"Jacques":14993,"eleine":14994,"Boromir":14995,"Shawn":14996,"ĠCyber":14997,"ĠTaub":14998,"ĠMulder":14999,"Iá»ĢU":15000,"Mickey":15001,"ĠDaily":15002,"CRIMINAL":15003,"ĠDrogo":15004,"ĠMozart":15005,"Ġpoint":15006,"Ġtomorrow":15007,"Aur":15008,"BÃ¡u":15009,"Bá»ķn":15010,"Cynthia":15011,"ET":15012,"FONT":15013,"GÄĥ":15014,"Glor":15015,"KÄ©":15016,"KÃ©t":15017,"Kathy":15018,"Lai":15019,"Láº§u":15020,"Lip":15021,"Merry":15022,"Mont":15023,"Rome":15024,"Sen":15025,"Sá»ĳc":15026,"TÃ¢n":15027,"Tube":15028,"Wait":15029,"aeda":15030,"bÃ©":15031,"fic":15032,"gate":15033,"kiá»ĥu":15034,"mÃ´":15035,"ois":15036,"por":15037,"ute":15038,"Ġtá»ĭnh":15039,"nhÃ³c":15040,"ĠlÃ¨":15041,"ĠliÃªm":15042,"ĠchÃłi":15043,"Ġbá»©t":15044,"Ġsy":15045,"Ġsáº£i":15046,"Ġsáº¥p":15047,"Ġnhen":15048,"Ġrec":15049,"Ġrá»¥t":15050,"ĠnÃłnh":15051,"ThÃ³i":15052,"onga":15053,"Ngáº©ng":15054,"ĠBá»Ļi":15055,"ĠBla":15056,"ĠBrew":15057,"Phill":15058,"ĠDO":15059,"ĠDad":15060,"ĠChá»§ng":15061,"ĠAce":15062,"ĠGÃ£":15063,"ĠRover":15064,"ĠRanger":15065,"ĠThr":15066,"ĠNATO":15067,"ĠPi":15068,"ĠKab":15069,"ĠFrom":15070,"ÄĳÃªm":15071,"ĠEun":15072,"GiÃłu":15073,"Holl":15074,"Ġsea":15075,"ĠMarta":15076,"ĠMargo":15077,"teau":15078,"Ġ87":15079,"ĠXáº¥u":15080,"ovic":15081,"neg":15082,"ĠJohns":15083,"ĠNewman":15084,"ÃģCH":15085,"ĠSamurai":15086,"ettie":15087,"Ġjeep":15088,"ĠMorse":15089,"ertigo":15090,"Taylor":15091,"Brid":15092,"Heathcliff":15093,"uzo":15094,"areau":15095,"ĠTRONG":15096,"ĠLucius":15097,"Elena":15098,"ĠFredrick":15099,"ĠDominic":15100,"ĠHawking":15101,"á»¨c":15102,"Patty":15103,"ĠAthel":15104,"ĠQUá»ĲC":15105,"imoff":15106,"ĠBabylon":15107,"Ġ=\"":15108,"ĠMetropolis":15109,"ĠBirch":15110,"ĠMemphis":15111,"ĠAtlantis":15112,"ĠRapunzel":15113,"ĠHungary":15114,"ĠNEW":15115,"heimer":15116,"ĠDaley":15117,"Savage":15118,"ĠPuerto":15119,"ĠUtah":15120,"uminati":15121,"ĠArmstrong":15122,".'":15123,"86":15124,"Bá»Ŀ":15125,"Bella":15126,"Dev":15127,"Heo":15128,"Hoo":15129,"Há»«m":15130,"Jud":15131,"Kid":15132,"Mul":15133,"Mits":15134,"Micah":15135,"Omar":15136,"TÃ¢u":15137,"UI":15138,"báº£n":15139,"din":15140,"lá»Ľn":15141,"pers":15142,"sum":15143,"åĢ":15144,"Ġáº£i":15145,"Ġthiáº¿c":15146,"Ġmini":15147,"Ġsáº£o":15148,"Ġhá»Ļt":15149,"Ġhá»Ľt":15150,"ĠnhÅ©":15151,"Ġráº·ng":15152,"ĠdÃło":15153,"Ġquáº¡o":15154,"eme":15155,"aica":15156,"arma":15157,"ĠMá»Ļ":15158,"ĠTat":15159,"ĠSund":15160,"ĠSlat":15161,"ĠBU":15162,"ĠBÃŃch":15163,"Ġhor":15164,"ĠHit":15165,
[...]
