{"version":"1.0","truncation":null,"padding":null,"added_tokens":[{"id":0,"special":true,"content":"<|endoftext|>","single_word":false,"lstrip":false,"rstrip":false,"normalized":false}],"normalizer":null,"pre_tokenizer":{"type":"ByteLevel","add_prefix_space":false,"trim_offsets":true},"post_processor":{"type":"ByteLevel","add_prefix_space":true,"trim_offsets":true},"decoder":{"type":"ByteLevel","add_prefix_space":true,"trim_offsets":true},"model":{"type":"BPE","dropout":null,"unk_token":null,"continuing_subword_prefix":null,"end_of_word_suffix":null,"fuse_unk":false,"vocab":{"<|endoftext|>":0,"!":1,"\"":2,"#":3,"$":4,"%":5,"&":6,"'":7,"(":8,")":9,"*":10,"+":11,",":12,"-":13,".":14,"/":15,"0":16,"1":17,"2":18,"3":19,"4":20,"5":21,"6":22,"7":23,"8":24,"9":25,":":26,";":27,"<":28,"=":29,">":30,"?":31,"@":32,"A":33,"B":34,"C":35,"D":36,"E":37,"F":38,"G":39,"H":40,"I":41,"J":42,"K":43,"L":44,"M":45,"N":46,"O":47,"P":48,"Q":49,"R":50,"S":51,"T":52,"U":53,"V":54,"W":55,"X":56,"Y":57,"Z":58,"[":59,"\\":60,"]":61,"^":62,"_":63,"`":64,"a":65,"b":66,"c":67,"d":68,"e":69,"f":70,"g":71,"h":72,"i":73,"j":74,"k":75,"l":76,"m":77,"n":78,"o":79,"p":80,"q":81,"r":82,"s":83,"t":84,"u":85,"v":86,"w":87,"x":88,"y":89,"z":90,"{":91,"|":92,"}":93,"~":94,"¡":95,"¢":96,"£":97,"¤":98,"¥":99,"¦":100,"§":101,"¨":102,"©":103,"ª":104,"«":105,"¬":106,"®":107,"¯":108,"°":109,"±":110,"²":111,"³":112,"´":113,"µ":114,"¶":115,"·":116,"¸":117,"¹":118,"º":119,"»":120,"¼":121,"½":122,"¾":123,"¿":124,"À":125,"Á":126,"Â":127,"Ã":128,"Ä":129,"Å":130,"Æ":131,"Ç":132,"È":133,"É":134,"Ê":135,"Ë":136,"Ì":137,"Í":138,"Î":139,"Ï":140,"Ð":141,"Ñ":142,"Ò":143,"Ó":144,"Ô":145,"Õ":146,"Ö":147,"×":148,"Ø":149,"Ù":150,"Ú":151,"Û":152,"Ü":153,"Ý":154,"Þ":155,"ß":156,"à":157,"á":158,"â":159,"ã":160,"ä":161,"å":162,"æ":163,"ç":164,"è":165,"é":166,"ê":167,"ë":168,"ì":169,"í":170,"î":171,"ï":172,"ð":173,"ñ":174,"ò":175,"ó":176,"ô":177,"õ":178,"ö":179,"÷":180,"ø":181,"ù":182,"ú":183,"û":184,"ü":185,"ý":186,"þ":187,"ÿ":188,"Ā":189,"ā":190,"Ă":191,"ă":192,"Ą":193,"ą":194,"Ć":195,"ć":196,"Ĉ":197,"ĉ":198,"Ċ":199,"ċ":200,"Č":201,"č":202,"Ď":203,"ď":204,"Đ":205,"đ":206,"Ē":207,"ē":208,"Ĕ":209,"ĕ":210,"Ė":211,"ė":212,"Ę":213,"ę":214,"Ě":215,"ě":216,"Ĝ":217,"ĝ":218,"Ğ":219,"ğ":220,"Ġ":221,"ġ":222,"Ģ":223,"ģ":224,"Ĥ":225,"ĥ":226,"Ħ":227,"ħ":228,"Ĩ":229,"ĩ":230,"Ī":231,"ī":232,"Ĭ":233,"ĭ":234,"Į":235,"į":236,"İ":237,"ı":238,"Ĳ":239,"ĳ":240,"Ĵ":241,"ĵ":242,"Ķ":243,"ķ":244,"ĸ":245,"Ĺ":246,"ĺ":247,"Ļ":248,"ļ":249,"Ľ":250,"ľ":251,"Ŀ":252,"ŀ":253,"Ł":254,"ł":255,"Ń":256,"á»":257,"áº":258,"ng":259,"Ġt":260,"Ġc":261,"ĠÄ":262,"ĠÄĳ":263,"Ãł":264,"Ã´":265,"nh":266,"Ġl":267,"Ġth":268,"Æ°":269,"Ġch":270,"Ã³":271,"Ġk":272,"Ġv":273,"Ġm":274,"Ġn":275,"Ġb":276,"Ã¡":277,"Ã´ng":278,"áº¿":279,"Ġkh":280,"Ã´i":281,"Ġs":282,"Ġh":283,"Ġg":284,"Æ°á»":285,"áº¥":286,"Ġnh":287,"ĠlÃł":288,"Ã¬":289,"áº£":290,"Ġng":291,"iá»":292,"Ã¢":293,"ĠkhÃ´ng":294,"Ãº":295,"áºŃ":296,"Ġr":297,"..":298,"áº¡":299,"á»ĳ":300,"Ãª":301,"Ġtr":302,"á»Ļ":303,"ĠtÃ´i":304,"ph":305,"Ġph":306,"ĠcÃ³":307,"Ġa":308,"Ġta":309,"iáº¿":310,"Ġcá»":311,"Ã£":312,"Æ¡":313,"á»Ľ":314,"áº¥y":315,"Ãªn":316,"ĠÄĳá»":317,"Ch":318,"áº¯":319,"Ãºng":320,"Ġthá»":321,"Ŀi":322,"ĠnÃł":323,"Ġanh":324,"Ġd":325,"á»į":326,"á»ĵ":327,"ÄĲ":328,"TÃ´i":329,"Æ°á»£":330,"áº½":331,"áº§":332,"§a":333,"Ġcá»§a":334,"ĠnÃ³":335,"ĠÄĳÃ¢":336,"ĠvÃł":337,"ĠÄĳi":338,"ao":339,"Ġx":340,"á»Ļt":341,"uy":342,"on":343,"ĠÄĳÃ£":344,"...":345,"Æ°á»£c":346,"Ġq":347,"Ġsáº½":348,"áº¡i":349,"áº£i":350,"á»Ľi":351,"áº¥t":352,"Ġchá»":353,"ĠgÃ¬":354,"á»ĵi":355,"Ã¡c":356,"ĠÄĳÃ³":357,"Ġqu":358,"á»Ł":359,"iá»ĩ":360,"iáº¿t":361,"Æ°á»Ŀi":362,"Ġmá»Ļt":363,"á»¯":364,"Ġrá»ĵi":365,"ĠÄĳÆ°á»£c":366,"á»ĩ":367,"ÃŃ":368,"ay":369,"uá»ĳ":370,"ĠlÃłm":371,"Ġgi":372,"Ã¡i":373,"ĠngÆ°á»Ŀi":374,"Ġpháº£i":375,"ĠnÃły":376,"Kh":377,"Ġcho":378,"Ġvá»":379,"Ġngh":380,"an":381,"Anh":382,"Ã²":383,"ang":384,"em":385,"ĠchÃºng":386,"áº§n":387,"Ġbiáº¿t":388,"Ġthá»ĥ":389,"in":390,"Th":391,"á»«":392,"áºŃu":393,"ĠÄĳÃ¢y":394,"Ġá»Ł":395,"iá»ģ":396,"ĠcÃ´":397,"Ìģ":398,"ĠnhÆ°":399,"ĠmÃł":400,"áºŃy":401,"ĠnÃ³i":402,"Ã¬nh":403,"ong":404,"KhÃ´ng":405,"Ġvá»Ľi":406,"á»±":407,"Ġra":408,"Ġláº¡i":409,"Ġgiá»":410,"Ġcon":411,"Nh":412,"ch":413,"Ä©":414,"Ġcáº£":415,"Ġsao":416,"á»ĭ":417,"áº·":418,"Ġtháº¿":419,"áº¿t":420,"Ã¹":421,"uyá»ĩ":422,"ĠnÃło":423,"áºŃt":424,"©ng":425,"Ġáº¥y":426,"Æ°a":427,"Äĥ":428,"ÌĢ":429,"áº¯n":430,"Æ¡n":431,"Æ¡i":432,"ĠÄĳang":433,"uá»ĳn":434,"Æ°á»Ľ":435,"Ġem":436,"á»ı":437,"iá»ģu":438,"áº¿n":439,"ĠÃ´ng":440,"Ġmuá»ĳn":441,"ĠÄĳá»ĥ":442,"Ã©":443,"Ġtrong":444,"á»¯ng":445,"uyá»ĩn":446,"ĠC":447,"ai":448,"ĠÄĳÃ¢u":449,"Ã¢n":450,"ĠcáºŃu":451,"ĠváºŃy":452,"ĠÄĳáº¿n":453,"á»ķ":454,"Ãłi":455,"ĠcÃ¡c":456,"ĠcÃ¡i":457,"ChÃºng":458,"Ã¢y":459,"áº±":460,"ĠT":461,"au":462,"Ã²n":463,"Ng":464,"iá»ĥ":465,"áº¹":466,"Ġkhi":467,"á»¥":468,"ĠnghÄ©":469,"Ġhá»į":470,"Ġnhá»¯ng":471,"á»«ng":472,"er":473,"Å©ng":474,"Ġvá»ģ":475,"á»įi":476,"iÃªn":477,"ĠthÃ¬":478,"Ġ1":479,"ĠM":480,"áº¡n":481,"Ġtháº¥y":482,"áº±ng":483,"Ãły":484,"Ġchuyá»ĩn":485,"Ġlá»":486,"ar":487,"Ġná»¯":488,"Ì£":489,"áº¿u":490,"ĠÄĳáº¥y":491,"Ġbá»ĭ":492,"ĠvÃło":493,"Æ°á»Ľc":494,"ĠB":495,"ĠcÅ©ng":496,"áº§u":497,"ĠS":498,"ĠthÃ´i":499,"Æ°ng":500,"Ġchá»ī":501,"iá»ĩc":502,"á»©":503,"Ãłn":504,"Ġchá»©":505,"Ġgiá»Ŀ":506,"VÃł":507,"CÃ³":508,"Ã½":509,"anh":510,"inh":511,"áºŃn":512,"Ġná»¯a":513,"ÃĶ":514,"ĠÄĲ":515,"Ãłng":516,"Æ°Æ¡":517,"ĠcÃ²n":518,"Ã¹ng":519,"ĠH":520,"á»ĳi":521,"Ġcáº§n":522,"Ãłnh":523,"Em":524,"Ãªu":525,"ĠmÃ¬nh":526,"Ġviá»ĩc":527,"Ãºc":528,"Æ°á»Ŀ":529,"á»ĳng":530,"Ã¡t":531,"Ġthá»©":532,"áº¯c":533,"Ġy":534,"áº»":535,"Æ°á»Ŀng":536,"en":537,"áº¯t":538,"ĠCh":539,"Ġai":540,"iáº¿n":541,"CÃ´":542,"NhÆ°ng":543,"áº«":544,"Ġráº¥t":545,"Ġho":546,"á»ī":547,"á»ĳt":548,"Ġsá»±":549,"ĠÃł":550,"NÃ³":551,"ĠlÃªn":552,"ÃŃnh":553,"Ph":554,"Ìī":555,"ĠÄĳiá»ģu":556,"Ġtá»Ľi":557,"ÃŃch":558,"á»įn":559,"ĠtháºŃt":560,"Ġháº¯n":561,"ĠL":562,"Ĺi":563,"á»Ļi":564,"ĠhÆ¡n":565,"iá»ĩn":566,"eo":567,"Ã¬m":568,"ĠnhÃł":569,"Ã¡nh":570,"ĠchÆ°a":571,"ĠvÃ¬":572,"á»ĥ":573,"Ã¡u":574,"ÃĶng":575,"áº«n":576,"Ãło":577,"ĠÆ¡n":578,"Æ°Æ¡ng":579,"á»Ļc":580,"á»£":581,"Ġtá»«":582,"á»Ń":583,"Ã£y":584,"Ã¡ng":585,"á»ıi":586,"Ã´n":587,"ĠÄĳáº§u":588,"Ã¢u":589,"Ġbáº¡n":590,"am":591,"Ġbáº£":592,"ĠtÃ¬m":593,"iá»ĥu":594,"ĠnhÆ°ng":595,"Ã¡o":596,"ĠnÃªn":597,"áº¯m":598,"Ġcháº¿t":599,"Ã²ng":600,"á»ģ":601,"ĠkhÃ¡c":602,"ĠquÃ¡":603,"Ġcá»©":604,"ll":605,"Ãºt":606,"CáºŃu":607,"ia":608,"Ġcu":609,"or":610,"áº©":611,"Ġtin":612,"Tr":613,"ĠD":614,"Ġnhiá»ģu":615,"Ġnháº¥t":616,"á»§":617,"Ã¡m":618,"Äĥm":619,"ĠA":620,"ĠG":621,"Ta":622,"ĠTh":623,"áº·t":624,"ĠtrÆ°á»Ľc":625,"Ġnghe":626,"ĠÄĳá»ģ":627,"Ġmá»įi":628,"áº·p":629,"ĠÄĳá»ĵ":630,"Ġlá»Ĺi":631,"VáºŃy":632,"Náº¿u":633,"ĠtrÃªn":634,"Ġto":635,"Con":636,"Ġbao":637,"ĠcÃ´ng":638,"Ã¬n":639,"Äĥng":640,"Ġtiáº¿":641,"ÄĲÆ°á»£c":642,"Ġtá»ĳt":643,"im":644,"Ġlu":645,"ĠR":646,"Ġlo":647,"á»¥c":648,"Æ°á»Ł":649,"Ã¡n":650,"Ġqua":651,"ĠthÃłnh":652,"ung":653,"ÄĲÃ³":654,"áº¥u":655,"áºŃp":656,"Ãªm":657,"uá»ĳng":658,"Æ°á»Łng":659,"iá»ĩt":660,"Ìĥ":661,"áº³":662,"á»©c":663,"Ã¢m":664,"âĻ":665,"áº¥n":666,"Ġsá»ĳng":667,"iá»ģn":668,"Ġnáº¿u":669,"Ġhay":670,"á»Ŀi":671,"ĠyÃªu":672,"es":673,"ĠthÃŃch":674,"ĠcÃ¹ng":675,"ĠÄĳá»ĭ":676,"Æ°Æ¡i":677,"ĠmÃły":678,"ĠV":679,"á»ķi":680,"Ġláº¯m":681,"ĠcÃ¡ch":682,"Ġgáº·p":683,"LÃł":684,"Ãºp":685,"Ġtheo":686,"ĠJ":687,"Ġmá»Ľi":688,"ĠtÃªn":689,"âĻª":690,"Ġxem":691,"á»Ļng":692,"Ġmáº¹":693,"ĠngÃły":694,"ĠÄĳÃºng":695,"Ġváº«n":696,"áº·c":697,"Ġquan":698,"Ġbáº¯t":699,"ĠTÃ´i":700,"Ġgiáº¿t":701,"ĠN":702,"Ġ2":703,"is":704,"Ġthu":705,"Ġsau":706,"at":707,"iá»ĥm":708,"ĠÃ½":709,"Xin":710,"Ġngay":711,"Ġngo":712,"Ġráº±ng":713,"Ġháº¿t":714,"Sao":715,"Äĥn":716,"Ġbáº£o":717,"áº£y":718,"áº³ng":719,"Å©":720,"ĠÄĥ":721,"Ġbá»ĳ":722,"ĠÄĥn":723,"Ġgá»įi":724,"ĠlÃºc":725,"Ġtá»±":726,"Ġtay":727,"ÄĲÃ¢y":728,"ĠgiÃºp":729,"Pháº£i":730,"á»įng":731,"Ġháº£":732,"Ãºa":733,"ĠbÃł":734,"Ġhiá»ĥu":735,"Má»Ļt":736,"áº£m":737,"Ġláº¥y":738,"ÄĲá»«ng":739,"iá»ĩu":740,"ĠK":741,"Ġmáº¥t":742,"Ġ\"":743,"el":744,"Ġvá»¥":745,"Ġtao":746,"Ġtá»Ľ":747,"Ġxin":748,"00":749,"áº©n":750,"ĠnháºŃn":751,"ĠnhÃ¢n":752,"Ġcáº£m":753,"á»ģn":754,"Ã¢ng":755,"Ġxe":756,"Ġdo":757,"±c":758,"ĠKhÃ´ng":759,"Ġquy":760,"ĠnhÃ©":761,"Ġkhá»ıi":762,"Ã¡y":763,"ÄĲi":764,"et":765,"ĠnÄĥm":766,"ui":767,"Ġcuá»Ļc":768,"Ġchá»ĭ":769,"Ġláº§n":770,"ĠP":771,"ou":772,"Ġnay":773,"Ġbá»ı":774,"ĠÄĳÆ°a":775,"ĠÄĳá»ĭnh":776,"ĠAnh":777,"Há»į":778,"ĠbÃ©":779,"ĠcÆ¡":780,"Ãµ":781,"áº¡nh":782,"ck":783,"al":784,"iÃªu":785,"ĠchÃ¡u":786,"áº¯ng":787,"Ã¨":788,"Ġtáº¥t":789,"iÃª":790,"ĠnhÃ¬n":791,"Ġhai":792,"á»Ŀ":793,"as":794,"Ã³c":795,"Ġá»ķ":796,"Ġtrá»Ł":797,"Ġnhau":798,"Ġgia":799,"ĠngÃłi":800,"CÃ¡i":801,"ĠchÃŃnh":802,"ey":803,"Ġtiá»ģn":804,"Ġxuá»ĳng":805,"áº¡y":806,"ĠÄĳá»Ļng":807,"áº§m":808,"HÃ£y":809,"Ġcháº¯c":810,"Ġthá»Ŀi":811,"Ġbá»įn":812,"Ġmáº·t":813,"Ġla":814,"ĠÄĳÆ°á»Ŀng":815,"áº£n":816,"ĠgÃ¡i":817,"uá»ķi":818,"Giá»":819,"ĠluÃ´n":820,"á»ĩnh":821,"á»±c":822,"áº¡o":823,"á»ĳc":824,"uyá»ĩt":825,"Ġgiá»¯":826,"ĠtoÃłn":827,"Qu":828,"Ġlá»Ŀi":829,"«ng":830,"Ġtá»«ng":831,"ĠÄĳo":832,"ĠsÃ¡t":833,"Ġtáº¡i":834,"ĠF":835,"it":836,"Ġkho":837,"á»Łi":838,"ĠnÆ¡i":839,"Ã¡ch":840,"ĠngoÃłi":841,"ĠngÆ°Æ¡i":842,"áº¡m":843,"Ġchuy":844,"ĠchÃºt":845,"om":846,"LÃłm":847,"á»ĳn":848,"Ġtho":849,"áº¡c":850,"Ġsá»ĳ":851,"ĠnhiÃªn":852,"ĠW":853,"Ġkáº»":854,"ĠÆ¡i":855,"áº¥p":856,"ĠhÃłng":857,"Ġhá»įc":858,"ĠTr":859,"Ġchiáº¿n":860,"ua":861,"Ngh":862,"Ġco":863,"Ġgian":864,"ie":865,"Ġvá»ĭ":866,"ĠphÃ²ng":867,"áº¹p":868,"Æ°á»£ng":869,"ĠsÄ©":870,"ĠlÃ½":871,"áº¯p":872,"ĠtÃ¢m":873,"Ġchá»Ĺ":874,"Háº¯n":875,"Ġ?":876,"78":877,"Ńa":878,"Ġhá»ıi":879,"Chá»ī":880,"Ġbáº¥t":881,"Ġbáº±ng":882,"Ġnhá»Ľ":883,"«a":884,"á»ª":885,"ĠÄĳá»ģu":886,"ah":887,"Ġthá»±c":888,"Ġtrai":889,"ĳng":890,"Ġláº½":891,"ĠbÃªn":892,"us":893,"TháºŃt":894,"CÃ¡c":895,"ĠhÃ£y":896,"Ġxáº£y":897,"th":898,"Ġ3":899,"á»ĵn":900,"Ġquay":901,"Ã´m":902,"Ġkia":903,"Ġlá»Ľ":904,"Ġvui":905,"Ľi":906,"Ġ...":907,"áº£nh":908,"Ġsinh":909,"NgÆ°á»Ŀi":910,"Tá»Ľ":911,"Ġmáº¥y":912,"Ġchu":913,"Ġá»ķn":914,"á»ĵng":915,"Ġtiáº¿p":916,"Ġcá»ĳ":917,"ĠmÃ¡y":918,"ĠÄĳÃ¡nh":919,"Ġgiá»Ľi":920,"iá»ĩm":921,"Ġtráº£":922,"uá»ĳi":923,"ĠhÃłnh":924,"ĠÄĳá»ķ":925,"ĠtÃ¬nh":926,"NÃły":927,"ĠchÆ¡i":928,"ĠÄĳá»ĵng":929,"Ġgh":930,"ÄĲÃºng":931,"ÄĲá»ĥ":932,"re":933,"Ġcá»©u":934,"ĠnÆ°á»Ľc":935,"ĠvÃłi":936,"Ġbá»Ļ":937,"Ġtháº±ng":938,"ol":939,"ĠÄĳá»«ng":940,"Æ°á»Ľi":941,"Ġcha":942,"Ã¡p":943,"iáº¿m":944,"Máº¹":945,"ĠkhÃ³":946,"Ġhiá»ĩn":947,"áº¡t":948,"á»ĭch":949,"ĠtÆ°á»Łng":950,"ĠthÆ°a":951,"Ġan":952,"Ġkáº¿t":953,"Ġcháº³ng":954,"Ġvá»«a":955,"áº¡ch":956,"áº§y":957,"Ã©t":958,"iá»ħ":959,"ic":960,"Ġtrá»įng":961,"MÃły":962,"ĠcÃ¢u":963,"ĠviÃªn":964,"Äĳ":965,"ĠvÃ´":966,"CÃ²n":967,"ĠbÃ¡o":968,"ChÃło":969,"Ġsá»£":970,"Ã³ng":971,"Tháº¿":972,"Ġtra":973,"Ġgiá»ĳng":974,"ĠÄĳáº¹p":975,"VÃ¢ng":976,"24":977,"Ġtá»ĳi":978,"áº¡ng":979,"á»©ng":980,"Ġlá»Ľn":981,"Ġba":982,"ĠÄĳá»©":983,"ĠE":984,"uyá»ģn":985,"ing":986,"Giá»Ŀ":987,"ĠI":988,"ĠO":989,"Ġcáº£nh":990,"Ġbiá»ĩt":991,"á»£p":992,"iáº¿c":993,"á»Ĺi":994,"Ġtuyá»ĩt":995,"ĠlÃ¢u":996,"Ġváº»":997,"Ġká»":998,"uá»ĳc":999,"ĠthÆ°Æ¡ng":1000,"Khi":1001,"os":1002,"Nhá»¯ng":1003,"il":1004,"Táº¥t":1005,"Æ°á»Ľng":1006,"Ġko":1007,"Ġbu":1008,"ĠhÃ¬nh":1009,"ĠchÃº":1010,"Ã£i":1011,"VÃ¬":1012,"ÃĶi":1013,"Nghe":1014,"ĠthÃ´ng":1015,"ĠsÃ¡ng":1016,"ĠthÆ°á»Ŀng":1017,"á»ħ":1018,"ĠÄĳÃ¡ng":1019,"Ġca":1020,"á»ĥn":1021,"ĠâĻª":1022,"Ġhá»£p":1023,"Ġcá»Ńa":1024,"Ġtiáº¿ng":1025,"Ġváº¥n":1026,"ĠphÃŃ":1027,"Ġgiáº£i":1028,"Ã©p":1029,"Ġtu":1030,"ĠkÃ¬":1031,"ad":1032,"Tao":1033,"Ġphá»¥":1034,"ĠdÃ¹ng":1035,"ĠthÃ¢n":1036,"Táº¡i":1037,"Ai":1038,"Cáº£m":1039,"Ġcá»ķ":1040,"ĠÄĳá»Ŀi":1041,"áº£ng":1042,"ĠxÃ¡c":1043,"Ġbay":1044,"ow":1045,"ĠbÃ¢y":1046,"Ġnhá»ı":1047,"Ġnhanh":1048,"Cho":1049,"Ġcáº§u":1050,"£i":1051,"ĠÄĳá»ķi":1052,"ĠÄĳá»§":1053,"Ġvá»ĩ":1054,"á»¥ng":1055,"Ãłu":1056,"ĠtiÃªn":1057,"iáº¿p":1058,"Ġbáº£n":1059,"ot":1060,"Bá»ĳ":1061,"ĠÄĳáº¡i":1062,"áº¿p":1063,"Ġcuá»ĳi":1064,"Ġxa":1065,"ĠPh":1066,"Ġthay":1067,"Ġmang":1068,"ĠquÃ¢n":1069,"iá»ħn":1070,"ÃŃt":1071,"iá»ĩp":1072,"Ġnhá»ī":1073,"Ġáº¡":1074,"ĠphÃ¡t":1075,"ĠÄĳá»©a":1076,"ĠChÃºa":1077,"Ġngá»§":1078,"iá»ĥn":1079,"ĠthÃªm":1080,"Má»įi":1081,"ĠNh":1082,"Ġtháº§n":1083,"Ġbáº¯n":1084,"Ġtráº»":1085,"áºµ":1086,"NÃ³i":1087,"ĠÄĳiá»ĩn":1088,"Ġhá»Ļi":1089,"Ġtá»Ļi":1090,"Oh":1091,"uyÃªn":1092,"Ġ5":1093,"Ġw":1094,"and":1095,"á»Ńa":1096,"ĠÄĳá»Ļi":1097,"áºµn":1098,"oo":1099,"áº¥m":1100,"áº£o":1101,"ur":1102,"Ġchiáº¿c":1103,"ĠNg":1104,"ill":1105,"á»ŀ":1106,"ĠsÆ°":1107,"ĠbÃ¬nh":1108,"ĠnÄĥng":1109,"Ġma":1110,"ĠliÃªn":1111,"ĠtÃŃnh":1112,"ÃĢ":1113,"ĠtrÆ°á»Ŀng":1114,"ÃĿ":1115,"Ġ4":1116,"ell":1117,"Chuyá»ĩn":1118,"Ġvá»įng":1119,"ĠÄĳá»ĳi":1120,"Ġthá»§":1121,"á»±a":1122,"ĠnghÄ©a":1123,"Ġnghi":1124,"id":1125,"ĠrÃµ":1126,"Cá»©":1127,"Ġxu":1128,"ĠhoÃłn":1129,"Ġquyáº¿t":1130,"le":1131,"Ġchá»ĭu":1132,"Ġgáº§n":1133,"ĠY":1134,"ĠhÃ´m":1135,"ĠÄĳáº¥t":1136,"ĠÄĳÃªm":1137,"Ġcháº¡y":1138,"ĠchÃło":1139,"ChÃ¡u":1140,"ĠváºŃt":1141,"Ġchá»Ŀ":1142,"ThÃ´i":1143,"Ġchuyá»ĥn":1144,"Ġbá»ĩnh":1145,"Ġchá»©ng":1146,"ĠsÃºng":1147,"Ġcao":1148,"Bá»įn":1149,"av":1150,"ob":1151,"ed":1152,"Ġ.":1153,"ĠÄĳáº¥u":1154,"Ġchá»įn":1155,"ĠÄĳÃ¬nh":1156,"Ġ!":1157,"ĠgiÃ¡":1158,"Ġbá»Łi":1159,"Ġmáº¡nh":1160,"Ġthá»ĳng":1161,"Ġtá»Ń":1162,"ĠdÆ°á»Ľi":1163,"Ã¹a":1164,"ĠsÃłng":1165,"ĠÄĳiÃªn":1166,"BÃł":1167,"Ġsáº¯p":1168,"Ġchá»§":1169,"Ġmáº¯t":1170,"ĠlÃ²ng":1171,"Cháº¯c":1172,"Ġ6":1173,".\"":1174,"Ġkiáº¿m":1175,"ĠtrÆ°á»Łng":1176,"Gi":1177,"Ä©nh":1178,"un":1179,"Ġdá»¥ng":1180,"ĠÄĳa":1181,"ĠÄĳÃłn":1182,"ĠtáºŃp":1183,"iáº¿u":1184,"ĠquÃ¡i":1185,"ter":1186,"Ġdá»±":1187,"Ġáº£nh":1188,"ĠphÃºt":1189,"Ġlá»±c":1190,"ĠthÆ°":1191,"Ã£o":1192,"ĠbÃ¡c":1193,"Ġthá»©c":1194,"ĠphÃŃa":1195,"NhÃ¬n":1196,"eah":1197,"Ġkhu":1198,"Ġngu":1199,"Ġkáº¿":1200,"ĠCÃ³":1201,"Ġkiá»ĥm":1202,"Ġcháº¯n":1203,"Ġtrá»Ŀi":1204,"á»Ĵ":1205,"áº·ng":1206,"Ġsai":1207,")}":1208,"ĠÆ°":1209,"Ġloáº¡i":1210,"Ġxong":1211,"Ġbiáº¿n":1212,"ra":1213,"Rá»ĵi":1214,"Ġuá»ĳng":1215,"Ġpháº§n":1216,"ĠÄĳiá»ĥm":1217,"Ġhá»Ļ":1218,"ĠkÃ¬a":1219,"Ġngá»ĵi":1220,"ĠtrÃŃ":1221,"á»Ĺ":1222,"Ġsáºµn":1223,"Ġtá»ķ":1224,"ig":1225,"Ġduy":1226,"Ġká»ĥ":1227,"ry":1228,"ĠEm":1229,"Ġthá»Ń":1230,"ĠtÃłu":1231,"Ġminh":1232,"Ã©o":1233,"á»¹":1234,"NgÆ°Æ¡i":1235,"Ġ#":1236,"ĠSt":1237,"CÃ¡m":1238,"Ġmá»«ng":1239,"ĠkhÃŃ":1240,"Ġthuá»ĳc":1241,"Ġtrung":1242,"Ġdá»ħ":1243,"á»©a":1244,"Ġsá»©c":1245,"ĠÄĳau":1246,"Tá»ĳt":1247,"ke":1248,"Ġquáº£":1249,"oh":1250,"Ġtá»ĩ":1251,"Cha":1252,"Ġthá»ĭ":1253,"Ġphá»ĳ":1254,"ĠhÆ¡i":1255,"Ġhiá»ĩu":1256,"ĠphÃ©p":1257,"áºŃm":1258,"áº±m":1259,"Ġmu":1260,"Ġquyá»ģn":1261,"ĠchÃ¢n":1262,"Ġhá»ĩ":1263,"Ġná»ķi":1264,"Ġmá»Ł":1265,"Ġtá»¥c":1266,"Ãºi":1267,"Ġtáº¡o":1268,"ĠÄĳá»©ng":1269,"ĠÄĳá»Ļ":1270,"ĠÄĳá»£i":1271,"Ã²a":1272,"ĠÄĳÃ´":1273,"ĠÃŃt":1274,"Ġtuáº§n":1275,"ĠChÃºng":1276,"Trong":1277,"ĠquÃªn":1278,"oi":1279,"tÃ´i":1280,"Ġmua":1281,"kh":1282,"Ġhiá»ĥm":1283,"ir":1284,"Ġhuy":1285,"Ġdiá»ħn":1286,"ĠtrÃ²":1287,"ĠphÃ¡":1288,"ĠtÃłi":1289,"ĠvÅ©":1290,"Ho":1291,"BÃ¢y":1292,"ĠCÃ´":1293,"Ġ10":1294,"ĠnhiÃªu":1295,"Ġkhá»ĳn":1296,"Ġkhiáº¿n":1297,"Ġmay":1298,"ran":1299,"Ġphá»¥c":1300,"NhÆ°":1301,"Ġdáº«n":1302,"ĠyÃªn":1303,"Ġká»³":1304,"Ġna":1305,"Ġtuá»ķi":1306,"Ġkinh":1307,"ĠtrÃ´ng":1308,"ĠchÃŃ":1309,"ĠtiÃªu":1310,"Ráº¥t":1311,"ĠdÃ¹":1312,"ĠdÃ¢n":1313,"Ġháº¡":1314,"ĠtrÃ¡i":1315,"Ġmai":1316,"Ġvá»£":1317,"ag":1318,"ĠthÃ¡ng":1319,"Ġno":1320,"Nhanh":1321,"ĠgÃ£":1322,"Ã³a":1323,"ĠthÃºc":1324,"Ã³n":1325,"ĠÄĳáº·t":1326,"á»Ľm":1327,"ĠquÃ½":1328,"ĠcÃ¡":1329,"ĠkhÃ¡ch":1330,"27":1331,"Ġbuá»ķi":1332,"arl":1333,"á»¥i":1334,"Ġmáº¡ng":1335,"Ġthoáº¡i":1336,"ĠtÆ°":1337,"Ġtranh":1338,"Ġpháº¡m":1339,"ĠhÃ´n":1340,"79":1341,"ĠmÃ¡u":1342,"ĠbÃłi":1343,"ĠthÃº":1344,"Ġtiá»ĩt":1345,"ÄĲiá»ģu":1346,"ChÃºa":1347,"Ġf":1348,"Ġtinh":1349,"Ã³m":1350,"ĠÄĳáº·c":1351,"Ġyou":1352,"Ġso":1353,"ĠtÃ¹":1354,"ĠgÃ¢y":1355,"Ġchi":1356,"ĠÄĳÆ¡n":1357,"ĠHo":1358,"ĠthoÃ¡t":1359,"ĠtrÃ¬nh":1360,"ĠchÃ³":1361,"Ġtháº¯ng":1362,"Ġxáº¥u":1363,"Ġse":1364,"Æ°á»£t":1365,"ick":1366,"á»Ļn":1367,"ĠsÃ¡ch":1368,"ĠtÆ°á»£ng":1369,"á»·":1370,"ĠÄĲÆ°á»£c":1371,"ĠMar":1372,"Ġnhiá»ĩm":1373,"ĠbÃłn":1374,"ack":1375,"Ġtáº¥n":1376,"Ġhoáº·c":1377,"Ġdanh":1378,"Ġxuáº¥t":1379,"ĠcÃ¢y":1380,"Ã¹i":1381,"Ġp":1382,"Ġtiáº¿n":1383,"ÄĲÃ£":1384,"Ġva":1385,"Ġláº¡c":1386,"á»§ng":1387,"ĠthÃª":1388,"á»¯a":1389,"um":1390,"ton":1391,"Ġcáº¥p":1392,"Ġhoáº¡ch":1393,"ĠmáºŃt":1394,"ĠluáºŃt":1395,"ev":1396,"ıi":1397,"Ġxá»Ń":1398,"ro":1399,"ĠCon":1400,"ĠtÃŃ":1401,"ĠÃ¡o":1402,"TÃªn":1403,"MÃ¬nh":1404,"ce":1405,"ard":1406,"uá»ĳt":1407,"Ġrá»Ŀi":1408,"á»Ńi":1409,"Ġcoi":1410,"Ġvá»Ŀi":1411,"Ġthi":1412,"nd":1413,"Ġo":1414,"Ġlá»ĩnh":1415,"áº¹n":1416,"10":1417,"Ġthiáº¿t":1418,"iÃªng":1419,"Ġthe":1420,"á»įc":1421,"Ġmáº·c":1422,"Ġdá»ĳi":1423,"Ġnguy":1424,"Chá»ĭ":1425,"Ġháº¡i":1426,"ĠÄĳÃª":1427,"ÄĲÆ°a":1428,"Ġgiáº£":1429,"ĠbÃ¡n":1430,"ĠtÄ©nh":1431,"ĠQu":1432,"Ġsá»Ń":1433,"ĠÄĳÃ´i":1434,"ĠÃ":1435,"Ãłm":1436,"NgÃłi":1437,"ĠthuáºŃt":1438,"ĠÄĳoÃ¡n":1439,"vÃł":1440,"Ġhá»©a":1441,"ich":1442,"uyáº¿t":1443,"son":1444,"Ġpha":1445,"Ġgiá»¯a":1446,"kay":1447,"Ġtrá»ĭ":1448,"á»§y":1449,"ĠVÃ¢ng":1450,"NG":1451,"Ġsá»Ľm":1452,"Ġtim":1453,"ine":1454,"Ġmá»Ĺi":1455,"Sau":1456,"ĠkhÃ¡":1457,"Ġ,":1458,"ĠhÆ°á»Ľng":1459,"Hay":1460,"ĠlÆ°á»£ng":1461,"ĠmÆ¡":1462,"Kho":1463,"Ġdi":1464,"Ġpháº£n":1465,"ĠmÃ´":1466,"Ġtrá»ĳn":1467,"įc":1468,"ĠÃĶng":1469,"Ġ-":1470,"Ġtáº¿":1471,"ĠtháºŃn":1472,"Ġviáº¿t":1473,"....":1474,"Ġrá»ĳi":1475,"ĠÄĳá»ĭa":1476,"á»ķng":1477,"ĠSao":1478,"Ġchuáº©n":1479,"Ġngon":1480,"ĠchÃłng":1481,"Ġliá»ĩu":1482,"GÃ¬":1483,"ĠcÃ¡nh":1484,"ta":1485,"Yeah":1486,"Sáº½":1487,"Æ°á»£u":1488,"ĠChÃło":1489,"ĠláºŃp":1490,"ĠÄĳÃ¡":1491,"Ġnghá»ī":1492,"Æ°u":1493,"Ġnáº¡n":1494,";#":1495,"Ġdáº¥u":1496,"ĠnhÃ³c":1497,"Ġgiao":1498,"Ġngá»ĳc":1499,"Ġhá»ģ":1500,"ĠvÃ²ng":1501,"ChÃº":1502,"ĠbÃ³ng":1503,"Ġvi":1504,"ann":1505,"Ġ7":1506,"ĠchÃºa":1507,"ĠPháº£i":1508,"60":1509,"ff":1510,"Ġhá»ĵ":1511,"ĠtÃ¡c":1512,"ĠdáºŃy":1513,"Ġdá»«ng":1514,"ĠbÄĥng":1515,"Hai":1516,"Ġviá»ĩn":1517,"ĠphÃ¡p":1518,"ĠÄĳá»įc":1519,"Ġda":1520,"Ġtham":1521,"á»ıng":1522,"ĠcÄĥn":1523,"Ġláº¡":1524,"Ġgiá»ıi":1525,"Ġ8":1526,"ab":1527,"244":1528,"Ġnghiá»ĩp":1529,"ĠgiÃł":1530,"ĠX":1531,"Ġphim":1532,"ohn":1533,"all":1534,"000":1535,"á»«a":1536,"ĠbÃŃ":1537,"Ġchá»¯":1538,"ĠMá»¹":1539,"ri":1540,"ĠcÃłng":1541,"á»£i":1542,"ĠCáºŃu":1543,"á»ıe":1544,"ĠÃ¡n":1545,"ÄĲáº¿n":1546,"Ġnghiá»ĩm":1547,"ĠgiÃ¡c":1548,"ĠbÆ°á»Ľc":1549,"Ġtá»©c":1550,"áº·n":1551,"Ġmá»¥c":1552,"ĠcÆ°á»Ŀi":1553,"\".":1554,"khÃ´ng":1555,"ew":1556,"ĠÄĳá»Ļc":1557,"Ġnáº±m":1558,"ĠrÆ°á»£u":1559,"Ġsáº¿p":1560,"ĠcÃ¡o":1561,"ThÆ°a":1562,"áº©m":1563,"ĠÄĳáº§y":1564,"273":1565,"Ã³i":1566,"ĠÄĳÆ°Æ¡":1567,"Ġhy":1568,"ul":1569,"Ġtrang":1570,"Ġkiá»ĥu":1571,"ĠGi":1572,"áº¡p":1573,"Ġthanh":1574,"Ġháº¡nh":1575,"ĠSh":1576,"ĠthÃ¹":1577,"Æ°á»¡":1578,"Tá»«":1579,"Ã¨n":1580,"Ã³t":1581,"Cháº¿t":1582,"Ġquanh":1583,"Ġkiáº¿p":1584,"Bá»Łi":1585,"Báº¡n":1586,"Ġsuy":1587,"ee":1588,"Ġtháº¥t":1589,"Ra":1590,"Ġkhá»§ng":1591,"ĠÄĳÃ¹a":1592,"DÃ¹":1593,"Ġmong":1594,"Ġkháº£":1595,"Ġmá»Ŀi":1596,"Ġtriá»ĩu":1597,"ĠÄĳÃ¡m":1598,"ĠÄĳÃ³ng":1599,"iáº¿ng":1600,"Ġlá»Ńa":1601,"ĠQ":1602,"Ġgá»Ńi":1603,"Ġngá»Ŀ":1604,"ĠdÃłi":1605,"Chu":1606,"ĠmÃ£i":1607,"tr":1608,"ĠrÃ´":1609,"á»īnh":1610,"Ġdá»ĭch":1611,"Ġmau":1612,"Ġhoáº¡t":1613,"CÅ©ng":1614,"ĠCÃ¡i":1615,"Ġná»ķ":1616,"ĠdÃłnh":1617,"ĠlÃ¡i":1618,"ĠriÃªng":1619,"ĠhoÃłng":1620,"Ġá»ª":1621,"ho":1622,"Ġtiáº¿c":1623,"ChÃŃnh":1624,"Ġmáº¯n":1625,"ĠvÄĥn":1626,"Ġcá»¥":1627,"ĠbÃ¡nh":1628,"ĠlÃ£":1629,"ĠlÅ©":1630,"Ġbiá»ĥn":1631,"Ġsuá»ĳt":1632,"Vá»Ľi":1633,"224":1634,"ĠsÆ¡":1635,"Hey":1636,"ris":1637,"Ġkhá»ıe":1638,"Ġchá»©c":1639,"Ġ9":1640,"ĠmÃ³n":1641,"Chá»Ŀ":1642,"Ġthuá»Ļc":1643,"Ġgáº¯ng":1644,"ĠtráºŃn":1645,"iv":1646,"ĠVÃł":1647,"Ġtháº³ng":1648,"Ġnháº£y":1649,"áº³n":1650,"ĠÄĳá»¡":1651,"Ġquá»ĳc":1652,"Ġchá»ĳng":1653,"Ġly":1654,"ap":1655,"áº©u":1656,"Ġtha":1657,"ĠhÃ³a":1658,"Ngay":1659,"ĠnháºŃp":1660,"Ã©m":1661,"ĠtÆ°Æ¡ng":1662,"Ġquen":1663,"Tuyá»ĩt":1664,"ĠÄĳáº¡o":1665,"ĠmÃłu":1666,"dy":1667,"'s":1668,"ĠgiÃ¡o":1669,"áº«u":1670,"ĠcÅ©":1671,"Ġlá»ĭch":1672,"á»Ķ":1673,"ĠngÄĥn":1674,"ĠAl":1675,"enn":1676,"Ġdáº¡y":1677,"Ġbuá»ĵn":1678,"ac":1679,"Ġhá»ĵi":1680,"Cháº³ng":1681,"ĠU":1682,"Láº¡i":1683,"Ġu":1684,"ĠghÃ©t":1685,"ak":1686,"Ġkiáº¿n":1687,"Ġcháº¥t":1688,"Ġthuyá»ģn":1689,"Æ°á»Ľp":1690,"Ãµi":1691,"Dá»«ng":1692,"ĠkhÃ³a":1693,"ĠÄĳáº¡n":1694,"Ġhoa":1695,"ark":1696,"784":1697,"ĠÄĳuá»ķi":1698,"LÃºc":1699,"Ġbá»©c":1700,"Ġláº¯ng":1701,"ĠthiÃªn":1702,"Ã¨o":1703,"se":1704,"Ġphi":1705,"ĠtrÃ¡ch":1706,"NÃªn":1707,"Ġá»ķng":1708,"25":1709,"ĠbiÃª":1710,"Ġhá»§y":1711,"Ġbinh":1712,"Ġbá»¯a":1713,"Ġbi":1714,"Ġtrá»£":1715,"ĠngÆ°Æ¡":1716,"Ġlá»£i":1717,"Ġchá»«ng":1718,"Ġvua":1719,"ĠlÃŃnh":1720,"te":1721,"Ġkhoáº£ng":1722,"ĠÄĲÃºng":1723,"Ġban":1724,"HÃ´m":1725,"Okay":1726,"Ġbáº¡i":1727,"Ġha":1728,"ChÃºc":1729,"Ġláº§m":1730,"Ġchia":1731,"ĠdÃ¢y":1732,"ĠnguyÃªn":1733,"Ġcháº¿":1734,"ĠNÃ³":1735,"ĠkÃ©o":1736,"ĠcÃ¢":1737,"Máº¥y":1738,"Ġtruyá»ģn":1739,"Cáº£":1740,"Coi":1741,"Ġghi":1742,"Ã£n":1743,"ĠÄĳáº£m":1744,"Ġháº¹n":1745,"--":1746,"rank":1747,"ĠÄĲáº¡i":1748,"ĠÄĳem":1749,"ĠrÃłng":1750,"ĠkÃ½":1751,"ĠVáºŃy":1752,"Ġlá»±a":1753,"ĠvÃ¢":1754,"áº©y":1755,"ĠtÃ¡":1756,"Tháº±ng":1757,"ĠÄĳen":1758,"ĠcÆ°á»Ľi":1759,"ĠthÃ¢":1760,"Ġcá»Ń":1761,"ĠtrÃ¡nh":1762,"NÃło":1763,"ĠvÃłng":1764,"ut":1765,"lo":1766,"man":1767,"VÃło":1768,"Ġngá»±a":1769,"Ġphiá»ģn":1770,"Ġchung":1771,"Ġchá»ĵng":1772,"ĠphÃ¢n":1773,"ĠngÃ´i":1774,"á»§a":1775,"á»Ļm":1776,"1060":1777,"ĠcÆ°á»Ľp":1778,"Ġcháº£":1779,"Ġsá»Ł":1780,"Ġnghá»ĭ":1781,"ĠXin":1782,"Ġmá»ĳi":1783,"Ġcáº¯t":1784,"FF":1785,"á»ıa":1786,"ĠÃ¢m":1787,"Ġ20":1788,"ĠdÃ¡m":1789,"ChÆ°a":1790,"Ġlinh":1791,"Ġti":1792,"Ġcháº¥p":1793,"Ġlai":1794,"igh":1795,"Láº§n":1796,"ĠBr":1797,"Xem":1798,"eb":1799,"Ġná»Ńa":1800,"Ġtiá»ĩc":1801,"ent":1802,"23":1803,"Ġtai":1804,"ip":1805,"Ġtrá»«":1806,"ĠnÃłng":1807,"Ãºy":1808,"Ġváº¿t":1809,"ĠKh":1810,"Ġquáº§n":1811,"ĠtÃŃch":1812,"MÃł":1813,"Ġtháº§y":1814,"uÃ´i":1815,"ĠÄĲá»«ng":1816,"ĠrÆ¡i":1817,"ian":1818,"ĠvÆ°á»£t":1819,"Ġnháº¯c":1820,"ĠphÆ°Æ¡ng":1821,"ThÃ¬":1822,"á»¡":1823,"Khoan":1824,"Viá»ĩc":1825,"ĠtÃ²a":1826,"ĠkhÄĥn":1827,"ĠhÃ¡t":1828,"ĠTrung":1829,"Theo":1830,"arry":1831,"Ġlá»ĩ":1832,"Ġthuyáº¿t":1833,"ath":1834,"ĠgiÃ¢y":1835,"áº¥c":1836,"ĠtáºŃn":1837,"Ġtá»¥i":1838,"ĠÄĳÃ´ng":1839,"mm":1840,"ud":1841,"ĠsÄĥn":1842,"ĠÄĲi":1843,"Bá»ı":1844,"ĠthuáºŃn":1845,"Ġcáº§m":1846,"Ġháº³n":1847,"ĠvÃ¹ng":1848,"ĠTa":1849,"Ba":1850,"ĠkÃŃch":1851,"ĠcÆ°":1852,"ĠÆ¡":1853,"od":1854,"my":1855,"oy":1856,"NgÃły":1857,"eg":1858,"ĠCha":1859,"ĠsoÃ¡t":1860,"ĠnghiÃªm":1861,"ess":1862,"Ġráº¯c":1863,"aw":1864,"Ġtiáº¿t":1865,"ty":1866,"Ġdá»¯":1867,"ĠÄĲá»©c":1868,"Ġbuá»Ļc":1869,"Ġhu":1870,"ĠJohn":1871,"ĠÄĳoÃłn":1872,"ĠnÃ³ng":1873,"787":1874,"ĠphÃºc":1875,"iá»ĩng":1876,"ers":1877,"ĠNhÆ°ng":1878,"ĠmÃ¡i":1879,"Ġthá»ĭt":1880,"Báº¯t":1881,"Ã¬a":1882,"ĠvÆ¡":1883,"ĠNgÆ°á»Ŀi":1884,"ĠnÃ¨":1885,"nhÆ°ng":1886,"Ġtrá»Ļm":1887,"Sá»±":1888,"BÃ¡c":1889,"Ġnháº¡c":1890,"Ġngoáº¡i":1891,"Ġyáº¿u":1892,"Ġchuyáº¿n":1893,"Ġnhá»Ŀ":1894,"ĠdÃµi":1895,"Ġty":1896,"Ġthá»ı":1897,"Ġsa":1898,"ord":1899,"iá»ģm":1900,"ĠgiáºŃn":1901,"Ġá»©ng":1902,"Ġdu":1903,"Ġ(":1904,"ion":1905,"ĠMáº¹":1906,"Ġsu":1907,"ĠphÃ¹":1908,"Ġmiá»ĩng":1909,"ĠÄĲÃ³":1910,"ÄĲá»ĵ":1911,"ĠQuá»ĳc":1912,"Ġsáº£n":1913,"Ġmi":1914,"ĠchÄĥm":1915,"ĠxÃ©t":1916,"ĠÆ°á»Ľc":1917,"Ġgiáº¥y":1918,"ĠCl":1919,"Ìģ.":1920,"ĠhÆ°á»Łng":1921,"ÄĲáº¡i":1922,"Ġin":1923,"Ġláº¡nh":1924,"Ġquá»·":1925,"ĠtÄĥng":1926,"{\\":1927,"Ġmá»©c":1928,"uá»Ļc":1929,"ĠÄĳáº¿":1930,"Ä©a":1931,"ĠÃŃch":1932,"ov":1933,"cH":1934,"ne":1935,"ĠlÃŃ":1936,"Thá»©":1937,"Ġlá»ħ":1938,"ĠnhÃ³m":1939,"ond":1940,"Æ¯":1941,"Ġ19":1942,"Ġsá»Ńa":1943,"ler":1944,"ĠsÃ¢u":1945,"ĠtÃºi":1946,"ĠZ":1947,"ĠcÃł":1948,"Vá»ģ":1949,"Ġnha":1950,"ĠhÃ¹ng":1951,"ĠAn":1952,"Ġbom":1953,"Ġdiá»ĩn":1954,"Ġphá»§":1955,"ach":1956,"Ġthiáº¿u":1957,"Tháº¥y":1958,"Ġdá»ĭ":1959,"TrÆ°á»Ľc":1960,"TrÃ´ng":1961,"ĠÄĳáº±ng":1962,"Ġlá»«a":1963,"Mau":1964,"ĠnháºŃt":1965,"Uh":1966,"ĠtÃŃn":1967,"ĠmÅ©":1968,"Lu":1969,"ĠcÆ°ng":1970,"Ġdiá»ĩt":1971,"Ã²i":1972,"Ġkhai":1973,"ĠtÃ³c":1974,"ara":1975,"Ġloáº¡n":1976,"ÄĲá»©ng":1977,"Ġtá»īnh":1978,"Ġme":1979,"Ġluyá»ĩn":1980,"ĠxÃºc":1981,"ÄĲá»£i":1982,"ÃĬ":1983,"Ġtháº£":1984,"ĠmÃ£":1985,"la":1986,"ĠlÃ£o":1987,"Ġcáº¡nh":1988,"á»³":1989,"Ġnáº·ng":1990,"Ġgiáº£n":1991,"ber":1992,"Ġchá»¯a":1993,"to":1994,"Ġlá»ĳi":1995,"Ġvá»±c":1996,"ik":1997,"Ġcung":1998,"ĠÄĳáº£o":1999,"ood":2000,"Ġhá»ĵn":2001,"Ãģ":2002,"ĠÃ¡c":2003,"Ġlá»Ļ":2004,"ĠÄĳá»Ļt":2005,"Ġthá»ģ":2006,"sc":2007,"Ġká»¹":2008,"ĠphÃ³ng":2009,"ĠsÃ³c":2010,"ĠTháºŃt":2011,"Táº¡m":2012,"io":2013,"ere":2014,"Ġsáº¡ch":2015,"Ġcáº©n":2016,"á»ľ":2017,"ight":2018,"Ġbiá»ĥu":2019,"ĠbáºŃn":2020,"Ġsang":2021,"Ġ12":2022,"ĠcÃ¡m":2023,"áº§ng":2024,"Ġcuá»ĳn":2025,"á»ĵm":2026,"ĠAi":2027,"ĠsÃ³t":2028,"32":2029,"ĠthÄĥm":2030,"chÃºng":2031,"TrÃ¡nh":2032,"Ġtá»ĵi":2033,"ĠchuyÃªn":2034,"ĠÄĳÃ³n":2035,"á»ĩt":2036,"og":2037,"Ġtáº¥m":2038,"ĠhÃ²a":2039,"Ġhá»ıng":2040,"ĠNew":2041,"ĠÃ¢":2042,"Ġná»Ĺi":2043,"ĠnÃ£o":2044,"Ġgiáº¥u":2045,"ash":2046,"Ġlá»Ľp":2047,"ĠlÃłnh":2048,"ly":2049,"end":2050,"Ġcá»±c":2051,"Ġxáº¿p":2052,"ĠÄĳá»ı":2053,"ĠJo":2054,"ĠÄĳoáº¡n":2055,"Ġtráº¡i":2056,"co":2057,"Hoáº·c":2058,"á»įa":2059,"ĠcÆ¡n":2060,"ge":2061,"Ġláº·ng":2062,"ĠtháºŃm":2063,"ĠLu":2064,"ĠthuÃª":2065,"cÃ³":2066,"sh":2067,"Ġtráº¯ng":2068,"ĠloÃłi":2069,"ĠháºŃu":2070,"ĠLÃłm":2071,"ĠMá»Ļt":2072,"Ġkáº¹":2073,"Ġnguyá»ĩn":2074,"Tá»Ľi":2075,"ĠkÃŃ":2076,"Muá»ĳn":2077,"Ġkháº©u":2078,"ĠnÃºi":2079,"ĠAr":2080,"by":2081,"ĠFrank":2082,"Ġháº¡n":2083,"ley":2084,"ĠÃ¡nh":2085,"art":2086,"Ãį":2087,"Ġkháº¯p":2088,"Ġxanh":2089,"Ġ30":2090,"Giá»¯":2091,"Ġthá»Ł":2092,"Ġdá»±ng":2093,"Cháº¡y":2094,"Ġná»£":2095,"Ġnháº¯n":2096,"CÃ´ng":2097,"NhÃł":2098,"gh":2099,"Ġmáº¯c":2100,"ith":2101,"ĠlÃ¡":2102,"ĠtÆ°á»Ŀng":2103,"Sh":2104,"Ġhá»Ļp":2105,"ec":2106,"Ġim":2107,"ĠchÆ°Æ¡ng":2108,"Ġthá»ıa":2109,"á»¯u":2110,"Ġ15":2111,"Ġtá»ĵn":2112,"Ġkiá»ĩn":2113,"BÃ¬nh":2114,"Ġhi":2115,"Ġcan":2116,"ex":2117,"Trá»Ŀi":2118,"ĠkÃŃnh":2119,"ĠÄĳÃŃch":2120,"Cá»ĳ":2121,"Váº«n":2122,"Ġhuynh":2123,"ĠSam":2124,"ĠBáº¯c":2125,"Ġtruy":2126,"Ġchim":2127,"ĠNam":2128,"Thá»±c":2129,"ĠTÃ¢y":2130,"ĠlÃ£nh":2131,"ub":2132,"Ġháº£o":2133,"Giá»ĳng":2134,"Ġsay":2135,"Ġtáº¯m":2136,"789":2137,"á»ĭp":2138,"ĠJack":2139,"ĠsÃ¢n":2140,"Ġtrá»±c":2141,"Ġtáº§m":2142,"Ġthá»«a":2143,"ĠCáº£m":2144,"Ġcá»Ļng":2145,"ave":2146,"ĠÄĳá»ĳng":2147,"Ġtá»ķng":2148,"Tin":2149,"Ġcháº¡m":2150,"ĠquÃł":2151,"Ġon":2152,"Ġof":2153,"ike":2154,"Ġngáº¡c":2155,"ĠquÃ¡n":2156,"RÃµ":2157,"Ġhá»¯u":2158,"Ġmuá»Ļn":2159,"TÃ¬m":2160,"ĠtÃłn":2161,"791":2162,"ĠrÃºt":2163,"Ġtuy":2164,"ĠxÃ¢y":2165,"ĠpháºŃn":2166,"ina":2167,"ork":2168,"Láº¥y":2169,"Ġbáº¡c":2170,"Ġkhoa":2171,"ĠÄĳáºŃp":2172,"Ġgiáº¥c":2173,"ĠNgÃłi":2174,"tor":2175,"ĠgiÆ°á»Ŀng":2176,"ĠmÃ¹i":2177,"á»įt":2178,"243":2179,"ĠtÆ°á»Ľng":2180,"ĠhÃºt":2181,"Cá»©u":2182,"Ġxinh":2183,"Ġnháº«n":2184,"Æ°á»¡ng":2185,"Ġthua":2186,"Ġquáº£n":2187,"ĠtÃ´n":2188,"Ġchá»¥":2189,"Ġáº©n":2190,"Ġthá»§y":2191,"ĠmÃª":2192,"hoa":2193,"Ġtáº§ng":2194,"per":2195,"ĠTháº¿":2196,"ĠtÃ´":2197,"ĠthÆ¡":2198,"790":2199,"Ġcháº·t":2200,"ĠGÃ¬":2201,"ĠngÃłn":2202,"ant":2203,"ome":2204,"Cuá»Ļc":2205,"Ġcháº·n":2206,"ĠlÆ°u":2207,"ĠphÃª":2208,"Ġrá»«ng":2209,"Ġnháº§m":2210,"Ġthang":2211,"788":2212,"ĠdÃŃnh":2213,"ock":2214,"eter":2215,"ĠhÃło":2216,"ÄĲang":2217,"ĠÄĳá»ĩ":2218,"Ġbo":2219,"Ġkháº¯c":2220,"432":2221,"Ġtá»Ļc":2222,"Æ°á»¡i":2223,"Ġsá»ķ":2224,"Ġtáº¡m":2225,"ok":2226,"na":2227,"Tá»ĳi":2228,"ĠnuÃ´i":2229,"Quay":2230,"ĠÄĳÃ³i":2231,"Ġtráº¥n":2232,"ĠSc":2233,"Mar":2234,"Ġdá»įn":2235,"ax":2236,"Ġe":2237,"ean":2238,"áº«y":2239,"ind":2240,"áº¢":2241,"ĠmuÃ´":2242,"ĠlÆ°ng":2243,"Ġtá»Ŀ":2244,"ĠÄĲÃ¢y":2245,"ĠdÃłng":2246,"ĠÃ¡p":2247,"ĠtÃºc":2248,"ĠkhÃ³c":2249,"if":2250,"Ġtung":2251,"Ġbe":2252,"ĠluáºŃn":2253,"Ah":2254,"qu":2255,"Ġná»Ļi":2256,"áº·m":2257,"Báº£o":2258,"Báº¥t":2259,"Cáº£nh":2260,"Ġnghá»ĩ":2261,"Ġkhá»ķ":2262,"ĠÄĳÃłi":2263,"Ġnguá»ĵn":2264,"Ġngá»«ng":2265,"Ġdá»įa":2266,"ve":2267,"Biáº¿t":2268,"ĠAnd":2269,"ĠvÃª":2270,"No":2271,"ĠTá»ķng":2272,"eth":2273,"Ġxá»©ng":2274,"Ġphu":2275,"ĠváºŃn":2276,"Ġtiá»ĥu":2277,"ĠngÃ¢n":2278,"Ġit":2279,"oll":2280,"Ġháº§m":2281,"ael":2282,"ĠchÆ°":2283,"Ġvá»¡":2284,"á»©t":2285,"ĠÄĲá»ĥ":2286,"Ġtráº¡ng":2287,"Ġdá»¥c":2288,"ĠÃºy":2289,"ĠÄĳe":2290,"Ġnáº¯m":2291,"iz":2292,"Tiáº¿p":2293,"Ġkhiá»ĥn":2294,"ĠsiÃªu":2295,"ĠÃ¡":2296,"ĠgiÆ¡":2297,"ans":2298,"Ġhoang":2299,"Al":2300,"iel":2301,"Ġtáº¯t":2302,"Báº¯n":2303,"Ġkhá»Łi":2304,"Ġká»·":2305,"Ġmá»ĩnh":2306,"ins":2307,"Ġxo":2308,"An":2309,"'t":2310,"ĠchÃ¡y":2311,"Ġtráº£i":2312,"lex":2313,"Ġmáº«u":2314,"Ġand":2315,"Ġhá»Ĺ":2316,"Ġphong":2317,"ĠmÃ¹a":2318,"Ġga":2319,"įng":2320,"ĠÄĳáº©y":2321,"Ko":2322,"LÃªn":2323,"Ġtrá»ħ":2324,"Ġtá»ĳc":2325,"oss":2326,"ĠÄĳÃ¨n":2327,"ĠdÃ²ng":2328,"12":2329,"Ġtriá»ĥn":2330,"ĠCar":2331,"Ġngá»¥c":2332,"ĠGr":2333,"Ã¹m":2334,"ĠÃ¡m":2335,"Ã¨m":2336,"Ġche":2337,"Ngá»ĵi":2338,"Gá»įi":2339,"á»Ľt":2340,"ĠPhÃ¡p":2341,"Má»Ĺi":2342,"Ġbá»Ļi":2343,"QuÃ¡":2344,"ĠlÃ´":2345,"ass":2346,"fsc":2347,"ĠTáº¡i":2348,"ĠNga":2349,"ÄĤ":2350,"ĠchÃ¬a":2351,"Ġgiáº£m":2352,"Ġmá»ĩt":2353,"ane":2354,"ĠOh":2355,"Tiáº¿n":2356,"Ġninh":2357,"con":2358,"ĠchÃ¡n":2359,"ĠHoÃłng":2360,"Má»Ł":2361,"Ġbáº§u":2362,"ett":2363,"Ã©n":2364,"ĠCÃ¡m":2365,"ĠHoa":2366,"ĠGiá»":2367,"Ġcá»¥c":2368,"Ġtiá»ĩn":2369,"ĠnÃ©m":2370,"Ġhá»©ng":2371,"ĠYork":2372,"ĠnghiÃªn":2373,"Ġdao":2374,"Ġdáº·m":2375,"Ġtrá»¥":2376,"Ġchá»¥p":2377,"ank":2378,"ĠHá»į":2379,"Ġháº§u":2380,"Ngo":2381,"ĠsÃ´ng":2382,"ĠthÃ¡i":2383,"ĠchÃºc":2384,"á»Ķn":2385,"Ġhá»ķ":2386,"ust":2387,"Ġbang":2388,"Ġcháº£y":2389,"ĠBá»ĳ":2390,"ĠNÃły":2391,"ate":2392,"nie":2393,"uh":2394,"Ġsáº¯c":2395,"Ġxung":2396,"cÃ´":2397,"Ġtáº·ng":2398,"ice":2399,"ĠbÃ²":2400,"Ġvinh":2401,"ĠkÃªu":2402,"ChÃł":2403,"ld":2404,"Ġtá»ķn":2405,"Ã½t":2406,"Tiáº¿ng":2407,"lÃł":2408,"ames":2409,"ĠvÄ©":2410,"Ġcáº¯p":2411,"Ġlá»Ĺ":2412,"Ġtá»ı":2413,"ĠEd":2414,"az":2415,"ĠgiÃ¡m":2416,"Wh":2417,"eon":2418,"Ġná»ĳi":2419,"Ġchá»ĳi":2420,"ĠChá»ī":2421,"Giáº¿t":2422,"att":2423,"orn":2424,"Ġkim":2425,"ĠcháºŃm":2426,"á»Ķng":2427,"ĠmÅ©i":2428,"est":2429,"785":2430,"Ġ00":2431,"ĠSp":2432,"Cáº©n":2433,"ĠÃ´":2434,"ĠCharl":2435,"ĠBa":2436,"Ġthiá»ĩu":2437,"Ġchiá»ģu":2438,"ĠkhÃ¡m":2439,"our":2440,"ĠvÆ°Æ¡ng":2441,"Ġrá»Ļng":2442,"69":2443,"ĠÄĳÃło":2444,"Ġchiáº¿m":2445,"ĠtoÃ¡n":2446,"ĠhÃ£i":2447,"ĠnÆ°":2448,"ĠÄĳá»¥":2449,"Ġgiam":2450,"Ġgháº¿":2451,"ĠtÃ¡n":2452,"ĠngÆ°á»£c":2453,"ĠhÃ²":2454,"Ca":2455,"Nhá»Ľ":2456,"ky":2457,"ĠkÃª":2458,"Ãįt":2459,"ĠHÃ£y":2460,"Ġkhoáº£n":2461,"ĠthÆ°á»Łng":2462,"Ġcáº£n":2463,"Co":2464,"Ġmy":2465,"ĠCÃ²n":2466,"ĠcÃº":2467,"Ġpháº©m":2468,"lin":2469,"Ġáº¥n":2470,"ĠbÃ¨":2471,"Ġ11":2472,"Ġbá»¥ng":2473,"ĠÄĳá»ĳc":2474,"Ġru":2475,"Ġthá»Ŀ":2476,"AN":2477,"ĠhÆ°":2478,"Ġvai":2479,"Ġ100":2480,"ĠHáº¯n":2481,"ĠBar":2482,"ichael":2483,"Ġmá»Ļ":2484,"Ġsáº¡n":2485,"Ã³p":2486,"NÆ¡i":2487,"ĠgiÃ³":2488,"īnh":2489,"ĠthÆ°á»£ng":2490,"ĠhÃłi":2491,"Káº»":2492,"ĠÃĿ":2493,"ĠxÆ°a":2494,"Ġá»ĳng":2495,"ĠchuyÃª":2496,"Hiá»ĥu":2497,"Ġhá»įp":2498,"Ġ0":2499,"Ġkhá»ī":2500,"ĠhÃ´":2501,"ĠtrÄĥm":2502,"ÄĲÃ¡ng":2503,"ĠÄĳá»ĭch":2504,"ĠTá»Ľ":2505,"ĠnÃ´":2506,"ÌĢ.":2507,"ĠÃĶi":2508,"ĠnhÃ¢":2509,"á»Ľn":2510,"ny":2511,"ĠmÃ´ng":2512,"ĠlÆ°Æ¡ng":2513,"Ġrá»ĵ":2514,"ĠLa":2515,"ĠThÃ´i":2516,"Ġváº½":2517,"Ġká»ĭch":2518,"Ġnhiá»ħ":2519,"Nhiá»ģu":2520,"22":2521,"Ġbá»ĳn":2522,"Ġháº¡t":2523,"Ġlao":2524,"Ġtan":2525,"ĠÄĳiÃª":2526,"Ġthá»ķ":2527,"ĠDo":2528,"Ġháº¥p":2529,"iss":2530,"ast":2531,"Ġkhiáº¿p":2532,"ĠLÃł":2533,"old":2534,"Ġtrao":2535,"ÄĲá»Ļi":2536,"Ġniá»ģm":2537,"Ġnam":2538,"DÄ©":2539,"ING":2540,"ĠWh":2541,"Ġtáº¡p":2542,"ĠgÃł":2543,"ca":2544,"ĠMor":2545,"eor":2546,"ĠghÃª":2547,"GiÃºp":2548,"Ká»ĥ":2549,"Ġbáº¡o":2550,"Ġkhá»©":2551,"ĠthÃŃ":2552,"Ġdáº¡ng":2553,"ĠÄĳá»ĳt":2554,"ĠÄĳiá»ĩp":2555,"Ġnháº¹":2556,"ĠJim":2557,"Ġkáº¹t":2558,"Ġcá»¡":2559,"HÃ¬nh":2560,"ĠBen":2561,"red":2562,"Ġngoan":2563,"Ġtáº¯c":2564,"Ġj":2565,"Ġ..":2566,"...?":2567,"st":2568,"ĠthÃ¡nh":2569,"ĠphÃ¡n":2570,"Ġthiá»ĩn":2571,"Ġ50":2572,"Ġmáº½":2573,"Chuáº©n":2574,"225":2575,"Cá»§a":2576,"ĠtiÃª":2577,"áº¤":2578,"Ġcam":2579,"ica":2580,"Ġrá»ĵng":2581,"aire":2582,"Ġcá»Ŀ":2583,"ĠHar":2584,"Ġpháº¡t":2585,"7871":2586,"CÃ¢u":2587,"Cuá»ĳi":2588,"Ha":2589,"ĠÄĳeo":2590,"one":2591,"Ġwh":2592,"ĠTom":2593,"Ġcanh":2594,"Ġtrá»ĳng":2595,"To":2596,"een":2597,"now":2598,"ĠÄĳÃ¢m":2599,"ĠxuyÃªn":2600,"ĠNáº¿u":2601,"Im":2602,"ĠsÃ³ng":2603,"ĠChuyá»ĩn":2604,"Hy":2605,"ott":2606,"Cl":2607,"John":2608,"inc":2609,"TrÃªn":2610,"Ġthoáº£i":2611,"Ġchuá»Ļt":2612,"Ġcá»©ng":2613,"ÄĲá»§":2614,"Ġcá»ķng":2615,"ose":2616,"Ġláº«n":2617,"Ġgo":2618,"Æ°á»£n":2619,"ĠYeah":2620,"ĠmÃłn":2621,"Ġnghá»ģ":2622,"Cá»ķ":2623,"Ġbáº©n":2624,"Ġnga":2625,"ÄĲÃ´i":2626,"St":2627,"ĠkhuyÃªn":2628,"Ġtáº£i":2629,"ÌĢ?":2630,"Ġáº£":2631,"ore":2632,"Ġngá»įn":2633,"Ġgiá»įng":2634,"uck":2635,"aul":2636,"Ġhiá»ĩp":2637,"Sáºµn":2638,"ĠTá»ĳt":2639,"ĠrÄĥng":2640,"Ġtháº£m":2641,"ĠAm":2642,"ĠcáºŃn":2643,"ĠsÃ´":2644,"ĠxÆ°Æ¡ng":2645,"ĠÄĳua":2646,"ver":2647,"ÄĲáº§u":2648,"Ġ18":2649,"Ġcáº·p":2650,"Bá»ĭ":2651,"ĠÄĳá»¥ng":2652,"Ġdáº§n":2653,"Ġká»ĭp":2654,"ĠcÃ¢n":2655,"ĠRob":2656,"ĠtÃ³m":2657,"ÄĲo":2658,"\"?":2659,"Thá»Ŀi":2660,"ook":2661,"ĠEl":2662,"ĠTH":2663,"Ġsh":2664,"âĻ«":2665,"ĠlÃ£ng":2666,"yn":2667,"ĠcÃ³c":2668,"ĠgiÃłu":2669,"ma":2670,"Ġsá»©":2671,"ĠbÆ¡i":2672,"ĠlÃ´i":2673,"ĠtrÃ¹ng":2674,"Ġdá»¥":2675,"Ġtá»ĳ":2676,"Ġgáº¥p":2677,"ĠTáº¥t":2678,"Ġthiá»ĩt":2679,"avid":2680,"liv":2681,"ÄĤn":2682,"Lo":2683,"iam":2684,"ĠxÃ¢m":2685,"ĠÄĳá»±":2686,"**":2687,"?\"":2688,"ĠÄĳÃ¡p":2689,"ĠMon":2690,"ĠÄĳÃ²i":2691,"do":2692,"Tá»¥i":2693,"Ġváº©n":2694,"Ġmá»ĵm":2695,"Háº£":2696,"ĠtrÆ°a":2697,"á»Ľp":2698,"BÃªn":2699,"TÃ¬nh":2700,"ĠMÃły":2701,"Ġkhoan":2702,"Báº±ng":2703,"ner":2704,"ĠrÃ¡c":2705,"Háº¿t":2706,"Ìģ?":2707,"ony":2708,"ĠÄĲÃ´ng":2709,"Sam":2710,"Ġbá»Ŀ":2711,"ĠtÆ¡":2712,"ĠvÃµ":2713,"Ġthá»£":2714,"ĠCho":2715,"ĠÂ":2716,"ĠcÃ£i":2717,"Ġhá»ĳi":2718,"ull":2719,"Gáº·p":2720,"ĠnÃ¡t":2721,"ish":2722,"Bao":2723,"ĠÄĳáº¡t":2724,"ĠÄĳu":2725,"ĠTháº§n":2726,"ĠlÃ¢":2727,"ĠWill":2728,"Ġnhiá»ĩt":2729,"Ġmáº£nh":2730,"Ġá»Ĵ":2731,"ĠlÄ©nh":2732,"ĠÄĳá»©c":2733,"ĠÄĳá»±ng":2734,"Ġtháº¥p":2735,"Ġngá»±c":2736,"Trung":2737,"ĠtÃ¢y":2738,"Ġphiáº¿u":2739,"NÃ¨":2740,"yl":2741,"ĠÄĳá»ĵn":2742,"ug":2743,"Ġtháº»":2744,"Tháº§n":2745,"ĠdÆ°Æ¡ng":2746,"Ġthai":2747,"Ġnhi":2748,"Ġchiáº¿u":2749,"out":2750,"Ġcáº¥t":2751,"CH":2752,"Sá»ĳ":2753,"ren":2754,"ĠxÃ£":2755,"op":2756,"ĠngÃ£":2757,"NÄĥm":2758,"ĠcáºŃp":2759,"BI":2760,"ĠvÃ¢ng":2761,"ĠNháºŃt":2762,"ĠÃ©p":2763,"Ġáº¥m":2764,"Ġtreo":2765,"ert":2766,"Ġrá»Ńa":2767,"Æł":2768,"Ġ'":2769,"Ġnhiá»ħm":2770,"ĠgiÃły":2771,"ĠbÃ£i":2772,"cy":2773,"Ġá»«":2774,"Ġhe":2775,"Ġmiá»ħn":2776,"ĠWal":2777,"ĠThe":2778,"Chá»Ĺ":2779,"ÄĲÃ¢u":2780,"ĠmÃ¨o":2781,"Ġ40":2782,"Ġtháº©m":2783,"236":2784,"Ġcá»Ľ":2785,"anny":2786,"Ġuh":2787,"ĠviÃª":2788,"ĠCÃ¡c":2789,"ĠTrÃ¡i":2790,"ĠBl":2791,"ĠngÆ¡i":2792,"Ġá»ŀ":2793,"ĠCháº¯c":2794,"cáºŃu":2795,"nÃ³":2796,"Ġkháº©n":2797,"Ġngang":2798,"Well":2799,"ĠsÃ¡u":2800,"ĠthÄĥng":2801,"ĠBe":2802,"CÃ¡ch":2803,"Jack":2804,"OK":2805,"Ġthat":2806,"Wow":2807,"ib":2808,"Ġdung":2809,"ĠlÃłng":2810,"erry":2811,"ake":2812,"NghÄ©a":2813,"ily":2814,"Ġáº£o":2815,"ĠdÅ©ng":2816,"Hi":2817,"ĠcÄĥng":2818,"Bá»Ļ":2819,"Ġlang":2820,"ĠthÃ¨m":2821,"ep":2822,"Tháº£":2823,"Ġchá»©a":2824,"Ok":2825,"ÄĲá»ĵng":2826,"ĠRá»ĵi":2827,"ĠDan":2828,"ĠChÃ¡u":2829,"ale":2830,"ĠThÃ¡i":2831,"ĠmÆ°u":2832,"Ã£ng":2833,"Váº¥n":2834,"má»Ļt":2835,"ki":2836,"Ġvá»Ľ":2837,"Ġtá»ĳng":2838,"ĠCÃ´ng":2839,"Ġniá»ĩm":2840,"ĠFl":2841,"ĠMc":2842,"Máº·c":2843,"áº¹o":2844,"áº±n":2845,"Ġcháº¥m":2846,"Ġtri":2847,"Ġbáº«y":2848,"NhÃ¢n":2849,"ĠÄĳÄĥng":2850,"Ġliá»ģu":2851,"Ġgan":2852,"Ġhoáº¡i":2853,"Ġyour":2854,"ĠBÃł":2855,"ĠCá»©":2856,"ĠLan":2857,"lÃłm":2858,"ĠBob":2859,"And":2860,"ka":2861,"Ġlá»¥c":2862,"Ġmáº¡ch":2863,"Ġlá»¡":2864,"Ġis":2865,"Æ°á»Ŀn":2866,"Xong":2867,"ĠngÃ³n":2868,"ĠchÃª":2869,"Má»Ŀi":2870,"The":2871,"ĠgÃ¡c":2872,"Ġchai":2873,"Tráº£":2874,"Tá»±":2875,"Whoa":2876,"za":2877,"ĠbiÃªn":2878,"ĠtrÃł":2879,"ĠvÃ©":2880,"á»Ļp":2881,"era":2882,"Ġphá»©c":2883,"ÄĲÃ¡nh":2884,"7845":2885,"ron":2886,"Ġbia":2887,"ĠPar":2888,"ĠthÃ¡m":2889,"ĠchÃ´n":2890,"ĠmÃ¹":2891,"Ġ--":2892,"Tuy":2893,"MÃ¡y":2894,"row":2895,"ĠlÃ¹ng":2896,"Ġbáº¿p":2897,"Ġhá»ıa":2898,"ĠtÆ°á»Ľc":2899,"30":2900,"Ġdoanh":2901,"Ġsáº»":2902,"Ġngáº¯n":2903,"ĠlÆ¡":2904,"Ġdá»©t":2905,"ĠmÃ´n":2906,"ĠVÃ¬":2907,"oth":2908,"ĠthÃ¡ch":2909,"ĠchÄĥ":2910,"TháºŃm":2911,"Káº¿t":2912,"á»Ĳ":2913,"rist":2914,"ĠhiÃª":2915,"eorge":2916,"Ġ:":2917,"Trá»«":2918,"ĠPeter":2919,"Ġhuáº¥n":2920,"Gáº§n":2921,"ĠÃģ":2922,"ĠtrÃºng":2923,"Ġhoáº£ng":2924,"Ġlui":2925,"ĠThiÃªn":2926,"ĠtrÄĥng":2927,"Ġhung":2928,"Ġngáº¡i":2929,"ĠÄĳiáº¿m":2930,"Tháº§y":2931,"ĠtÃºy":2932,"ĠmÃ¡t":2933,"Ġá»©c":2934,"ade":2935,"ĠlÃ¡t":2936,"ĠbÄĥ":2937,"GÃ£":2938,"ĠNÃ³i":2939,"ĠtÃ¡i":2940,"ER":2941,"ĠgÆ°Æ¡ng":2942,"ico":2943,"ĠÄĳá»īnh":2944,"ĠAlex":2945,"iÃªm":2946,"ThÃłnh":2947,"Jo":2948,"Va":2949,"ĠbáºŃt":2950,"ĠRáº¥t":2951,"ĠmÆ°a":2952,"ue":2953,"ĠlÆ°á»£t":2954,"Chuy":2955,"'m":2956,"Ġmiáº¿ng":2957,"50":2958,"ĠRe":2959,"ald":2960,"Ġnáº¥u":2961,"illy":2962,"ĠphÃ³":2963,"Ġmáº¡o":2964,"ever":2965,"Ġhá»įa":2966,"ĠÄĳáº¿m":2967,"Vá»£":2968,"Ã¹n":2969,"Ġlá»Ļn":2970,"ĠPhi":2971,"Tiá»ģn":2972,"7843":2973,"Ã£nh":2974,"ĠChÃ¢u":2975,"Xe":2976,"ĠrÃ¢":2977,"ĠxÃŃ":2978,"ĠbÃ¡m":2979,"NH":2980,"ens":2981,"Ġkha":2982,"Ġnháº¯m":2983,"ĠTao":2984,"ĠRa":2985,"Ġtháº£o":2986,"Mang":2987,"Sáº¿p":2988,"Ġfor":2989,"á»µ":2990,"ĠtÃ¢":2991,"CÃ¹ng":2992,"ÃĤ":2993,"land":2994,"ĠDon":2995,"Ġphe":2996,"ÌĢ,":2997,"ĠgÃ³c":2998,"ĠMa":2999,"ĠkhÃ´":3000,"ĠNghe":3001,"á»ĭnh":3002,"Ġchá»īnh":3003,"ĠbÃª":3004,"á»¥p":3005,"ĠBan":3006,"ĠthÃ¹ng":3007,"Ġ24":3008,"á»Ĺng":3009,"Náº±m":3010,"ĠtuyÃªn":3011,"Ġmo":3012,"Cáº§n":3013,"Bu":3014,"ney":3015,"ĠÄĳÃ©o":3016,"Thá»Ń":3017,"Ġá»§ng":3018,"Ġvu":3019,"ĠtÃ¹y":3020,"Ġcáº£i":3021,"ĠgiÃ£n":3022,"CÆ¡":3023,"VÃłi":3024,"Ġcá»±":3025,"ity":3026,"ĠnÃ´ng":3027,"ĠgiÃłnh":3028,"ĠNhÃł":3029,"Ġ14":3030,"ĠJames":3031,"Ġ13":3032,"ĠbuÃ´n":3033,"ĠnÃ£y":3034,"ĠVÆ°Æ¡ng":3035,"Gia":3036,"ĠÄĳc":3037,"Ġlá»ĵ":3038,"ana":3039,"Ġyeah":3040,"Chiáº¿n":3041,"ouse":3042,"PhÃ²ng":3043,"Frank":3044,"Khá»ĳn":3045,"ĠPr":3046,"LÅ©":3047,"Vui":3048,"Ġvá»Ŀ":3049,"Ġsáº¯t":3050,"ĠJon":3051,"ary":3052,"ĠÄĳá»Ľn":3053,"yd":3054,"ĠchÃ³ng":3055,"á»ªm":3056,"enny":3057,"ranc":3058,"ĠBer":3059,"ÄĲáº·c":3060,"Ġxá»©":3061,"ist":3062,"Ġtáº£":3063,"ĠCol":3064,"ĠbÃło":3065,"20":3066,"Ġtá»ī":3067,"Äĳá»ĥ":3068,"Ġkhá»ķng":3069,"ĠÄĳáºŃu":3070,"ĠGiÃ¡o":3071,"ĠmÃ³c":3072,"Ġli":3073,"SÆ°":3074,"go":3075,"Do":3076,"ĠNha":3077,"ĠCarl":3078,"Láº¡y":3079,"You":3080,"Ġháº£i":3081,"IA":3082,"ĠxÃ³a":3083,"\",":3084,"Ġcá»ĳc":3085,"ort":3086,"ĠhÄĥ":3087,"ĠdÃ¬":3088,"Ma":3089,"ĠchÃ¬m":3090,"ĠLong":3091,"cus":3092,"Ġliá»ģn":3093,"Chiáº¿c":3094,"cho":3095,"Ġdáº¡o":3096,"liver":3097,"Ġdáº§u":3098,"ĠAb":3099,"250":3100,"Ġtrá»©ng":3101,"ĠtrÆ°Æ¡":3102,"BÃ¡o":3103,"Ġchá»Ł":3104,"Ãĥ":3105,"Ġmá»ĵi":3106,"ĠtÃ¡ch":3107,"Ġbáº£ng":3108,"Æ°á»Ľt":3109,"ius":3110,"Ġpháº«u":3111,"ĠmÃ´i":3112,"ÄĳÆ°á»£c":3113,"Ġmá»¥":3114,"ĠÄĲáº¥t":3115,"ĠVua":3116,"226":3117,"Ġhá»ĵng":3118,"ĠmÃ¢":3119,"Mi":3120,"ĠSan":3121,"á»§i":3122,"ĠtrÃ¡":3123,"Ġnhu":3124,"ThÃªm":3125,"ĠKim":3126,"Ġcáº¯n":3127,"ĠHai":3128,"La":3129,"Ġphá»ıng":3130,"Ġchá»Ľ":3131,"Ġnho":3132,"Br":3133,"Ġthá»ķi":3134,"Ġsá»¹":3135,"NÆ°á»Ľc":3136,"Ġ200":3137,"17":3138,"Ġtá»¥":3139,"ĠÄĳÆ°":3140,"ĠháºŃn":3141,"ĠkÃŃn":3142,"Ġgáº¯n":3143,"ĠdÃ¢m":3144,"Ġngá»¯":3145,"ĠStark":3146,"ier":3147,"wood":3148,"ink":3149,"ĠKá»³":3150,"Láº½":3151,"ngel":3152,"Ġdáº¹p":3153,"Ġquang":3154,"Vá»¥":3155,"Ġdá»±a":3156,"Ġtráº§n":3157,"ix":3158,"Ġgáº¥u":3159,"ĠbÃ£o":3160,"ÄĲÃªm":3161,"ĠÄĳáº¥m":3162,"á»ĭa":3163,"Ġmá»Ļng":3164,"ĠBá»Ļ":3165,"eet":3166,"ĠbÃ´":3167,"7853":3168,"die":3169,"ĠphiÃªn":3170,"AR":3171,"Ġngá»įt":3172,"11":3173,"Ġnguyá»ģn":3174,"QuÃ¢n":3175,"Ar":3176,"ĠkhÃ¡t":3177,"ÄĳÃ³":3178,"ington":3179,"ĠtrÃ¬":3180,"ĠtrÃ´i":3181,"ĠkÄ©":3182,"ĠWil":3183,"Ġtuyáº¿n":3184,"May":3185,"Tay":3186,"LÃ¹i":3187,"ĠhÃ©t":3188,"á»ĭt":3189,"ĠCal":3190,"ĠmÆ°á»£n":3191,"Ġtá»ĳn":3192,"á»ĳm":3193,"Ġah":3194,"ÄĲÆ°á»Ŀng":3195,"ĠgiÃ¡n":3196,"ĠdÆ°":3197,"ĠHá»Ļi":3198,"Khá»ī":3199,"náº¿u":3200,"ita":3201,"Ed":3202,"ĠniÃªn":3203,"ĠHarry":3204,"ĠghÃ©":3205,"Jim":3206,"ĠtÃ¡o":3207,"ĠsÃłn":3208,"ĠMá»įi":3209,"VÃ´":3210,"Kiá»ĥm":3211,"ĠÃ³c":3212,"ON":3213,"Ġcáº¥m":3214,"ĠnhiÃª":3215,"ĠGre":3216,"Ġ16":3217,"HÃłng":3218,"ĠÄĳuÃ´i":3219,"ĠLiÃªn":3220,"Ġráº¯n":3221,"Phá»¥":3222,"áº¢nh":3223,"ĠtrÆ°á»£t":3224,"Uá»ĳng":3225,"ĠMichael":3226,"ĠCr":3227,"ĠDe":3228,"ĠhÃ¨":3229,"ÄĲáº¥y":3230,"Ġnhá»¥c":3231,"agg":3232,"ĠmÃ²":3233,"ĠdÃ²":3234,"á»Łm":3235,"ail":3236,"ĠÃ´m":3237,"Ġ25":3238,"Ġngáº§m":3239,"way":3240,"ĠhÃ²n":3241,"á»ĩn":3242,"Äĳi":3243,"ĠtháºŃp":3244,"ĠMer":3245,"ĠbÃły":3246,"ĠlÆ°á»¡i":3247,"ĠchiÃª":3248,"ĠAd":3249,"ĠChu":3250,"ĠquÃª":3251,"Ġknow":3252,"ĠkhiÃªu":3253,"Liá»ĩu":3254,"ĠTuyá»ĩt":3255,"Ġcá»Ľm":3256,"ite":3257,"fscx":3258,"fscy":3259,"19":3260,"ĠlÃ´ng":3261,"ĠgÃ£y":3262,"ko":3263,"áº«m":3264,"HÆ¡n":3265,"LuÃ´n":3266,"ĠFBI":3267,"NgoÃłi":3268,"Ġquyá»ĥn":3269,"Ġ17":3270,"Hmm":3271,"TáºŃp":3272,"ĠÃĩ":3273,"Khoáº£ng":3274,"osh":3275,"Ġst":3276,"ToÃłn":3277,"Biáº¿n":3278,"ĠbÆ¡":3279,"bo":3280,"Â¿":3281,"Ġthá»¥":3282,"Ġliá»ĩt":3283,"arah":3284,"sa":3285,"'re":3286,"Tu":3287,"ĠphÃ¡o":3288,"ĠCH":3289,"Ġtá»§":3290,"Ġleo":3291,"Ġmanh":3292,"pe":3293,"ĠMike":3294,"ene":3295,"ĠkhuÃ´n":3296,"Ġvá»Ļi":3297,"thÃ¬":3298,"Ġtuyáº¿t":3299,"Ġtháº£i":3300,"Ġtráº¡m":3301,"ory":3302,"ĠAll":3303,"ĠvÃ¢y":3304,"Ġgá»ĳc":3305,"ĠhÃ¨n":3306,"ous":3307,"Ġcá»Ł":3308,"Charl":3309,"ĠCharlie":3310,"Am":3311,"HoÃłn":3312,"Ġháº¡ng":3313,"Ġná»ģn":3314,"Tiá»ĥu":3315,"ĠÃĢ":3316,"ĠmÃ¬":3317,"Ġcá»ı":3318,"ĠGiá»Ŀ":3319,"age":3320,"ĠnÃ¢ng":3321,"ason":3322,"pháº£i":3323,"obot":3324,"uynh":3325,"NghÄ©":3326,"ĠOr":3327,"ĠChÃŃnh":3328,"ĠParis":3329,"Um":3330,"Ġwe":3331,"ĠsÃ³i":3332,"á»ģm":3333,"ĠThÃ¡nh":3334,"Lá»ĳi":3335,"LÃ£o":3336,"ire":3337,"Ġhuyáº¿t":3338,"7889":3339,"Ġnghiá»ĩn":3340,"ĠtrÆ¡":3341,"Ġchá»£":3342,"ĠmÄĥ":3343,"ictor":3344,"tin":3345,"ĠtÆ°Æ¡i":3346,"ĠkhÃ¡ng":3347,"Ìī.":3348,"elle":3349,"Ġokay":3350,"ĠlÃ¹i":3351,"Chi":3352,"Ġmáº¿n":3353,"ĠmáºŃp":3354,"ĠTáº¡m":3355,"own":3356,"rodo":3357,"Ráº±ng":3358,"ĠkhÃ´n":3359,"ĠkhÃ¹ng":3360,"Ġmáº¡n":3361,"Ġcá»Łi":3362,"áº¾":3363,"ĠnÆ°á»Ľng":3364,"ĠRach":3365,"NÃłng":3366,"ĠGod":3367,"ÄĲáº¹p":3368,"Ġung":3369,"evin":3370,"ÃŃn":3371,"áº¤n":3372,"7879":3373,"sy":3374,"ĠÄĳuá»ĳi":3375,"ĠthÃ´":3376,"Ġtro":3377,"7841":3378,"ĠÄĳáº§n":3379,"ĠÄĳiá»ĩu":3380,"ĠÄĲÆ°a":3381,"ĠCam":3382,"obb":3383,"rey":3384,"ÄĲá»ĳi":3385,"SÃ¡ng":3386,"ĠThÆ°á»£ng":3387,"Ġbá»ıng":3388,"Ġki":3389,"ester":3390,"oug":3391,"ĠbÃ´ng":3392,"ĠNhá»¯ng":3393,"ace":3394,"ĠMÃ£":3395,"ĠÃĤ":3396,"itt":3397,"org":3398,"Su":3399,"Ġdá»Ł":3400,"ĠHay":3401,"ĠHy":3402,"669":3403,"ox":3404,"Káº¿":3405,"ĠlÄĥ":3406,"ĠÄĳÃŃt":3407,"olm":3408,"Ġbá»ķ":3409,"Ġmá»ıi":3410,"Ġnhá»ĳt":3411,"ĠHe":3412,"ĠTu":3413,"ĠhÃ´i":3414,"Ġmá»ĵ":3415,"ena":3416,"ĠDavid":3417,"He":3418,"ĠClaire":3419,"Cáº§m":3420,"Ġmáº¡c":3421,"ĠgÃ³i":3422,"Dáº¡":3423,"Ġman":3424,"Ġsá»¯a":3425,"ĠNo":3426,"ase":3427,"ĠnÃºt":3428,"Ġby":3429,"rian":3430,"rancis":3431,"ĠRoss":3432,"da":3433,"ĠvÃŃ":3434,"ĠphÃ¡i":3435,"FFFF":3436,"Háº¡":3437,"Ġkem":3438,"Ġnáº¡":3439,"ĠhÃ¢n":3440,"ChÆ¡i":3441,"ThÃ´ng":3442,"ĠBÃ¡c":3443,"Ġ60":3444,"Ġbá»¥i":3445,"ĠnhÃ¡t":3446,"KÃ©o":3447,"áº¿m":3448,"ĠEr":3449,"icky":3450,"Ġxáº¡":3451,"xi":3452,"ĠcÆ°Æ¡ng":3453,"CÃ¢":3454,"Ġsá»ĳt":3455,"Ġkhá»ĳi":3456,"ĠTiÃªn":3457,"Háº¹n":3458,"ĠRay":3459,"LE":3460,"OR":3461,"iet":3462,"ĠkiÃªn":3463,"ĠBÃ¬nh":3464,"ould":3465,"Pháº§n":3466,"ĠIn":3467,"ĠcuÃ´":3468,"Ġthoáº£ng":3469,"ĠChÆ°a":3470,";.":3471,"Sc":3472,"Ġtrá»«ng":3473,"ker":3474,"15":3475,"Ġká»ī":3476,"IN":3477,"der":3478,"ĠlÃ²":3479,"Ġchá»įc":3480,"ĠJoe":3481,"ĠTV":3482,"ĠthiÃªu":3483,"ĠgiÃ¡p":3484,"ĠChÃºc":3485,"7901":3486,"ĠThÆ°a":3487,"QuÃªn":3488,"ello":3489,"ĠrÅ©":3490,"Ġall":3491,"Thuyá»ģn":3492,"Ġtang":3493,"Ġhang":3494,"ĠNá»¯":3495,"Ġtá»·":3496,"¡n":3497,"ĠPet":3498,"ĠTrá»Ŀi":3499,"ĠGeorge":3500,"Ãľ":3501,"ĠhÃª":3502,"Ġquáº£ng":3503,"Ġlan":3504,"Ġbáº¯c":3505,"ĠbÃ³p":3506,"Ġbá»ĳc":3507,"enry":3508,"ĠNhanh":3509,"Cháº£":3510,"ĠSm":3511,"ichard":3512,"ĠchÄĥng":3513,"Ġbar":3514,"Ġ1060":3515,"giá»":3516,"van":3517,"Ġhiáº¿n":3518,"ĠMax":3519,"ada":3520,"Ãĵ":3521,"Tom":3522,"ngÆ°á»Ŀi":3523,"ĠthÃ¡p":3524,"ĠmÃ©t":3525,"pp":3526,"ĠÄĳÄ©a":3527,"Ġheo":3528,"ĠBá»įn":3529,"Æ°á»Łi":3530,"!\"":3531,"Ġngáº¯m":3532,"ain":3533,"les":3534,"ĠkÃ©m":3535,"eve":3536,"mer":3537,"Má»¥c":3538,"Thanh":3539,"Ġmiá»ģn":3540,"Máº·t":3541,"Ġbá»ĵi":3542,"ama":3543,"are":3544,"ĠlÃª":3545,"ĠKat":3546,"Ìģ,":3547,"ĠdÃ¢u":3548,"Ngá»§":3549,"'ll":3550,"ĠtrÃ²n":3551,"á»¥y":3552,"ino":3553,"Ġláº»":3554,"ĠhÆ°Æ¡ng":3555,"...\"":3556,"ĠCáº£nh":3557,"ĠNhÃ¬n":3558,"ĠÃ°":3559,"56":3560,"Car":3561,"ÃĮ":3562,"ield":3563,"anda":3564,"DÃ¹ng":3565,"á»¦":3566,"chá»ī":3567,"ĠÄĳá»ģn":3568,"AL":3569,"rie":3570,"ide":3571,"Ġhá»Ĺn":3572,"YÃªu":3573,"ĠvÃ£i":3574,"Ġlá»£":3575,"ĠcÆ°á»£c":3576,"Ġbáº£y":3577,"ĠLau":3578,"athan":3579,"Ġkáº¹o":3580,"hÃ£y":3581,"Lá»Ŀi":3582,"Ġtá»Łm":3583,"ÄĳÃ¢y":3584,"Ġxoay":3585,"Ġvá»©":3586,"cÃ¡i":3587,"iro":3588,"ĠngÅ©":3589,"ĠPark":3590,"ĠdÃ¡ng":3591,"ĠMÃ¬nh":3592,"Bá»ĩnh":3593,"Ġruá»Ļt":3594,"ĠvÃ¢n":3595,"ĠRachel":3596,"Máº¥t":3597,"Ġtiá»ĩm":3598,"Ġthá»ĳi":3599,"ĠkiÃª":3600,"Ġtoa":3601,"app":3602,"1000":3603,"ĠMal":3604,"Tá»ķng":3605,"Ġmá»ı":3606,"Ġá»ĳm":3607,"Ġgiai":3608,"ondon":3609,"ĠÃ¢n":3610,"Ġmá»ģm":3611,"ĠbÃ¡u":3612,"ThÆ°":3613,"Don":3614,"Sáº¯p":3615,"Ġmuá»Ļi":3616,"ĠEll":3617,"Ġvá»©t":3618,"ĠgiáºŃt":3619,"ound":3620,"Mu":3621,"Xuá»ĳng":3622,"ba":3623,"irus":3624,"Ġle":3625,"ĠxÃ³m":3626,"ĠquÃ©t":3627,"GiÃ¡o":3628,"gi":3629,"hh":3630,"ĠKhi":3631,"ĠTy":3632,"bie":3633,"Ġ$":3634,"uz":3635,"ĠCháº¿t":3636,"Ġhuá»ĳng":3637,"ĠTÆ°":3638,"Ġcá»©t":3639,"ĠÄĳá»ĵi":3640,"ella":3641,"Ġup":3642,"Ġcá»Ļt":3643,"ora":3644,"Ġcuá»ĵng":3645,"ÄĲÆ°Æ¡":3646,"ĠxÃŃch":3647,"li":3648,"áºŃc":3649,"Ġvá»¯ng":3650,"ÄĳÃºng":3651,"ÃŃa":3652,"Qua":3653,"ĠtiÃªm":3654,"bur":3655,"ĠcÃ¡t":3656,"ĠngÃ´n":3657,"ĠsuÃ½t":3658,"yan":3659,"Ġtá»ĭch":3660,"Ġká»ĩ":3661,"ĠIs":3662,"Ġwith":3663,"ĠAngel":3664,"Ġcai":3665,"ngh":3666,"lock":3667,"\"...":3668,"Ġláº§u":3669,"ĠMan":3670,"Äĳá»«ng":3671,"ĠBáº¡n":3672,"Ġgá»£i":3673,"trong":3674,"ĠdÄ©":3675,"ĠThuyá»ģn":3676,"itz":3677,"ĠmÆ°á»Ŀi":3678,"ĠtrÃłn":3679,"ĠÄĲiá»ģu":3680,"Ġlong":3681,"ÄĲáº·t":3682,"ĠMin":3683,"Ben":3684,"Ġgá»Łi":3685,"ĠÄĳáº¡p":3686,"Alex":3687,"Thay":3688,"Quáº£":3689,"Ġhiáº¿p":3690,"ĠNhÆ°":3691,"Vá»«a":3692,"Ġtruyá»ĩn":3693,"Ġvá»ı":3694,"ĠtÃłng":3695,"ĠChÃº":3696,"Gh":3697,"Quan":3698,"Ġgá»¥c":3699,"ĠtÃª":3700,"ĠchÃ¢u":3701,"ĠdÆ°á»Ŀng":3702,"Ġthis":3703,"andy":3704,"234":3705,"Hiá»ĩn":3706,"Ġhiáº¿m":3707,"Ġchá»§ng":3708,"lor":3709,"ĠdÃ£":3710,"Giáº£i":3711,"Peter":3712,"ĠkhÃŃch":3713,"Ġdiá»ĩu":3714,"ĠMary":3715,"ĠHam":3716,"ĠPaul":3717,"Ġbá»ĳi":3718,"ĠkhoÃ¡c":3719,"ĠMark":3720,"ĠgÄĥ":3721,"ĠBarry":3722,"ĠLou":3723,"ise":3724,"45":3725,"Ġváº§y":3726,"rew":3727,"ather":3728,"ĠÄĳáº»":3729,"ĠnÃª":3730,"Ġgiá»¡n":3731,"Háº§u":3732,"ĠTÃªn":3733,"ĠTiáº¿n":3734,"ĠtrÃ³i":3735,"Ì£.":3736,"ost":3737,"CK":3738,"ĠTR":3739,"exico":3740,"Ġxá»ī":3741,"ĠIm":3742,"ally":3743,"ĠÆ°u":3744,"Ġnháº£m":3745,"Trá»Ł":3746,"ern":3747,"ĠThÃłnh":3748,"vÃ¬":3749,"ĠHáº£i":3750,"itch":3751,"sao":3752,"Ġtháº¯c":3753,"Ġthiá»ĩp":3754,"Ġlá»ģ":3755,"ĠChá»ĭ":3756,"ings":3757,"Sp":3758,"eed":3759,"ĠTrong":3760,"Ġlá»£n":3761,"rick":3762,"ĠvÃ¡y":3763,"ĠLee":3764,"Ġgá»Ĺ":3765,"70":3766,"AS":3767,"Ġviá»ħn":3768,"Ġgá»ĳi":3769,"Ġro":3770,"ĠrÄĥ":3771,"ĠLondon":3772,"21":3773,"7875":3774,"ĠJul":3775,"ĠTráº¯ng":3776,"7897":3777,"ĠthÃ¡o":3778,"Khu":3779,"Ġláº·n":3780,"Ġngáº©n":3781,"ĠmÃ£n":3782,"Ġná»Ļp":3783,"ery":3784,"Ġ01":3785,"NÃª":3786,"ĠÄĲÃ£":3787,"alf":3788,"TH":3789,"ÃĴ":3790,"ĠNgh":3791,"Ġbá»ĵ":3792,"ĠbÃ©o":3793,"Ġtrá»¥c":3794,"ĠvÆ°á»Ŀn":3795,"ÄĲÆ°":3796,"ons":3797,"uss":3798,"thÆ°a":3799,"Huynh":3800,"Iá»":3801,"andler":3802,"ĠHey":3803,"ĠGar":3804,"ĠCa":3805,"Ġkhoang":3806,"ĠtuÃ¢n":3807,"ĠÄĳÃłng":3808,"Ġhuyá»ģn":3809,"up":3810,"ĠtrÃºc":3811,"ĠnÆ°Æ¡ng":3812,"ĠSim":3813,"Bl":3814,"Ġvá»ĳn":3815,"ĠTá»Ń":3816,"ĠnghÃ¬n":3817,"á»Ľc":3818,"ĠPhil":3819,"7873":3820,"Ġthan":3821,"Ġcá»§":3822,"ĠchuÃ´ng":3823,"ĠLuc":3824,"ĠâĻ«":3825,"ĠvÄ©nh":3826,"Ġpho":3827,"rag":3828,"HoÃłng":3829,"ĠSte":3830,"Ġsá»¥p":3831,"Ġgá»¡":3832,"ĠnhÃŃ":3833,"Huh":3834,"ÄĲá»©a":3835,"13":3836,"Ġbá»±c":3837,"Chá»§":3838,"lyn":3839,"net":3840,"su":3841,"bl":3842,"ĠgÃ¡nh":3843,"Ġde":3844,"ĠCo":3845,"ĠMr":3846,"orm":3847,"Ġright":3848,"bert":3849,"ÄĳÃ£":3850,"xin":3851,"ĠtÃ²":3852,"EA":3853,"ĠÄĲá»ĵng":3854,"Ġquyáº¿n":3855,"ĠkhÃ³i":3856,"ĠGiÃ¡ng":3857,"Kiá»ĥu":3858,"ĠÆ°a":3859,"ĠSÄ©":3860,"ĠPat":3861,"Ġthao":3862,"Ġbá»±":3863,"Ġgá»ĵm":3864,"Ġghen":3865,"olly":3866,"227":3867,"ero":3868,"ĠtÃ¹ng":3869,"ĠgiÃª":3870,"ese":3871,"ĠMexico":3872,"ThiÃªn":3873,"Ġráº»":3874,"ChÃłng":3875,"Ġquá»¹":3876,"ĠngÆ°":3877,"Ġke":3878,"Ġná»¥":3879,"ĠJe":3880,"Ġsá»£i":3881,"Loáº¡i":3882,"Ġngá»Ľ":3883,"ĠdÆ°á»¡ng":3884,"Michael":3885,"CÃºt":3886,"Ġthiáº¿p":3887,"ĠCap":3888,"elly":3889,"ĠgÃ³p":3890,"TrÃ¡i":3891,"isa":3892,"ĠdÃły":3893,"iá»ħu":3894,"ĠDave":3895,"16":3896,"há»į":3897,"ĠMay":3898,"Ġcháº¥n":3899,"GiÆ¡":3900,"Háº³n":3901,"ye":3902,"Cáº§u":3903,"ĠtÆ°Æ¡":3904,"ĠJimmy":3905,"BÃłi":3906,"âĢ":3907,"ĠBro":3908,"igg":3909,"ÄĲáº±ng":3910,"ĠBill":3911,"ĠngÆ°á»¡ng":3912,"Di":3913,"va":3914,"Ġcá»«":3915,"ĠtrÃº":3916,"7899":3917,"ĠÄĲÃ´":3918,"ĠÄĳÆ°Æ¡ng":3919,"ĠSinh":3920,"Æ¯á»Ľc":3921,"ĠbÃ¢":3922,"áº¿ch":3923,"ĠHouse":3924,"ĠNhÃ¢n":3925,"Vi":3926,"Chá»ĵng":3927,"ĠxÄĥng":3928,"cher":3929,"ĠnhÃłng":3930,"Ġcá»Ĺ":3931,"Ġloáº¡t":3932,"Ġsuáº¥t":3933,"ĠnhÆ¡":3934,"ĠMo":3935,"Ġvoi":3936,"ĠmÃ¡":3937,"LÃ¢u":3938,"Ġbá»ĩ":3939,"ĠDa":3940,"ĠFrancis":3941,"ĠHá»ĵng":3942,"Ġkhoáº»":3943,"ÄĲÃ³ng":3944,"DáºŃy":3945,"ĠsÆ¡n":3946,"ĠEn":3947,"ThÃ¢":3948,"ĠChá»Ŀ":3949,"QuÃ½":3950,"Báº£n":3951,"ĠJoey":3952,"ĠnghÃ¨o":3953,"ĠTony":3954,"Harry":3955,"ĠÄĳÃ²n":3956,"Ġgot":3957,"Ġdon":3958,",...":3959,"Dá»ħ":3960,"ĠÄĳáº¯n":3961,"Ġchui":3962,"ĠVal":3963,"KhÃ¡":3964,"ĠSe":3965,"uch":3966,"ĠSher":3967,"nhá»¯ng":3968,"Ġngá»Ńi":3969,"ĠÃĤu":3970,"me":3971,"ĠlÃ³t":3972,"ree":3973,"Ġi":3974,"áº¬":3975,"áºł":3976,"ĠÄĳÆ¡":3977,"Ġare":3978,"ough":3979,"field":3980,"ĠchÃ´":3981,"inch":3982,"ister":3983,"ĠtÃ¡m":3984,"Ġbá»ģ":3985,"Ġnáº¯ng":3986,"ĠJake":3987,"ĠOliver":3988,"ĠdÃ¹m":3989,"CÃ¢m":3990,"Há»ıi":3991,"Bob":3992,"ĠlÃ©n":3993,"Ġgáº¡t":3994,"Ġdáº¡":3995,"ĠDar":3996,"áº»o":3997,"EL":3998,"Mm":3999,"Ġvong":4000,"Ġbá»įc":4001,"Ġthá»ī":4002,"ĠHáº£":4003,"ĠkhoÃ¡":4004,"Ġcáº¯m":4005,"annah":4006,"7907":4007,"Há»ĵi":4008,"váºŃy":4009,"ĠchiÃªu":4010,"ĠbáºŃc":4011,"7913":4012,"Ġáº¤n":4013,"inn":4014,"ĠCIA":4015,"ander":4016,")\\":4017,"VÃ¢":4018,"ille":4019,"Ġbá»Ľt":4020,"Ġnhe":4021,"Ġmá»įc":4022,"ĠcÆ¡m":4023,"de":4024,"cÃ¡c":4025,"Ġout":4026,"ĠMat":4027,"ct":4028,"Ġphá»ķi":4029,"ĠxÃ©":4030,"omas":4031,"ini":4032,"ĠTe":4033,"ĠhoÃłi":4034,"14":4035,"ĠchÃŃn":4036,"Dá»ĭch":4037,"Ġbiá»ĩn":4038,"ashington":4039,"Vá»ĭ":4040,"MÃ´":4041,"So":4042,"ger":4043,"oeb":4044,"Ġwas":4045,"ĠcáºŃy":4046,"ĠlÆ°á»£c":4047,"El":4048,"Will":4049,"Ġláº¡y":4050,"Ġkhoáº£nh":4051,"ĠNick":4052,"umb":4053,"67":4054,"mÃł":4055,"ars":4056,"Ġcamera":4057,"18":4058,"Thuá»ĳc":4059,"Giá»ıi":4060,"ha":4061,"Ġnhá»ĭp":4062,"Cá»Ńa":4063,"ward":4064,"272":4065,"Ġtáº¡":4066,"Ġhave":4067,"ĠThanh":4068,"Ġrobot":4069,"ĠBáº£o":4070,"thur":4071,"ipp":4072,"BiÃªn":4073,"Ġthá»īu":4074,"ĠrÃło":4075,"ĠtrÃ¹m":4076,"Ngon":4077,"ĠtÃ¢n":4078,"ĠngÃło":4079,"Ġráº½":4080,"ÄĲá»ĩ":4081,"ĠGl":4082,"ĠThÃ¬":4083,"7911":4084,"Ġá»ĵn":4085,"CÃ¡":4086,"lan":4087,"rom":4088,"29":4089,"ÄĲa":4090,"á»¥t":4091,"ĠQuÃ¢n":4092,"Ġláº·p":4093,"ĠhÆ°á»Ľc":4094,"Ġrá»§a":4095,"Buá»ķi":4096,"ĠÆ°á»Ľt":4097,"ĠDÆ°Æ¡ng":4098,"ĠHiá»ĩp":4099,"ĠDel":4100,"ĠRobert":4101,"xy":4102,"Å©i":4103,"ĠWe":4104,"Ġchá»ĳt":4105,"Nháº£y":4106,"Ġ[":4107,"Ġkhá»Ľp":4108,").":4109,"ĠlÆ°á»Ľi":4110,"ideo":4111,"Ġvo":4112,"Ġwhat":4113,"Ġvirus":4114,"ĠhÃł":4115,"BÆ°á»Ľc":4116,"ĠÄĳÃłm":4117,"ĠlÆ°":4118,"ame":4119,"Ġ500":4120,"Ġtuyá»ĥn":4121,"Ġnot":4122,"Tá»ĩ":4123,"ChÃ³":4124,"uk":4125,"ĠÄĳiá»ĥn":4126,"ĠchÃ³c":4127,"ĠTed":4128,"ĠJes":4129,"Ġlau":4130,"Ġtá»ıa":4131,"Ġtrá»¯":4132,"ĠbuÃ½t":4133,"áº¹t":4134,"ĠCan":4135,"TÃłu":4136,"ĠSo":4137,"Ġve":4138,"Ġbáº¿n":4139,"oman":4140,"ĠsÆ°á»Ľng":4141,"Ġtru":4142,"Nháº¥t":4143,"gg":4144,"sáº½":4145,"yr":4146,"ĠngÃłnh":4147,"ChÃ¢n":4148,"ĠÂ½":4149,"Ġ]":4150,"ĠTim":4151,"rell":4152,"khi":4153,"ies":4154,"Ġhá»ĩt":4155,"tein":4156,"Mmm":4157,"ford":4158,"Ġtia":4159,"ĠnÃ´n":4160,"What":4161,"HÃłnh":4162,"oe":4163,"įt":4164,"Nhiá»ĩm":4165,"LuáºŃt":4166,"ĠWilliam":4167,"ÄĲÆ¡n":4168,"iley":4169,"ĠMill":4170,"ĠBur":4171,"ĠDanny":4172,"ĠRed":4173,"EN":4174,"Kat":4175,"uddy":4176,"ĠJones":4177,"mond":4178,"Ġmá»Ŀ":4179,"aron":4180,"Ġcá»ĳng":4181,"eel":4182,"ĠhÃ¢m":4183,"uyáº¿n":4184,"Ġlá»ĳ":4185,"ĠngÃ´":4186,"eron":4187,"Gr":4188,"ĠMáº·t":4189,"ĠUh":4190,"Carl":4191,"Na":4192,"Æ¯á»ľ":4193,"Má»Ľi":4194,"Ġpháº¥n":4195,"Ġdáº¯t":4196,"ĠChrist":4197,"ĠRam":4198,"ĠÄĳoáº¡t":4199,"40":4200,"DÃ¬":4201,"hay":4202,"ĠthÃ¡c":4203,"36":4204,"Ġphá»ĳi":4205,"zo":4206,"Ġlike":4207,"ĠTo":4208,"ĠnhÃ¡":4209,"ĠngoÃ¡i":4210,"Ġ80":4211,"Aah":4212,"Tá»«ng":4213,"Ġbá»ĥ":4214,"Ġ45":4215,"ĠQueen":4216,"7891":4217,"Ġrad":4218,"ĠScott":4219,"PH":4220,"arta":4221,"ĠWashington":4222,"AT":4223,"TÃ¹":4224,"hmm":4225,"ĠbÃ³":4226,"ĠSau":4227,"ĠphÃ´":4228,"ors":4229,"TrÃ²":4230,"ther":4231,"ĠSáº½":4232,"ile":4233,"ss":4234,"ĠSch":4235,"ĠthÄĥ":4236,"inda":4237,"Ġmá»Ľ":4238,"Ġrá»Ļn":4239,"Ġdáº¡i":4240,"ĠLo":4241,"fe":4242,"ĠÄĳÃ¡o":4243,"Ġbá»į":4244,"Ġcáº£ng":4245,"ĠMau":4246,"ĠÄĳá»©t":4247,"eep":4248,"vin":4249,"Ġsá»ĳc":4250,"ĠRon":4251,"ĠngáºŃp":4252,"nhÆ°":4253,"ĠDá»ĭch":4254,"ĠchÃ©p":4255,"ÄĲem":4256,"Dan":4257,"Ġbáº¯p":4258,"Ġtrinh":4259,"Ġvang":4260,"ĠChá»§":4261,"agn":4262,"ĠMartin":4263,"ĠbÃºt":4264,"ĠOkay":4265,"Æ°Æ¡m":4266,"ĠTur":4267,"ĠChris":4268,"gan":4269,"ĠÄĳáº¡c":4270,"Ġlá»ĵng":4271,"Ġbá»ĵn":4272,"ÄĲiá»ĩn":4273,"Ġchá»ķ":4274,"ĠMur":4275,"Ġhoáº¡n":4276,"ya":4277,"ĠrÃ¢u":4278,"Ġgiu":4279,"Rach":4280,"rid":4281,"ĠÄĳáº£ng":4282,"ĠSarah":4283,"AU":4284,"ĠthÃł":4285,"erm":4286,"Ġwhoa":4287,"Kim":4288,"ĠtrÃ¡ng":4289,"Ġngáº¯t":4290,"ĠMe":4291,"ĠRo":4292,"ĠThiáº¿u":4293,"ĠVictor":4294,"100":4295,"HÆ¡i":4296,"ĠhÆ°u":4297,"ĠLáº¡p":4298,"ĠNor":4299,"ola":4300,"blur":4301,"GH":4302,"ĠSu":4303,"ĠcÃ¢m":4304,"Ġmá»ķ":4305,"ĠAt":4306,"Ġtáº£ng":4307,"Ġal":4308,"ĠdÃ¢":4309,"ĠÄĲá»ĵ":4310,"ĠLe":4311,"Ġgá»įn":4312,"ison":4313,"ĠcÃ²":4314,"Ġcáº¡n":4315,"Bay":4316,"ĠSara":4317,"nes":4318,"sp":4319,"Ġvá»Ł":4320,"ĠMac":4321,"ĠHa":4322,"tháºŃt":4323,"cia":4324,"ĠvÆ°":4325,"ĠKinh":4326,"ĠkhÃºc":4327,"gar":4328,"ÄĲÆ°Æ¡ng":4329,"á»ģu":4330,"andalf":4331,"CÆ°ng":4332,"Tá»ķ":4333,"ĠmÆ°Æ¡i":4334,"ĠhÃŃt":4335,"ÄĲÃłn":4336,"Ġgiáº·t":4337,"ĠBÃ¢y":4338,"ĠYou":4339,"Tim":4340,"eman":4341,"ĠRichard":4342,"7869":4343,"David":4344,"Ġrun":4345,"Ġcuá»Ļn":4346,"ĠcÆ°á»Ŀng":4347,"ĠngÆ°ng":4348,"ĠMinh":4349,"lly":4350,"Claire":4351,"ont":4352,"ĠBá»ı":4353,"ush":4354,"LiÃªn":4355,"Ġum":4356,"ĠRÃµ":4357,"ette":4358,"SÃºng":4359,"ez":4360,"ÄĲÃ¡m":4361,"ait":4362,"BÃ¡nh":4363,"aa":4364,"wn":4365,"Ġsong":4366,"ĠMil":4367,"ĠghÃ©p":4368,"TÆ°á»Ľng":4369,"Ġvan":4370,"Ġkhen":4371,"ĠgáºŃy":4372,"ĠSky":4373,"ĠEddie":4374,"rel":4375,"ĠcÆ°á»¡ng":4376,"ĠdÃ£y":4377,"ĠTay":4378,"ĠKar":4379,"%.":4380,"uce":4381,"ĠdÃª":4382,"ĠAv":4383,"ole":4384,"ĠtÃ©":4385,"ĠÄĳá»Ļn":4386,"42":4387,"Ġcáº¥u":4388,"Ġlá»ıng":4389,"ĠFrodo":4390,"Rob":4391,"Ġváº£":4392,"Ġrá»Ĺng":4393,"Ġcá»¥t":4394,"Â¶":4395,"ÄĲÃª":4396,"ÄĲau":4397,"Ġxáº¿":4398,"Ġngoa":4399,"Ġváº¯ng":4400,"KhÃ³":4401,"ÃĶNG":4402,"ĠDá»«ng":4403,"ady":4404,"Ġná»Ĺ":4405,"Ġtháº¯t":4406,"ation":4407,"RI":4408,"ĠvÃ¡n":4409,"Ġpin":4410,"Ġthuáº¿":4411,"Ġná»ĳt":4412,"ence":4413,"ĠThá»§":4414,"ĠJane":4415,"ĠWat":4416,"James":4417,"ĠÄĲáº¿n":4418,"Bo":4419,"LÃ½":4420,"ĠCas":4421,"Ná»¯":4422,"san":4423,"Ġtaxi":4424,"ĠdÃłn":4425,"ĠTá»±":4426,"Ġ21":4427,"ĠCharles":4428,"ĠxÃŃu":4429,"ĠLáº¡i":4430,"ĠDoug":4431,"ali":4432,"Ġong":4433,"Ġnháº¡y":4434,"ĠHá»ıa":4435,"Táº¯t":4436,"á»ĺ":4437,"ĠMi":4438,"vá»Ľi":4439,"Ġjust":4440,"DÆ°á»Ľi":4441,"ĠlÃ¢m":4442,"ĠmÃ³ng":4443,"All":4444,"ÄĲá»©c":4445,"ago":4446,"Ġngá»įc":4447,"ĠxÃ¬":4448,"ĠnhÃ©t":4449,"GiÃ¡":4450,"oebe":4451,"ĠÄĳáº¯t":4452,"ĠPH":4453,"Bar":4454,"Sinh":4455,"ĠcÃłi":4456,"ÄĲu":4457,"ES":4458,"Ġchuá»Ļc":4459,"ric":4460,"Ġdá»Ĺ":4461,"Ġ300":4462,"CÄĥn":4463,"Ġná»į":4464,"ĠMad":4465,"Ġget":4466,"than":4467,"und":4468,"cHFF":4469,"Ġvideo":4470,"ĠTheo":4471,"raz":4472,"ayne":4473,"ĠChiáº¿n":4474,"We":4475,"Ġ{\\":4476,"Ġkiá»ĩt":4477,"ĠxÃłi":4478,"ĠÄĲÆ°á»Ŀng":4479,"ĠkÃ©t":4480,",\"":4481,"Har":4482,"ĠCá»§a":4483,"Ngu":4484,"ĠRome":4485,"ĠÄĳáº¿ch":4486,"Lau":4487,"ĠchÄĥn":4488,"Ġthuáº§n":4489,"Tá»Ļi":4490,"ĠTor":4491,"ĠBut":4492,"Ġ1000":4493,"ĠViá»ĩt":4494,"iff":4495,"Thiáº¿u":4496,"ĠTommy":4497,"Ġsi":4498,"amp":4499,"ĠOk":4500,"Sá»ĳng":4501,"Ġtriá»ģu":4502,"ĠÄĳÃ£i":4503,"ĠGia":4504,"Ġlove":4505,"eck":4506,"ĠchÃł":4507,"ĠSal":4508,"pha":4509,"ĠFor":4510,"Ngoáº¡i":4511,"417":4512,"oung":4513,"7885":4514,"Re":4515,"Ġre":4516,"ordon":4517,"ĠAnna":4518,"Há»Ļi":4519,"Ġá»Ŀ":4520,"wen":4521,"ĠÄĳinh":4522,"Ġgiang":4523,"Yes":4524,"ĠxÄĥm":4525,"ĠTá»«":4526,"ĠÄĲang":4527,"Ġhá»ĳ":4528,"ThÃŃch":4529,"Ġá»«m":4530,".:":4531,"Bá»¯a":4532,"mÃły":4533,"ĠSub":4534,"amb":4535,"BÃ¡m":4536,"ĠgÃµ":4537,"ĠCoi":4538,"erson":4539,"ĠhoÃ¡":4540,"Ġhiá»ģn":4541,"ĠPal":4542,"Âī":4543,"Ġtiá»ģm":4544,"ĠbÃ¡":4545,"NghiÃªm":4546,"Wal":4547,"ĠxÃ´ng":4548,"ĠTá»ĳi":4549,"ĠkÃªnh":4550,"Ġbáº§y":4551,"ĠdÆ°á»£c":4552,"ĠNgÃły":4553,"avis":4554,"áº¥ng":4555,"ĠMatt":4556,"uel":4557,"ĠDom":4558,"ĠKy":4559,"ek":4560,"RO":4561,"Ġnuá»ĳt":4562,"ĠrÆ°á»¡i":4563,"ĠCá»Ļng":4564,"ĠNÄĥm":4565,"ĠgiÃ¹m":4566,"Ġnháº·t":4567,"RÃºt":4568,"TÆ°á»Łng":4569,"Ġdá»įc":4570,"cÃ²n":4571,"ĠcÆ°á»¡i":4572,"ĠtráºŃt":4573,"á»ĥm":4574,"ĠkhoÃ¡i":4575,"ive":4576,"istan":4577,"ĠHenry":4578,"ĠPer":4579,"oln":4580,"nder":4581,"Ã£m":4582,"ĠcÃ´n":4583,"Ġ22":4584,"£t":4585,"Ġhuá»·":4586,"ĠhoÃ£n":4587,"izza":4588,"ĠDaniel":4589,"ĠlÄĥn":4590,"Ġhey":4591,"Nhá»Ŀ":4592,"AlÃ´":4593,"ĠÄĳai":4594,"Ban":4595,"ĠtÄĥm":4596,"ĠHáº¡":4597,"Ġkháº¥u":4598,"Ġnháº¥n":4599,"RA":4600,"XÃ¡c":4601,"Ġquáº¥y":4602,"ĠVan":4603,"MÃ³n":4604,"tá»Ľ":4605,"ĠTex":4606,"ĠVá»ģ":4607,"ĠbuÃ´ng":4608,"ida":4609,"uman":4610,"Ġcá»«u":4611,"Ġsá»Ŀ":4612,"á»±u":4613,"ĠÃłh":4614,"Há»ĩ":4615,"Ġmá»±c":4616,"ĠxuÃ¢n":4617,"57":4618,"Max":4619,"Ġ48":4620,"7855":4621,"PS":4622,"Ã¤":4623,"vey":4624,"Ġráº£nh":4625,"ĠHan":4626,"ĠHel":4627,"PhÃŃa":4628,"Ìī?":4629,"ĠThá»ĳng":4630,"Bá»ĳn":4631,"ĠlÃ¹n":4632,"Ġtrá»Ļn":4633,"ĠTÆ°á»Ľng":4634,"ĠtrÆ°ng":4635,"ĠCity":4636,"Ġhá»įng":4637,"ĠBlack":4638,"olmes":4639,"ĠDu":4640,"ĠBilly":4641,"ĠSong":4642,"ĠWell":4643,"Ġtá»ĥ":4644,"Ġváº·t":4645,"Pha":4646,"ĠLy":4647,"Charlie":4648,"á»ĭn":4649,"omb":4650,"Ġ90":4651,"ĠNH":4652,"ĠFlor":4653,"pt":4654,"Ġquá»³":4655,"ĠHank":4656,"ĠKH":4657,"ĠFred":4658,"Ġcáº¡o":4659,"ĠláºŃt":4660,"oul":4661,"ĠEmily":4662,"ĠbÃ£":4663,"Ġrung":4664,"ĠKevin":4665,"anna":4666,"ii":4667,"ĠbÃ¹":4668,"ĠgÆ°Æ¡m":4669,"Mon":4670,"ĠchÃ©n":4671,"Cu":4672,"Ã±":4673,"Ġ23":4674,"tháº¿":4675,"ĠOK":4676,"ÃĻ":4677,"ĠMos":4678,"MÃ¡u":4679,"ï¼":4680,"KhÃ¡ch":4681,"Thu":4682,"incoln":4683,"Mike":4684,"Â¡":4685,"ĠCÅ©ng":4686,"ĠAsh":4687,"Ad":4688,"Gá»Ńi":4689,"Mai":4690,"YÃªn":4691,"Ġkiá»ĩm":4692,"Phi":4693,"Ġháº±ng":4694,"Chá»©":4695,"Ġranh":4696,"Ġdown":4697,"ĠÄĳÄĥ":4698,"ĠxÃ¡":4699,"LÃŃnh":4700,"ĠÄĲá»ĭa":4701,"etty":4702,"ĠChandler":4703,"Hoa":4704,"Ġtiá»ħn":4705,"Ġmáº¡i":4706,"ĠsÄĥ":4707,"ĠLann":4708,"Ġdá»ĭp":4709,"Ab":4710,"ĠmÃ¢y":4711,"ĠAdam":4712,"Mong":4713,"Ġat":4714,"ĠThá»©":4715,"ĠÄĳÃ¡y":4716,"ĠlÄĥng":4717,"ĠchÃ©m":4718,"Ġrá»ī":4719,"Ġloa":4720,"Ġthuá»·":4721,"Ġone":4722,"Ġbáº»":4723,"ĠCarol":4724,"ium":4725,"ĠtoÃł":4726,"It":4727,"Iáº¾":4728,"cel":4729,"ĠLinh":4730,"ĠVÅ©":4731,"IS":4732,"NA":4733,"ĠtáºŃt":4734,"ĠTháº±ng":4735,"Ġkhoai":4736,"Giáº£":4737,"Ġ70":4738,"á»¡i":4739,"ĠMonica":4740,"75":4741,"táº¥t":4742,"ĠÃĶ":4743,"ĠÄĳÃł":4744,"ÄĲá»Ļng":4745,"ĠxÃł":4746,"Ngá»«ng":4747,"Ġnáº¡p":4748,"ĠKhoan":4749,"ĠRos":4750,"ĠNgÆ°Æ¡i":4751,"ablo":4752,"CÃ¢y":4753,"ĠthÃ¢m":4754,"Ġtháº§m":4755,"Ġtháº¡ch":4756,"Ìģ!":4757,"ĠHobb":4758,"ĠrÆ°á»Łi":4759,"ĠBáº£n":4760,"ĠKing":4761,"eta":4762,"aven":4763,"Ġoh":4764,"ym":4765,"air":4766,"urt":4767,"otch":4768,"48":4769,"den":4770,"Ġnhá»Ł":4771,"ecca":4772,"olf":4773,"Ġthá»īnh":4774,"á»µt":4775,"ĠTexas":4776,"Má»«ng":4777,"ja":4778,"Ġbáº¡ch":4779,"ĠdÆ¡":4780,"ĠÄĲá»Ļi":4781,"ĠJess":4782,"ĠBao":4783,"ĠSÆ°":4784,"Rachel":4785,"ĠxuÃ´":4786,"máº¹":4787,"Ġváº¡n":4788,"ĠLang":4789,"ĠPhÃ²ng":4790,"Máº¯t":4791,"ĠVinc":4792,"Ġcá»±u":4793,"Ġradio":4794,"Ġtá»ĭ":4795,"Ġtáº©y":4796,"ĠSteve":4797,"ĠthÃ©p":4798,"Da":4799,"eil":4800,"Ġláº¯p":4801,"ĠCá»±c":4802,"ĠHÃłn":4803,"ĠCháº³ng":4804,"lat":4805,"Ġxá»Ļn":4806,"ĠNgay":4807,"'ve":4808,"ster":4809,"ThÆ°á»Ŀng":4810,"Man":4811,"oun":4812,"Ġrá»§i":4813,"ĠRoy":4814,"icago":4815,"Ġ:.":4816,"cá»§a":4817,"háº¯n":4818,"ĠchÃ¢m":4819,"ĠnÃ£":4820,"Ġsung":4821,"Ġrá»Ľt":4822,"120":4823,"Kinh":4824,"Tuáº§n":4825,"âĢĵ":4826,"ĠÄĳáºŃy":4827,"Tha":4828,"7903":4829,"tha":4830,"olas":4831,"ado":4832,"110":4833,"Ġgiáº£ng":4834,"ft":4835,"Ġkháº£o":4836,"ĠCÆ¡":4837,"ĠMáº¥y":4838,"ĠmuÃ´n":4839,"IC":4840,"Ġ*":4841,"ĠkiÃªu":4842,"arlett":4843,"Ġváº¥t":4844,"uyÃª":4845,"ĠFel":4846,"ĠlÃ¢y":4847,"Ġbuá»ĵng":4848,"ĠShaw":4849,"Chuyáº¿n":4850,"Å©a":4851,"ĠVÃło":4852,"HÃ³a":4853,"ga":4854,"ĠnhÃ£":4855,"Ġab":4856,"ĠgiÆ°":4857,"ĠAh":4858,"Ìĥ.":4859,"ĠUnder":4860,"BuÃ´ng":4861,"egas":4862,"asha":4863,"Ġtáº§u":4864,"ĠMy":4865,"Whoo":4866,"Ġá»§y":4867,"omp":4868,"ĠWall":4869,"Mo":4870,"Ãļ":4871,"Ġcháº±m":4872,"Ġmá»ī":4873,"ĠphiÃªu":4874,"ĠJu":4875,"Cá»Łi":4876,"ĠgÃłi":4877,"Ġphun":4878,"ĠquyÃª":4879,"thew":4880,"//":4881,"ji":4882,"ĠTiá»ĥu":4883,"esar":4884,"ĠPhÆ°Æ¡ng":4885,"tain":4886,"ĠJohnny":4887,"Sá»©c":4888,"ĠWilson":4889,"Â°":4890,"ĠBrian":4891,"Jul":4892,"ĠmÃºa":4893,"Ġbá»Ļt":4894,"atar":4895,"Mr":4896,"Oliver":4897,"7915":4898,"Ãªnh":4899,"ĠSÆ¡n":4900,"ĠÄĲá»Ļ":4901,"Ġwant":4902,"ornia":4903,"Me":4904,"ĠSav":4905,"ĠRog":4906,"Ray":4907,"rá»ĵi":4908,"Ġtáº©u":4909,"ĠÄĳáº³ng":4910,"ĠFr":4911,"Joey":4912,"Jes":4913,"ĠsÃºc":4914,"ĠCor":4915,"ĠDáº¡":4916,"ĠWin":4917,"ĠPhong":4918,"ĠCá»©u":4919,"Cáº¯t":4920,"Ġvá»ĭt":4921,"giá»Ŀ":4922,"HÆ°á»Ľng":4923,"Tá»īnh":4924,"ling":4925,"Ġnon":4926,"ĠxÆ°á»Łng":4927,"Ã¥":4928,"ĠÄĳiáº¿u":4929,"ĠÄĳá»Ĺ":4930,"ĠHáº¯c":4931,"Ġthoa":4932,"Hello":4933,"Vua":4934,"ifornia":4935,"má»įi":4936,"Ġever":4937,"Ġtáº£n":4938,"TÃ³m":4939,"ĠCá»ķ":4940,"ĠVá»Ľi":4941,"ĠNG":4942,"ĠWalter":4943,"ham":4944,"ĠKáº»":4945,"race":4946,"iana":4947,"ĠthÆ¡m":4948,"Quy":4949,"TÃ´":4950,"ÄĲÃ´":4951,"Ġ28":4952,"MÆ°á»Ŀi":4953,"ĠHun":4954,"ĠKo":4955,"33":4956,"99":4957,"Ġlá»į":4958,"ĠthÃ³i":4959,"acob":4960,"(\\":4961,"ĠÃ¡i":4962,"ÄĲÃ¹a":4963,"ince":4964,"ĠBáº¯t":4965,"Ġpr":4966,"ĠQuan":4967,"CÃłng":4968,"tao":4969,"Ġhere":4970,"Chá»«ng":4971,"ĠdÃ¢ng":4972,"ĠsÃ©t":4973,"Ġsáº¹o":4974,"Sá»£":4975,"ĠlÅ©ng":4976,"ĠnÃ³n":4977,"oody":4978,"ideon":4979,"656":4980,"Kiáº¿m":4981,"ear":4982,"ĠthÆ°Æ¡":4983,"Hoan":4984,"ĠthiÃªng":4985,"ĠsÃ¡nh":4986,"ona":4987,"ĠBá»Łi":4988,"ĠTháº¥y":4989,"tone":4990,"Ġz":4991,"ĠCáº£":4992,"ĠKr":4993,"ĠFar":4994,"ura":4995,"ĠphÃº":4996,"int":4997,"Nháº¯c":4998,"Ġhuh":4999,"á»Ĳi":5000,"ĠtÃ¡t":5001,"oney":5002,"ĠDr":5003,"Ooh":5004,"Ġhim":5005,"ĠtrÃŃch":5006,"ĠHu":5007,"ĠDun":5008,"ĠJackson":5009,"HÃ´n":5010,"Ow":5011,"Ġ....":5012,"á»¨":5013,"ĠHolmes":5014,"ĠLos":5015,"ĠVáº«n":5016,"ĠsÆ°u":5017,"ustin":5018,"ĠLor":5019,"itler":5020,"terp":5021,"que":5022,"nÃ³i":5023,"ĠcÄĥm":5024,"Ġlá»Ļt":5025,"Ġmuá»ĳi":5026,"aus":5027,"TráºŃn":5028,"ĠThu":5029,"Ġthere":5030,"ĠdiÃª":5031,"ĠHÃł":5032,"ĠHill":5033,"Ġlá»ģu":5034,"ĠBo":5035,"Thá»īnh":5036,"NháºŃn":5037,"PhÃ¡t":5038,"ĠAp":5039,"Ġ42":5040,"ĠLannister":5041,"ĠBeck":5042,"aggie":5043,"Nick":5044,"nÃły":5045,"ĠtrÃ¢n":5046,"Ġas":5047,"ThÃº":5048,"Thiáº¿t":5049,"ĠThomas":5050,"ĠRick":5051,"ĠUn":5052,"Ell":5053,"Ġlá»įc":5054,"Ġngáº«u":5055,"TrÆ°á»Ŀng":5056,"Ġká»µ":5057,"ĠAlice":5058,"Chuyá»ĥn":5059,"ĠSmith":5060,"Barry":5061,"Miá»ħn":5062,"Ġsá»į":5063,"Ġnháº±m":5064,"ĠÄĲáº§u":5065,"VÅ©":5066,"zz":5067,"Ġhiá»ĥn":5068,"ĠTrÃ´ng":5069,"usan":5070,"Ġwill":5071,"Ġlá»Ŀ":5072,"SA":5073,"Tony":5074,"Ġbl":5075,"ĠHaw":5076,"ami":5077,"amin":5078,"Luc":5079,"ĠAndy":5080,"nÃªn":5081,"isk":5082,"7919":5083,"ET":5084,"kins":5085,"ĠchiÃªn":5086,"ĠkÃ¨n":5087,"ĠMeg":5088,"ĠHiá»ĥu":5089,"ĠChicago":5090,"80":5091,"Ġnhá»ĩn":5092,"ĠWayne":5093,"ĠYi":5094,"Ġdá»ĭu":5095,"Ġchua":5096,"Ġam":5097,"ates":5098,"Ġchuá»ĵng":5099,"ze":5100,"onna":5101,"ĠÄĲá»£i":5102,"ias":5103,"ĠJan":5104,"Há»įc":5105,"ĠJeff":5106,"Jon":5107,"Ġkhá»Ń":5108,"Ġgá»Ľm":5109,"Ġbaby":5110,"ittle":5111,"á»Ĭ":5112,"Ġmá»¹":5113,"...!":5114,"Ġbá»ĭch":5115,"ĠLeon":5116,"ĠRock":5117,"ĠTin":5118,"err":5119,"ourne":5120,";?":5121,"can":5122,"ĠNathan":5123,"ĠRyan":5124,"03":5125,"Ġláº¯c":5126,"Ġham":5127,"Ġtrá»ĵng":5128,"ĠgiÃ¡ng":5129,"ĠBu":5130,"7847":5131,"Jimmy":5132,"Há»©a":5133,"Jake":5134,"ĠthÆ°á»Ľc":5135,"Ġ39":5136,"ps":5137,"Ãºm":5138,"ĠTrÃ¡nh":5139,"win":5140,"Ġá»§i":5141,"Ġsp":5142,"Ġbanh":5143,"ĠtrÆ°Æ¡ng":5144,"ĠKen":5145,"Ġchuá»Ĺi":5146,"athy":5147,"DÆ°á»Ŀng":5148,"eus":5149,"ance":5150,"otter":5151,"TÃ¹y":5152,"ĠLi":5153,"ĠWard":5154,"rant":5155,"even":5156,"Ġnáº¿m":5157,"ĠtrÃ¨o":5158,"ÄĲá»ĭnh":5159,"aster":5160,"anne":5161,"Mary":5162,"ĠdáºŃp":5163,"Yo":5164,"onnie":5165,"ĠquáºŃn":5166,"Ġkhinh":5167,"Nghá»ī":5168,"ĠviÃªm":5169,"LA":5170,"Linh":5171,"Sá»Ľm":5172,"Ġsáº£nh":5173,"phÃª":5174,"ĠnÃłn":5175,"NhÃ³c":5176,"ĠRiley":5177,"Ġsee":5178,"ĠÄĳÃŃnh":5179,"Ġváº¹n":5180,"essa":5181,"ĠbÃºp":5182,"ĠJam":5183,"ĠStr":5184,"Iá»Ĩ":5185,"87":5186,"Ġváº¡ch":5187,"ete":5188,"ĠtÃ´ng":5189,"Ġok":5190,"Ġrá»£":5191,"Ġdá»Ļi":5192,"ĠquÃŃ":5193,"ĠArthur":5194,"26":5195,"Ġcl":5196,"ĠrÃ¨n":5197,"Ã²m":5198,"ĠBang":5199,"ennis":5200,"Thá»§":5201,"ÌĢ...":5202,"ĠLÃ½":5203,"ĠGreg":5204,"Bá»©c":5205,"Ká»ĩ":5206,"TÃŃnh":5207,"Táº¥n":5208,"Ġcá»ĳt":5209,"ĠÄĳÃ¨":5210,"Ġngáº¥t":5211,"ĠTÃ¬nh":5212,"Ġgay":5213,"ThÃ¡nh":5214,"ater":5215,"abeth":5216,"ordan":5217,"ÄĲoÃ¡n":5218,"Ġhá»Ł":5219,"Du":5220,"ĠchÃły":5221,"ÄĲá»įc":5222,"500":5223,"táº¡i":5224,"ÃĲ":5225,"ĠchÄ©a":5226,"ĠMiss":5227,"Ġthoáº£":5228,"DÃ¢n":5229,"qui":5230,"ĠtÃ¨":5231,"Ġliá»ħu":5232,"Ġchuá»ĵn":5233,"Sarah":5234,"ĠcÃºi":5235,"ĠCáºŃp":5236,"ĠSw":5237,"itan":5238,"ooper":5239,"Mark":5240,"cÅ©ng":5241,"ĠcÃ²ng":5242,"Ġkhá»ıa":5243,"Ġ36":5244,"Go":5245,"Ãī":5246,"ĠlÃ¡o":5247,"Ġtráº§m":5248,"Lui":5249,"TÃłi":5250,"ĠsÆ°á»Ŀn":5251,"ĠquÃ£ng":5252,"ĠSáºµn":5253,"irk":5254,"ĠWhite":5255,"be":5256,"che":5257,"ĠTá»Ľi":5258,"Náº¯m":5259,"Ġuy":5260,"ĠbÃ¹a":5261,"ĠsÃª":5262,"don":5263,"Ġhack":5264,"enna":5265,"iano":5266,"ĠMiller":5267,"Váº¿t":5268,"yo":5269,"Ġus":5270,"ĠkhiÃª":5271,"Shh":5272,"George":5273,"Ġtui":5274,"Ġláº¥p":5275,"ĠTáºŃp":5276,"ĠThor":5277,"Anna":5278,"ĠLouis":5279,"In":5280,"báº¡n":5281,"Ġtáº·c":5282,"ĠnÃŃt":5283,"ĠkhÃ´i":5284,"ÄĲiá»ĥm":5285,"ĠNa":5286,"top":5287,"Ġky":5288,"ĠsáºŃp":5289,"ĠhÃ£ng":5290,"ĠlÃłn":5291,"Ġnghá»ĭch":5292,"ĠScot":5293,"28":5294,"ĠkhÆ¡i":5295,"ĠhÃłm":5296,"ĠSnow":5297,"ĠhoÃł":5298,"Phong":5299,"rik":5300,"Tai":5301,"ĠhÃ£nh":5302,"ĠdÃ¡n":5303,"cha":5304,"ĠSa":5305,"orld":5306,"ĠJer":5307,"ĠMm":5308,"iona":5309,"ĠcÃºp":5310,"Ġchinh":5311,"Ġgiá»įt":5312,"ĠMorgan":5313,"Ġchá»Ľp":5314,"thing":5315,"olo":5316,"ĠOm":5317,"ĠNgo":5318,"Kia":5319,"aker":5320,"CÃ¡nh":5321,"Frodo":5322,"Leo":5323,"Ġvay":5324,"ĠÄĲo":5325,"Ġlung":5326,"Äĳáº¿n":5327,"ĠCalifornia":5328,"áº¬T":5329,"á»ļ":5330,"Ġrá»ĳt":5331,"ThÆ°á»£ng":5332,"ĠBos":5333,"ĠHall":5334,"44":5335,"Danny":5336,"ĠUnderwood":5337,"Ross":5338,"ĠÄĳá»£t":5339,"kin":5340,"ĠláºŃn":5341,"Ãºn":5342,"ata":5343,"ĠnÃ¢u":5344,"Phu":5345,"ĠDi":5346,"0000":5347,"ĠGal":5348,"eeta":5349,"Æ¯á»ľNG":5350,"agnar":5351,"Cam":5352,"MÃ¹i":5353,"Ġváº£i":5354,"Tho":5355,"ĠCast":5356,"Ġchuyá»ģn":5357,"berg":5358,"LÃ¡i":5359,"ĠBal":5360,"ĠGordon":5361,"Ġbuá»ĵm":5362,"Ġbáº¥m":5363,"ĠnhÃ¬":5364,"ÄĲá»ĭa":5365,"ĠMuá»ĳn":5366,"ĠÄĳá»ĳ":5367,"emy":5368,"ĠBoy":5369,"ĠDean":5370,"ĠÄĳoan":5371,"BÃŃ":5372,"Sim":5373,"Ġ=":5374,"Ġnow":5375,"Ã©c":5376,"ĠHor":5377,"anks":5378,"On":5379,"ÃĨ":5380,"Ġkhao":5381,"Ġrá»ĥ":5382,"ĠTam":5383,"Muá»Ļi":5384,"91":5385,"Dá»±":5386,"Ġrá»Ĺi":5387,"artacus":5388,"Ġchá»ĳn":5389,"ĠnhÆ°á»Ŀng":5390,"ÄĲiÃªn":5391,"ĠChi":5392,"ĠVegas":5393,"Ġkáº¹p":5394,"CháºŃm":5395,"Ġquáº§y":5396,"ĠSn":5397,"ĠLincoln":5398,"Quá»·":5399,"ĠMarty":5400,"Joe":5401,"ĠPete":5402,"IM":5403,"lÃ´":5404,"Ġtre":5405,"Ġphá»ķ":5406,"Ġchá»Ń":5407,"Thá»Ł":5408,"Ġhoan":5409,"rence":5410,"CÆ°á»Ŀi":5411,"ĠAmy":5412,"ĠParker":5413,"Ġcáº¥y":5414,"áº»m":5415,"ĠBobby":5416,"ViÃªn":5417,"ĠÄĳÅ©a":5418,"ĠSand":5419,"ĠHer":5420,"ima":5421,"Ġthiá»ĥu":5422,"Ġar":5423,"ĠMel":5424,"otte":5425,"ĠMont":5426,"ĠlÃ¡nh":5427,"NhÃ³m":5428,"NgÃ´i":5429,"ĠAs":5430,"Ġ35":5431,"ĠkÃ¨m":5432,"ĠPhim":5433,"Æłn":5434,"Ġkháº³ng":5435,"chuyá»ĩn":5436,"ĠÄĲá»©ng":5437,"ĠIt":5438,"ĠAngeles":5439,"RÆ°á»£u":5440,"TÃ³c":5441,"Ġá»Ķn":5442,"ĠhÃ¢":5443,"Ġgen":5444,"NguyÃªn":5445,"Ġ27":5446,"237":5447,"Suá»ĳt":5448,"TÆ°":5449,"Ġxáº£":5450,"ĠSáº¿p":5451,"izabeth":5452,"Xu":5453,"ĠÃ´i":5454,"Ġmoi":5455,"ĠhÃ£m":5456,"ĠchoÃłng":5457,"Ġfrom":5458,"eorg":5459,"ĠÄĲá»ı":5460,"Sai":5461,"ĠkhÃ¡n":5462,"Chris":5463,"Giao":5464,"atherine":5465,"43":5466,"NÃ©m":5467,"ĠmÃ²n":5468,"ĠWest":5469,"cá»©":5470,"ChÆ°Æ¡ng":5471,"ĠCá»ĳ":5472,"ĠVi":5473,"ude":5474,"ĠrÃ¡ch":5475,"ĠHow":5476,"ĠGh":5477,"ĠPe":5478,"ĠEv":5479,"oseph":5480,"Ġsáº¯m":5481,"SÆ¡":5482,"CÃºi":5483,"II":5484,"Ġkhiáº¿u":5485,"Thiá»ĩt":5486,"7921":5487,"ump":5488,"Ġxá»īn":5489,"ĠSherlock":5490,"Há»ĵ":5491,"ĠÄĲÃªm":5492,"ĠMaria":5493,"Ġpizza":5494,"Ġtime":5495,"Cao":5496,"MÃłu":5497,"ĠxÃ´":5498,"786":5499,"Bill":5500,"ráº¥t":5501,"Ġá»ľ":5502,"Ġháº¡m":5503,"isco":5504,"ĠÃĬ":5505,"ĠGiá»¯":5506,"Báº£":5507,"oc":5508,"ĠMich":5509,"Victor":5510,"huh":5511,"Ġláº©n":5512,"ĠJesus":5513,"vn":5514,"well":5515,"ĠÄĳÄ©":5516,"Ġthey":5517,"Khá»ıe":5518,"ĠRu":5519,"ĠNik":5520,"agh":5521,"Ġabout":5522,"ira":5523,"Ġcáº·n":5524,"ĠhÆ°Æ¡":5525,"ĠTÃłu":5526,"Danh":5527,"ĠHannah":5528,"Ġkhoe":5529,"ĠKhu":5530,"Ġcome":5531,"ĠngÃ¢y":5532,"ĠJean":5533,"atch":5534,"Ġweb":5535,"ĠÃļ":5536,"Hu":5537,"Láº¡":5538,"Ġdáº·n":5539,"ĠÄĲáº¿":5540,"HÄĥ":5541,"Henry":5542,"ĠRiv":5543,"Ãģo":5544,"Dáº¥u":5545,"ĠxÃ¡ch":5546,"Ġvá»Ĺ":5547,"eller":5548,"ÃĬN":5549,"Kevin":5550,"Ġnháº¡t":5551,"ĠMed":5552,"ime":5553,"ats":5554,"ĠPan":5555,"Ġpl":5556,"Ġmiá»ĩn":5557,"ĠbÆ°á»Ľ":5558,"ĠBol":5559,"elia":5560,"ĠTHU":5561,"ĠChuáº©n":5562,"Chá»įn":5563,"ĠBond":5564,"ĠDÄ©":5565,"etro":5566,"ĠsÃ¡o":5567,"Ġyá»ĥm":5568,"ĠUS":5569,"otham":5570,"ure":5571,"ĠÃªm":5572,"ĠSl":5573,"ĠSiÃªu":5574,"Ġfeet":5575,"ĠBerlin":5576,"Cal":5577,"KÃŃnh":5578,"ĠLáº¥y":5579,"Sara":5580,"ĠÄĳÃ¡i":5581,"ĠkhÃ©o":5582,"its":5583,"ĠQuá»·":5584,"ĠBrown":5585,"Je":5586,"rad":5587,"ĠcÃ´i":5588,"Chá»©ng":5589,"Emily":5590,"ĠGiÃ¡m":5591,"ĠbÆ¡m":5592,"TÃ¢":5593,"dore":5594,"Ġkhung":5595,"ĠSar":5596,"PhÆ°Æ¡ng":5597,"ĠÄĲá»§":5598,"ĠLeo":5599,"ĠLÃ¢m":5600,"ĠVÃ´":5601,"BÃłn":5602,"ĠcÃµi":5603,"ĠxÆ°ng":5604,"Ġquáº·c":5605,"ĠmÃłng":5606,"ĠPo":5607,"ĠGreen":5608,"nghe":5609,"Rá»ĳt":5610,"ĠvÃº":5611,"Ġná»Ł":5612,"ĠbÃ¹ng":5613,"Ġday":5614,"Khá»Łi":5615,"uc":5616,"ChÃ¬a":5617,"uya":5618,"7883":5619,"ĠAndrew":5620,"ĠWells":5621,"Äĳang":5622,"aby":5623,"ĠWalker":5624,"\"!":5625,"tá»«":5626,"Ġsá»ī":5627,"ĠgÃ¢":5628,"ari":5629,"ĠXem":5630,"Máº¡nh":5631,"ĠÄĳáº½":5632,"ĠMá»Ł":5633,"Ġkhuáº©n":5634,"ĠFlash":5635,"ĠAvatar":5636,"Nguá»ĵn":5637,"88":5638,"EV":5639,"bend":5640,"láº¡i":5641,"ĠBáº¯n":5642,"DÃ¡m":5643,"cáº£m":5644,"Ġvuá»ĳt":5645,"ĠBay":5646,"oto":5647,"rac":5648,"hoáº·c":5649,"CO":5650,"IL":5651,"ĠNÃło":5652,"ĠTriá»ģu":5653,"ĠtuyÃª":5654,"Tá»©c":5655,"Ġcháº©n":5656,"ange":5657,"Nháº¯m":5658,"orth":5659,"ĠTháº§y":5660,"ĠPotter":5661,"ĠbuÃ´":5662,"ĠNháº«n":5663,"ĠCarter":5664,"colm":5665,"ĠbáºŃy":5666,"phy":5667,"ĠquáºŃy":5668,"arth":5669,"ĠMarcus":5670,"ĠWinter":5671,"KH":5672,"UY":5673,"Ġtháº¥u":5674,"Ġgood":5675,"Ġgonna":5676,"ano":5677,"ĠCáº©n":5678,"imus":5679,"ĠFinch":5680,"Ġngá»Ļt":5681,"ÄĲá»ģu":5682,"Thá»©c":5683,"ĠBiáº¿t":5684,"ĠnhuáºŃn":5685,"LES":5686,"Ġtáº§n":5687,"Ġmá»ıng":5688,"Ġngá»Ļ":5689,"ĠHitler":5690,"ĠWhoa":5691,"ream":5692,"ĠOs":5693,"irg":5694,"á»¦y":5695,"TÆ°Æ¡ng":5696,"ĠSÆ¡":5697,"ĠDor":5698,"ĠNaz":5699,"37":5700,"men":5701,"nor":5702,"ville":5703,"Ġcafe":5704,"672":5705,"bá»ĳ":5706,"ĠBenn":5707,"ĠÃło":5708,"appy":5709,"BÃ³ng":5710,"SÃ¡u":5711,"á»¤":5712,"Ġcáº©u":5713,"chÃ¡u":5714,"ĠÄĲÃ¢u":5715,"etto":5716,"Ġthá»§ng":5717,"Ġkhuáº¥t":5718,"ĠláºŃu":5719,"ĠhÃ´ng":5720,"Ġtrá»įn":5721,"ĠphÃłn":5722,"chan":5723,"ĠTÆ°á»Ŀng":5724,"ĠDeb":5725,"ĠRose":5726,"55":5727,"Ġneed":5728,"ĠsÃ´i":5729,"Ġráº¡p":5730,"ĠphÃ¢":5731,"Ġemail":5732,"Ġ43":5733,"ula":5734,"PD":5735,"ĠtÃºng":5736,"Ġmáº»":5737,"Dave":5738,"ĠÄĤ":5739,"Ġngáº¡o":5740,"Thi":5741,"ĠMÃ´n":5742,"Ġbá»ĭa":5743,"GiÃ¡m":5744,"ĠStan":5745,"ven":5746,"Ġnhá»ķ":5747,"ĠBáº£y":5748,"ĠDen":5749,"ĠAllen":5750,"Ġdid":5751,"ĠBruce":5752,"CÃł":5753,"Ġgai":5754,"Ġnháº¥c":5755,"ÄĲuá»ķi":5756,"Ġrau":5757,"ĠJason":5758,"igan":5759,"ffrey":5760,"acy":5761,"ĠlÆ°á»£n":5762,"ĠÄĲáº·c":5763,"aham":5764,"Ġ37":5765,"ove":5766,"ĠGray":5767,"Ngoan":5768,"Come":5769,"ĠThá»§y":5770,"Ġchá»¥c":5771,"Buá»ĵn":5772,"ĠÄĳáº¯m":5773,"nhÃ¬n":5774,"Ġsoi":5775,"Christ":5776,"ĠRom":5777,"Ġfan":5778,"Mua":5779,"VÃŃ":5780,"ae":5781,"ĠchÆ¡":5782,"Ġháº¹p":5783,"Ġthá»ĭnh":5784,"ĠHobbit":5785,"CÆ¡n":5786,"Lou":5787,"ĠhÆ¡":5788,"Paul":5789,"Ġthung":5790,"ĠbÃłng":5791,"Ġkhá»Ŀ":5792,"cHFFFF":5793,"ĠEdward":5794,"cáº£":5795,"Ġcould":5796,"ĠtrÃªu":5797,"emo":5798,"ĠPablo":5799,"ĠHarris":5800,"ĠRobin":5801,"Amen":5802,"bÃł":5803,"Â§":5804,"ando":5805,"ternet":5806,"90":5807,"zy":5808,"ĠThá»ķ":5809,"ffff":5810,"riel":5811,"Sher":5812,"Ġtá»īa":5813,"De":5814,"Ġ**":5815,"ĠcÆ°Æ¡":5816,"ĠÄĳam":5817,"Ġngá»±":5818,"ĠGá»įi":5819,"Ġway":5820,"ĠtÃŃm":5821,"Dá»įn":5822,"Táº¡":5823,"ram":5824,"Ġxoa":5825,"ĠOrc":5826,"ĠthiÃª":5827,"Hel":5828,"ĠÄĲiá»ĩn":5829,"ĠHáºŃu":5830,"ĠStar":5831,"Ġfeel":5832,"200":5833,"Mer":5834,"Ty":5835,"Vá»Ľ":5836,"ĠtH":5837,"ĠnÆ°Æ¡":5838,"Ġnáº¥p":5839,"ĠbÃºa":5840,"ĠSá»±":5841,"ĠKate":5842,"ardo":5843,"Ġoxy":5844,"wich":5845,"thÃ´i":5846,"NÃ¢ng":5847,"Sm":5848,"UN":5849,"oot":5850,"Ġá»ĳc":5851,"Ġtá»įa":5852,"aisy":5853,"ĠBat":5854,"ĠGandalf":5855,"ĠThiáº¿t":5856,"atal":5857,"Ġruá»ĵi":5858,"ĠCanada":5859,"Pr":5860,"Se":5861,"ĠTrÆ°á»Łng":5862,"ĠPháºŃt":5863,"kho":5864,"Ġnáº¥m":5865,"ĠTÃ¬m":5866,"ĠRuss":5867,"ĠInd":5868,"Ġ400":5869,"ĠScarlett":5870,"Ġlá»įt":5871,"ĠbÃ¹n":5872,"ĠLiz":5873,"Ġtoi":5874,"95":5875,"km":5876,"ĠVá»¥":5877,"ÃĤm":5878,"BÃ´":5879,"Ġkm":5880,"Ġrá»±c":5881,"ĠgiÃ¢":5882,"Thá»ıa":5883,"esh":5884,"ĠLucas":5885,"Lá»ĩnh":5886,"bá»įn":5887,"fred":5888,"nhanh":5889,"Ġkhá»ĳng":5890,"ĠkhiÃªn":5891,"ogan":5892,"ĠBoston":5893,"04":5894,"Dáº«n":5895,"ves":5896,"ĠkhÃ¡i":5897,"ĠVá»ĩ":5898,"Ġbut":5899,"ĠngáºŃm":5900,"Ġdá»ĵn":5901,"Nguy":5902,"erg":5903,"ĠSá»Ł":5904,"ĠSean":5905,"ĠLÃºc":5906,"ĠTráº§n":5907,"242":5908,"Ġback":5909,"ĠQuÃ¡":5910,"Â£":5911,"Ġcay":5912,"Ġnghiá»ĩt":5913,"ĠCÃ¢m":5914,"Er":5915,"VÃ²ng":5916,"sau":5917,"Ġngai":5918,"ÄĲáº¥t":5919,"ĠCao":5920,"ĠBÃ³ng":5921,"ĠGen":5922,"tháº±ng":5923,"ild":5924,".,":5925,"Is":5926,"ble":5927,"vá»ģ":5928,"Ġif":5929,"ĠnÃ¡o":5930,"ĠTá»ķ":5931,"ĠHá»ķ":5932,"ury":5933,"ĠWalt":5934,"Scott":5935,"bs":5936,"ChÄĥ":5937,"ĠLÃªn":5938,"ĠSimon":5939,"ski":5940,"ĠÄĳáº§m":5941,"Ġxui":5942,"ĠquÄĥng":5943,"ThÃª":5944,"ĠMu":5945,"ĠHÃ´m":5946,"ĠDNA":5947,"á»°":5948,"ĠBell":5949,"ĠChuck":5950,"Pháº£n":5951,"ĠTrÆ°á»Ŀng":5952,"........":5953,"Dom":5954,"Suy":5955,"ĠÆ¯":5956,"phen":5957,"ĠduyÃªn":5958,"ĠCháº¡y":5959,"ĠGotham":5960,"ĠYoung":5961,"ewis":5962,"FBI":5963,"á»Ģ":5964,"Ġgáº¡ch":5965,"ĠlÃŃu":5966,"ĠEric":5967,"35":5968,"TiÃªu":5969,"oon":5970,"Chá»¥p":5971,"ĠÄĲen":5972,"ĠRey":5973,"Ãģnh":5974,"Ġkiá»ģm":5975,"ĠHá»ĵi":5976,"icity":5977,"VÄĥn":5978,"ju":5979,"ĠtÃł":5980,"ĠthÃ©t":5981,"Ġkhe":5982,"ĠQuay":5983,"Ġ75":5984,"ife":5985,"Gre":5986,"Ġdá»Ŀi":5987,"ĠgiÃ´":5988,"ĠPhoebe":5989,"he":5990,"kes":5991,"ĠÄĳiá»ģn":5992,"Ġmen":5993,"ĠSant":5994,"47":5995,"Bá»ĩ":5996,"ĠcÃºt":5997,"Ġthink":5998,"Ġnáº£y":5999,"ĠrÆ¡":6000,"NgÆ°Æ¡":6001,"ĠThá»ĭ":6002,"uri":6003,"Ġlam":6004,"ÄĲá»ķi":6005,"ĠnÃ³c":6006,"ĠGro":6007,"Ted":6008,"á»¢":6009,"Ġnghiá»ģn":6010,"ThÃ¢n":6011,"ĠJacob":6012,"Ġphá»¥ng":6013,"ĠmÃ£nh":6014,"MÃ¹a":6015,"wa":6016,"ĠgÅ©i":6017,"ĠMÃ¡y":6018,"Äĳiá»ģu":6019,"cofield":6020,"ĠMatthew":6021,"oulson":6022,"Ġtháº¯n":6023,"ĠngÆ¡":6024,"ĠTiáº¿p":6025,"ĠBor":6026,"orp":6027,"ĠGáº·p":6028,"ĠHarvey":6029,"Ġváº§n":6030,"ĠSÃ¡u":6031,"ĠAf":6032,"ĠEthan":6033,"Ġsoáº¡n":6034,"cHF":6035,"ĠLuke":6036,"Per":6037,"vÃło":6038,"Âº":6039,"Ġxi":6040,"Quá»³":6041,"ito":6042,"ĠTrÃªn":6043,"ĠHolly":6044,"anslat":6045,"ĠSavage":6046,"Aw":6047,"ST":6048,"ness":6049,"ĠlÆ°á»Ľt":6050,"ĠnhÃŃch":6051,"Ġcá»į":6052,"arg":6053,"Giá»įng":6054,"une":6055,"Tommy":6056,"VÆ°Æ¡ng":6057,"Ġvá»ĵ":6058,"Ġná»Ļ":6059,"Khá»ıi":6060,"But":6061,"Bye":6062,"How":6063,"ĠsÃ²ng":6064,"Ġtráº·c":6065,"Ġnhiá»ħu":6066,"My":6067,"sen":6068,"ĠUm":6069,"entine":6070,"ĠClay":6071,"ully":6072,"Ġevery":6073,"ĠbÃ¡t":6074,"ĠxÃ³t":6075,"chi":6076,"ĠBá»©c":6077,"Giá»¯a":6078,"ync":6079,"HÃ¢n":6080,"IT":6081,"LÃ£nh":6082,"UCK":6083,"nold":6084,"Ġhis":6085,"ĠBá»ĭ":6086,"ĠLat":6087,"ĠJay":6088,"ĠKe":6089,"ĠxuÃ´i":6090,"ĠXu":6091,"aku":6092,"House":6093,"ĠSy":6094,"ĠSon":6095,"ĠFran":6096,"avo":6097,"ĠXong":6098,"ĠGrey":6099,"ouston":6100,"ĠÄĳá»±c":6101,"ĠThá»¥y":6102,"ĠRoman":6103,"ilbo":6104,"lake":6105,"Fel":6106,"Le":6107,"br":6108,"elf":6109,"ĠLuÃ¢n":6110,"uzz":6111,"BÄĥng":6112,"CÆ°":6113,"Ram":6114,"ĠsÆ°Æ¡ng":6115,"ĠsÃºp":6116,"phia":6117,"ohan":6118,"MÃ£":6119,"OL":6120,"ancy":6121,"ause":6122,"Nga":6123,"ĠBáº¥t":6124,"Ġ26":6125,"ala":6126,"tral":6127,"'d":6128,"áº¦":6129,"ĠnÃ©t":6130,".....":6131,"ĠHuy":6132,"ĠRáºŃp":6133,"ydia":6134,"Eddie":6135,"ĠbÆ°á»Ľm":6136,"Ká»³":6137,"Richard":6138,"di":6139,"han":6140,"Ġvá»¥n":6141,"ĠAlpha":6142,"lad":6143,"vis":6144,"Ġsá»«ng":6145,"PhÃ¡":6146,"Ġxuáº©n":6147,"rael":6148,"Hank":6149,"Ġná»©t":6150,"ĠHi":6151,"Ġchip":6152,"Ġlá»ĩch":6153,"ĠAnnie":6154,"Daniel":6155,"terpris":6156,"Jan":6157,"ĠKho":6158,"ThÃ¡ng":6159,"That":6160,"cháº¯c":6161,"ele":6162,"EO":6163,"ĠÄĳÃ¹i":6164,"ĠsÃ¢m":6165,"ĠnhÃºc":6166,"ĠCass":6167,"á»£m":6168,"ĠJoy":6169,"ĠthuÃ´":6170,"ĠKai":6171,"ĠEsc":6172,"Uhm":6173,"Ghi":6174,"39":6175,"Há»£p":6176,"ĠchÃ¢":6177,"Ġdá»ĳc":6178,"ĠuÃ½":6179,"let":6180,"ĠcÃ":6181,"Khiáº¿n":6182,"ĠTer":6183,"ĠhÃłn":6184,"Ġnháº¡o":6185,"ĠTÃ²a":6186,"orry":6187,"Ġ46":6188,"ĠXÃ´":6189,"SuÃ½t":6190,"Ġláº»n":6191,"Hiá»ĩp":6192,"Ġhon":6193,"Thá»ĭ":6194,"ĠBá»ĩ":6195,"ican":6196,"Robert":6197,"Cuá»ĳn":6198,"US":6199,"ĠcÃ²i":6200,"ĠlÃµi":6201,"ÄĲáº©y":6202,"AM":6203,"bi":6204,"ms":6205,"ĠkhÃ¢u":6206,"Ġhiáº¿u":6207,"ĠTinh":6208,"PhÃ¢n":6209,"Ġwould":6210,"ALL":6211,"38":6212,"Ly":6213,"Matt":6214,"Ná»Ńa":6215,"ĠcÃ¡u":6216,"ĠchÃ¬":6217,"ĠxÃ´i":6218,"icholas":6219,"ondor":6220,"ĠAnton":6221,"Quyáº¿t":6222,"ĠLinda":6223,"ĠGood":6224,"ĠEmma":6225,"Monica":6226,"Gar":6227,"po":6228,"Ġcm":6229,"KhÃ³a":6230,"ĠLÃ£nh":6231,"Roy":6232,"fell":6233,"Ġnáº¡t":6234,"Ġkhiáº¿t":6235,"Ġpháº¿t":6236,"ĠSer":6237,"ĠTyler":6238,"Ġchá»Ńi":6239,"41":6240,"BÃ¡n":6241,"Quyá»ģn":6242,"ĠhÃ²ng":6243,"ĠgÄĥng":6244,"ĠSil":6245,"ĠDory":6246,"ĠGu":6247,"ĠXe":6248,"ĠBrad":6249,"ashi":6250,"iami":6251,"cow":6252,"ody":6253,"ĠcÃ¡n":6254,"ĠbÃ³c":6255,"Ġpháº¿":6256,"ÄĲÃ¡":6257,"ÄĲá»Ŀi":6258,"ĠBourne":6259,"ĠChun":6260,"ĠLÃ£o":6261,"ĠAg":6262,"ĠPep":6263,"Steve":6264,"Mal":6265,"niss":6266,"Ġnhai":6267,"ĠGrant":6268,"Quáº§n":6269,"ower":6270,"ifer":6271,"Adam":6272,"Jane":6273,"Mc":6274,"Ġun":6275,"ĠvÃ£":6276,"ĠbÆ°":6277,"ĠgÃ¬n":6278,"ĠMÄ©":6279,"ĠViá»ĩc":6280,"Ġdoáº¡":6281,"ĠthoÃ¡ng":6282,")}...":6283,"'.":6284,"bon":6285,"ks":6286,"Ġká»ģ":6287,"indy":6288,"ĠMag":6289,"ĠChase":6290,"ĠLaw":6291,"ĠNÆ°á»Ľc":6292,"ĠNap":6293,"ĠBrook":6294,"umble":6295,"Cr":6296,"Doug":6297,"En":6298,"Ti":6299,"tá»ĳt":6300,"Ġváº«y":6301,"ĠxÃ¡m":6302,"ĠMia":6303,"ĠÄĲÃłi":6304,"ori":6305,"ĠPhu":6306,"ĠClark":6307,"ector":6308,"cHFFFFFF":6309,"Mat":6310,"ys":6311,"Ġnáº¿n":6312,"Ġbáº§m":6313,"Ġngáº§u":6314,"ĠphÆ¡i":6315,"Cháº¥t":6316,"augh":6317,"ĠhoÃłnh":6318,"ĠRagnar":6319,"olt":6320,"Ġ49":6321,"ird":6322,"ÄĲá»ĩch":6323,"cer":6324,"yatt":6325,"Ġáº¢":6326,"ani":6327,"Tháº¯ng":6328,"ĠÄĲáº£ng":6329,"ĠVirg":6330,"illa":6331,"297":6332,"ĠFlorida":6333,"ĠsÆ°á»Łi":6334,"Ġngá»£i":6335,"Ġque":6336,"ĠGideon":6337,"ĠRá»ĵng":6338,"rix":6339,"Â©":6340,"ĠhÃ¡i":6341,"Ġháº»m":6342,"Chim":6343,"ĠBiÃªn":6344,"ĠLáº§n":6345,"ĠAng":6346,"Ġtuá»ĩ":6347,"arling":6348,"ĠTeddy":6349,"BA":6350,"New":6351,"gÃ¬":6352,"ĠtÃ½":6353,"ines":6354,"ĠMolly":6355,"uill":6356,"Ġwhen":6357,"BáºŃt":6358,"LÃ²ng":6359,"rl":6360,"Ãĳ":6361,"Kháº£":6362,"ĠMai":6363,"ĠNic":6364,"ĠWatson":6365,"Pat":6366,"ĠchÃ´m":6367,"ĠnhÃ¡y":6368,"Ìģ...":6369,"ĠGeorg":6370,"idd":6371,"sei":6372,"ĠClar":6373,".'":6374,"Billy":6375,"Cung":6376,"Wil":6377,"Ġláº«y":6378,"Ġnever":6379,"ĠdÆ°a":6380,"Ġquáº¡":6381,"chu":6382,"ĠPro":6383,"Ġ911":6384,"awa":6385,"Cá»¥c":6386,"MAN":6387,"Ġnhá»ĭ":6388,"ĠtrÆ¡n":6389,"Chia":6390,"Ġcua":6391,"Alo":6392,"Cá»Ļng":6393,"Ġxáº»":6394,"ĠTÃ´":6395,"Ġbá»ĭt":6396,"ĠVáº¥n":6397,"ets":6398,"itol":6399,"Hiá»ĩu":6400,"Má»¥":6401,"phie":6402,"ĠMik":6403,"ĠBing":6404,"Ġany":6405,"ĠVincent":6406,"01":6407,"Sky":6408,"rich":6409,"ĠnhÃ£n":6410,"Ġtrá»į":6411,"ĠCuá»Ļc":6412,"ĠSáº¯t":6413,"Ġbáº£nh":6414,"ĠRand":6415,"ĠlÃ£m":6416,"attan":6417,"Rick":6418,"Ġte":6419,"Ġkhuyáº¿n":6420,"Ġsome":6421,"ÄĲá»¡":6422,"ĠBinh":6423,"ĠHá»ĵ":6424,"burg":6425,"AUGH":6426,"ĠcÃ¡p":6427,"á»«m":6428,"ĠBÃ¡":6429,"ĠSun":6430,"esa":6431,"ĠJosh":6432,"ote":6433,"Ġwell":6434,"Giáº¥y":6435,"LoÃłi":6436,"Be":6437,"Sá»Ł":6438,"ĠtrÃ¡n":6439,"Ġthá»±":6440,"ĠSol":6441,"PhÃ³ng":6442,"ĠLisa":6443,"ĠNgá»ĵi":6444,"agol":6445,"ĠWhit":6446,"ĠTHUáº¬T":6447,"HD":6448,"Ġcong":6449,"Ġráº§y":6450,"ĠBau":6451,"ĠBáº±ng":6452,"ĠBeth":6453,"ĠStorm":6454,"ĠQU":6455,"entin":6456,"46":6457,"Ken":6458,"day":6459,"ĠÄĳiáº¿c":6460,"ĠlÆ°á»Ŀi":6461,"ĠtrÆ°á»£ng":6462,"any":6463,"inia":6464,"ThÃ¡m":6465,"ĠHá»įc":6466,"Ãµm":6467,"ĠIris":6468,"obar":6469,"odd":6470,"ĠHarold":6471,"TS":6472,"jamin":6473,"Ìī,":6474,"Trang":6475,"ĠVui":6476,"QuÃ¡i":6477,"ider":6478,"Dá»±a":6479,"Ġá»Ľt":6480,"ĠbÆ°u":6481,"Ġsand":6482,"ĠÄĳÃ£ng":6483,"ied":6484,"Ġnu":6485,"Ġsom":6486,"ĠChÃ¢n":6487,"Suá»µt":6488,"ĠFrancisco":6489,"áºłI":6490,"mi":6491,"ĠchÆ°á»Ľc":6492,"ĠvÆ°á»Ľng":6493,"ĠMord":6494,"ĠNá»Ļi":6495,"ĠQuÃ½":6496,"ĠRaymond":6497,"Xuáº¥t":6498,"EC":6499,"las":6500,"ĠmÆ°":6501,"ĠtrÃło":6502,"ĠColl":6503,"ĠSing":6504,"Trá»ĳn":6505,"Ġmake":6506,"ĠBarb":6507,"other":6508,"saac":6509,"49":6510,"Dean":6511,"TÄĥng":6512,"bá»Łi":6513,"hai":6514,"ngay":6515,"Ġláº¡m":6516,"anc":6517,"ĠFitz":6518,"ĠLucy":6519,"Lá»Ĺi":6520,"ti":6521,"Ġnáº¯p":6522,"ĠnhÃ¡nh":6523,"Ġroi":6524,"ĠMaggie":6525,"ĠDol":6526,"ĠAth":6527,"ĠPier":6528,"Ġpiano":6529,"ebecca":6530,"31":6531,"Nam":6532,"TÆ¯á»ľNG":6533,"line":6534,"mp":6535,"Ãĸ":6536,"ĠlÃºt":6537,"ĠnhÃºng":6538,"Ġnháº½":6539,"ĠdÆ°Æ¡":6540,"ĠMiami":6541,"amm":6542,"Ġ29":6543,"outh":6544,"ĠÄĳoa":6545,"BÃ©":6546,"Ná»Ĺi":6547,"ĠTÃło":6548,"ĠReg":6549,"ely":6550,"ĠcH":6551,"Ġnhá»ĵi":6552,"ĠGary":6553,"ĠJerry":6554,"Ġsex":6555,"ĠBarnes":6556,"Charles":6557,"tÃªn":6558,"Ġáº©m":6559,"Ġtá»§y":6560,"ĠDra":6561,"Äĳá»ĵ":6562,"ring":6563,"Ġnight":6564,"Ġgáº§y":6565,"ĠCá»¥c":6566,"ĠKn":6567,"Ġwho":6568,"ect":6569,"Alice":6570,"Ġheart":6571,"ĠTeam":6572,"AC":6573,"ĠvÃ£n":6574,"Ġher":6575,"Ġphiáº¿n":6576,"aya":6577,"ĠCL":6578,"ĠSung":6579,"Phim":6580,"Truyá»ģn":6581,"ips":6582,"Gandalf":6583,"ĠchÃ¨o":6584,"ĠbÃ´i":6585,"Ġngáº§n":6586,"ĠTá»Ļc":6587,"eland":6588,"ĠEver":6589,"ĠxoÃ¡y":6590,"William":6591,"ĠTurner":6592,"ĠPalmer":6593,"Tinh":6594,"Ġbus":6595,"Ġhá»ķng":6596,"Ġngá»¥":6597,"atron":6598,"Ġoff":6599,"inder":6600,"ĠGiá»ĳng":6601,"Sean":6602,"ĠnÄĥ":6603,"Ġgáº§m":6604,"ĠrÃ¹a":6605,"Ġdinh":6606,"ĠMick":6607,"ĠGall":6608,"edy":6609,"ĠReese":6610,"Brian":6611,"Máº¡ng":6612,"TÃ¢m":6613,"XÃ©t":6614,"mÃ¬nh":6615,"Â¾":6616,"Ġbáº¿":6617,"Ġkhuya":6618,"ĠCÃ¢u":6619,"anhattan":6620,"Ġlook":6621,"icia":6622,"ĠÄĳÆ°Æ¡c":6623,"Andy":6624,"ĠKatie":6625,"\"Â":6626,"KK":6627,"ru":6628,"Ġen":6629,"ĠvÃ¡c":6630,"ĠvÃ¡ch":6631,"ĠvÃ²i":6632,"Ngáº¡c":6633,"ĠViÃªn":6634,"aver":6635,"Ġ150":6636,"Ahh":6637,"83":6638,"KÃªu":6639,"Meg":6640,"nt":6641,"py":6642,"ĠlÆ°á»¡ng":6643,"Ġbá»Ĺng":6644,"Ġxen":6645,"ĠCáº§u":6646,"ĠBáº¡ch":6647,"ĠÄĲá»ĩ":6648,"ĠHá»£p":6649,"Ġ67":6650,"ĠStone":6651,"ĠSanta":6652,"ĠJesse":6653,"ridge":6654,"HÃŃt":6655,"Rá»Ŀi":6656,"áº®":6657,"Ġlen":6658,"Ġtháº¹n":6659,"Ġviáº¿ng":6660,"ĠmÃ¡nh":6661,"Ġmá»¡":6662,"ĠbÃ¬":6663,"ĠgÃło":6664,"ĠnhÆ°á»£ng":6665,"Ġnhá»±a":6666,"Ġrá»¡":6667,"Ġphanh":6668,"ĠÄĲÆ°":6669,"ĠThá»Ŀi":6670,"ĠNe":6671,"ĠNguyÃªn":6672,"Ġ642":6673,"okyo":6674,"ĠEnterpris":6675,"ĠSá»ĳ":6676,"ĠAlb":6677,"ĠAnn":6678,"Ġboong":6679,"oki":6680,"DO":6681,"wo":6682,"Ġná»ģ":6683,"ĠpháºŃt":6684,"Ġxáº£o":6685,"ĠÄĲÃ´n":6686,"ĠMarie":6687,"ANG":6688,"ctor":6689,"ĠÄĳao":6690,"ĠEvan":6691,"ĠNgá»§":6692,"Dar":6693,"Mart":6694,"pr":6695,"Ġá»Ķng":6696,"Ġcom":6697,"Ġváº¡t":6698,"Ġri":6699,"Nháº¹":6700,"ĠDavis":6701,"ĠRen":6702,"ĠNÃªn":6703,"Cas":6704,"MáºŃt":6705,"San":6706,"Ġcar":6707,"ChuyÃª":6708,":.":6709,"Jess":6710,"cul":6711,"Ġchá»ĵn":6712,"Ġbá»«a":6713,"ĠdÆ°ng":6714,"ĠnghÃªnh":6715,"ĠMir":6716,"ĠLily":6717,"ĠWow":6718,"Ġ55":6719,"ivi":6720,"DN":6721,"Táº§ng":6722,"Ġor":6723,"ĠJoseph":6724,"ila":6725,"Ġ99":6726,"ĠVÃłng":6727,"DÃ¢y":6728,"Sa":6729,"Ã©ng":6730,"Ġour":6731,"Ġná»ĵng":6732,"Ġphiá»ĩn":6733,"ĠCat":6734,"ĠCooper":6735,"ĠHÃ¬nh":6736,"ĠDur":6737,"ĠGo":6738,"áº³m":6739,"ï¼Ł":6740,"ĠGrayson":6741,"Cáº¡n":6742,"Good":6743,"SI":6744,"TÃ²a":6745,"ĠliÃªng":6746,"Ġgiá»Ł":6747,"chá»ĭ":6748,"ĠBoo":6749,"ĠHong":6750,"Phoebe":6751,"ĠJordan":6752,"ĠFiona":6753,"lease":6754,"iper":6755,"ĠLance":6756,"Lá»±c":6757,"pton":6758,"tiáº¿ng":6759,"Ġhuá»ĩ":6760,"Johnny":6761,"ope":6762,"á»¦A":6763,"ĠKaren":6764,"Ġsandwich":6765,"SiÃªu":6766,"bá»ĭ":6767,"Ġvali":6768,"ĠrÃ¡n":6769,"ĠCos":6770,"ĠThá»±c":6771,"ĠReid":6772,"VÃ¹ng":6773,"Ġá»¦y":6774,"Ġláº§y":6775,"ĠtrÃ´":6776,"Ġ34":6777,"adel":6778,"ĠnÃ©":6779,"ĠTÃ¢m":6780,"ĠWar":6781,"uba":6782,"ollo":6783,"Bobby":6784,"ĠAshley":6785,"Ġlet":6786,"Ġthem":6787,"ĠDEA":6788,"ĠTroy":6789,"aha":6790,"Ġá»ªm":6791,"ĠÄĤn":6792,"ĠCá»¦A":6793,"ĠGondor":6794,"ota":6795,"ega":6796,"BO":6797,"Báº£y":6798,"Hannah":6799,"Mur":6800,"ĠlÆ°á»Ŀng":6801,"Ġbáº¥y":6802,"ĠrÃłnh":6803,"Thiáº¿p":6804,"ĠGI":6805,"azz":6806,"ĠTuáº§n":6807,"VáºŃt":6808,"Ġmore":6809,"ĠÄĳá»ĥu":6810,"ĠSÃ¡t":6811,"ĠAaron":6812,"ĠYÃªu":6813,"iko":6814,"ĠElizabeth":6815,"Ġshow":6816,"ĠBern":6817,"ĠMoscow":6818,"Leon":6819,"oom":6820,"ĠchÃŃch":6821,"ÄĲáºŃp":6822,"aney":6823,"ĠCen":6824,"oster":6825,"ĠAmanda":6826,"ĠcÆ°a":6827,"ĠSai":6828,"ĠHans":6829,"Tra":6830,"ĠDÃ¢n":6831,"ĠGab":6832,"259":6833,"ĠCapitol":6834,"Ġtruá»ĵng":6835,"02":6836,"Há»¡i":6837,"ci":6838,"dd":6839,"Ġnáº£n":6840,"Ġtake":6841,"etch":6842,"ili":6843,"ĠNgá»įc":6844,"ĠBrody":6845,"ĠWinterfell":6846,"BB":6847,"ĠthÃ¢y":6848,"Ġthuáº«n":6849,"ulu":6850,"trÆ°á»Ľc":6851,"azar":6852,"Jesse":6853,"ĠScotland":6854,"ĠMordor":6855,"HO":6856,"hoo":6857,"ĠkÃ¨o":6858,"ĠmiÃªu":6859,"ĠchoÃ¡ng":6860,"á»ķn":6861,"ĠBuck":6862,"ĠHmm":6863,"erys":6864,"iskey":6865,"hi":6866,"sey":6867,"ĠRod":6868,"ĠHoward":6869,"ĠEscobar":6870,"INH":6871,"Kar":6872,"Molly":6873,"Sub":6874,"Val":6875,"jah":6876,"sá»±":6877,"Ġlá»±u":6878,"ÄĲá»ĳt":6879,"Æ°á»£m":6880,"ĠHáº§u":6881,"Ġ32":6882,"ĠNhá»ĩn":6883,"Ġ88":6884,"ĠQuyá»ģn":6885,"TáºŃn":6886,"so":6887,"tit":6888,"Ġbá»ķng":6889,"Ġsan":6890,"ĠphÃłm":6891,"ĠSat":6892,"ĠMarsh":6893,"ova":6894,"Kate":6895,"Ste":6896,"UD":6897,"arty":6898,"ĠJin":6899,"ĠEx":6900,"aka":6901,"ersey":6902,"enstein":6903,"AY":6904,"EE":6905,"QKK":6906,"ĠmÃ¬n":6907,"Ġhá»¥t":6908,"Thá»§y":6909,"ĠSÃ¡ng":6910,"ĠDick":6911,"ĠRich":6912,"ĠAndre":6913,"Carol":6914,"ĠLaurel":6915,"ombia":6916,"ĠÃ¢u":6917,"ngÆ°Æ¡i":6918,"Ġcá»ĳi":6919,"ĠcháºŃt":6920,"Ġaway":6921,"Ġtam":6922,"ĠCung":6923,"ĠTiáº¿ng":6924,"ĠSyl":6925,"ĠVer":6926,"ĠKirk":6927,"erek":6928,"ĠThea":6929,"Can":6930,"fsp":6931,"gy":6932,"iot":6933,"Ġkáº½":6934,"Ġdáº«m":6935,"Thá»ĭt":6936,"ĠCuddy":6937,"ĠMÃł":6938,"ĠBÃ¡o":6939,"ĠGer":6940,"ĠVÄĥn":6941,"ĠJai":6942,"elt":6943,"ĠÂ¶":6944,"Ġchá»£t":6945,"96":6946,"vi":6947,"Ġsir":6948,"ĠhÃ¹":6949,"ĠhÄĥng":6950,"ĠrÃ£i":6951,"Chandler":6952,"chÃło":6953,"ĠMak":6954,"Tráº»":6955,"ĠOx":6956,"udev":6957,"ĠJohnson":6958,"aint":6959,"Katie":6960,"ĠRoger":6961,"Amy":6962,"ĠÃ´n":6963,"ĠtÃ¡ng":6964,"ĠtÃ´m":6965,"ĠlÆ°Æ¡":6966,"Ġgu":6967,"Ġguy":6968,"ĠManhattan":6969,"Ġ52":6970,"ĠQuáºŃn":6971,"KÃŃch":6972,"TiÃªn":6973,"lu":6974,"Ġcháº£i":6975,"ĠmÃ©p":6976,"Ġbáº©m":6977,"Ġduyá»ĩt":6978,"ÄĲá»ģ":6979,"ĠLÃ¹i":6980,"ĠDÃ¹":6981,"ĠThÆ°":6982,"ĠVÃµ":6983,"ĠNháº¥t":6984,"ucker":6985,"ĠBennet":6986,"Bi":6987,"Her":6988,"Ġtráº¯c":6989,"ĠHal":6990,"imo":6991,"Ġvá»ĭnh":6992,"SÄ©":6993,"bord":6994,"king":6995,"ĠmÃ¡ch":6996,"ĠsÃ©c":6997,"ĠphÆ°á»Ľc":6998,"ÌĢ!":6999,"ĠKenn":7000,"ryan":7001,"aggins":7002,"-...":7003,"Beck":7004,"Ġphang":7005,"Ġao":7006,"ĠSum":7007,"ĠHiro":7008,"ĠKÃ´ng":7009,"ĠBrand":7010,"05":7011,"book":7012,"ĠchÃ¹i":7013,"á»¥a":7014,"ĠJersey":7015,"ĠKit":7016,"inger":7017,"uro":7018,"Ash":7019,"Diá»ħn":7020,"biáº¿t":7021,"ĠÄĳáº¯p":7022,"Ġgame":7023,"ĠtrÃºt":7024,"Cháº·n":7025,"ĠTÃ´n":7026,"NgÃ¢n":7027,"á»£n":7028,"ĠAz":7029,"ĠKelly":7030,"ĠLuáºŃt":7031,"Ġbeen":7032,"ASA":7033,"udeviet":7034,"DÃ²ng":7035,"Ros":7036,"Ġtháº£y":7037,"Ġsc":7038,"Ġthá»«ng":7039,"Thomas":7040,"ĠMmm":7041,"ĠBá»ĵ":7042,"ĠÄĲÃło":7043,"ĠLyn":7044,"ĠRio":7045,"ĠKong":7046,"ĠFox":7047,"ĠWick":7048,"ĠBarney":7049,"Binh":7050,"Dr":7051,"Ru":7052,"vÃ¢ng":7053,"zie":7054,"Ġlon":7055,"Ġchuá»ĳi":7056,"ĠrÃªn":7057,"ĠdÃŃ":7058,"Tham":7059,"Thank":7060,"Nhi":7061,"ĠCÃ¡nh":7062,"ĠLewis":7063,"ĠthoÃ¡i":7064,"ahl":7065,"riend":7066,"Edward":7067,"Náº¡n":7068,"ĠnÃ©n":7069,"uyá»ĥn":7070,"ĠGPS":7071,"ĠbÃ©n":7072,"ĠIan":7073,"Ġ96":7074,"issa":7075,"bor":7076,"low":7077,"Â¥":7078,"ĠtÃło":7079,"Ġxá»ĭt":7080,"Thor":7081,"ĠkhiÃªm":7082,"ĠViá»ĩn":7083,"ĠNed":7084,"ĠPhÃ³":7085,"lymp":7086,"ĠMcG":7087,"ĠNghá»ĭ":7088,"AP":7089,"Ugh":7090,"Ġex":7091,"ĠÄĳáº¯c":7092,"Ġchanh":7093,"Ġcá»įc":7094,"ĠSk":7095,"ĠGold":7096,"iles":7097,"ĠVictoria":7098,"Angel":7099,"Ron":7100,"aff":7101,"ĠcÄĥ":7102,"ĠlÃ¡ch":7103,"ĠbÃ¡ch":7104,"ĠLá»¥c":7105,"ĠQuáº£":7106,"loe":7107,"oko":7108,"TuÃ¢n":7109,"Nor":7110,"Nathan":7111,"sky":7112,"Ġchá»įi":7113,"ĠnhÃ£i":7114,"Ġráº£i":7115,"Ġrá»§":7116,"oni":7117,"ĠBuzz":7118,"ĠScofield":7119,"Ġcall":7120,"apa":7121,"Ġlá»Ļng":7122,"Ġcháº·ng":7123,"Ġag":7124,"ores":7125,"ision":7126,"aly":7127,"Nghi":7128,"iego":7129,"ĠKhá»ī":7130,"instein":7131,"ĠAlexander":7132,"ĠCaesar":7133,"Má»ĳi":7134,"Ráº½":7135,"ple":7136,"Ġne":7137,"Ġngháº¿ch":7138,"iá»ģng":7139,"ĠSel":7140,"ĠLÆ°u":7141,"ĠTháº£":7142,"ĠSid":7143,"ĠThÃ´ng":7144,"ĠTháº©m":7145,"evor":7146,"Ann":7147,"ĠNgoáº¡i":7148,"Dáº¹p":7149,"MÃ£i":7150,"SÃ¡t":7151,"Xo":7152,"gr":7153,"rough":7154,"Ã«":7155,"ĠrÃ¬nh":7156,"Ġrá»ķ":7157,"ĠKiáº¿m":7158,"ansa":7159,"ĠCameron":7160,"ĠCastle":7161,"Viáº¿t":7162,"born":7163,"dock":7164,"ken":7165,"ĠkhÄĥng":7166,"Ġdá»¡":7167,"iago":7168,"ĠGiáº¿t":7169,"ĠWes":7170,"Ġ.:":7171,"ĠStarling":7172,"team":7173,"7887":7174,"ĠTaylor":7175,"uart":7176,"ĠÄĳiá»ģm":7177,"ĠvÃ¹i":7178,"Ġmáº©u":7179,"ÄĲáº¿m":7180,"ĠÄĲa":7181,"ĠTrÆ°á»Ľc":7182,"ghan":7183,"oku":7184,"Lá»ĭch":7185,"ĠcÃºng":7186,"Ġváº·n":7187,"Ġgirl":7188,"ango":7189,"Ġ33":7190,"ĠHoÃłn":7191,"abel":7192,"ĠGiÃºp":7193,"ĠAngela":7194,"ID":7195,"Let":7196,"Lee":7197,"ĠnghiÃª":7198,"anie":7199,"ĠSusan":7200,"ĠÄĲá»Ļng":7201,"ĠGrace":7202,"ÃĢY":7203,"Ġ198":7204,"ĠCentral":7205,"ni":7206,"tus":7207,"Ġtháº³m":7208,"Ġhad":7209,"ĠCÃ¡":7210,"Ġbá»ĭp":7211,"ĠPl":7212,"theo":7213,"reak":7214,"ĠEs":7215,"7881":7216,"Arthur":7217,"Æ¯á»ľI":7218,"Walter":7219,"Simon":7220,"Tiáº¿c":7221,"á»Į":7222,"Ġtháº£n":7223,"Ġbong":7224,"Ġdáº»o":7225,"Ġgiáº§y":7226,"raw":7227,"odka":7228,"Ġxoáº¯n":7229,"ED":7230,"LáºŃp":7231,"Red":7232,"mons":7233,"Ġsáº¥u":7234,"ChÃ¡n":7235,"ĠCoulson":7236,"ĠBel":7237,"ĠHÃłng":7238,"ĠTrÄĥng":7239,"the":7240,"ĠOz":7241,"Ġ600":7242,"ĠHoáº·c":7243,"ĠSuper":7244,"ĠJessica":7245,"Dáº¡o":7246,"Ethan":7247,"Francis":7248,"Hiro":7249,"Ġá»ĵ":7250,"á»Ĩ":7251,"Ġrock":7252,"Kháº©u":7253,"ĠBig":7254,"ĠOsc":7255,"Marcus":7256,"ĠGarcia":7257,"Boy":7258,"lt":7259,"ÂŃ":7260,"Ġtáº¡ng":7261,"Ġtell":7262,"ĠcÃło":7263,"Ġcáº±n":7264,"Ġbá»įt":7265,"oren":7266,"ĠKl":7267,"Ġ51":7268,"Ġ47":7269,"58":7270,"CÃº":7271,"Jam":7272,"ĠkÃ¬m":7273,"ĠnÄĥn":7274,"Ġgiáº¿ng":7275,"Ã¬u":7276,"ĠMason":7277,"ĠHotch":7278,"ĠLarry":7279,"52":7280,"At":7281,"KÃ½":7282,"MÆ¡":7283,"Morg":7284,"Ġliáº¿m":7285,"Ġná»±c":7286,"ator":7287,"ĠTráº£":7288,"249":7289,"ĠOliv":7290,"ÃĤN":7291,"ĠCole":7292,"ĠPatrick":7293,"UCKLES":7294,"TÆ¡":7295,"bing":7296,"Ġtivi":7297,"ĠlÃ¢n":7298,"ĠnÆ¡":7299,"Ġsho":7300,"ĠtrÃ¢":7301,"ĠxÆ¡":7302,"Ġgiá»Ŀi":7303,"ĠChe":7304,"ĠthuÃ¢":7305,"elyn":7306,"Ãµng":7307,"raine":7308,"ĠCarrie":7309,"92":7310,"ĠngÃ³":7311,"ĠvÃłnh":7312,"ĠTi":7313,"Ì£,":7314,"NÃ³ng":7315,"ĠOlymp":7316,"ĠcÃºn":7317,"Ġbá»ķn":7318,"mo":7319,"Ġnai":7320,"Ġngáº¡t":7321,"Ġxá»ĭn":7322,"reet":7323,"Sherlock":7324,"ĠlÃ¬n":7325,"Ġray":7326,"Ġdang":7327,"ĠCall":7328,"ĠLock":7329,"ĠWade":7330,"ĠNhá»Ľ":7331,"Ġ72":7332,"Sá»Ń":7333,"Ġchay":7334,"Ġngá»¥y":7335,"ĠquyÃªn":7336,"áºµng":7337,"Ġinch":7338,"ÄĲoÃłn":7339,"ĠColombia":7340,"Ġchá»ķi":7341,"Jesus":7342,"Sang":7343,"Ġláº¹":7344,"ĠvÄĥng":7345,"Ġháº¡ch":7346,"ĠnhÄĥn":7347,"Ġdai":7348,"Tráº¡m":7349,"ĠDam":7350,"asa":7351,"ĠFace":7352,"ache":7353,"garet":7354,"ĠForeman":7355,"ĠHunt":7356,"TÃŃn":7357,"bar":7358,"lÃºc":7359,"ĠvÃ©t":7360,"ĠbÃ¡ng":7361,"Ġxiáº¿c":7362,"ĠHá»Ļ":7363,"ato":7364,"ÄĲiÃª":7365,"ĠEy":7366,"Ġwon":7367,"Ġ-**":7368,"ĠÄĳá»ĩt":7369,"Ġcá»§i":7370,"Or":7371,"Xá»Ń":7372,"cl":7373,"ĠquÃ¡ng":7374,"ThÃ¡i":7375,"ĠCle":7376,"Phil":7377,"ial":7378,"Mad":7379,"Rose":7380,"Táº¡o":7381,"rice":7382,"Ġ~":7383,"ĠrÃ²":7384,"Ġgio":7385,"ĠTiá»ģn":7386,"NgÄĥn":7387,"asc":7388,"ugene":7389,"rows":7390,"Lá»ħ":7391,"Mor":7392,"Ġnáº¥y":7393,"ÄĲÃ¨n":7394,"Thá»ģ":7395,"aris":7396,"ĠHáº¹n":7397,"ĠChá»Ĺ":7398,"ĠDiá»ĩp":7399,"ĠDaw":7400,"ĠADN":7401,"ether":7402,"gie":7403,"gle":7404,"hm":7405,"Ġel":7406,"Ġngá»©a":7407,"ĠnghiÃªng":7408,"ĠBonnie":7409,"ĠVik":7410,"Chuck":7411,"ĠAlfred":7412,"ĠÃģo":7413,"ĠMerlyn":7414,"361":7415,"ghanistan":7416,"ĠCÃ¡t":7417,"ĠBab":7418,"Ġhot":7419,"ĠnhÃłm":7420,"ĠDav":7421,"ĠVI":7422,"ÄĳÆ°a":7423,"ething":7424,"ĠMoses":7425,"Láº¡nh":7426,"Nik":7427,"TR":7428,"Â®":7429,"Ġáº¥u":7430,"Ġsuá»ĳi":7431,"Ġnhá»įn":7432,"ĠngÃµ":7433,"mus":7434,"ts":7435,"ĠliÃª":7436,"Ġneo":7437,"pher":7438,"ĠcÃ³ng":7439,"ĠLam":7440,"llie":7441,"ela":7442,"Cáº¥p":7443,"Fred":7444,"Ġhá»Ń":7445,"ĠxÆ°":7446,"ĠTÃŃ":7447,"Ġnguá»Ļi":7448,"ĠAli":7449,"ĠArk":7450,"ĠSpock":7451,"áº¤T":7452,"ELL":7453,"lanta":7454,"Eric":7455,"HI":7456,"Lá»¡":7457,"Ġthen":7458,"Ġson":7459,"Ġsá»§a":7460,"Ġgáº¡o":7461,"chÃº":7462,"ĠTuyáº¿t":7463,"ĠTokyo":7464,"endy":7465,"Ġhoáº£":7466,"PhÃ¹":7467,"atter":7468,"una":7469,"loyd":7470,"Há»ıa":7471,"Rog":7472,"fa":7473,"ĠtrÃ¢u":7474,"ones":7475,"ThÃŃ":7476,"ĠCáº§n":7477,"á»£t":7478,"aki":7479,"ĠSamuel":7480,"7909":7481,"Cá»±c":7482,"side":7483,"Ġ78":7484,"Ġláº£ng":7485,"ĠkH":7486,"ĠhÃ¡o":7487,"ÄĲáº¥u":7488,"ĠBud":7489,"enerys":7490,"ĠRh":7491,"etter":7492,"ĠYu":7493,"annis":7494,"ĠGiá»Ľi":7495,"ĠMalcolm":7496,"dor":7497,"ĠÄĳáº£":7498,"Ġdáº£i":7499,"ĠBraz":7500,"ĠHáº¿t":7501,"ĠDaisy":7502,"ĠGÃ£":7503,"Ohh":7504,"Cá»©t":7505,"ĠYÃªn":7506,"des":7507,"jo":7508,"Ġáº§m":7509,"Ġtriáº¿t":7510,"KhÃ¡c":7511,"ĠMack":7512,"ĠVáºŃt":7513,"Ġ57":7514,"idt":7515,"cept":7516,"ĠBeau":7517,"Bruce":7518,"ĠIsrael":7519,"lynn":7520,"EM":7521,"cÃ¡m":7522,"ÂĮ":7523,"Ġtá»©":7524,"Ġtáº»":7525,"Ġlife":7526,"ÄĲá»Ļt":7527,"Nháº¡c":7528,"ĠBÃªn":7529,"ĠBilbo":7530,"ĠLáº¡y":7531,"ati":7532,"ennifer":7533,"34":7534,"Pete":7535,"Ryan":7536,"cÃ´ng":7537,"Ãŀ":7538,"Ġmá»£":7539,"Ġbá»Ŀi":7540,"Ġgom":7541,"ĠHÃłnh":7542,"ĠDennis":7543,"ĠGe":7544,"oli":7545,"ĠNgÃ¢n":7546,"ights":7547,"ĠVirginia":7548,"54":7549,"Gl":7550,"Háº£i":7551,"xem":7552,"nhÃł":7553,"Ġgr":7554,"Cháº¥p":7555,"ĠxÃŃt":7556,"ĠBog":7557,"ĠLá»ħ":7558,"Ġ38":7559,"icon":7560,"Äĳáº§u":7561,"Iáº¾NG":7562,".]":7563,"Hm":7564,"Rock":7565,"we":7566,"Ġchá»ĳc":7567,"Ġkeo":7568,"Ġbá»Ľi":7569,"ĠnhÆ°á»£c":7570,"Chá»¯":7571,"Ġxáº»o":7572,"ĠBlake":7573,"aser":7574,"233":7575,"ione":7576,"ĠJoffrey":7577,"ĠKyle":7578,".!":7579,"Lá»±a":7580,"TV":7581,"ĠÄĳÃły":7582,"ĠrÃ¡ng":7583,"This":7584,"á»ım":7585,"Phá»¥c":7586,"ĠFal":7587,"Ġover":7588,"Ġ196":7589,"ĠÄĳá»ĩch":7590,"Ãĺ":7591,"cháº¿t":7592,"chÃŃnh":7593,"ĠTerry":7594,"ĠMÆ°á»Ŀi":7595,"ĠManny":7596,"uit":7597,"ĠFinn":7598,"oly":7599,"abelle":7600,"ĠCharlotte":7601,"Ġgoing":7602,"ORG":7603,"ĠMurphy":7604,"ĠJudy":7605,"ĠBrooklyn":7606,"BÄĥ":7607,"Ġnhá»©c":7608,"aid":7609,"ĠÄĲáº¹p":7610,"ĠHÃ²a":7611,"ĠFish":7612,"utobot":7613,"Caesar":7614,"cules":7615,"Ger":7616,"LÃ¡":7617,"vard":7618,"Ġtrá»¥i":7619,"ĠBaker":7620,"ĠGáº§n":7621,"ĠPhá»¥":7622,"ĠStephen":7623,"ĠToretto":7624,"98":7625,"Deb":7626,"Ind":7627,"woo":7628,"Ġ)":7629,"ĠÄĳÃºc":7630,"Chiá»ģu":7631,"ĠTw":7632,"ĠBy":7633,"ĠÄĲÃ¡nh":7634,"ĠLogan":7635,"ĠWoody":7636,"Lucy":7637,"ĠOrle":7638,"VN":7639,"ĠthÃ´n":7640,"ĠnÃ¡u":7641,"Ġnhá»§":7642,"Ġnhá»ĭn":7643,"Che":7644,"Ġxáº¯n":7645,"ĠCÃ¹ng":7646,"ĠSi":7647,"ĠLand":7648,"ĠNhi":7649,"eder":7650,"ï¼Į":7651,"ĠDebbie":7652,"atalie":7653,"ĠAfghanistan":7654,"AI":7655,"Ju":7656,"LÃ´i":7657,"Ġlá»Ļi":7658,"ĠlÃºa":7659,"Ġnom":7660,"Ġnhá»Ń":7661,"Ġnhiáº¿p":7662,"Ġpháº³ng":7663,"ĠBull":7664,"ĠÄĲiÃªn":7665,"Ġ31":7666,"ĠHoll":7667,"ĠXÃ¡m":7668,"ĠEnterprise":7669,"Josh":7670,"VÃ£i":7671,"no":7672,"ĠÆ°Æ¡ng":7673,"Ġáº¿ch":7674,"ĠcÆ°á»Ľc":7675,"ĠtrÆ°":7676,"ĠKiá»ĥm":7677,"á»ħn":7678,"ĠchÃ³i":7679,"ptimus":7680,"Ġmá»īa":7681,"Cap":7682,"Son":7683,"SÃ¡ch":7684,"rn":7685,"raham":7686,"Ġtua":7687,"Ġtháº¯p":7688,"Ġnháº±n":7689,"Ġdá»ĳt":7690,"Ġgive":7691,"Tháº©m":7692,"ĠCÃ¢":7693,"ĠBá»ĩnh":7694,"ĠDev":7695,"Ġcoca":7696,"ĠNhiá»ģu":7697,"ĠQuÃ¡i":7698,"ĠAlan":7699,"ragorn":7700,"Ġlá»ĳp":7701,"Lucas":7702,"7863":7703,"Van":7704,"Âĭ":7705,"ĠbÄĥn":7706,"They":7707,"chá»Ŀ":7708,"ĠMáºŃt":7709,"arin":7710,"ĠTha":7711,"ĠNicholas":7712,"ĠKiá»ĩt":7713,"ĠkhoÄĥn":7714,"ĠPha":7715,"ansas":7716,"ĠNorman":7717,"06":7718,"CÆ°á»Ľp":7719,"Del":7720,"LO":7721,"á»®":7722,"Ġná»ĵi":7723,"ChÄĥm":7724,"ÄĲáº¡n":7725,"NháºŃt":7726,"Ngá»įn":7727,"erto":7728,"ĠBiáº¿n":7729,"ĠSom":7730,"ĠÄĲáº¥ng":7731,"ĠHuh":7732,"ĠFort":7733,"use":7734,"ilet":7735,"Ġworld":7736,"iller":7737,"unt":7738,"ĠchÃ³t":7739,"Chá»ĭu":7740,"ĠWhat":7741,"Onii":7742,"Ġ****":7743,"07":7744,"Lá»Ľn":7745,"fia":7746,"zel":7747,"ĠÄĳáº«m":7748,"ĠrÃ³t":7749,"ĠCÃ¡ch":7750,"ĠBuddy":7751,"VÃłng":7752,"ĠGiÃª":7753,"ĠJar":7754,"ĠJill":7755,"Ġtá»±a":7756,"ĠSammy":7757,"Marty":7758,"Amanda":7759,"Ag":7760,"Lá»Ńa":7761,"TiÃª":7762,"ĠgÃ³a":7763,"ÄĲáº£m":7764,"Ġxá»ı":7765,"Ġquáº¥n":7766,"ĠMÃ´":7767,"ĠBai":7768,"ĠHouston":7769,"ĠNÆ¡i":7770,"ĠPort":7771,"ades":7772,"ĠAlbert":7773,"ĠSpartacus":7774,"ĠChristian":7775,"Sal":7776,"Táº¥m":7777,"cc":7778,"Ãİ":7779,"ĠbÃ¬a":7780,"ĠThat":7781,"ĠON":7782,"ĠPhÃ¡t":7783,"enda":7784,"ĠSparta":7785,"Walt":7786,"Dory":7787,"Ro":7788,"bin":7789,"fs":7790,"gon":7791,"áº¨":7792,"ĠMá»Ŀi":7793,"Ġtoo":7794,"ĠFe":7795,"ĠÄĳÃ´la":7796,"ĠQuáº£ng":7797,"utch":7798,"aitlin":7799,"300":7800,"Kan":7801,"fan":7802,"right":7803,"ĠSeth":7804,"á»īa":7805,"olis":7806,"olet":7807,"ĠtuÃ½":7808,"ĠArrow":7809,"ibal":7810,"JC":7811,"less":7812,"rin":7813,"Ġlittle":7814,"ChÃŃn":7815,"ĠMáº¯t":7816,"ĠBaggins":7817,"ĠGus":7818,"othy":7819,"adelphia":7820,"For":7821,"mon":7822,"Ġtá»µ":7823,"ĠcÃłnh":7824,"Ġlá»¥a":7825,"ĠgÃ¡y":7826,"Ã©agol":7827,"ĠChim":7828,"Ġhow":7829,"ĠTháº¥t":7830,"Ãµa":7831,"alo":7832,"oby":7833,"Morgan":7834,".?":7835,"Fl":7836,"qua":7837,"ÂĨ":7838,"ĠmiÃª":7839,"Ġhá»©c":7840,"ÃĶm":7841,"ĠHerm":7842,"Ġyo":7843,"Ġwere":7844,"Ġpound":7845,"Ġ84":7846,"ĠuÃ´":7847,"ERS":7848,"ĠNoah":7849,"relli":7850,"fn":7851,"mar":7852,"ret":7853,"ĠmiÃªn":7854,"Ġmáº¯ng":7855,"Ġráº¡ch":7856,"ÄĲáºŃu":7857,"ĠCisco":7858,"ÃĶI":7859,"ĠNina":7860,"QuÃ¡n":7861,"Ġwanna":7862,"ĠÄĳá»ĩm":7863,"ĠAtlanta":7864,"ĠOrleans":7865,"Há»§y":7866,"Quá»ĳc":7867,"Táº§m":7868,"Vinh":7869,"báº¯t":7870,"dÃ¹":7871,"á»¬":7872,"ĠsÃ¹ng":7873,"ĠVen":7874,"ĠGrim":7875,"ĠFlorence":7876,"NÄĥng":7877,"REA":7878,"TÃŃ":7879,"YD":7880,"ĠÄĳá»ĳn":7881,"Ġlanh":7882,"Ġláº±n":7883,"ĠkiÃªng":7884,"ĠTáº¡":7885,"ĠLane":7886,"ĠDiv":7887,"ĠThá»Ń":7888,"ĠKáº¿t":7889,"ĠShire":7890,"Æ¯á»¢":7891,"ĠCamp":7892,"eronica":7893,"ĠXuÃ¢n":7894,"ĠLawrence":7895,"HÃłi":7896,"lÃªn":7897,"ĠmÃ¢u":7898,"ĠtriÃª":7899,"ÄĲáº¡o":7900,"ĠSally":7901,"ĠLydia":7902,"ĠTrÆ°Æ¡ng":7903,"Annie":7904,"ĠLaura":7905,"ĠKHÃĶNG":7906,"Bro":7907,"ngÃły":7908,"Ġtá»¥ng":7909,"PhÃ¡p":7910,"ĠThÃ¡o":7911,"ĠVá»ĭnh":7912,"Ġ2000":7913,"oud":7914,"thá»©":7915,"liff":7916,"ĠValentine":7917,"ĠHollywood":7918,"Jason":7919,"ĠtÄĥ":7920,"Ġsm":7921,"Ġgáº¯t":7922,"cháº³ng":7923,"ĠHÃ¡n":7924,"ĠLes":7925,"ĠLab":7926,"ĠJenny":7927,"Ġvá»¥ng":7928,"ĠWins":7929,"GiÃ¡ng":7930,"ĠZoe":7931,"ĠZeus":7932,"Maria":7933,"Ġshh":7934,"ggsy":7935,"rella":7936,"rixus":7937,"Tiá»ĩc":7938,"VÄ©nh":7939,"VÆ°á»£t":7940,"ĠÆ°á»Ľp":7941,"Ġboy":7942,"Ġreo":7943,"Ġdiá»ħu":7944,"ĠBÃ¡nh":7945,"ĠBow":7946,"ĠAk":7947,"ĠAri":7948,"ĠGuy":7949,"ĠKent":7950,"QuÃł":7951,"ĠWyatt":7952,"ĠConnor":7953,"ĠoÃ¡n":7954,"ĠQuÃªn":7955,"ives":7956,"log":7957,"AE":7958,"Ang":7959,"HÃ¡t":7960,"Ke":7961,"Liz":7962,"Lá»Ľp":7963,"ĠhÃ¡":7964,"Ġrá»ħ":7965,"ĠdÆ¡i":7966,"Thá»ĳng":7967,"ĠCuba":7968,"Ġ54":7969,"ĠÃįt":7970,"ĠSubbing":7971,"Ġagain":7972,"ĠBrazil":7973,"==":7974,"Bá»ĵ":7975,"Cáº¥m":7976,"Jean":7977,"MÃłn":7978,"Ãĩ":7979,"ĠÆł":7980,"Ġchen":7981,"Ġkhuyáº¿t":7982,"ĠdÃ´":7983,"ThÃ¡o":7984,"ĠÄĲÆ°Æ¡":7985,"Trá»±c":7986,"ĠJen":7987,"ĠPenn":7988,"ĠPhá»¥c":7989,"ellow":7990,"ika":7991,"ippin":7992,"Mac":7993,"UR":7994,"ngÃłi":7995,"ĠchÆ°á»Łng":7996,"ĠnháºŃu":7997,"Ġngá»«a":7998,"ĠrÃ£":7999,"Ġthá»į":8000,"ĠTan":8001,"ĠÄĲÃ¡ng":8002,"ĠLá»±c":8003,"ĠThÃ¡m":8004,"oma":8005,"acon":8006,"akes":8007,"Ġonly":8008,"Spartacus":8009,"ĠHelen":8010,"ĠUmb":8011,"ĠÃª":8012,"Ġmá»ĳc":8013,"Ġquáº©n":8014,"Thá»«a":8015,"ĠMitch":8016,"ĠDÃ¬":8017,"alia":8018,"ĠkhoÃ¡n":8019,"Ġtuáº¿":8020,"adia":8021,"ĠAmer":8022,"AD":8023,"Ham":8024,"Li":8025,"OS":8026,"Te":8027,"mont":8028,"oid":8029,"ĠlÃ©o":8030,"Ġná»ī":8031,"Ġbáº¡":8032,"ĠphÃ²":8033,"ĠSab":8034,"ĠHend":8035,"alin":8036,"ĠMcC":8037,"áº¾T":8038,"HÃ²a":8039,"Mia":8040,"TÃĶi":8041,"weet":8042,"ĠnH":8043,"Ġrá»¥i":8044,"Ġgieo":8045,"ĠLÃ¹n":8046,"usk":8047,"ĠPhill":8048,"ign":8049,"rion":8050,"tron":8051,"Ġmá»īm":8052,"ĠLatin":8053,"-**":8054,"MÃ¨o":8055,"TÃ´n":8056,"máº¥y":8057,"stone":8058,"Ġbá»ī":8059,"ĠsÆ°ng":8060,"Ġrá»¯a":8061,"Tháº»":8062,"ĠSaint":8063,"Tráº§n":8064,"ĠTra":8065,"Ġ66":8066,"arlet":8067,"ĠXanh":8068,"hop":8069,"Ġcá»¡i":8070,"ĠvÆ°Æ¡n":8071,"ĠVinci":8072,"ĠHunter":8073,"ĠBecky":8074,"Tá»Ń":8075,"bÃ¡c":8076,"Ġmáº¡":8077,"Ġsiáº¿t":8078,"ĠgÃ´n":8079,"KhÃŃ":8080,"Thá»£":8081,"ĠMá»¥c":8082,"ĠIsaac":8083,"osa":8084,"urai":8085,"ĠNguyá»ĩt":8086,"rypton":8087,"ĠStev":8088,"anner":8089,"As":8090,"KÃ¬a":8091,"Linda":8092,"RÃ´":8093,"Ġhá»¡i":8094,"ĠCrow":8095,"ĠCatherine":8096,"aux":8097,"ĠSaul":8098,"ĠNeil":8099,"ĠKi":8100,"ĠkhoÃ¡t":8101,"Ġláº½o":8102,"idge":8103,"ulf":8104,"ĠGiáº£i":8105,"rison":8106,"umbledore":8107,"MÅ©i":8108,"gard":8109,"ĠÄĳáºŃm":8110,"Ġtháº§u":8111,"Ġtháº¥m":8112,"Ġsing":8113,"ĠnhÄĥ":8114,"ChuyÃªn":8115,"anger":8116,"Ġtoilet":8117,"ĠVic":8118,"ĠErik":8119,"addy":8120,"Ġ669":8121,"uno":8122,"ager":8123,"ÄĲoáº¡n":8124,"Greg":8125,"ĠÄĳáº¯ng":8126,"ĠlÃ³c":8127,"Ġlá»ĳc":8128,"Ġnhá»įc":8129,"ĠrÃ¡p":8130,"ĠÄĳá»į":8131,"ĠLas":8132,"Trá»ĳng":8133,"ĠDiego":8134,"ĠAT":8135,"ĠAir":8136,"ĠbÃ©t":8137,"oween":8138,"idon":8139,"ĠKhá»ĳn":8140,"Ġ197":8141,"ĠÄĳá»¥c":8142,"lint":8143,"ĠJulie":8144,"ĠRonnie":8145,"Tyler":8146,"Cáº·p":8147,"nÃło":8148,"sw":8149,"Ã¸":8150,"Ġcá»ıi":8151,"ĠCom":8152,"ĠMah":8153,"TrÆ°á»Łng":8154,"ĠTháºŃp":8155,"Ġthoi":8156,"ĠAmber":8157,"ylan":8158,"ĠvuÃ´ng":8159,"giá»ĳng":8160,"vania":8161,"ĠSherman":8162,"ĠWilliams":8163,"Sl":8164,"Ser":8165,"bb":8166,"lm":8167,"ä¸":8168,"Tháº³ng":8169,"PhÃ©p":8170,"Ìī...":8171,"ĠThÃ¡p":8172,"ĠWorld":8173,"ilton":8174,"ĠPhÃ¹":8175,"ĠNhá»ı":8176,"ÃĢNH":8177,"Clay":8178,"ĠNoel":8179,"ĠStein":8180,"bender":8181,"84":8182,"Ex":8183,"Mel":8184,"NO":8185,"Ná»ķ":8186,"VÃµ":8187,"din":8188,"tÃ¬m":8189,"ÂĬ":8190,"ĠMach":8191,"ĠÄĲu":8192,"ĠGÃł":8193,"ĠmÃ´t":8194,"ĠKhá»ıe":8195,"ĠGrand":8196,"ÄĤM":8197,"ĠEllis":8198,"Ġsomething":8199,"Martin":8200,"ĠKennedy":8201,"Xa":8202,"bÃ¢y":8203,"kg":8204,"muá»ĳn":8205,"Ã¯":8206,"ĠTá»©":8207,"ĠTá»¥i":8208,"ĠTitan":8209,"ĠBetty":8210,"ĠLav":8211,"Ġluá»ĵng":8212,"ĠRebecca":8213,"ĠPow":8214,"Quáº£n":8215,"Ġghe":8216,"Ġ800":8217,"ĠBravo":8218,"ĠPhiladelphia":8219,"ĠÃļc":8220,"Col":8221,"tim":8222,"Ġlay":8223,"Ġbiáº¿ng":8224,"Ġstr":8225,"ÄĲáº§y":8226,"Ġquá»ī":8227,"Khai":8228,"ĠMang":8229,"ĠMaster":8230,"ĠVÃĢ":8231,"ĠNat":8232,"ĠWeb":8233,"ĠhÃ²m":8234,"ĠCLB":8235,"Hung":8236,"váº«n":8237,"yu":8238,"Ġkhá»ĳc":8239,"Ġsáº¥m":8240,"ÄĲá»ĩt":8241,"Tháº¥t":8242,"ĠCÃ¢y":8243,"ĠNÃ¨":8244,"Äĳa":8245,"ĠOb":8246,"AND":8247,"ĠFelicity":8248,"Garcia":8249,"AA":8250,"Gab":8251,"TER":8252,"rus":8253,"ãģ":8254,"ĠhÃ©":8255,"ĠdÃ³":8256,"ÄĲeo":8257,"arn":8258,"ĠSur":8259,"ĠViáº¿t":8260,"Ġfind":8261,"7895":8262,"Clar":8263,"ĠReed":8264,"ĠSophie":8265,"Máº«u":8266,"Maggie":8267,"col":8268,"Ġ+":8269,"ĠÄĳan":8270,"ĠÄĳÃłnh":8271,"ĠÄĳáº¥ng":8272,"Ġthrough":8273,"Ġmáº¥u":8274,"ĠnÃ²ng":8275,"Ġhá»ĳt":8276,"Ġquá»µ":8277,"ĠKá»µ":8278,"ĠYan":8279,"ĠStreet":8280,"ĠBenjamin":8281,"ĠJulia":8282,"IET":8283,"lant":8284,"nÆ¡i":8285,"off":8286,"Ã®":8287,"Ġser":8288,"Ġrá»¥ng":8289,"ĠrÃ¬a":8290,"ĠBiá»ĥn":8291,"ĠLÃ¢u":8292,"ĠDumbledore":8293,"ilo":8294,"ooh":8295,"ode":8296,"lace":8297,"ydney":8298,"ĠToÃłn":8299,"Ġaround":8300,"láº§n":8301,"ras":8302,"viá»ĩc":8303,"}[":8304,"ĠtÆ°ng":8305,"Ġkg":8306,"Ġhas":8307,"Ġcá»ĵ":8308,"Ġqui":8309,"Ġquáº¥t":8310,"ĠThÃ¢":8311,"ĠKid":8312,"omon":8313,"Ġtuá»Ļt":8314,"Ġfire":8315,"ĠShel":8316,"trÃªn":8317,"ĠDoc":8318,"amien":8319,"Cass":8320,"Gideon":8321,"Náº¡p":8322,"Vinc":8323,"Ġvest":8324,"ĠrÃ¬u":8325,"Ġtriá»ĩt":8326,"ĠÄĲáº±ng":8327,"ĠHO":8328,"Phiá»ģn":8329,"ĠnhÃło":8330,"ĠApp":8331,"tháº¥y":8332,"ĠIra":8333,"edd":8334,"iger":8335,"roe":8336,"ĠQua":8337,"Æ¯á»ļ":8338,"Noah":8339,"ĠBlue":8340,"Ġtá»¥t":8341,"ĠDarcy":8342,"ĠMikey":8343,"Ber":8344,"cÃ¹ng":8345,"ead":8346,"self":8347,"xit":8348,"ĠthuyÃªn":8349,"Ġtry":8350,"ĠxÆ°á»Ľc":8351,"inus":8352,"ĠTÃłi":8353,"ĠBorg":8354,"ĠLA":8355,"ĠWester":8356,"ĠEinstein":8357,"ĠOt":8358,"GiÃ³":8359,"Ġoan":8360,"ĠShin":8361,"enness":8362,"Andre":8363,"á»Ĳng":8364,"giá»¯":8365,"ĠPhilip":8366,"DÃłnh":8367,"LÆ°u":8368,"Tam":8369,"uu":8370,"Ġá»ĭ":8371,"Ġáº¢nh":8372,"ĠnÃªu":8373,"ĠkhÃ©p":8374,"Ġdream":8375,"ÄĲÃ´ng":8376,"Ġxao":8377,"chÆ°a":8378,"ĠBra":8379,"ĠNak":8380,"ĠKá»ĥ":8381,"Ġcá»ĳp":8382,"ĠOwen":8383,"ĠMart":8384,"Ġ76":8385,"ĠUá»ĳng":8386,"ĠhuÃ¢n":8387,"ourt":8388,"ĠBlu":8389,"ĠDaenerys":8390,"RUN":8391,"kun":8392,"ráº±ng":8393,"wan":8394,"ĠCu":8395,"ĠTai":8396,"ĠChÃ³":8397,"ĠChapp":8398,"ĠJed":8399,"ĠNev":8400,"ĠWolf":8401,"ingham":8402,"etti":8403,"ÃľÃĸ":8404,"08":8405,"EY":8406,"Finch":8407,"Niá»ģm":8408,"Po":8409,"Ġkn":8410,"Ġnáº¡i":8411,"ĠbÃŃt":8412,"ĠTarg":8413,"TrÃºng":8414,"ĠAang":8415,"ĠPil":8416,"rop":8417,"ĠZoom":8418,"ĠDonnie":8419,"ĠMerlin":8420,"ĠEllen":8421,"BÃ¡":8422,"Kai":8423,"max":8424,"yle":8425,"ĠrÆ°Æ¡ng":8426,"ĠHá»Ļp":8427,"aline":8428,"ics":8429,"ĠPhá»ĳ":8430,"urch":8431,"ÃĢI":8432,"eebs":8433,"ebast":8434,"Buzz":8435,"Ġnhuá»Ļm":8436,"ĠhÆ°Æ¡u":8437,"59":8438,"Just":8439,"LÃ¡t":8440,"Ná»¯a":8441,"Viet":8442,"ĠâĢĵ":8443,"Ġtháº¡o":8444,"Ġmá»³":8445,"Ġxáº©y":8446,"ersei":8447,"ĠÄĲáº£o":8448,"lla":8449,"ĠRho":8450,"ĠPor":8451,"Giá»Ľi":8452,"ĠTrang":8453,"ingo":8454,"idi":8455,"7917":8456,"ylvania":8457,"ĠSylar":8458,"lie":8459,"ria":8460,"yeon":8461,"ĠlÃ£i":8462,"Ġthá»ĩ":8463,"emp":8464,"TráºŃt":8465,"ĠYoo":8466,"enne":8467,"ĠMiles":8468,"ĠBolton":8469,"EVIET":8470,"UDEVIET":8471,"Cá»Ń":8472,"Lá»¥c":8473,"kov":8474,"ĠthÃŃnh":8475,"ĠnÃºp":8476,"ĠhiÃªn":8477,"Ġtrá»įc":8478,"Ngá»±a":8479,"ĠMetro":8480,"ĠluÃ¢":8481,"ĠJi":8482,"ĠNASA":8483,"ĠIf":8484,"ĠNgÃ´i":8485,"Luke":8486,"Ġshe":8487,"CHUCKLES":8488,"ops":8489,"GhÃª":8490,"(*":8491,"CC":8492,"cÆ¡":8493,"gen":8494,"ngo":8495,"Ġsam":8496,"Ġak":8497,"ĠBax":8498,"ĠÄĲÃ¡":8499,"ĠLittle":8500,"Triá»ĩu":8501,"ĠGun":8502,"ĠNáº±m":8503,"Ġngoáº¡n":8504,"etta":8505,"ĠPac":8506,"iá»ħm":8507,"Giáº¥c":8508,"oga":8509,"ĠFranklin":8510,"ĠPrime":8511,"ĠJamie":8512,"áº¦N":8513,"Xoay":8514,"Bom":8515,"BÃ¹m":8516,"GI":8517,"TÃ¡c":8518,"TÃ¡m":8519,"cliff":8520,"dá»«ng":8521,"ux":8522,"Ġtáº¥p":8523,"Ġmá»įt":8524,"Ġdá»Ļt":8525,"ĠquÃ¨":8526,"Nhiá»ĩt":8527,"Ã¹y":8528,"ĠHá»©a":8529,"ĠChÃł":8530,"alem":8531,"ĠxuÃ¢":8532,"ĠXÃ¬":8533,"ĠJackie":8534,"ANH":8535,"Black":8536,"ĠMira":8537,"ĠFelix":8538,"anslated":8539,"ĠBauer":8540,"YDRA":8541,"Now":8542,"ZT":8543,"get":8544,"}âĻª":8545,"ĠxÆ¡i":8546,"ember":8547,"There":8548,"aii":8549,"ĠMid":8550,"ĠHard":8551,"ĠDerek":8552,"Ìĥ,":8553,"icah":8554,"ilda":8555,"adow":8556,"ĠConn":8557,"Ġtá»¥y":8558,"Spock":8559,"Thoáº£i":8560,"Aaron":8561,"Diá»ĩp":8562,"Pablo":8563,"Xáº¿p":8564,"lon":8565,"ĠgáºŃt":8566,"ĠráºŃp":8567,"arao":8568,"ĠÄĲáº¥u":8569,"ĠHyd":8570,"ĠluÃ¢n":8571,"ĠKings":8572,"ĠEarth":8573,"acqu":8574,"Ãģp":8575,"ÃģNG":8576,"urtis":8577,"Norman":8578,"LÃ¢":8579,"sk":8580,"Ã»":8581,"Ġcr":8582,"ĠchÃ¹m":8583,"Ġnan":8584,"Ġbá»Ļc":8585,"ĠhÆ°ng":8586,"ĠgÃ³t":8587,"ĠdÃ£i":8588,"ĠÄĳiÃªu":8589,"ĠCathy":8590,"aud":8591,"ĠHÃ¹ng":8592,"ĠLenny":8593,"Truy":8594,"ĠNÆ°Æ¡ng":8595,"ĠKend":8596,"ĠkhoÃ¡ng":8597,"ĠOn":8598,"Ġngá»§i":8599,"udson":8600,"ĠxoÃ¡":8601,"ĠHarvard":8602,"Carrie":8603,"ĠSauron":8604,"ĠFacebook":8605,"Ian":8606,"Long":8607,"Mich":8608,"Song":8609,"Ter":8610,"TÃºi":8611,"bro":8612,"Ġgiá»ı":8613,"ĠTal":8614,"ĠBir":8615,"ĠTrevor":8616,"Ġ58":8617,"eda":8618,"Ġ657":8619,"unzel":8620,"annibal":8621,"Ġ120":8622,"Shaw":8623,"7893":8624,"Why":8625,"ĠEli":8626,"á»ĬCH":8627,"ĠTargary":8628,"Dáº¡y":8629,"Look":8630,"SS":8631,"fer":8632,"ls":8633,"Cháº¥m":8634,"Ġdz":8635,"ĠdÆ°á»£ng":8636,"Ġdáº±n":8637,"ÄĲÃ©o":8638,"ĠSuz":8639,"ĠChá»īnh":8640,"eyes":8641,"ĠFall":8642,"Äĳá»£i":8643,"ĠIÃł":8644,"ĠdiÃªm":8645,"Stan":8646,"Thea":8647,"ĠHarrison":8648,"ebastian":8649,"Han":8650,"ĠNghÄ©a":8651,"ĠvÃ¡":8652,"Ġgara":8653,"Ġngáº·t":8654,"ĠtrÃ¡t":8655,"ĠÄĲÃ¬nh":8656,"Ġair":8657,"ĠLester":8658,"ĠNob":8659,"ĠOne":8660,"Ġ5000":8661,"irst":8662,"ĠMartha":8663,"Ġcá»Ńu":8664,"over":8665,"ĠMerc":8666,"ĠPercy":8667,"CPD":8668,"Nic":8669,"Riley":8670,"ĠkhÃ©ng":8671,"ĠngÃ²i":8672,"ChÃºt":8673,"aro":8674,"encer":8675,"ĠJos":8676,"ĠPic":8677,"Ġtuá»³":8678,"oop":8679,"ĠkhÃŃa":8680,"---":8681,"very":8682,"ĠUmbrella":8683,"Hal":8684,"KING":8685,"Min":8686,"Sar":8687,"Â½":8688,"ĠKhoáº£ng":8689,"ÄĲá»ĭt":8690,"Ġquáº³ng":8691,"PhÃ¡o":8692,"ĠLoth":8693,"ĠJustin":8694,"ĠFord":8695,"usty":8696,"usalem":8697,"ĠOld":8698,"umi":8699,"ako":8700,"Ġsub":8701,"ĠJoon":8702,"ifler":8703,"á»ĺT":8704,"ĠMegan":8705,"bending":8706,"Ġdidn":8707,"ĠMarshall":8708,"Vincent":8709,"))":8710,"Tui":8711,"Tá»·":8712,"báº¥t":8713,"ior":8714,"midt":8715,"nam":8716,"ĠtrÃłng":8717,"ĠHen":8718,"ĠHigh":8719,"TrÃŃ":8720,"ĠDay":8721,"ĠDis":8722,"ĠDale":8723,"ĠVÃ¢n":8724,"ĠKansas":8725,"thia":8726,"unk":8727,"Ġ309":8728,"oseidon":8729,"giÃºp":8730,"ĠBurrows":8731,"ĠApache":8732,"212":8733,"Ki":8734,"Xáº¥u":8735,"ĠlÃ¬a":8736,"ĠxÃ¢":8737,"Ġxua":8738,"ĠmÃłi":8739,"Nhá»ı":8740,"ĠÄĲá»ĳc":8741,"Ġhome":8742,"ĠThÃº":8743,"ĠngoÃ£n":8744,"ĠPen":8745,"alph":8746,"ĠOoh":8747,"illo":8748,"ĠSteven":8749,"kee":8750,"ĠsuÃ´n":8751,"ÃĮNH":8752,"ĠLauren":8753,"loria":8754,"Laurel":8755,"Ġplay":8756,"ĠBailey":8757,"ĠBaxter":8758,"DÆ°":8759,"Sá»Ńa":8760,"mail":8761,"rig":8762,"tuyá»ĩt":8763,"ĠCÃł":8764,"ĠBÄĥ":8765,"ĠChiáº¿c":8766,"Ìī!":8767,"ĠDO":8768,"Conner":8769,"ĠRohan":8770,"ĠJud":8771,"eline":8772,"ĠWoo":8773,"rov":8774,"ĠQui":8775,"ĠbÃªnh":8776,"ÃĴng":8777,"ĠSubteam":8778,"ĠBoris":8779,"ĠPepper":8780,"51":8781,"Cáº¥t":8782,"]:":8783,"tá»Ľi":8784,"ĠÆ°ng":8785,"ĠlÃ¡ng":8786,"Ġchuá»ĳc":8787,"Ġgas":8788,"ĠrÃ£nh":8789,"Thá»ĥ":8790,"ĠÄĲá»Ļc":8791,"Trá»ħ":8792,"ĠDw":8793,"Ġ250":8794,"Ġ64":8795,"igne":8796,"oshi":8797,"Matthew":8798,"Roger":8799,"bridge":8800,"gom":8801,"mai":8802,"ray":8803,"ĠngÃ¢m":8804,"Ġráº¡ng":8805,"ĠráºŃm":8806,"ĠdÄĥ":8807,"Ġhoáº¡":8808,"ĠThomp":8809,"ĠJa":8810,"ĠKal":8811,"elson":8812,"asm":8813,"Ġlap":8814,"ĠFu":8815,"thá»±c":8816,"ĠYo":8817,"unny":8818,"okka":8819,"ollum":8820,"ĠMorg":8821,"ount":8822,"KHÃĶNG":8823,"ĠBernard":8824,"ĠOxford":8825,"Far":8826,"GÃł":8827,"Káº¹o":8828,"NÃ£o":8829,"SP":8830,"Ġtáº¹o":8831,"Ġria":8832,"Nhá»¡":8833,"ĠSeo":8834,"ĠHÃ£n":8835,"ĠLáºŃp":8836,"asy":8837,"itter":8838,"ilia":8839,"elli":8840,"ĠMori":8841,"Ġwhere":8842,"Andrew":8843,"ARS":8844,"Ġrá»£n":8845,"ĠBatman":8846,"Bang":8847,"Joy":8848,"Lá»£i":8849,"Tor":8850,"Vá»ĩ":8851,"bum":8852,"gic":8853,"Ã¼":8854,"Ġhand":8855,"ĠrÆ°Æ¡":8856,"ÄĲáº£o":8857,"Nháº¥c":8858,"ĠSouth":8859,"ĠVa":8860,"als":8861,"ĠIran":8862,"ĠHop":8863,"ĠAlÃ´":8864,"Ġinternet":8865,"arts":8866,"quang":8867,"Anton":8868,"Ġcá»§ng":8869,"agher":8870,"Louis":8871,"Ġcmn":8872,"ĠGeorgia":8873,"ĠMickey":8874,"Cá»¥":8875,"RÃ¢":8876,"key":8877,"Ġáº¥p":8878,"Ġend":8879,"Ġláº¥n":8880,"ĠbÃº":8881,"ĠgÃ´":8882,"ĠngÆ°á»£ng":8883,"Ġphá»ĵng":8884,"ÄĲá»ķ":8885,"ĠCO":8886,"ĠCuá»ĳi":8887,"ĠCá»Ńa":8888,"ĠMáº·p":8889,"ĠMarl":8890,"ĠBag":8891,"ĠSansa":8892,"ĠÄĲinh":8893,"ĠHand":8894,"ĠKÃ©o":8895,"iri":8896,"ĠDonald":8897,"Scarlett":8898,"Reid":8899,"LAY":8900,"ĠUSD":8901,"ĠLavigne":8902,"Ass":8903,"VáºŃn":8904,"vie":8905,"Nháº£m":8906,"ĠGam":8907,"ĠPháº§n":8908,"ÃĢy":8909,"oba":8910,"obo":8911,"ffin":8912,"Ġ1923":8913,"attle":8914,"Huyáº¿t":8915,"Há»«m":8916,"LAUGH":8917,"oa":8918,"ten":8919,"ĠtÃ£":8920,"Ġkeep":8921,"Ġmic":8922,"Ġná»ĥ":8923,"ĠgÃ¢n":8924,"ĠdÄ©a":8925,"emon":8926,"ĠCai":8927,"aut":8928,"ĠHudson":8929,"amine":8930,"ĠRap":8931,"ĠKang":8932,"cker":8933,"Ġ345":8934,"ooke":8935,"agi":8936,"Ġfriend":8937,"abella":8938,"ĠAnne":8939,"ĠColumb":8940,"ĠInternet":8941,"title":8942,"Lily":8943,"water":8944,"ĠÃ©o":8945,"ĠphÃł":8946,"ĠMet":8947,"ĠBad":8948,"ĠNicky":8949,"ĠPoll":8950,"Ġbá»Ļn":8951,"olan":8952,"ÃĢN":8953,"ĠShe":8954,"ĠDecept":8955,"ĠKatniss":8956,"burn":8957,"ountain":8958,"ĠWallace":8959,"ĠSantiago":8960,"Dor":8961,"JO":8962,"Ne":8963,"Ná»Ļi":8964,"Nina":8965,"Tiá»ĩn":8966,"Váº£":8967,"hall":8968,"káº»":8969,"uko":8970,"ĠÄĳÃºt":8971,"ĠÄĳá»ĳm":8972,"Ġlim":8973,"ĠlÆ°á»£m":8974,"Ġmá»Ļc":8975,"Ġtrym":8976,"ĠChap":8977,"ĠRad":8978,"ĠVat":8979,"ĠJun":8980,"ĠKÃ¬":8981,"ouch":8982,"Queen":8983,"roft":8984,"iane":8985,"laf":8986,"ĠFrankie":8987,"Marie":8988,"cone":8989,"ixon":8990,"gomery":8991,"Jer":8992,"Woo":8993,"bá»ı":8994,"Ġni":8995,"Ġbá»ģn":8996,"ĠkhÃ¢m":8997,"Chase":8998,"ÄĲÃło":8999,"emen":9000,"ĠTÃ¹ng":9001,"ĠTáº¯t":9002,"ĠTara":9003,"ĠSue":9004,"ĠHector":9005,"ĠChá»įn":9006,"ĠLai":9007,"ĠVá»£":9008,"ĠNZT":9009,"etcher":9010,"oland":9011,"rab":9012,"eek":9013,"Ġ92":9014,"She":9015,"ensen":9016,"Muá»Ļn":9017,"uchot":9018,"ĠMississ":9019,"Ġ==":9020,"anslator":9021,"Thorin":9022,";,":9023,"Kit":9024,"Mos":9025,"TO":9026,"bee":9027,"Ġlá»Ł":9028,"ĠnÃŃn":9029,"ĠhÃº":9030,"Ġháº¯c":9031,"ĠrÃ´i":9032,"inja":9033,"arp":9034,"ĠNÃºi":9035,"uda":9036,"sha":9037,"áº¤y":9038,"ĠPres":9039,"ĠNorth":9040,"ĠRiver":9041,"ĠReyes":9042,"ĠkHÃ´ng":9043,"ĠTargaryen":9044,"Get":9045,"Manny":9046,"Park":9047,"TING":9048,"VÆ¡":9049,"sylvania":9050,"ÃŁ":9051,"ĠtÃº":9052,"ĠlÄĥm":9053,"Ġváº¯t":9054,"ĠquÃ¢":9055,"Nháº«n":9056,"ĠChan":9057,"ĠChÆ¡i":9058,"ĠLá»ĳi":9059,"ĠNÄĤM":9060,"ĠKrypton":9061,"Ġwork":9062,"atheon":9063,"Ġstill":9064,"iggs":9065,"Malcolm":9066,"Ġcá»ĵn":9067,"97":9068,"BÆ¡":9069,"Ráº¯c":9070,"for":9071,"Ã¦":9072,"Ġtrá»Ĺi":9073,"Chá»ĳng":9074,"ChÃ¡y":9075,"ĠTá»ĥ":9076,"ĠBÄĥng":9077,"ĠGates":9078,"ĠVIá»Ĩ":9079,"ouri":9080,"ĠIr":9081,"ĠtuÃ´":9082,"Ġwow":9083,"avier":9084,"Ġinto":9085,"ĠkÃŃp":9086,"ĠWhen":9087,"Ġwhiskey":9088,"ugo":9089,"ĠPetrelli":9090,"Iá»Ĥ":9091,"ragon":9092,"á»°C":9093,"ĠIraq":9094,"Evan":9095,"Fiona":9096,"Jacob":9097,"TÆ°á»Ŀng":9098,"ĠtÆ¡i":9099,"ĠlÃŃt":9100,"Ġbáº½":9101,"ĠrÃł":9102,"Thanks":9103,"ĠBon":9104,"ĠAutobot":9105,"ĠGri":9106,"esi":9107,"ĠNancy":9108,"ĠTrum":9109,"oogle":9110,"Ġ645":9111,"GiÃły":9112,"agen":9113,"allas":9114,"ivan":9115,"ÃģT":9116,"ĠOmar":9117,"Ká»¹":9118,"Má»¹":9119,"rine":9120,"ĠÃ³i":9121,"Ġcháº½":9122,"Ġvá»Ľt":9123,"Ġhel":9124,"ĠnhÃ³t":9125,"Ġxá»ķ":9126,"ThÆ°Æ¡ng":9127,"ĠCave":9128,"ĠSad":9129,"ĠÄĲá»Ģ":9130,"ĠWood":9131,"ĠOak":9132,"ionel":9133,"ĠBaratheon":9134,"Charlotte":9135,"ĠMinion":9136,"ushi":9137,"ĠHawaii":9138,"ĠJerusalem":9139,"ĠÃļy":9140,"If":9141,"RÄĥng":9142,"Woody":9143,"ĠÃ¢y":9144,"Ġlá»Ļc":9145,"Ġsáº£ng":9146,"Ġgáº·m":9147,"ĠnhÅ©ng":9148,"ĠCáº§m":9149,"ĠMath":9150,"ĠBong":9151,"ĠHarl":9152,"Emma":9153,"Ġmuch":9154,"ipper":9155,"Ġmean":9156,"ĠMaya":9157,"ĠBarbara":9158,"Aang":9159,"BE":9160,"Canh":9161,"Russ":9162,"báº±ng":9163,"Ġ|":9164,"ĠgÄĥm":9165,"Ġgolf":9166,"ChÃ¢u":9167,"Ġquáº¡t":9168,"ĠTáº¿":9169,"NgÆ°á»£c":9170,"ĠMáº¥t":9171,"ĠÄĲáº¡o":9172,"ĠHÆ°á»Ľng":9173,"ĠNight":9174,"els":9175,"ĠFeder":9176,"ĠOut":9177,"ĠNgon":9178,"ĠUl":9179,"achi":9180,"ĠAnderson":9181,"Ġxá»īu":9182,"ELD":9183,"Katniss":9184,"Felicity":9185,"ĠJaime":9186,"09":9187,"Fitz":9188,"Há»Ĺ":9189,"Jay":9190,"NÃ£y":9191,"ĠÄĳÃ¹ng":9192,"ĠCD":9193,"ĠSoo":9194,"ĠHood":9195,"ĠChang":9196,"ĠLá»Ĺ":9197,"ĠPop":9198,"iter":9199,"......":9200,"risto":9201,"stan":9202,"rances":9203,"GHS":9204,"ĠKyung":9205,"terpol":9206,"68":9207,"Robb":9208,"SÃ¢n":9209,"more":9210,"ĠniÃªm":9211,"ĠbÆ°Æ¡":9212,"Ġsá»¥c":9213,"ÄĲÃłi":9214,"Nha":9215,"ĠTáº¡o":9216,"ĠBá»ĳn":9217,"Trá»©ng":9218,"ĠJust":9219,"âĻªâĻª":9220,"ĠPam":9221,"owa":9222,"urn":9223,"ryn":9224,"ichi":9225,"Ãģi":9226,"Ġshit":9227,"ynthia":9228,"ĠFletcher":9229,"ĠSkye":9230,"Ġreally":9231,"Julie":9232,"Ã¥i":9233,"ĠRuth":9234,"ĠCollins":9235,"$.":9236,"DS":9237,"LY":9238,"Ġ000":9239,"Ġláº£":9240,"Ġmáº¡t":9241,"Ġtal":9242,"ĠLáº¡c":9243,"ĠAug":9244,"ischer":9245,"avi":9246,"Ġ622":9247,"Ġ77":9248,"utt":9249,"utter":9250,"ĠArm":9251,"assus":9252,"ĠJuan":9253,"000000":9254,"ĠGallagher":9255,"GÃ¢y":9256,"ND":9257,"fore":9258,"ĠÆłn":9259,"Ġlive":9260,"Ġthing":9261,"Ġchang":9262,"Ġsun":9263,"Ġhero":9264,"Ġtrá»Ļi":9265,"ÄĲM":9266,"ĠÄĲáº·t":9267,"ĠLar":9268,"ĠRaven":9269,"ĠNorm":9270,"Ġtá»±u":9271,"Ġ700":9272,"alley":9273,"acher":9274,"ĠArt":9275,"ĠElena":9276,"ÃĤn":9277,"Donald":9278,"ippi":9279,"ĠLeonard":9280,"ĠHalloween":9281,"ĠRusso":9282,"Jar":9283,"bÃ¬nh":9284,"dington":9285,"rett":9286,"tá»±":9287,"ĠcháºŃu":9288,"Ġmáº£ng":9289,"Ġbáº¡t":9290,"ĠkhÃ©t":9291,"ĠsÃ²":9292,"ĠnhÃµm":9293,"ChÃŃ":9294,"ĠquÃ´":9295,"iny":9296,"ĠMam":9297,"ĠSÃºng":9298,"ĠTháº¡ch":9299,"elie":9300,"Æ¯Æł":9301,"Where":9302,"ways":9303,"ĠThorin":9304,"ĠMontgomery":9305,"atsby":9306,"cHFAE":9307,"ĠClarke":9308,"cHFAEBB":9309,"Biá»ĥn":9310,"CIA":9311,"Larry":9312,"Rom":9313,"gia":9314,"pin":9315,"port":9316,"Ãĭ":9317,"ĠÆ°Æ¡":9318,"ĠlÃ¬":9319,"Ġnáº·c":9320,"Ġnew":9321,"Ġchá»«a":9322,"Kháº©n":9323,"ThÆ¡":9324,"Ġgiá»¥":9325,"ĠCorn":9326,"ĠBÃŃ":9327,"ĠBas":9328,"ĠLind":9329,"Trans":9330,"ĠThung":9331,"ĠVo":9332,"ĠVel":9333,"Ġmáº¹o":9334,"ĠFlynn":9335,"ĠtuÃ¢":9336,"ĠPhá»§":9337,"ĠYes":9338,"abi":9339,"ape":9340,"ĠÄĳuÃ´":9341,"ĠÃĤm":9342,"Jones":9343,"ĠMichelle":9344,"),":9345,"BS":9346,"Biá»ĥu":9347,"Happy":9348,"TÃ©":9349,"Tá»ĳc":9350,"Who":9351,"hÃłng":9352,"Ġtwo":9353,"ĠthÃºi":9354,"Ġká»ĭ":9355,"Ġvodka":9356,"Ġhuyá»ĩt":9357,"Ġráº©y":9358,"ĠxÃ¡o":9359,"Ġquyá»ĩt":9360,"ĠquáºŃt":9361,"Ġquáº¹o":9362,"Nhá»ĭp":9363,"ĠÄĲáº¥y":9364,"ĠÄĲá»©a":9365,"TrÃł":9366,"ĠVince":9367,"ĠPak":9368,"ĠPink":9369,"ĠchuÃ¢":9370,"andra":9371,"avan":9372,"Ġ85":9373,"ĠBernie":9374,"Cast":9375,"Kara":9376,"joy":9377,"Ġuá»ĳn":9378,"Ġtáº¿t":9379,"ĠchÃ©o":9380,"Ġbit":9381,"ĠsÃºt":9382,"Ġnhá»¡":9383,"Ġcá»£t":9384,"Ġxay":9385,"aig":9386,"ĠMÃª":9387,"PhÃ³":9388,"ĠAur":9389,"ĠKarl":9390,"kham":9391,"api":9392,"ĠFrankenstein":9393,"ĠCaroline":9394,"Quyá»ĥn":9395,"ĠDivision":9396,"Neil":9397,"TU":9398,"TÃło":9399,"pen":9400,"Â¹":9401,"á»Ĥ":9402,"ĠÄĳá»Ľi":9403,"ĠthuyÃª":9404,"ĠbÃ¹m":9405,"ÄĲÃ¢":9406,"ĠBall":9407,"ĠÄĲÃłn":9408,"ĠhoÄĥ":9409,"ĠKick":9410,"thony":9411,"ĠIron":9412,"Ġwait":9413,"uto":9414,"ĠSimmons":9415,"Iáº¾N":9416,"ĠJoshua":9417,"Ġkáº½m":9418,"ĠLynch":9419,"Ġlaptop":9420,"Beth":9421,"Hotch":9422,"dam":9423,"tÃ´":9424,"tÃ¬nh":9425,"ÄĲá»Ļ":9426,"ĠCy":9427,"ĠTáº§m":9428,"ĠMá»Ľi":9429,"orado":9430,"ĠRan":9431,"ĠFre":9432,"ĠEast":9433,"ĠIvan":9434,"irl":9435,"ĠÃĦ":9436,"ĠbiÃªt":9437,"lov":9438,"Ġshould":9439,"ĠDead":9440,"ppie":9441,"âĢĭ":9442,"Harold":9443,"Ellis":9444,"ĠOscar":9445,"Aa":9446,"NS":9447,"TA":9448,"mers":9449,"rÃºt":9450,"wald":9451,"ĠáºŃp":9452,"Ġtáº¡t":9453,"Ġblog":9454,"ĠkhÄĥ":9455,"ĠHÆ°Æ¡ng":9456,"eople":9457,"ĠNy":9458,"ĠWendy":9459,"ĠEle":9460,"seus":9461,"ĠZach":9462,"erez":9463,"ĠArnold":9464,"ĠTyrell":9465,"ĠAtlant":9466,"Cá»Ľm":9467,"IV":9468,"Kl":9469,"Pet":9470,"mie":9471,"tra":9472,"ĠÄĳáº£n":9473,"ĠchÆ°á»Ľng":9474,"Ġviá»ĩt":9475,"Ġbetter":9476,"ĠhÃ³t":9477,"Ġtráº§y":9478,"phine":9479,"Ġpháº«n":9480,"antha":9481,"ĠCraw":9482,"ĠMem":9483,"ĠMá»ħ":9484,"á»£c":9485,"ĠAw":9486,"ĠGor":9487,"ĠGáº¥u":9488,"Ġdoll":9489,"ĠII":9490,"ĠIv":9491,"ĠIll":9492,"ĠOw":9493,"Ġsaid":9494,"ĠchiÃªm":9495,"Ġsexy":9496,"ĠBroad":9497,"ĠVienna":9498,"ĠStormborn":9499,"ĠPierce":9500,"ĠWesteros":9501,"*.":9502,"BÆ¡i":9503,"Dá»¯":9504,"Dam":9505,"Mir":9506,"Nemo":9507,"VD":9508,"Vá»©t":9509,"ĠÃºp":9510,"áº¶":9511,"Ġcháº§u":9512,"ĠvÃ²":9513,"Ġsal":9514,"Ġngá»«":9515,"á»ĳp":9516,"Ġdiá»ģu":9517,"Nháº·t":9518,"ĠTÃ¢n":9519,"ĠMass":9520,"arch":9521,"ĠSAU":9522,"ĠHD":9523,"ĠHav":9524,"ĠHold":9525,"esis":9526,"ĠKir":9527,"ĠKenny":9528,"ĠPenny":9529,"ĠFer":9530,"ĠFury":9531,"Ġghim":9532,"acks":9533,"ult":9534,"sex":9535,"ĠAmen":9536,"ĠRobbie":9537,"ibb":9538,"ĠÃģc":9539,"Carter":9540,"Elsa":9541,"Harvey":9542,"Gal":9543,"GAS":9544,"Há»ĵng":9545,"IE":9546,"Jin":9547,"Kelly":9548,"Sch":9549,"Ġeo":9550,"ĠhÄĥm":9551,"Ġnháº¹n":9552,"ĠrÆ°á»£t":9553,"inic":9554,"ĠCre":9555,"Ġlá»Ń":9556,"Ì£?":9557,"ĠBÃłng":9558,"ĠSáº¯p":9559,"ĠLin":9560,"ĠLeg":9561,"ĠVÄ©":9562,"ĠVá»ĭ":9563,"ĠNemo":9564,"ict":9565,"adi":9566,"ĠShh":9567,"ĠAld":9568,"ÃģC":9569,"ONE":9570,"eila":9571,"etroit":9572,"ĠSatan":9573,"Ġguys":9574,"ĠVenice":9575,"Eh":9576,"GÃ¡i":9577,"ball":9578,"cr":9579,"cu":9580,"du":9581,"par":9582,"say":9583,"Ã°":9584,"Ġtem":9585,"ĠbÃ¡i":9586,"Ġsorry":9587,"ĠLÃ´i":9588,"ĠVlad":9589,"iti":9590,"olph":9591,"ĠNgá»¥c":9592,"ĠStannis":9593,"umba":9594,"quay":9595,"ĠCarlos":9596,"ĠLoan":9597,"Gordon":9598,"Há»Ļp":9599,"Lor":9600,"Oa":9601,"TIáº¾NG":9602,"frey":9603,"ool":9604,"Ġmade":9605,"Ġdá»«a":9606,"ÄĲÃ¢m":9607,"áº½n":9608,"chiáº¿n":9609,"cháº¡y":9610,"ĠCand":9611,"ĠMig":9612,"ĠMend":9613,"ĠCher":9614,"ĠLá»Ľn":9615,"ĠThi":9616,"ĠNSA":9617,"ĠKáº¿":9618,"ĠTri":9619,"thá»Ŀi":9620,"illian":9621,"igail":9622,"ĠStuart":9623,"ĠGiai":9624,"azel":9625,"Ġjazz":9626,"yde":9627,"ĠÃĩÃľ":9628,"ĠDelaney":9629,"ĠDunbar":9630,"ĠScotty":9631,"ĠSaruman":9632,"Janet":9633,"ĠVatican":9634,"94":9635,"Bor":9636,"Hiá»ĥn":9637,"Hans":9638,"Jordan":9639,"LÆ°Æ¡ng":9640,"Lisa":9641,"VÃ©":9642,"Xanh":9643,"tinh":9644,"Ġlá»¥y":9645,"ĠchÃ¡o":9646,"Ġmáº§m":9647,"ĠTau":9648,"ĠTodd":9649,"ĠMáº·c":9650,"ĠMas":9651,"ĠBis":9652,"Treo":9653,"ĠGai":9654,"Taxi":9655,"owal":9656,"Ġwr":9657,"ĠMargaret":9658,"aco":9659,"ĠKhÃŃ":9660,"agger":9661,"ĠBrock":9662,"iggy":9663,"Elizabeth":9664,"ĠGregory":9665,"Victoria":9666,"Becky":9667,"ĠHydra":9668,"Com":9669,"IÃĬN":9670,"boy":9671,"Ġ/":9672,"ĠlÃ³":9673,"Ġkhiáº¿m":9674,"ĠquÃ¡t":9675,"ĠMand":9676,"ĠBri":9677,"ĠDá»±":9678,"ĠDÃ¹ng":9679,"ĠThÃªm":9680,"ĠVas":9681,"ĠPho":9682,"torm":9683,"ANS":9684,"á»ĲI":9685,"INE":9686,"burgh":9687,"áºłN":9688,"ĠButler":9689,"ĠÄĲoÃłn":9690,"akespe":9691,"MA":9692,"Ná»ĳi":9693,"Oliv":9694,"XÆ°Æ¡ng":9695,"Xáº£y":9696,"hy":9697,"rr":9698,"ĠtÃ¨o":9699,"ĠmÃºt":9700,"Khá»§ng":9701,"ĠCindy":9702,"NgÆ°ng":9703,"ĠÄĲÃ´i":9704,"ĠÄĲÆ¡n":9705,"ĠÄĲiá»ĥn":9706,"ĠLim":9707,"ĠLAUGH":9708,"iah":9709,"ĠKara":9710,"ĠFog":9711,"reen":9712,"Ġxuá»ĵng":9713,"ĠQuáº£n":9714,"quÃ¡":9715,"isha":9716,"ĠAbraham":9717,"GRUN":9718,"Hall":9719,"RÃ¡ng":9720,"Tan":9721,"Wall":9722,"ning":9723,"ĠkÃ©n":9724,"ĠngÃ¡y":9725,"ĠHung":9726,"enberg":9727,"ĠDong":9728,"ĠThorn":9729,"Khoa":9730,"shaw":9731,"ĠLake":9732,"ĠAbby":9733,"Brad":9734,"hhhh":9735,"Jeff":9736,"ĠChappie":9737,"araoh":9738,"Yá»ĥm":9739,"gn":9740,"Ġthough":9741,"Ġnanh":9742,"Ġbr":9743,"Ġsáº¡c":9744,"Thá»ķi":9745,"Nháº¥n":9746,"ĠTá»ĩ":9747,"ĠChÆ°Æ¡ng":9748,"ĠLip":9749,"ĠDer":9750,"ĠDia":9751,"ĠDre":9752,"ÄĲÃ³i":9753,"ĠTracy":9754,"ĠNhÄ©":9755,"Ġwal":9756,"rya":9757,"ries":9758,"ĠGiáº£":9759,"udd":9760,"ÃģI":9761,"Heh":9762,"ĠElliot":9763,"ĠLizzy":9764,"BÃ£i":9765,"Cisco":9766,"Iris":9767,"cm":9768,"láº¥y":9769,"áº©ng":9770,"Ġlá»¥i":9771,"ĠvÅ©ng":9772,"Ġváº±n":9773,"Ġganh":9774,"ĠxÃ£y":9775,"Ġxáº¡o":9776,"ĠgiÃłn":9777,"ĠSen":9778,"ĠSandy":9779,"ĠKev":9780,"icus":9781,"ĠOl":9782,"Ġfuck":9783,"ĠXuá»ĳng":9784,"ĠShane":9785,"iver":9786,"ĠArcher":9787,"ugar":9788,"ARK":9789,"Scot":9790,"ĠRosie":9791,"ĠDolores":9792,"LÃª":9793,"Táº·ng":9794,"báº£o":9795,"Ġcháº¡p":9796,"ĠrÃ¨m":9797,"Ġphá»Ļng":9798,"Ġaxit":9799,"ĠCÃºt":9800,"ĠCec":9801,"ĠCome":9802,"ĠMá»Ļc":9803,"ĠMun":9804,"arrow":9805,"ĠÄĲau":9806,"ĠChÃ©n":9807,"ĠDC":9808,"ĠDeep":9809,"ĠRac":9810,"ĠKira":9811,"cky":9812,"ĠQuang":9813,"onder":9814,"CKING":9815,"áº¬P":9816,"ction":9817,"razy":9818,"Skyler":9819,"ĠThompson":9820,"53":9821,"Ev":9822,"Jai":9823,"KNO":9824,"Lincoln":9825,"Tuá»ķi":9826,"hart":9827,"uka":9828,"yeah":9829,"Ġcáº©m":9830,"Ġsen":9831,"Ġrong":9832,"ÄĲá»Ļc":9833,"ĠSÃ¡ch":9834,"ĠLÃĢ":9835,"ĠNar":9836,"aton":9837,"ĠPeeta":9838,"omer":9839,"NghiÃªn":9840,"ffman":9841,"ĠGiao":9842,"ĠBrid":9843,"shire":9844,"ÃĤY":9845,"ĠLothbro":9846,"akespeare":9847,"Biá»ĩt":9848,"Erik":9849,"Ga":9850,"Há»Ń":9851,"Má»©c":9852,"æĪ":9853,"nhiá»ģu":9854,"Ġnhá»Ļn":9855,"ĠtrÄ©":9856,"Ġphao":9857,"Nháº§m":9858,"ĠBryan":9859,"ĠHYDRA":9860,"Ġyes":9861,"Ġhoi":9862,"ĠDanh":9863,"ĠDetroit":9864,"ĠThá»£":9865,"uster":9866,"ĠchuÃ´":9867,"ĠNguy":9868,"lee":9869,"Ġ618":9870,"Ġkhuáº¥y":9871,"eger":9872,"ĠGru":9873,"Ġshot":9874,"ĠGabriel":9875,"ĠLabs":9876,"Ġgiá»¥c":9877,"God":9878,"Gary":9879,"Há»Ļ":9880,"Paris":9881,"Say":9882,"rat":9883,"zona":9884,"Âĳ":9885,"Ġáº©u":9886,"Ġmá»©t":9887,"Ġbá»«ng":9888,"Ġnham":9889,"iness":9890,"ĠMicky":9891,"ĠÄĲá»ĭnh":9892,"ĠDá»ħ":9893,"003":9894,"reat":9895,"ĠXa":9896,"ĠGiÃ¡":9897,"ĠUr":9898,"253":9899,"FFB":9900,"Alan":9901,"redder":9902,"ĠTuco":9903,"ĠParkman":9904,"ĠSuá»µt":9905,"ĠCasey":9906,"ambers":9907,"ĠLothbrok":9908,"Gu":9909,"KÃª":9910,"XÃ´ng":9911,"worth":9912,"ÃĪ":9913,"á»Ī":9914,"ĠthÃ¬nh":9915,"Ġváº¹t":9916,"Ġná»ĭnh":9917,"Ġaf":9918,"ema":9919,"Æ°á»Ľn":9920,"Ġlá»§":9921,"ĠCháº£":9922,"ĠDes":9923,"ĠDent":9924,"ĠDallas":9925,"Ġloanh":9926,"omir":9927,"ĠQuy":9928,"trÃ´ng":9929,"ube":9930,"inchester":9931,"ĠDelta":9932,"ÃĻt":9933,"ĠLangley":9934,"ĠRogers":9935,"quila":9936,"Cameron":9937,"Av":9938,"Fran":9939,"MÃ¡":9940,"Miss":9941,"Merry":9942,"Reed":9943,"Tá»ĳng":9944,"sá»ĳng":9945,"Â´":9946,"ĠÄĳáº¡m":9947,"Ġmeta":9948,"Ġngá»Ĺng":9949,"Ġngáº«m":9950,"ĠphÃ¡c":9951,"Ġngháº¹t":9952,"emis":9953,"Thuá»Ļc":9954,"ĠHart":9955,"ĠChÃłng":9956,"ĠVol":9957,"ĠNatalie":9958,"elu":9959,"Äĳáº¡i":9960,"edes":9961,"igt":9962,"agan":9963,"ĠGiang":9964,"ÃģN":9965,"ĠLuÃ´n":9966,"ĠMonroe":9967,"Ġstart":9968,"PHUDEVIET":9969,"Æ¯á»¢C":9970,"Dáº§u":9971,"Jerry":9972,"Ward":9973,"bao":9974,"giáº¿t":9975,"pi":9976,"īa":9977,"Ġtháº±n":9978,"ĠtrÃ¡o":9979,"ĠLord":9980,"ĠLola":9981,"ask":9982,"thor":9983,"ĠNhÃ³c":9984,"ents":9985,"ÃĬU":9986,"endell":9987,"ĠCarson":9988,"Ġtrá»¥y":9989,"ANN":9990,"ĠRobb":9991,"ĠÃĩi":9992,"ĠtÃ©i":9993,"7865":9994,"ĠOlivia":9995,"HIELD":9996,"66":9997,"93":9998,"Boo":9999,"HÃºt":10000,"Please":10001,"Susan":10002,"Ġá»§":10003,"Ġain":10004,"ĠxÃ©o":10005,"emma":10006,"chez":10007,"ĠTá»Ļi":10008,"NgáºŃm":10009,"ĠMÃ¡u":10010,"ĠHÃ¢n":10011,"ĠAle":10012,"ĠVon":10013,"ĠJang":10014,"ĠNÃłng":10015,"ĠTriá»ĩu":10016,"rez":10017,"ĠOng":10018,"ĠphÃŃm":10019,"andal":10020,"ĠElsa":10021,"ĠLoren":10022,"ThoÃ¡t":10023,"Teddy":10024,"ĠKeith":10025,"ĠSonny":10026,"Wilson":10027,"Bur":10028,"Pin":10029,"Right":10030,"Str":10031,"Terry":10032,"bell":10033,"uf":10034,"via":10035,"zan":10036,"Ġ79":10037,"ĠÄĳiá»ĥu":10038,"Ġcháº£o":10039,"ĠchÃ¹a":10040,"Ġvung":10041,"Ġhigh":10042,"Ġnguyá»ĩt":10043,"Ġngá»Ńa":10044,"ĠrÃ¹ng":10045,"Ġráº¯m":10046,"ĠtrÃ²ng":10047,"Ã©s":10048,"Ngáº¯m":10049,"ĠBá»ī":10050,"aman":10051,"ĠDVD":10052,"ĠGil":10053,"ĠFBl":10054,"osev":10055,"urs":10056,"agne":10057,"ĠQuentin":10058,"ĠAbu":10059,"ĠMurdock":10060,"ĠkhiÃªng":10061,"ĠPennsylvania":10062,"CU":10063,"Joseph":10064,"Ná»¥":10065,"SÃ¢u":10066,"ien":10067,"yer":10068,"Â¢":10069,"Âª":10070,"ĠchÃ¨":10071,"Ġhá»Ŀi":10072,"Ġnháº¥m":10073,"...,":10074,"ĠCoh":10075,"ĠCá»ķng":10076,"ĠCobb":10077,"ĠTen":10078,"ĠTess":10079,"ĠMáº¡ch":10080,"ĠSydney":10081,"Ġhold":10082,"Phudeviet":10083,"Trá»£":10084,"ĠÄĳá»ĭt":10085,"ĠPas":10086,"urf":10087,"icks":10088,"Ġplace":10089,"uma":10090,"cÃ´la":10091,"ĠcÃºm":10092,"á»ĲNG":10093,"ĠColorado":10094,"ÃĴi":10095,"Ġalbum":10096,"ĠNGÆ¯á»ľI":10097,"Karen":10098,"uitar":10099,"FC":10100,"Gen":10101,"KÃŃ":10102,"MÆ°a":10103,"WAT":10104,"af":10105,"met":10106,"ĠÃ¡t":10107,"Ġlm":10108,"Ġláº£m":10109,"ĠlÃ²i":10110,"Ġmá»§":10111,"Ġmind":10112,"..?":10113,"ĠdÃ¬m":10114,"ÄĲáº¥m":10115,"ThÃł":10116,"ĠCost":10117,"NgÃ³n":10118,"ĠSang":10119,"ĠChÃŃ":10120,"ĠRemy":10121,"thazar":10122,"Ġturn":10123,"Ġface":10124,"ĠMarcel":10125,"ersh":10126,"ender":10127,"oker":10128,"áº¢I":10129,"Clane":10130,"ĠPatty":10131,"Debbie":10132,"Báº¯c":10133,"HH":10134,"KÃ¬":10135,"Nancy":10136,"ril":10137,"Ġeyes":10138,"Ġláº³ng":10139,"Ġmá»ĳt":10140,"ÃŃu":10141,"Ġgiáº»":10142,"ĠTir":10143,"ĠBlo":10144,"ĠBella":10145,"ĠRalph":10146,"ĠJennifer":10147,"itamin":10148,"ĠEugene":10149,"ĠsoÃ¡i":10150,"act":10151,"aleesi":10152,"ĠHeather":10153,"Donnie":10154,"uchi":10155,"PHá»¤":10156,"ĠDouglas":10157,"ĠSanders":10158,"Daisy":10159,"MÅ©":10160,"cá»ĳ":10161,"ved":10162,"ĠcÃły":10163,"Ġváº¥y":10164,"Ġná»ĳc":10165,"Ġsáº§u":10166,"ĠrÃ¡o":10167,"Ġphá»Ľt":10168,"Ngá»įc":10169,"Ġ112":10170,"ĠBiá»ĩt":10171,"ĠSP":10172,"ĠSÃ´":10173,"ĠSÃłi":10174,"ĠÄĲan":10175,"ĠLot":10176,"iatus":10177,"ĠGust":10178,"elot":10179,"ĠIl":10180,"Hoáº¡t":10181,"Holly":10182,"Ġsoda":10183,"ummer":10184,"abama":10185,"ĠUy":10186,"ĠCarm":10187,"Ġhead":10188,"ĠPrince":10189,"body":10190,"Barney":10191,"ĠSnart":10192,"Angela":10193,"ĠFalcone":10194,"Bia":10195,"Cor":10196,"Grace":10197,"Mik":10198,"Nat":10199,"Rich":10200,"SÃ´":10201,"cuá»Ļc":10202,"yÃªu":10203,"ĠkhÃ¢":10204,"phne":10205,"Ġad":10206,"ĠCÃĵ":10207,"Ì£!":10208,"ĠBee":10209,"ĠBecca":10210,"ĠSU":10211,"ĠVá»«a":10212,"ĠKra":10213,"ĠNgá»¥y":10214,"Ġfall":10215,"Ġstay":10216,"Ġradar":10217,"celot":10218,"EVE":10219,"ĠNazir":10220,"Ashley":10221,"ĠMcGill":10222,"ĠDawson":10223,"ĠPakistan":10224,"osevelt":10225,"Jenny":10226,"ONG":10227,"banh":10228,"gw":10229,"Ġá»ĩn":10230,"ĠcÃºc":10231,"ĠÄĳuá»ĳc":10232,"ĠmÄ©":10233,"ĠrÆ°":10234,"ĠCurtis":10235,"ĠTá»ĳ":10236,"ĠTul":10237,"ĠTak":10238,"ĠBelle":10239,"thÃłnh":10240,"Ġ3000":10241,"Ġtuá»Ļc":10242,"owski":10243,"ĠNháº£y":10244,"avin":10245,"oira":10246,"abody":10247,"Ġcá»¥m":10248,"ĠOhio":10249,"ÃĤy":10250,"ĠÃ°i":10251,"ĠJefferson":10252,"nolds":10253,"ĠKhoa":10254,"Æ¯á»ļC":10255,"76":10256,"Az":10257,"Bell":10258,"Gáº¥u":10259,"Un":10260,"bott":10261,"ĠtÃ¬":10262,"Ġtá»£n":10263,"ĠhÃ³i":10264,"ĠgÆ°":10265,"Ġphá»ī":10266,"Chung":10267,"Ġdie":10268,"chá»©":10269,"ĠTáº§n":10270,"ĠBÃ©":10271,"ĠChurch":10272,"amo":10273,"ĠAustin":10274,"ĠTho":10275,"ĠRidd":10276,"ĠVÃ¹ng":10277,"ĠPin":10278,"itri":10279,"ĠWally":10280,"ĠTráºŃn":10281,"oleon":10282,"ĠID":10283,"ĠPhiáº¿n":10284,"led":10285,")}âĻª":10286,"ĠchÃŃp":10287,"Ġfl":10288,"inez":10289,"ĠScar":10290,"ĠDonna":10291,"RIO":10292,"á»ĺI":10293,"ĠVanessa":10294,"ĠStrange":10295,"ĠMissouri":10296,"Ġcá»įp":10297,"BOTH":10298,"Ġcocaine":10299,"Cá»ķng":10300,"GÃ³c":10301,"Hor":10302,"Kem":10303,"Logan":10304,"Máº£nh":10305,"gs":10306,"ios":10307,"lah":10308,"uff":10309,"ĠvÆ°á»£ng":10310,"Ġmá»ĭ":10311,"ĠbÃ³i":10312,"Ġbáº©y":10313,"Ġhapp":10314,"ĠgáºŃp":10315,"Chiáº¿u":10316,"ĠCÆ°":10317,"ĠMá»Ĺi":10318,"ĠHá»ĵn":10319,"enix":10320,"PhiÃªn":10321,"ĠLá»Ŀi":10322,"ĠGin":10323,"ĠTráº¡i":10324,"thra":10325,"ĠConrad":10326,"Ġ73":10327,"ulcan":10328,"ovan":10329,"Ġbox":10330,"Ġbefore":10331,"veng":10332,"ĠTime":10333,"ĠRonan":10334,"ILL":10335,"otein":10336,"ĠRhodes":10337,"Buá»Ļc":10338,"Baby":10339,"UNG":10340,"lh":10341,"veland":10342,"Ġláº¿t":10343,"Ġváº¥p":10344,"ĠvÃ²m":10345,"ĠnÃºm":10346,"Ġgiun":10347,"Ngá»Ļ":10348,"ĠMul":10349,"ĠBuá»ķi":10350,"ĠBean":10351,"ĠAc":10352,"ĠGard":10353,"ĠGatsby":10354,"ĠVeronica":10355,"ĠNate":10356,"thá»ĥ":10357,"icc":10358,"ĠOllie":10359,"oway":10360,"aves":10361,"annon":10362,"Rap":10363,"ĠBron":10364,"7857":10365,"ĠDaryl":10366,"yria":10367,"ĠMilan":10368,"Helen":10369,"ĠMississippi":10370,"Ġlá»Ńng":10371,"Herm":10372,"Houston":10373,"Lá»«a":10374,"hÃ´m":10375,"nik":10376,"nhe":10377,"nhá»Ľ":10378,"ĠnÃ´i":10379,"Ġná»ĩ":10380,"Ġbá»ĳt":10381,"ĠnhÃºt":10382,"ĠphÃ©t":10383,"ChÃ¨o":10384,"Ġthá»įc":10385,"ĠTar":10386,"aunt":10387,"ĠÄĲÆ°Æ¡ng":10388,"enko":10389,"ĠLen":10390,"ĠDark":10391,"ĠVu":10392,"ĠFischer":10393,"ĠWinchester":10394,"ÄĳÃ¢u":10395,"ĠEarl":10396,"Giáº£m":10397,"Ġpeople":10398,"oda":10399,"topher":10400,"ĠDana":10401,"ĠAllah":10402,"ĠIsland":10403,"Ġhacker":10404,"ĠPhimHD":10405,"ĠPhillips":10406,"Cá»±u":10407,"MÃ¢":10408,"Tá»Ŀ":10409,"cÃ¡ch":10410,"fus":10411,"hiá»ĥu":10412,"pa":10413,"xa":10414,"ĠtÃłnh":10415,"Ġháº±n":10416,"Ġgar":10417,"ĠngÃ¡n":10418,"ĠrÃ¢m":10419,"Cháº¿":10420,"ĠHas":10421,"ĠLá»ĩnh":10422,"ĠLud":10423,"ĠLex":10424,"ĠGas":10425,"Ġdoes":10426,"ĠPLAY":10427,"ĠTrá»Ł":10428,"Ġcock":10429,"ÄĳÃª":10430,"ĠOptimus":10431,"Ġ44":10432,"ĠYuri":10433,"Chappie":10434,"Ġtheir":10435,"ĠXÃ£":10436,"ĠtruyÃª":10437,"ĠÂ°":10438,"ĠBeach":10439,"iggle":10440,"ĠSkyler":10441,"Camera":10442,"SmÃ©agol":10443,"ĠGroot":10444,"Casey":10445,"ĠArizona":10446,"DÅ©ng":10447,"HáºŃu":10448,"Pad":10449,"Young":10450,"cáº§n":10451,"croft":10452,"rent":10453,"Ġváº¯c":10454,"Ġvá»įt":10455,"Ġmt":10456,"Ġmá»įn":10457,"Ġnang":10458,"Ġrem":10459,"ĠphiÃª":10460,"Cháº·t":10461,"ĠxÆ°á»Ľng":10462,"ĠMiá»ģn":10463,"ĠyÃª":10464,"TrÃ³i":10465,"ĠGwen":10466,"ĠThuá»ĳc":10467,"ĠRip":10468,"ĠJet":10469,"ĠKeller":10470,"Äĳá»ĵng":10471,"Ġ61":10472,"ĠStifler":10473,"irut":10474,"Ġ101":10475,"ague":10476,"Ġother":10477,"aba":10478,"ĠXÃ¡c":10479,"load":10480,"ĠKhan":10481,"ĠClyde":10482,"ĠEdit":10483,"ĠBarn":10484,"ucky":10485,"ĠBeat":10486,"arez":10487,"ÄĲÆ°Æ¡c":10488,"bury":10489,"ernando":10490,"ĠCaptain":10491,"reland":10492,"Laura":10493,"Ġblah":10494,"leton":10495,"etchen":10496,"AV":10497,"Aragorn":10498,"CE":10499,"CÃ¡o":10500,"Kyle":10501,"Virus":10502,"ká»ĥ":10503,"len":10504,"lass":10505,"tail":10506,"Ã¶":10507,"ĠsÃ«":10508,"ĠhÄ©nh":10509,"Ġnháº£":10510,"ĠngÃ¡ch":10511,"ĠnghÃª":10512,"ĠCro":10513,"ĠCEO":10514,"ĠMáº¡nh":10515,"ĠBran":10516,"ĠÄĲÃ³ng":10517,"ĠHuyáº¿t":10518,"ĠJude":10519,"ĠKan":10520,"ĠFrey":10521,"ĠanH":10522,"ÄĳÃ¡nh":10523,"teroid":10524,"Ġplease":10525,"umber":10526,"ĠAlabama":10527,"ogway":10528,"Alvin":10529,"ĠSpencer":10530,"Ġ180":10531,"ĠBerk":10532,"ARD":10533,"Maya":10534,"Ãĵi":10535,"ENN":10536,"orsch":10537,"Ã¤i":10538,"ĠPeabody":10539,"ĠBradley":10540,".)":10541,"CREA":10542,"LING":10543,"vui":10544,"zer":10545,"Ġcháº§n":10546,"ĠsÃłnh":10547,"ĠTon":10548,"ĠHÆ¡n":10549,"Ġyáº¿n":10550,"Ġlogic":10551,"ĠPoseidon":10552,"Nghá»ĭ":10553,"Ġcopy":10554,"ĠIng":10555,"Ġ63":10556,"under":10557,"rys":10558,"ĠStd":10559,"ĠlÅ©y":10560,"ighty":10561,"ĠKhÃ¡ch":10562,"7851":10563,"Ġ04":10564,"ĠMorris":10565,"ept":10566,"ĠNghiÃªm":10567,"ĠTech":10568,"Ġeverything":10569,"ĠStevens":10570,"ĠDecepticon":10571,"ĠCrawford":10572,"Hobo":10573,"Mick":10574,"QU":10575,"Ren":10576,"coi":10577,"come":10578,"jorn":10579,"xe":10580,"ĠtÃºm":10581,"Ġcá»Ļ":10582,"Ġls":10583,"ĠchÃ¡nh":10584,"Ġbá»£m":10585,"ĠgÃłng":10586,"Ġnhung":10587,"ĠnÃłi":10588,"Ġquáº¿":10589,"Nhá»ĭ":10590,"ĠMao":10591,"ĠMen":10592,"ĠHá»ĩ":10593,"amir":10594,"orah":10595,"ĠAss":10596,"ĠRá»«ng":10597,"ĠPri":10598,"ĠTravis":10599,"á»ªa":10600,"ĠEc":10601,"Ġ65":10602,"Ġ68":10603,"Ġmuá»Ĺi":10604,"Chuá»Ļt":10605,"ĠKhÃ¡":10606,"ĠKháº£":10607,"erst":10608,"ĠGiá»ıi":10609,"ĠCross":10610,"ĠErin":10611,"ĠDaniels":10612,"Ġxáº»ng":10613,"ĠPierre":10614,"press":10615,"luÃ´n":10616,"music":10617,"fnHobo":10618,"Buddy":10619,"HÃłn":10620,"Jae":10621,"Syl":10622,"TÃ¡i":10623,"TÃ¢y":10624,"Yep":10625,"night":10626,"psy":10627,"sá»ĳ":10628,"ĠÃºt":10629,"ĠtÃŃt":10630,"ĠlÃ¬nh":10631,"Ġlá»¥t":10632,"Ġthings":10633,"Ġná»įc":10634,"ĠbÆ°á»Ľng":10635,"Ġbá»±a":10636,"ĠphÃ¡ch":10637,"chÆ¡i":10638,"ĠCaitlin":10639,"eresa":10640,"ĠSaw":10641,"ĠChloe":10642,"ĠDÆ¡i":10643,"ĠThÃŃch":10644,"ĠNGH":10645,"ĠPy":10646,"ĠFil":10647,"ĠTrans":10648,"Ġ619":10649,"otts":10650,"ĠMoon":10651,"Barb":10652,"inderman":10653,"Bon":10654,"IR":10655,"Lá»Ĺ":10656,"Law":10657,"Minh":10658,"Náº·ng":10659,"Ragnar":10660,"Tur":10661,"Ung":10662,"pper":10663,"ving":10664,"ä½":10665,"Ġlá»«ng":10666,"Ġkill":10667,"Ġhá»£m":10668,"Ġrao":10669,"Ġráº«y":10670,"ĠxÆ°á»£c":10671,"ĠTá»ģ":10672,"ario":10673,"ĠÄĲÃª":10674,"ĠÄĲÆ¯á»¢C":10675,"ĠLoki":10676,"amy":10677,"ĠGol":10678,"ĠVÃ¢":10679,"Ġdoing":10680,"ĠPizza":10681,"ĠTrÃ¹m":10682,"thers":10683,"Ġball":10684,"ĠInh":10685,"uru":10686,"Ġfile":10687,"Ġpanh":10688,"ordo":10689,"Ġsure":10690,"ĠJoan":10691,"quan":10692,"ĠMae":10693,"ĠHayes":10694,"ĠInterpol":10695,"raga":10696,"suko":10697,"ĠDuke":10698,"CuÃ´":10699,"ĠBuÃ´ng":10700,"ennessee":10701,"AO":10702,"Ná»ķi":10703,"Xung":10704,"ban":10705,"ros":10706,"sull":10707,"wh":10708,"Ġcáº±m":10709,"ĠcÃ¹i":10710,"ĠthÃ³c":10711,"Ġbai":10712,"Ġhá»Ŀ":10713,"Ġphai":10714,"Ġdc":10715,"ÄĲen":10716,"Tháº¯t":10717,"ĠCad":10718,"ĠMÃ¹a":10719,"Ã½c":10720,"ĠLight":10721,"Trá»įng":10722,"ĠDamien":10723,"Ġwater":10724,"ĠNgu":10725,"Giáº¥u":10726,"ĠShakespeare":10727,"Ġ900":10728,"oyle":10729,"ĠAnt":10730,"aines":10731,"ctav":10732,"ĠDuncan":10733,"ĠJanet":10734,"ĠNicole":10735,"Jessica":10736,"ĠKlaus":10737,"Indy":10738,"',":10739,"Cause":10740,"com":10741,"lÃª":10742,"mel":10743,"rina":10744,"»a":10745,"ĠcÃłn":10746,"nhÃ¢n":10747,"Ġká»ģn":10748,"Ġná»Ľi":10749,"ĠbÃŃch":10750,"ĠgÃ²":10751,"Ġnhá»ĥ":10752,"ChÆ°":10753,"ChÃª":10754,"ChÆ¡":10755,"Ġdiáº¿m":10756,"Tháº¥p":10757,"ĠTusk":10758,"ĠSync":10759,"ĠChar":10760,"ĠLáº§u":10761,"amper":10762,"ĠtoÃ¡i":10763,"ĠKiáº¿n":10764,"á»ªNG":10765,"ols":10766,"Ġpáº£i":10767,"ards":10768,"Ġhear":10769,"ĠWilkes":10770,"ĠCalvin":10771,"ĠPetrov":10772,"ĠcÃ»a":10773,"Ġngá»¥m":10774,"ĠRhett":10775,"ĠChapman":10776,",..":10777,"2000":10778,"June":10779,"KiÃªn":10780,"LÆ°á»¡i":10781,"MÃ´ng":10782,"Tiáº¿t":10783,"Vai":10784,"dale":10785,"gu":10786,"mas":10787,"tu":10788,"ĠcháºŃp":10789,"Ġmá»ģn":10790,"Ġmá»Ńa":10791,"Ġhá»§":10792,"ĠtrÆ°á»Ľng":10793,"ÄĲá»¥":10794,"ÄĲá»ĳng":10795,"aomi":10796,"ThÆ°á»Łng":10797,"ĠCab":10798,"ĠTÆ°Æ¡ng":10799,"ĠTiÃªu":10800,"ĠBÃłi":10801,"ĠBry":10802,"ĠBael":10803,"ĠGoku":10804,"ĠThÃ¡ng":10805,"imer":10806,"ici":10807,"illes":10808,"ffe":10809,"Ġuáº¿":10810,"ĠAna":10811,"ĠDothra":10812,"Jackson":10813,"isten":10814,"yrus":10815,"ICAP":10816,"Christian":10817,"timore":10818,"GASPS":10819,"Cos":10820,"Dra":10821,"Gáº¥p":10822,"Gro":10823,"deen":10824,"ÃĽ":10825,"ĠlÃ¹a":10826,"Ġnáº¥ng":10827,"ĠhÃ¡m":10828,"ĠnhÄĥng":10829,"Ġngáº£":10830,"Ġquáº©y":10831,"Khá»ĳi":10832,"inal":10833,"ĠTs":10834,"Ġtoáº£":10835,"ĠViet":10836,"obby":10837,"aga":10838,"Ġ97":10839,"Æ¯u":10840,"ĠZe":10841,"Doc":10842,"ĠSanchez":10843,"ĠCamelot":10844,"áº¬N":10845,"Ġalways":10846,"ĠFreddy":10847,"ĠLorraine":10848,"ĠAndrews":10849,"ĠDorne":10850,"ĠGreyjoy":10851,"Stephen":10852,"ĠRichie":10853,"asmine":10854,"ĠColumbia":10855,"Lenny":10856,"Lydia":10857,"One":10858,"Sokka":10859,"XÃ³a":10860,"báº¯n":10861,"fu":10862,"ful":10863,"gá»įi":10864,"sin":10865,"Ġteo":10866,"Ġtáº¡c":10867,"Ġcare":10868,"ĠngÃ³ng":10869,"Ġdáº»":10870,"Tháº£o":10871,"ĠMá»«ng":10872,"ĠMáºŃp":10873,"ĠSebastian":10874,"Ġthose":10875,"Ġ...?":10876,"ĠPhÃŃa":10877,"ĠNgá»įn":10878,"ills":10879,"ido":10880,"Ġfax":10881,"entiss":10882,"ĠKhal":10883,"lando":10884,"ĠHamilton":10885,"ĠJules":10886,"Ġgotta":10887,"ĠReynolds":10888,"ĠAntonio":10889,"Jamie":10890,"ĠMoriarty":10891,"Scotty":10892,"æĪĳ":10893,"Roman":10894,"Tá»Ļc":10895,"TÃ¡n":10896,"WALL":10897,"mau":10898,"ste":10899,"Ġtáº©m":10900,"Ġkung":10901,"Ġbon":10902,"Ã¡Âº":10903,"Ġding":10904,"ÄĲá»ı":10905,"ĠMÃ´ng":10906,"ĠMÅ©":10907,"ĠSec":10908,"ĠSull":10909,"Ġyáº¿m":10910,"ĠLet":10911,"TrÃ¡ch":10912,"ĠNelson":10913,"omar":10914,"Ġkáº»o":10915,"Ġanother":10916,"Äĳá»©ng":10917,"ĠEng":10918,"Ġcabin":10919,"ĠQuÃ¡n":10920,"anning":10921,"abb":10922,"ĠGiÆ¡":10923,"ĠGiun":10924,"ĠZh":10925,"Ãģc":10926,"Ġwhy":10927,"ĠTHÃģNG":10928,"Brand":10929,"ĠLangdon":10930,"ĠFrost":10931,"ĠGrodd":10932,"Ġ672":10933,"sullied":10934,"Gyeon":10935,"Sn":10936,"Vá»ı":10937,"may":10938,"res":10939,"town":10940,"ĠtÆ°á»Ľi":10941,"Ġtennis":10942,"ĠÄ©":10943,"ĠlÃºn":10944,"Ġmust":10945,"Ġbáº§n":10946,"Ġbáº¹p":10947,"ĠhÃ¹m":10948,"Ġhappy":10949,"Chloe":10950,"Ġthá»ıi":10951,"ĠdÃ¨":10952,"ÄĲc":10953,"Ġxá»Ł":10954,"ĠTÃ¡m":10955,"ĠMot":10956,"ĠÄĲá»ģ":10957,"ĠHÃ´n":10958,"ĠGloria":10959,"ĠVÃłi":10960,"ĠKÃ½":10961,"ĠKane":10962,"ĠPitt":10963,"ĠTris":10964,"Nghá»ĩ":10965,"rain":10966,"Ġ---":10967,"Ġ87":10968,"cock":10969,"ĠElias":10970,"ĠAdrian":10971,"pps":10972,"Benjamin":10973,"ĠNghi":10974,"ekov":10975,"IST":10976,"ĠHercules":10977,"Howard":10978,"ĠCleveland":10979,"colate":10980,"ÃľÃĸi":10981,"Cooper":10982,"Every":10983,"Miller":10984,"Raven":10985,"Wyatt":10986,"fle":10987,"ser":10988,"wi":10989,"ãĢ":10990,"ĠthÃ²":10991,"Ġmorn":10992,"ĠmÆ°á»Ľn":10993,"ĠbÃłnh":10994,"ĠgÃ£i":10995,"ĠdÃ©p":10996,"ĠxÃ³":10997,"Kha":10998,"Thá»ķ":10999,"ĠBá»±":11000,"orrow":11001,"TrÆ¡":11002,"ĠDub":11003,"ĠRex":11004,"ĠJune":11005,"oux":11006,"ales":11007,"aska":11008,"usco":11009,"ĠEnd":11010,"Saul":11011,"trá»«":11012,"ecause":11013,"ĠRobot":11014,"ried":11015,"eeler":11016,"ergus":11017,"ĠNaples":11018,"ĠAthens":11019,"ĠPorter":11020,"ĠVIá»ĨT":11021,"ristoff":11022,"400":11023,"Aur":11024,"HÃ¨n":11025,"Pier":11026,"Rad":11027,"SO":11028,"UM":11029,"bu":11030,"si":11031,"vers":11032,"Ġá»īa":11033,"Ġton":11034,"nhÃ³c":11035,"Ġvitamin":11036,"Ġmáº«n":11037,"ĠxiÃªn":11038,"ĠxÃ¡t":11039,"ÃŃp":11040,"aude":11041,"ĠÄĲá»ĭch":11042,"ĠLiá»ĩu":11043,"ĠAveng":11044,"ĠRow":11045,"este":11046,"ĠVern":11047,"ĠVulcan":11048,"Ġchá»ĭch":11049,"ĠTrá»«":11050,"Ġfree":11051,"ĠnguyÃª":11052,"ĠbÃŃp":11053,"ĠShredder":11054,"enner":11055,"shin":11056,"Ġboa":11057,"Ahhh":11058,"ĠGrady":11059,"ookie":11060,"uller":11061,"ĠBeckett":11062,"khoan":11063,"ĠGenesis":11064,"Percy":11065,"eleine":11066,"ĠKaiju":11067,"ĠSunny":11068,"ĠVIP":11069,"Bat":11070,"Bilbo":11071,"Guy":11072,"IP":11073,"LIN":11074,"Viá»ĩn":11075,"Zoe":11076,"jan":11077,"tiáº¿p":11078,"Ġcáº¡p":11079,"Ġchá»Ļp":11080,"Ġmar":11081,"ĠmÄĥng":11082,"Ġmet":11083,"ĠCá»Ń":11084,"ĠMus":11085,"ĠMoh":11086,"ĠLove":11087,"TrÆ°Æ¡ng":11088,"Translator":11089,"ĠDylan":11090,"Ġbad":11091,"ĠNgÅ©":11092,"idas":11093,"igel":11094,"ĠKhá»§ng":11095,"ÃģO":11096,"endan":11097,"ĠJulian":11098,"ĠStefan":11099,"ĠRomeo":11100,"ĠNevada":11101,"Ġhelp":11102,"ĠTirith":11103,"orschach":11104,"bÃªn":11105,"sie":11106,"Å¨":11107,"ĠNghÄ©":11108,"Ġcomp":11109,"ĠthÃ¢u":11110,"Ġthese":11111,"ĠkÃ¨":11112,"Ġváº£ng":11113,"Ġguitar":11114,"Ġgien":11115,"auss":11116,"ĠSá»ĳng":11117,"ĠChuyá»ĥn":11118,"ĠPla":11119,"igo":11120,"eva":11121,"Ġ82":11122,"sea":11123,"loki":11124,"Albert":11125,"ible":11126,"ĠMcK":11127,"ĠJonathan":11128,"ational":11129,"ĠEvil":11130,"Ġsamurai":11131,"acques":11132,"ĠCairo":11133,"Ġdollar":11134,"owalski":11135,"gwarts":11136,"74":11137,";...":11138,"HÃ´":11139,"Háº¡nh":11140,"Háº¡t":11141,"Má»ĩt":11142,"Nicky":11143,"Rod":11144,"TÃ¡ch":11145,"Ã§":11146,"ĠÃ³":11147,"Ġund":11148,"ngá»ĵi":11149,"Ġtá»ıi":11150,"ĠlÃºng":11151,"ĠchÃ¡c":11152,"Ġbig":11153,"Ġbelie":11154,"ĠkhÃ¡nh":11155,"ĠrÃ©t":11156,"Ġdáº¡t":11157,"KhÃ³c":11158,"ThÄĥ":11159,"Thua":11160,"ThÃ¡p":11161,"ĠTÆ°á»Ľc":11162,"Ngá»±c":11163,"ĠHoo":11164,"ĠDex":11165,"ĠRita":11166,"ĠRox":11167,"ĠPerez":11168,"rek":11169,"ĠOd":11170,"ĠPharaoh":11171,"ĠNhÃ³m":11172,"ĠNhÃ£n":11173,"eez":11174,"ĠArkham":11175,"Shit":11176,"pera":11177,"quer":11178,"lder":11179,"ĠWhoo":11180,"Stark":11181,"opez":11182,"ĠÃģnh":11183,"Frankie":11184,"ĠTyrion":11185,"nghÄ©":11186,"ĠMoore":11187,"ĠGlenn":11188,"ĠChristina":11189,"ĠHills":11190,"ĠJamal":11191,"ĠCassie":11192,"yssa":11193,"Joshua":11194,"Moses":11195,"Bal":11196,"Becca":11197,"Bonnie":11198,"Cá»Ĺ":11199,"HÃ²n":11200,"Lyn":11201,"Mitch":11202,"Pippin":11203,"Yah":11204,"ÃĽi":11205,"äº":11206,"Ġes":11207,"ĠlÃµa":11208,"ĠmÃ¨":11209,"ĠmÃ©o":11210,"Ġsá»ıi":11211,"Ġdel":11212,"chester":11213,"ĠCON":11214,"ĠCynthia":11215,"aige":11216,"ĠBi":11217,"ĠST":11218,"ĠSHIELD":11219,"ĠHá»ıi":11220,"ĠHim":11221,"ĠHum":11222,"ĠHass":11223,"ĠDal":11224,"ĠRING":11225,"ÄĲÃ³n":11226,"ĠVÃ²ng":11227,"ated":11228,"ĠKurt":11229,"ĠKling":11230,"asper":11231,"ĠTrÃ²":11232,"ĠEve":11233,"ĠEggsy":11234,"ĠPháº¡m":11235,"ooby":11236,"ĠYam":11237,"Ġ69":11238,"Ġsoa":11239,"ĠConway":11240,"ĠQuinn":11241,"ĠQuill":11242,"ĠBrick":11243,"ĠsuÃ´":11244,"bye":11245,"Ãľng":11246,"Merlin":11247,"Boyka":11248,"Báº¡ch":11249,"Nicholas":11250,"Pep":11251,"Tá»ī":11252,"Ui":11253,"site":11254,"wick":11255,"Ġom":11256,"Ġeven":11257,"Ġkáº¿p":11258,"ĠvÆ°Æ¡":11259,"Ġná»ĩn":11260,"Ġbro":11261,"Ġsáº¥y":11262,"ĠngÃ½":11263,"Ġroll":11264,"Ġdáº¥n":11265,"Tranh":11266,"ĠPol":11267,"ĠFour":11268,"ĠFree":11269,"ĠFisk":11270,"itty":11271,"ĠIreland":11272,"ĠNgÃ´":11273,"ava":11274,"trom":11275,"ĠEdgar":11276,"When":11277,"astan":11278,"Argh":11279,"Ġchá»£p":11280,"ĠEllie":11281,"ĠSeattle":11282,"Ã±i":11283,"Raymond":11284,"Iá»ĨN":11285,"ÃĨt":11286,"Patrick":11287,"ĠWarren":11288,"áº¨n":11289,"ĠJenkins":11290,"ĠLorenzo":11291,"CÄĥng":11292,"Cat":11293,"Den":11294,"Georg":11295,"MÃ¡i":11296,"Rebecca":11297,"nell":11298,"won":11299,"~)":11300,"nham":11301,"Ġchao":11302,"Ġvon":11303,"Ġbow":11304,"Ġháº¯t":11305,"ĠphÃ¬":11306,"Ġdis":11307,"ĠCot":11308,"ĠTang":11309,"ĠTÃ³c":11310,"Ngá»ĳc":11311,"ĠSasha":11312,"ĠDai":11313,"ĠDÆ°á»Ľi":11314,"ĠDew":11315,"ĠKay":11316,"ĠKÃŃnh":11317,"eto":11318,"ĠPau":11319,"ĠOogway":11320,"aden":11321,"ellus":11322,"leep":11323,"Ġnothing":11324,"ĠXÃł":11325,"ulk":11326,"ulin":11327,"ĠWilly":11328,"ĠnhoÃ¡ng":11329,"iffany":11330,"Reese":11331,"Dá»±ng":11332,"cá»©u":11333,"ĠSlade":11334,"ĠClayton":11335,"Hercules":11336,"ĠOlympic":11337,"iccup":11338,"ĠDothraki":11339,"ICAPRIO":11340,"GÆ°Æ¡ng":11341,"Huy":11342,"Sasha":11343,"Tuyáº¿t":11344,"Your":11345,"hÆ¡n":11346,"mann":11347,"Â¯":11348,"ĠcÃį":11349,"Ġlá»ıi":11350,"Ġthá»ĳt":11351,"Ġthiá»ģn":11352,"Ġkind":11353,"ĠmÃ³":11354,"Ġmeth":11355,"Ġbreak":11356,"Ġhun":11357,"ĠrÃŃch":11358,"chÃºa":11359,"ĠSE":11360,"ĠHáº¡nh":11361,"lle":11362,"oro":11363,"ĠRicky":11364,"ĠNinh":11365,"ahan":11366,"ĠOre":11367,"ĠOver":11368,"Ġput":11369,"udi":11370,"coon":11371,"ourg":11372,"ĠCraig":11373,"ĠÃĩÃ¢y":11374,"Ãĵng":11375,"Alexander":11376,"Blu":11377,"ĠUnsullied":11378,"ĠAsgard":11379,"ĠDamon":11380,"ascal":11381,"ĠViking":11382,"Andrea":11383,"KNOCKING":11384,"Dao":11385,"Eve":11386,"Eugene":11387,"Hitler":11388,"Ivan":11389,"Sá»¯a":11390,"TT":11391,"Tia":11392,"gun":11393,"rigan":11394,"tÆ¡":11395,"vo":11396,"áºº":11397,"Ġnit":11398,"Ġsushi":11399,"ĠhÃ³c":11400,"Ġgá»Ļi":11401,"Ġnháº£i":11402,"ĠrÃ²ng":11403,"Ġphá»ĭch":11404,"áº½m":11405,"ĠxÃª":11406,"onz":11407,"Ġchá»«":11408,"ĠCersei":11409,"ĠBre":11410,"ĠBanks":11411,"ĠLow":11412,"ĠLiam":11413,"amura":11414,"ĠGul":11415,"ĠGeller":11416,"ĠRV":11417,"ĠRÆ°á»£u":11418,"Ìĥ!":11419,"ĠNY":11420,"ĠkhÃ³e":11421,"Äĳo":11422,"tern":11423,"Ġ108":11424,"evy":11425,"teen":11426,"away":11427,"shi":11428,"Star":11429,"TuyÃª":11430,"á»ĲC":11431,"Ġmá»¥n":11432,"ĠdÃ²m":11433,"ĠRoosevelt":11434,"ricia":11435,"Ġ***":11436,"ĠrÆ¡m":11437,"ĠAndrea":11438,"ĠDOOR":11439,"Peeta":11440,"Reg":11441,"Sid":11442,"WO":11443,"cÃ¢u":11444,"cre":11445,"fl":11446,"lar":11447,"min":11448,"pus":11449,"sáº¿p":11450,"Ġow":11451,"Ġcn":11452,"Ġlá»įi":11453,"ĠlÃĥ":11454,"Ġthá»ĳn":11455,"Ġnáº¿p":11456,"Ġnháº¥p":11457,"Ġphiáº¿m":11458,"ÄĲá»ĭch":11459,"onel":11460,"onne":11461,"Ġgiáº«m":11462,"ĠmÃło":11463,"ĠTia":11464,"ĠTÆ°á»Łng":11465,"ĠTina":11466,"ĠMountain":11467,"Ġlá»©":11468,"ĠBak":11469,"ĠHÆ¡i":11470,"ĠLov":11471,"ĠDim":11472,"ĠDiana":11473,"ĠRoll":11474,"ĠKá»ĩ":11475,"ĠTranslated":11476,"Äĳáº¥y":11477,"Ġpro":11478,"NGÃĢY":11479,"Sauron":11480,"ĠSharon":11481,"anko":11482,"azon":11483,"Ġ115":11484,"Clark":11485,"ronos":11486,"Ġthá»¥c":11487,"Ġdead":11488,"ĠTheodore":11489,"Julia":11490,"ĠNapoleon":11491,"ĠHermione":11492,"ĠPowers":11493,"Ġná»ĩm":11494,"Báº§u":11495,"Betty":11496,"DICAPRIO":11497,"Hah":11498,"Lan":11499,"Lester":11500,"Med":11501,"Si":11502,"Vince":11503,"ment":11504,"uardo":11505,"ĠngÃ¡ng":11506,"ĠxÃ¹":11507,"ĠTop":11508,"ĠMob":11509,"ĠBert":11510,"ĠSin":11511,"ĠHad":11512,"ĠHuynh":11513,"ĠDuy":11514,"Giá»¡n":11515,"ombie":11516,"Ġ357":11517,"ĠPhilly":11518,"ÃĢi":11519,"ÃĢNG":11520,"Giai":11521,"Ġnguá»Ŀi":11522,"athcliff":11523,"ondu":11524,"ĠAnthony":11525,"ĠCarver":11526,"Ġruá»ĵng":11527,"Scarlet":11528,"Iá»Ģ":11529,"ampagne":11530,"ĠFring":11531,"Huáº¥n":11532,"................":11533,"ntze":11534,"SIGHS":11535,"ĠHotchner":11536,"Ãĺng":11537,"Sonny":11538,"elujah":11539,"-\"":11540,"Dennis":11541,"Finn":11542,"Hobb":11543,"Mason":11544,"Sá»©":11545,"ÃĹ":11546,"á»İ":11547,"ĠluyÃª":11548,"Ġmad":11549,"ĠbÃ³n":11550,"ChiÃª":11551,"chÃłng":11552,"chie":11553,"ĠCáº¥p":11554,"ĠTiÃª":11555,"ĠMiÃª":11556,"ĠBuch":11557,"ĠHir":11558,"ĠLÅ©":11559,"ĠLiv":11560,"eok":11561,"ĠWit":11562,"olai":11563,"ĠEM":11564,"ĠIowa":11565,"andora":11566,"illon":11567,"idan":11568,"Ġ656":11569,"ires":11570,"ĠMarc":11571,"ĠQuáº§n":11572,"Ġ95":11573,"Ġduá»ĩ":11574,"ĠsÃ´cÃ´la":11575,"ĠCarlo":11576,"ĠCrassus":11577,"ĠIsabelle":11578,"EAKING":11579,"á»¨C":11580,"ĠApollo":11581,"ĠRussell":11582,"ĠCrowley":11583,"ĠJedi":11584,"Æ¯ÆłNG":11585,"ĠPLAYING":11586,"Catherine":11587,"GRO":11588,"HANN":11589,"Lam":11590,"SÃ³ng":11591,"Yuri":11592,"bÃ´ng":11593,"oor":11594,"wulf":11595,"ÍĢ":11596,"ĠÄĳáº·n":11597,"Ġgiáº¿m":11598,"ChÃ©m":11599,"auer":11600,"ĠMI":11601,"ĠBÃ¡m":11602,"ĠChoi":11603,"ĠLÃŃnh":11604,"ĠDem":11605,"ĠGÃ²n":11606,"ĠPapa":11607,"ĠWay":11608,"ĠTristan":11609,"icate":11610,"ĠAlvin":11611,"ĠZero":11612,"ĠArryn":11613,"Ġname":11614,"ĠBenji":11615,"stant":11616,"ĠCaleb":11617,"MuÃ´":11618,"ĠMadison":11619,"ĠJanice":11620,"Ġanything":11621,"Ġenough":11622,"Megan":11623,"ĠFisher":11624,"Ġheroin":11625,"Ġwrong":11626,"ĠMandarin":11627,"DON":11628,"Gus":11629,"Justin":11630,"Ollie":11631,"Sir":11632,"bot":11633,"mÃ¡y":11634,"som":11635,"á»ĸ":11636,"ĠtÃ¡nh":11637,"Ġlaser":11638,"Ġmui":11639,"Ġsl":11640,"Ġsn":11641,"ĠhÃŃ":11642,"Ġhen":11643,"Ġass":11644,"Tháº£m":11645,"ĠCÆ°ng":11646,"ĠMug":11647,"aritan":11648,"ĠBÃ´":11649,"ĠSS":11650,"ĠSet":11651,"ĠÄĲao":11652,"ĠHorn":11653,"ĠDÅ©ng":11654,"ĠDung":11655,"ĠDec":11656,"ĠGÃ³c":11657,"isky":11658,"ĠKia":11659,"ĠFoster":11660,"ĠWho":11661,"ĠPheebs":11662,"ĠEmil":11663,"berty":11664,"ereen":11665,"quez":11666,"iza":11667,"Stuart":11668,"Ãĥt":11669,"ĠAllison":11670,"Ġleave":11671,"Ġprotein":11672,"ĠHugh":11673,"ĠBoyd":11674,"Judy":11675,"CREAM":11676,"querque":11677,"65":11678,"Kiáº¿n":11679,"LÆ°á»£ng":11680,"Vo":11681,"dal":11682,"Ġtá»Ļt":11683,"Ġtuá»ĳt":11684,"Ġln":11685,"ĠlÃ¡c":11686,"Ġmin":11687,"Ġrá»įi":11688,"ÄĲÄĥ":11689,"ĠBye":11690,"ĠHÃ´":11691,"ĠHannibal":11692,"ĠChen":11693,"ĠLionel":11694,"Trá»Ļm":11695,"ĠDÃ²ng":11696,"elope":11697,"ĠWol":11698,"thday":11699,"Ġwind":11700,"ooth":11701,"ĠStella":11702,"rance":11703,"Ġpass":11704,"ĠXÃŃch":11705,"Ġ98":11706,"aper":11707,"ennie":11708,"ĠUk":11709,"ĠAmelia":11710,"Sammy":11711,"Ġláº»o":11712,"burger":11713,"Sophie":11714,"ĠRichards":11715,"á»ĢN":11716,"ĠSuperman":11717,"Robbie":11718,"ä½ł":11719,"Bing":11720,"Cole":11721,"Coulson":11722,"LÃŃ":11723,"Táº£n":11724,"Tiá»ĩm":11725,"ei":11726,"gáº§n":11727,"gether":11728,"human":11729,"ianne":11730,"má»Ł":11731,"nia":11732,"och":11733,"ĠÆ¯á»Ľc":11734,"Ġláº£i":11735,"Ġlight":11736,"Ġvs":11737,"Ġháº»o":11738,"Chun":11739,"ays":11740,"Ġngháº½n":11741,"chá»Ĺ":11742,"Ġ110":11743,"ĠSir":11744,"ĠChel":11745,"Trao":11746,"Tracy":11747,"ĠAL":11748,"Ġluá»ĵn":11749,"Ìĥ...":11750,"eld":11751,"QuáºŃn":11752,"ĠOf":11753,"ĠOlaf":11754,"ĠNgÃ´n":11755,"ĠHoffman":11756,"trÃ¡nh":11757,"seng":11758,"ovich":11759,"stal":11760,"ullen":11761,"ĠRaph":11762,"Gháº¿":11763,"reek":11764,"Robin":11765,"á»ĺC":11766,"ĠBuff":11767,"ĠBaltimore":11768,"Felix":11769,"Daryl":11770,"Castle":11771,"Ġcocktail":11772,"Dick":11773,"Honey":11774,"Ran":11775,"ears":11776,"hk":11777,"mett":11778,"soo":11779,"vy":11780,"wig":11781,"wicky":11782,"Ġ^":11783,"ĠtÃ¢ng":11784,"ĠthÃ³p":11785,"ĠchÃ²m":11786,"Ġmoney":11787,"Ġbest":11788,"Ġsweet":11789,"Ġnhá»«":11790,"Ġdone":11791,"ĠCáº¢":11792,"ĠBÃłn":11793,"ĠHiá»ĩu":11794,"ĠHáº¡ng":11795,"ĠLon":11796,"ĠLá»Ńa":11797,"TrÃ¬nh":11798,"ĠDiá»ĩn":11799,"ĠJung":11800,"asim":11801,"otta":11802,"ĠPhÃºc":11803,"arly":11804,"ĠHoan":11805,"ĠMarvin":11806,"anni":11807,"acey":11808,"ĠSparrow":11809,"ĠÃĩÃ£":11810,"ĠMinas":11811,"ĠHammond":11812,"ÃĴNG":11813,"sterdam":11814,"ĠThuáºŃt":11815,"Ġchá»Ńng":11816,"ĠDrake":11817,"á»®NG":11818,"ĠGiÃªsu":11819,"ĠPhoenix":11820,"Rapunzel":11821,"Blake":11822,"Pe":11823,"Rá»Ńa":11824,"TÃłn":11825,"cáº£nh":11826,"iott":11827,"mu":11828,"Ġku":11829,"Ġhao":11830,"Ġrang":11831,"ĠtrÄĥn":11832,"NhÃ©":11833,"ĠCur":11834,"ĠCrixus":11835,"ĠTuyÃªn":11836,"aun":11837,"ĠHáº¡m":11838,"ĠChá»«ng":11839,"ĠChá»Ľp":11840,"ĠLui":11841,"ĠDog":11842,"ĠDown":11843,"ĠVáº»":11844,"ĠKathy":11845,"ĠFrances":11846,"ĠWang":11847,"ĠTrinh":11848,"ĠTráº¡m":11849,"ĠTread":11850,"ĠNhÃ¢":11851,"rane":11852,"7849":11853,"ians":11854,"eggy":11855,"LEY":11856,"ĠSimba":11857,"iggins":11858,"ĠSkynet":11859,"gaery":11860,"ĠDurant":11861,"ĠSaiyan":11862,"61":11863,"Agh":11864,"BAL":11865,"Bourne":11866,"Crixus":11867,"DA":11868,"Dana":11869,"FO":11870,"FT":11871,"HÃª":11872,"Luyá»ĩn":11873,"PE":11874,"Rh":11875,"Rá»ĵng":11876,"Sy":11877,"Táº¯m":11878,"Zach":11879,"rand":11880,"Ġten":11881,"Ġmor":11882,"ĠngÃ¢":11883,"Æ¡ng":11884,"NhÃ¢":11885,"erta":11886,"ĠSully":11887,"ĠÄĲI":11888,"ĠHiá»ĩn":11889,"ĠHÃ³a":11890,"ĠChambers":11891,"Ġtogether":11892,"ĠVale":11893,"ĠPerry":11894,"ĠEuro":11895,"ĠHoang":11896,"Ġpao":11897,"rog":11898,"ĠthÃ¹y":11899,"ions":11900,"ĠZack":11901,"ĠSpark":11902,"ĠvÃµng":11903,"ERING":11904,"ĠCruchot":11905,"ĠCHO":11906,"á»¦a":11907,"ĠQueens":11908,"Boom":11909,"ampire":11910,"Ġwebsite":11911,"Christine":11912,"Flash":11913,"lahoma":11914,"Lawrence":11915,"Gá»Łi":11916,"Il":11917,"ME":11918,"Miles":11919,"Ná»ģn":11920,"RY":11921,"Sorry":11922,"háº£":11923,"sÆ°":11924,"Ã·":11925,"Ġlá»¯":11926,"Ġnung":11927,"Ġstop":11928,"ĠhÃªn":11929,"ĠhÃ©o":11930,"Cháº¡m":11931,"ĠMicah":11932,"ĠBO":11933,"ĠBul":11934,"ĠBaby":11935,"ĠSugar":11936,"ĠLinc":11937,"Tris":11938,"ĠGau":11939,"Connor":11940,"ĠRoland":11941,"ĠVar":11942,"elo":11943,"Äĳá»ģu":11944,"ĠIP":11945,"igs":11946,"ighton":11947,"Ġ1944":11948,"ext":11949,"ĠCarr":11950,"ooka":11951,"renaline":11952,"ĠPeterson":11953,"ĠPlay":11954,"Clarke":11955,"ĠBaelish":11956,"Call":11957,"GiÃª":11958,"Jennifer":11959,"SH":11960,"Váº»":11961,"Xi":11962,"del":11963,"eas":11964,"gÃł":11965,"mund":11966,"plor":11967,"rÃ´":11968,"uki":11969,"Â³":11970,"ĠsÃªn":11971,"Ġsá»įc":11972,"Ġhard":11973,"ĠTob":11974,"ĠToby":11975,"ĠMá»ĩnh":11976,"ĠBá»Ĭ":11977,"Triá»ĥn":11978,"asse":11979,"ĠFair":11980,"ĠTrai":11981,"ĠEh":11982,"ĠYale":11983,"GiÃł":11984,"rystal":11985,"Ġfirst":11986,"ĠQuá»³":11987,"ffer":11988,"ival":11989,"ÃįCH":11990,"áº¢o":11991,"ĠDante":11992,"ppa":11993,"KhuÃ´n":11994,"ĠLoáº¡i":11995,"aaa":11996,"ĠJeremy":11997,"ĠEvelyn":11998,"Foreman":11999,"ĠKlingon":12000,"##":12001,"Há»ķ":12002,"Náº¥p":12003,"NÃºi":12004,"Owen":12005,"pere":12006,"wall":12007,"yon":12008,"Ġsá»ĵi":12009,"ĠgÃ¡n":12010,"ĠnhÃ¡p":12011,"Ġphung":12012,"Ġxiá»ģng":12013,"ems":12014,"ĠMÃ¹i":12015,"ĠChip":12016,"ĠLem":12017,"amel":12018,"ĠThÆ°Æ¡ng":12019,"Ġtoan":12020,"ĠNÃ´":12021,"ĠNova":12022,"eton":12023,"QuÃ©t":12024,"ĠWu":12025,"Ġper":12026,"trá»Ł":12027,"ĠAlaska":12028,"ĠBrandy":12029,"ipe":12030,"ĠKhá»ĳi":12031,"á»ľI":12032,"Ġ007":12033,"Hyah":12034,"yland":12035,"ĠGodfrey":12036,"ĠCarolina":12037,"ĠApril":12038,"ĠPoint":12039,"ĠIndy":12040,"ildur":12041,"Rosie":12042,"Delta":12043,"ĠYankee":12044,"ĠDisney":12045,"auntless":12046,"800":12047,"BÃ²":12048,"BÃ£o":12049,"CL":12050,"Les":12051,"gor":12052,"ique":12053,"mang":12054,"Ġáº¯t":12055,"Ġláº·t":12056,"ĠnÃŃu":12057,"Ġbung":12058,"Ġkhuynh":12059,"Ã¬i":12060,"Ġngá»ı":12061,"Ġtráº«m":12062,"Ġdr":12063,"Ġdes":12064,"Ġxá»Ńa":12065,"ĠxÃºi":12066,"ĠTennessee":12067,"ĠMyr":12068,"ĠChÃŃn":12069,"ĠChaney":12070,"ĠRi":12071,"ĠRin":12072,"ĠRÄĥng":12073,"ĠRav":12074,"ĠVá»Ľ":12075,"ĠVampire":12076,"ĠPike":12077,"ĠPope":12078,"ĠFerr":12079,"ĠWith":12080,"Äĳáº·c":12081,"ĠPhÃ¡":12082,"leg":12083,"Ġfight":12084,"ĠHogwarts":12085,"rive":12086,"trung":12087,"ĠKhá»ķng":12088,"ĠArc":12089,"Margaret":12090,"Alfred":12091,"rene":12092,"ĠAbe":12093,"ĠÃĩÃ³":12094,"Heather":12095,"ĠTywin":12096,"Benji":12097,"ĠHammer":12098,"ĠEnc":12099,"ĠMeereen":12100,"ĠOmega":12101,"ĠMichigan":12102,"ĠSerge":12103,"Ãĳn":12104,"entinel":12105,"ACE":12106,"ĠCampbell":12107,"Michelle":12108,"ĠBroadway":12109,"ĠSullivan":12110,"Eggsy":12111,"Karl":12112,"Lewis":12113,"Máº¯c":12114,"Optimus":12115,"Ráº¯n":12116,"vÃłi":12117,"Ġown":12118,"ĠkÃ©p":12119,"ĠvÃ¡ng":12120,"Ġmáº·n":12121,"Ġbá»£":12122,"Ġhá»ĳc":12123,"Ġgone":12124,"Ġgiá»ģng":12125,"ĠnhÄ©":12126,"Ġngá»ĳ":12127,"Ġtrc":12128,"Ġtanh":12129,"ChiÃªu":12130,"onn":12131,"ĠgiÃ²":12132,"ĠCÄĥn":12133,"Ġ160":12134,"ĠÄĲiá»ĥm":12135,"ĠHuyá»ģn":12136,"Emil":12137,"Tráº¡i":12138,"Trá»¥":12139,"ĠDá»ĭ":12140,"ĠDicky":12141,"Ġtop":12142,"ĠJae":12143,"Ġdog":12144,"ited":12145,"7867":12146,"Ġ639":12147,"agle":12148,"ĠMarion":12149,"ĠÃĥ":12150,"ĠSheila":12151,"egan":12152,"Marion":12153,"quin":12154,"ĠMinnes":12155,"ĠLouise":12156,"ĠWeaver":12157,"ĠChristine":12158,"spir":12159,"ĠHobbs":12160,"ĠNikita":12161,"Ġfeeling":12162,"ĠMiranda":12163,"Ã©sar":12164,"Ġgarage":12165,"ĠMinnesota":12166,",//":12167,"ANh":12168,"Bern":12169,"Bryan":12170,"Cathy":12171,"Dá»ĳi":12172,"Dav":12173,"Gollum":12174,"IZ":12175,"Papa":12176,"Rá»«ng":12177,"Win":12178,"ces":12179,"dan":12180,"çļ":12181,"Ġet":12182,"Ġthuy":12183,"ĠniÃª":12184,"ĠsÃ¡m":12185,"Ġháº¥n":12186,"Ġráº¡n":12187,"ĠtrÃª":12188,"ĠCÆ°Æ¡ng":12189,"ĠCáº£ng":12190,"ĠthÃ¬a":12191,"Ġ130":12192,"á»Ńng":12193,"ĠAragorn":12194,"ĠGui":12195,"ĠRy":12196,"ĠNov":12197,"ĠFab":12198,"ĠWars":12199,"Chá»īnh":12200,"Ġvá»ĩt":12201,"ĠPháº£n":12202,"uran":12203,"Hoáº¯c":12204,"ĠAlf":12205,"ĠUp":12206,"ĠScy":12207,"Anne":12208,"ylon":12209,"Ġheh":12210,"ĠDonovan":12211,"Art":12212,"ĠHeights":12213,"Ġbye":12214,"ĠMarks":12215,"ĠHelena":12216,"ĠÄĲoÃ¡n":12217,"ĠGhul":12218,"Ġcoming":12219,"ĠBrandt":12220,"Gabriel":12221,"ourtney":12222,"ĠDwar":12223,"Parker":12224,"Aye":12225,"Caitlin":12226,"Duy":12227,"Eva":12228,"Isaac":12229,"Pl":12230,"Ronnie":12231,"Soo":12232,"Sav":12233,"VÃª":12234,"Wat":12235,"back":12236,"bird":12237,"sburgh":12238,"Ġtá»ģ":12239,"ĠngÃ³c":12240,"ĠrÄĥn":12241,"Ġdance":12242,"NháºŃp":12243,"Äĥc":12244,"ĠTook":12245,"ĠMagn":12246,"ĠÄĲem":12247,"ĠHello":12248,"Ġyoga":12249,"ĠLÃª":12250,"imir":12251,"Ġluá»Ļc":12252,"ĠRun":12253,"ĠVinh":12254,"ĠVaugh":12255,"ĠJensen":12256,"ista":12257,"ĠKam":12258,"Quáº£ng":12259,"avers":12260,"allon":12261,"trá»Ŀi":12262,"ĠBruno":12263,"ĠTake":12264,"Alpha":12265,"ault":12266,"ĠÂ¿":12267,"ĠxÃŃa":12268,"ricks":12269,"ĠNghá»ĩ":12270,"Katara":12271,"ĠChristopher":12272,"Allen":12273,"auser":12274,"ĠProctor":12275,"ĠRenly":12276,"ĠSummer":12277,"Vanessa":12278,"ĠMartinez":12279,"ĠBloom":12280,"ĠLotso":12281,"Cá»¡":12282,"DÆ°Æ¡ng":12283,"Ew":12284,"Here":12285,"Kn":12286,"King":12287,"LÃ´":12288,"Not":12289,"Rox":12290,"Yáº¿n":12291,"cine":12292,"med":12293,"nÄĥm":12294,"rah":12295,"Ġooh":12296,"ĠlÃ¡u":12297,"ĠthÃªu":12298,"Ġvá»ĵng":12299,"Ġkhá»ĳ":12300,"Ġsáº£y":12301,"Ġsá»¥t":12302,"Ġres":12303,"á»ĩp":12304,"Thang":12305,"ĠCreek":12306,"ĠTá»ĳng":12307,"ĠTÃĶI":12308,"ĠMong":12309,"ĠMall":12310,"ĠMama":12311,"ĠMelly":12312,"ĠBart":12313,"ĠChá»ĳng":12314,"Pháº¡m":12315,"ĠLÆ°Æ¡ng":12316,"ĠJr":12317,"uir":12318,"ĠPiper":12319,"ĠWis":12320,"Ġ41":12321,"unn":12322,"ĠStacy":12323,"ĠdÃ¹i":12324,"Ġfine":12325,"ĠMarco":12326,"ndicate":12327,"ĠÃ±":12328,"ĠGiÃł":12329,"ĠKhÃ³":12330,"oldem":12331,"ĠWheeler":12332,"ĠMain":12333,"yder":12334,"á»ļI":12335,"ĠStanley":12336,"Smith":12337,"áº¦U":12338,"ĠAngie":12339,"Caroline":12340,"ĠMercedes":12341,"ĠMorgana":12342,"Barbara":12343,"çļĦ":12344,"Ap":12345,"CT":12346,"ICK":12347,"Láº¹":12348,"MÃ³c":12349,"NN":12350,"SÄĥn":12351,"Sad":12352,"Sant":12353,"Sandy":12354,"Xinh":12355,"XÃºc":12356,"káº¿t":12357,"kie":12358,"liá»ĩu":12359,"lBAL":12360,"of":12361,"sub":12362,"Ġáº»o":12363,"Ġlá»įng":12364,"ĠchÃĴng":12365,"Ġvery":12366,"ĠsÃ¡p":12367,"Ġgáº¡c":12368,"Ġtrá»Ľn":12369,"ĠÄĳÃ³a":12370,"ĠgiÃ²n":12371,"ĠÄĲá»ĺ":12372,"ĠHell":12373,"ĠChester":12374,"amer":12375,"ĠGeo":12376,"ĠGoogle":12377,"Take":12378,"ĠRandy":12379,"atur":12380,"ĠFle":12381,"thel":12382,"ĠYemen":12383,"á»·u":12384,"Ġ81":12385,"Ġearth":12386,"Stu":12387,"Samuel":12388,"Ġstand":12389,"Baymax":12390,"ĠOklahoma":12391,"Ã±a":12392,"Abby":12393,"ĠAdams":12394,"á»¨ng":12395,"ĠBoyka":12396,"ĠItaly":12397,"LAUGHS":12398,"ĠBishop":12399,"Ġbowling":12400,"Ġlá»©a":12401,"HANNlBAL":12402,"Buck":12403,"Cai":12404,"Dá»ĭ":12405,"Háº¯c":12406,"Ned":12407,"Nak":12408,"PING":12409,"Qui":12410,"Sil":12411,"nÆ°á»Ľc":12412,"ugh":12413,"Ġtáº¥c":12414,"Ġcuá»ĳng":12415,"Ġchat":12416,"Ġmatter":12417,"ĠbÄĥm":12418,"Ġbá»ĵng":12419,"ÄĲÆ¡":12420,"Ġchá»ĩ":12421,"ĠMerry":12422,"ĠSO":12423,"ĠLO":12424,"ĠDiane":12425,"ĠThis":12426,"ĠRic":12427,"ĠJong":12428,"ĠFlint":12429,"iev":12430,"Ġmuá»Ĺng":12431,"Ġfar":12432,"evie":12433,"apore":12434,"ĠAlicia":12435,"Ġuá»·":12436,"ĠBrenda":12437,"ĠKha":12438,"ĠScarlet":12439,"Marsh":12440,"inski":12441,"Steven":12442,"ishio":12443,"rench":12444,"Ãĵn":12445,"ĠTimes":12446,"ĠSchmidt":12447,"ĠCaster":12448,"ĠCastor":12449,"Ellen":12450,"quiao":12451,"ĠNgoÃłi":12452,"UYá»ĢN":12453,"Christina":12454,"ĠRobinson":12455,"ĠSolomon":12456,"ĠJarvis":12457,"ĠÄĳá»įa":12458,"ĠOutis":12459,"ĠOregon":12460,"oldemort":12461,"Ana":12462,"Bá»ĵi":12463,"Dáº«u":12464,"EW":12465,"Fuck":12466,"HÆ°":12467,"JU":12468,"Mom":12469,"NÃ´":12470,"PA":12471,"Rip":12472,"Snow":12473,"ViÃª":12474,"car":12475,"dra":12476,"zen":12477,"ĠÄĳay":12478,"Ġláº¡ng":12479,"ĠkhÆ°":12480,"Ġkháº¯t":12481,"Ġgam":12482,"ÄĲe":12483,"ĠTO":12484,"Ngá»įt":12485,"ĠSá»£":12486,"ĠSÃģT":12487,"ĠHee":12488,"ĠChung":12489,"ĠLá»ĭch":12490,"ĠDutch":12491,"ĠThan":12492,"esta":12493,"ĠWright":12494,"usa":12495,"usoe":12496,"Ġ567":12497,"rans":12498,"agrid":12499,"abe":12500,"eech":12501,"Ġ2016":12502,"iani":12503,"ifu":12504,"etting":12505,"ĠAmsterdam":12506,"ĠMcClane":12507,"Ġnhuá»ĩ":12508,"ĠWater":12509,"ĠEverdeen":12510,"ĠAlbu":12511,"grim":12512,"ĠWinston":12513,"ĠATM":12514,"ĠCá»Ńu":12515,"BiÃª":12516,"Há»Ł":12517,"Quill":12518,"RiÃªng":12519,"Sk":12520,"XÃ¢y":12521,"cola":12522,"sinh":12523,"vÃ´":12524,"yy":12525,"ĠmÃ¡ng":12526,"Ġmá»ģ":12527,"Ġkhay":12528,"Ġgáº£":12529,"Ġgá»ī":12530,"Ġnhoi":12531,"phis":12532,"ĠphÃ¤i":12533,"Ġcáº£u":12534,"ĠBÃ¡u":12535,"ĠSÄĥn":12536,"ĠSig":12537,"ĠHom":12538,"ĠHaku":12539,"ĠHades":12540,"TrÆ°á»£t":12541,"ĠDream":12542,"ĠGeeta":12543,"Ġtoáº¡c":12544,"ĠFergus":12545,"Ġ105":12546,"ĠGiÃ¡c":12547,"ĠCliff":12548,"Ġ1945":12549,"ĠLuis":12550,"ĠthÃŃm":12551,"ĠAmazon":12552,"Ġuhm":12553,"áº¾N":12554,"ĠRossi":12555,"ĠJuliet":12556,"Simba":12557,"á»¤C":12558,"khoáº£ng":12559,"ĠBingley":12560,"Ġchá»ĩch":12561,"Ak":12562,"BÃ´ng":12563,"Báº£ng":12564,"CÃłi":12565,"CRI":12566,"DR":12567,"Eo":12568,"Háº¥p":12569,"Miá»ĩng":12570,"RAN":12571,"Váº½":12572,"hÃ¬nh":12573,"tle":12574,"Ġá»Ĳi":12575,"ĠtÃ²ng":12576,"ĠvÆ¡i":12577,"Ġbá»¥c":12578,"Ġbá»īnh":12579,"Ġspe":12580,"ĠhÃ¢u":12581,"Ġháº½m":12582,"Ġdá»ım":12583,"ĠCáº¯t":12584,"ĠCop":12585,"ĠTes":12586,"NgÆ°":12587,"eral":12588,"ĠChá»ĵng":12589,"ĠChuyáº¿n":12590,"Pho":12591,"PhÃŃ":12592,"ĠLÃ¡i":12593,"ĠLev":12594,"ĠDáºŃy":12595,"ĠThiá»ĩt":12596,"ĠRahl":12597,"elin":12598,"Ġgháº¹o":12599,"Khoáº»":12600,"ĠJoker":12601,"Shin":12602,"ĠÃģi":12603,"ĠCambridge":12604,"567":12605,"Elena":12606,"Ġreal":12607,"clip":12608,"Brody":12609,"ĠLeslie":12610,"Ġboxing":12611,"ĠAlbuquerque":12612,"By":12613,"Bri":12614,"Cáº¯n":12615,"Eun":12616,"Fly":12617,"Hector":12618,"Má»Ļc":12619,"Tá»ĳ":12620,"TiÃªm":12621,"mÃ´n":12622,"polis":12623,"stein":12624,"Ġcent":12625,"ĠmÃµm":12626,"Ġbir":12627,"Ġgáº«y":12628,"Ġngá»£m":12629,"ĠrÆ°á»Ľc":12630,"Chai":12631,"ĠxÃ©m":12632,"ThiÃªu":12633,"ĠTáº§ng":12634,"erner":12635,"Ġ132":12636,"ĠBenny":12637,"ĠÄĲÃ¹a":12638,"ĠHind":12639,"ĠHugo":12640,"ĠChá»©ng":12641,"ĠLá»ĩ":12642,"ĠLÆ°á»£ng":12643,"ĠThÃª":12644,"ĠTháº¯ng":12645,"ĠNag":12646,"ĠKap":12647,"Ġ\".":12648,"elcome":12649,"ĠPoe":12650,"ĠPandora":12651,"ĠTranh":12652,"Nghá»ģ":12653,"illin":12654,"ĠÄĳag":12655,"ĠMaroni":12656,"roy":12657,"ĠÃĲ":12658,"Khoang":12659,"eba":12660,"essler":12661,"laine":12662,"toÃłn":12663,"endra":12664,"endelle":12665,"ĠSamantha":12666,"Ġeuro":12667,"ĠGraham":12668,"Ġcame":12669,"ĠÂ¡":12670,"derman":12671,"ÃĵNG":12672,"ĠSteph":12673,"Carlos":12674,"ĠMontana":12675,"ĠMitchell":12676,"Ġtalk":12677,"Hermione":12678,"62":12679,"Four":12680,"LáºŃt":12681,"Sá»£i":12682,"Scofield":12683,"Wade":12684,"cÆ°ng":12685,"ges":12686,"late":12687,"lish":12688,"Ġold":12689,"ħu":12690,"ĠchÃ©t":12691,"Ġkid":12692,"Ġninja":12693,"Ġsá»ĩt":12694,"Ġsteroid":12695,"Ġhell":12696,"Ġhmm":12697,"Ġtrue":12698,"ĠgiÄĥng":12699,"NhiÃª":12700,"ĠCÆ°á»Ŀi":12701,"ĠCuá»ĳn":12702,"ĠHado":12703,"ĠLÃ¡":12704,"ĠLady":12705,"ĠLinderman":12706,"imb":12707,"ĠPu":12708,"Ġkhoanh":12709,"ĠPhÃº":12710,"ÃĢO":12711,"keeter":12712,"Ġ103":12713,"tae":12714,"ĠXuyÃªn":12715,"ĠGib":12716,"uture":12717,"ĠArg":12718,"uben":12719,"ĠTuÃ¢n":12720,"ĠSmurf":12721,"ĠRamon":12722,"ĠMaurice":12723,"nesto":12724,"razen":12725,"ĠBennett":12726,"ĠSyndicate":12727,"ĠRandall":12728,"Ġnháº½o":12729,"ĠElijah":12730,"ĠMetatron":12731,"ĠPinkman":12732,"ĠRiddick":12733,"357":12734,"Bá»Ľt":12735,"DY":12736,"Dol":12737,"GG":12738,"Hun":12739,"Láº¯c":12740,"Pam":12741,"Rá»ĳi":12742,"Sw":12743,"Yay":12744,"bul":12745,"dog":12746,"fi":12747,"jin":12748,"máº·c":12749,"zio":12750,"Ġáº¤":12751,"Ġteen":12752,"ĠvÆ°á»£n":12753,"ĠhÃ¡n":12754,"ĠnhÃºn":12755,"Ġngáº¥m":12756,"KhÄĥn":12757,"Ġvá»īa":12758,"chÃºc":12759,"aria":12760,"ĠHáº³n":12761,"ĠLuna":12762,"ĠAah":12763,"ĠArya":12764,"ĠGa":12765,"ĠGamb":12766,"ĠRico":12767,"ĠNeb":12768,"ĠWy":12769,"thÃ´ng":12770,"rect":12771,"ĠIves":12772,"osau":12773,"andar":12774,"ĠMargaery":12775,"Ġparty":12776,"ĠXi":12777,"ento":12778,"Uhh":12779,"tok":12780,"áº¢N":12781,"ĠCharley":12782,"ĠÃģp":12783,"aldi":12784,"ĠPrinc":12785,"ĠChristmas":12786,"ĠButch":12787,"ĠPanama":12788,"ĠtHáº¿":12789,"Ġsomeone":12790,"Ġlá»§ng":12791,"fleet":12792,"ĠPlaza":12793,"%,":12794,"150":12795,"Báº¡o":12796,"Dá»ĬCH":12797,"Eli":12798,"Ká»µ":12799,"LÃ£ng":12800,"Natalie":12801,"Sáº£n":12802,"cuá»ĳi":12803,"ea":12804,"ih":12805,"Ġáº£m":12806,"Ġtong":12807,"Ġlast":12808,"Ġsync":12809,"ĠngÃľ":12810,"ÄĲÃ¡p":12811,"ĠxÃło":12812,"ĠCU":12813,"erick":12814,"Ì£...":12815,"ĠBom":12816,"ĠBark":12817,"ĠBub":12818,"ĠBanner":12819,"ĠSulu":12820,"ĠChá»©":12821,"ĠVit":12822,"ĠVog":12823,"atsu":12824,"aldo":12825,"Ġgháº»":12826,"ĠEur":12827,"ileen":12828,"oof":12829,"lear":12830,"ĠStalin":12831,"ĠKhá»ıi":12832,"ords":12833,"á»³nh":12834,"assili":12835,"ĠCapua":12836,"lanet":12837,"ĠRosen":12838,"Quyn":12839,"ĠNiki":12840,"ĠMatthews":12841,"ĠRodrig":12842,"titles":12843,"á»¬A":12844,"ĠAugust":12845,"Jarvis":12846,"Ġthought":12847,"ĠSEAL":12848,"sengard":12849,"Corp":12850,"Dutch":12851,"Fr":12852,"HÃ£ng":12853,"LÃ²":12854,"MÃ´n":12855,"Om":12856,"Sol":12857,"Seth":12858,"Vlad":12859,"Wait":12860,"gÃ£":12861,"leman":12862,"okay":12863,"tay":12864,"Ġliáº¿c":12865,"Ġmiá»ĩt":12866,"Ġsur":12867,"ĠhÅ©":12868,"ĠráºŃn":12869,"Ġrum":12870,"Ġpháº£":12871,"inson":12872,"ĠCTU":12873,"ĠTÄĥng":12874,"ĠMÃłu":12875,"ĠMann":12876,"ĠMá»ĺT":12877,"Æ°á»Ŀm":12878,"ĠLáº½":12879,"ĠLamb":12880,"ĠLloyd":12881,"ĠDauntless":12882,"ĠGy":12883,"ĠGog":12884,"Tak":12885,"Ġtour":12886,"ĠRem":12887,"Ġlot":12888,"Ġthuá»Ł":12889,"ĠKre":12890,"asia":12891,"Quáº¹o":12892,"ĠWon":12893,"ÄĳÆ°á»Ŀng":12894,"iling":12895,"ĠPhÃ¡i":12896,"ĠPhÃ¡o":12897,"Ġ53":12898,"ĠNgÆ°Æ¡":12899,"GiÃ´":12900,"Ġfoot":12901,"oder":12902,"azu":12903,"Whit":12904,"7859":12905,"ĠSpr":12906,"ĠHarper":12907,"ĠHarmon":12908,"ibo":12909,"Ġyourself":12910,"ĠCarly":12911,"ĠElliott":12912,"ctic":12913,"Walker":12914,"ĠMedici":12915,"ĠUSS":12916,"rader":12917,"pool":12918,"ĠFeng":12919,"ĠTitanic":12920,"GRUNTS":12921,"'?":12922,"CS":12923,"Daw":12924,"Derek":12925,"Flor":12926,"GB":12927,"Holmes":12928,"Láº·p":12929,"MÃ´i":12930,"pson":12931,"vet":12932,"zooka":12933,"Âļ":12934,"Ġcor":12935,"ĠÄĳun":12936,"Ġnero":12937,"Ġnhá»į":12938,"ĠnháºŃm":12939,"Ġngáº¥y":12940,"ĠngÃ²":12941,"Ġngá»¡":12942,"Ġngá»ım":12943,"ĠrÃ¹i":12944,"ĠquÃłng":12945,"aye":12946,"ĠgiÃ£":12947,"KhÃ´":12948,"ĠCá»±u":12949,"ĠCyrus":12950,"ĠTÃºi":12951,"ĠMÅ©i":12952,"ĠBÃ¡n":12953,"ĠBjorn":12954,"ĠSven":12955,"ĠÄĲáºŃu":12956,"ĠÄĲÃĥ":12957,"ĠHale":12958,"Trai":12959,"ĠAI":12960,"ĠGavin":12961,"ĠThere":12962,"ĠNÄĥng":12963,"ĠNav":12964,"ĠKiá»ĥu":12965,"ĠKeen":12966,"ÄĳÃ´i":12967,"ĠIN":12968,"obi":12969,"GiÆ°":12970,"eville":12971,"ĠGiÃ³":12972,"ĠcÅ©i":12973,"ĠUt":12974,"Ġtrá»£n":12975,"berius":12976,"ÃģP":12977,"Ġonce":12978,"Ahem":12979,"ĠSpeed":12980,"CHÃºng":12981,"iban":12982,"Ġ136":12983,"ĠAbigail":12984,"ierra":12985,"ĠÃ°Ã½c":12986,"Donna":12987,"ASE":12988,"ĠDarhk":12989,"Iáº¾T":12990,"ĠRosa":12991,"ĠShawn":12992,"ÃļNG":12993,"ĠThorne":12994,"Louise":12995,"DOOR":12996,"ĠBooth":12997,"ĠWinstone":12998,"ĠAppa":12999,"ĠLAUGHING":13000,"ĠInhuman":13001,"Ġbelieve":13002,"Cá»Ļt":13003,"Cec":13004,"FK":13005,"GÃ³i":13006,"HA":13007,"LÆ°á»£n":13008,"Má»ĩnh":13009,"MON":13010,"Pro":13011,"gáº·p":13012,"mÃ¡t":13013,"tá»ĳi":13014,"vá»¥":13015,"Ġá»ĳi":13016,"Ġcuá»ĳc":13017,"Ġcred":13018,"Ġchiáº¿t":13019,"Ġmight":13020,"Ġgang":13021,"ĠngÃł":13022,"ĠrÃŃt":13023,"Ġtrá»ĳi":13024,"Ġdáº§m":13025,"onia":13026,"Nhá»ĳt":13027,"ĠMoira":13028,"ĠBun":13029,"ĠHol":13030,"ĠhoÃ¡n":13031,"ĠDrey":13032,"ĠDaddy":13033,"ĠThiáº¿n":13034,"ĠTheresa":13035,"ĠVÄ©nh":13036,"ĠÄĥng":13037,"ĠPad":13038,"ĠPeck":13039,"ĠWong":13040,"Ġnhá»Ľt":13041,"thÃŃch":13042,"ÃĢh":13043,"ĠStock":13044,"Ġfun":13045,"ĠXÆ°Æ¡ng":13046,"ĠClem":13047,"Shane":13048,"ishi":13049,"inois":13050,"ĠPatricia":13051,"ĠMoz":13052,"ĠMills":13053,"ĠMurph":13054,"ĠBlackwood":13055,"ĠNGÃĢY":13056,"ĠBuá»ĵn":13057,"ĠSweet":13058,"KHÃ´ng":13059,"Perseus":13060,"ĠSingapore":13061,"Murphy":13062,"ĠMasters":13063,"ĠSuresh":13064,"ĠdzáºŃy":13065,"emaine":13066,"ĠChurchill":13067,"ĠFreeza":13068,"plorer":13069,",.":13070,"EX":13071,"Gan":13072,"Hen":13073,"Láº¯ng":13074,"Men":13075,"Sel":13076,"Sáº¡ch":13077,"Tua":13078,"crys":13079,"nic":13080,"xuá»ĳng":13081,"±t":13082,"Ãĳng":13083,"ĠÃº":13084,"Ġthiáº¿n":13085,"ĠcháºŃn":13086,"Ġná»¡":13087,"Ġbá»Ł":13088,"Ġháºµng":13089,"Ġgáº·t":13090,"Ġphone":13091,"Ġcá»Ĺi":13092,"erie":13093,"ĠSuy":13094,"ĠSus":13095,"ĠSÃ³i":13096,"ĠÄĲá»ĳi":13097,"TrÃ¹ng":13098,"ĠDj":13099,"ĠDastan":13100,"ĠRáº±ng":13101,"isenberg":13102,"ĠKa":13103,"ĠKu":13104,"eley":13105,"ĠlaÃĮ":13106,"aving":13107,"Ġ109":13108,"Ġmail":13109,"inea":13110,"tráº£":13111,"apolis":13112,"ĠBrighton":13113,"7877":13114,"shon":13115,"tory":13116,"Joffrey":13117,"ĠPrice":13118,"Brenda":13119,"ĠWilder":13120,"ĠGreene":13121,"Amber":13122,"Super":13123,"ĠEllcrys":13124,"Ġxá»īa":13125,"upiter":13126,"racian":13127,"ĠNazca":13128,"ĠDenver":13129,"Ġground":13130,"ĠKendra":13131,"Richie":13132,"Ġhappen":13133,"\")":13134,"Big":13135,"Háº¡m":13136,"Hee":13137,"Jen":13138,"Leg":13139,"Máº¡ch":13140,"Mag":13141,"Mul":13142,"OT":13143,"Oops":13144,"Robot":13145,"Wo":13146,"háº¿t":13147,"nut":13148,"táº¡m":13149,"å¤":13150,"ĠcÃ¡ng":13151,"ĠlÃ¥i":13152,"Ġthong":13153,"ĠchÃ¨n":13154,"Ġká»īnh":13155,"ĠmÃ¡c":13156,"Ġnáº§n":13157,"Ġsw":13158,"Ġhá»ķi":13159,"ĠgÃłn":13160,"ĠdÃ¡i":13161,"ĠdÃ³c":13162,"onzo":13163,"KhiÃªu":13164,"á»«u":13165,"NhÃło":13166,"ĠCav":13167,"ĠBáº§u":13168,"ĠSay":13169,"ĠNash":13170,"ingle":13171,"ĠStu":13172,"ĠStig":13173,"ĠStamper":13174,"7927":13175,"ĠMarse":13176,"ĠGiÃ¡p":13177,"á»ĶI":13178,"ĠAlison":13179,"Ġuá»ķng":13180,"ĠTae":13181,"ĠhuÃ½t":13182,"ĠClaud":13183,"Ġmeet":13184,"ÃģCH":13185,"ĠGretchen":13186,"CHEL":13187,"ÃĤM":13188,"ĠOrlando":13189,"ATO":13190,"COM":13191,"umblebee":13192,"chuáº©n":13193,"Nikita":13194,"ĠJudith":13195,"ĠCostello":13196,"Ġmorning":13197,"ĠScylla":13198,"600":13199,"Face":13200,"HN":13201,"Hoo":13202,"Káº¹t":13203,"Kirk":13204,"LÃ´ng":13205,"Liá»ģu":13206,"Má»ĭa":13207,"Osc":13208,"Tob":13209,"Tara":13210,"Ul":13211,"Veronica":13212,"máº¥t":13213,"ĠliÃªu":13214,"Ġven":13215,"ĠvÃ£ng":13216,"Ġmov":13217,"ĠkhÄĥm":13218,"Ġgl":13219,"Ġgreat":13220,"ÄĲÃ¨":13221,"ÄĲá»īnh":13222,"ĠgiÃ´ng":13223,"Ġngháº¹n":13224,"ania":13225,"ĠCog":13226,"ais":13227,"ĠMom":13228,"ĠBÆ°á»Ľc":13229,"ĠBates":13230,"Travis":13231,"ĠDro":13232,"ĠANH":13233,"ĠGem":13234,"ĠGina":13235,"ĠTham":13236,"Ġtoday":13237,"ĠRA":13238,"ĠRÃºt":13239,"ĠRorschach":13240,"ĠVill":13241,"ĠJoh":13242,"Ġthun":13243,"ĠFloyd":13244,"ĠTru":13245,"thu":13246,"tháºŃm":13247,"ĠtuÃ´ng":13248,"Ġtuáº¿ch":13249,"edo":13250,"Ġ621":13251,"Ġfu":13252,"Ġfound":13253,"roll":13254,"aber":13255,"able":13256,"ĠXáº¥u":13257,"utner":13258,"ubo":13259,"ĠAlexand":13260,"NHÃĢ":13261,"ÃĤU":13262,"arys":13263,"PHONE":13264,"ĠPeach":13265,"ĠDenise":13266,"ĠKitÃ´":13267,"ĠMachete":13268,"ĠSeoul":13269,"Ġmicro":13270,"Dorothy":13271,"ĠPreston":13272,"ĠDiaz":13273,"ĠWitwicky":13274,"911":13275,"Báº§y":13276,"Bá»¥ng":13277,"BÃ³p":13278,"Cá»ĳc":13279,"Dale":13280,"Fish":13281,"Hara":13282,"Nay":13283,"Randy":13284,"VÃ¢y":13285,"VER":13286,"WH":13287,"xÃŃt":13288,"Ä¨":13289,"nguy":13290,"Ġtáº¥u":13291,"Ġláº±ng":13292,"ĠthÃ²ng":13293,"Ġmom":13294,"ĠkhÆ°á»Ľc":13295,"ĠphÃ¬nh":13296,"ĠphÃŃch":13297,"Æ¡c":13298,"onto":13299,"anga":13300,"iner":13301,"TháºŃp":13302,"Ġgiá»ħu":13303,"ĠCá»ĳt":13304,"ĠCutter":13305,"aulder":13306,"ĠMáº«u":13307,"ĠSWAT":13308,"ĠLopez":13309,"ĠDiá»ĩt":13310,"ĠNora":13311,"ĠNháº¡i":13312,"urd":13313,"ĠNgÆ°u":13314,"ĠYáº¿n":13315,"kees":13316,"ĠConnie":13317,"Æ¯i":13318,"Ãģn":13319,"ĠNewton":13320,"pert":13321,"ĠScotch":13322,"Ġruá»Ļng":13323,"ĠPrim":13324,"cuse":13325,"ĠMalik":13326,"ĠDae":13327,"ĠViolet":13328,"ĠIndian":13329,"ĠBaudel":13330,"Ġcarbon":13331,"Ġshoot":13332,"Ã®i":13333,"ĠSUV":13334,"nheim":13335,"ĠPittsburgh":13336,"spirin":13337,"ĠVaughn":13338,"BÃ¢":13339,"Bee":13340,"Dylan":13341,"JJ":13342,"Ká»·":13343,"Loren":13344,"MT":13345,"Of":13346,"ViÃªm":13347,"eh":13348,"kok":13349,"áº¸":13350,"ĠtÃ³":13351,"ĠÄĳáº¿u":13352,"ĠÄĳÃ¨o":13353,"Ã´c":13354,"Ġluyáº¿n":13355,"Ġnua":13356,"ĠnÃĢy":13357,"ĠhÃ³":13358,"ĠnhÃ¡c":13359,"Ġngáº©ng":13360,"Chang":13361,"Ġdark":13362,"ĠCong":13363,"ĠTNS":13364,"ĠHá»§y":13365,"Ġtold":13366,"ĠRoth":13367,"ĠKel":13368,"ĠPav":13369,"itus":13370,"ĠIM":13371,"ĠPhÃ¢n":13372,"urg":13373,"ellÃŃn":13374,"leh":13375,"edro":13376,"ĠHope":13377,"icho":13378,"ĠJody":13379,"ĠLucky":13380,"ĠCarn":13381,"ÄĤN":13382,"ĠRoberto":13383,"ĠElf":13384,"ĠMonte":13385,"ĠviÃªc":13386,"ERO":13387,"hhh":13388,"ĠMindy":13389,"ĠNHÃĢ":13390,"ĠJessup":13391,"Jules":13392,"ĠLoras":13393,"ĠBatiatus":13394,"ĠAntony":13395,"pril":13396,"ĠVerde":13397,"Ġelderman":13398,"ĠAmerica":13399,"ĠJosÃ©":13400,"Iá»ĤM":13401,"Ġwalk":13402,"Pierre":13403,"BáºŃn":13404,"Bull":13405,"Bá»Ĺng":13406,"Cá»©ng":13407,"Hong":13408,"NY":13409,"Nob":13410,"Up":13411,"XuyÃªn":13412,"ceman":13413,"her":13414,"má»Ĺi":13415,"nn":13416,"pect":13417,"Ãķ":13418,"Ġáº¯ng":13419,"ĠcÃ¹":13420,"Ġcau":13421,"ĠÄĳong":13422,"ĠmÃĻt":13423,"Ġsá»¡":13424,"Ġside":13425,"ĠnhÃłn":13426,"Ġtrá»ĩ":13427,"ĠtrÃ¹":13428,"Ġtrá»įt":13429,"phÃ²ng":13430,"Ġpháº¯n":13431,"ĠdáºŃt":13432,"Ġdiá»ĩp":13433,"KhÃ¡m":13434,"Kháº¯p":13435,"ĠCÃºi":13436,"ĠCoun":13437,"ĠTiffany":13438,"ĠSov":13439,"ĠHark":13440,"ĠChad":13441,"ĠDJ":13442,"ĠThay":13443,"ĠtoÃ¡t":13444,"ĠRollo":13445,"ĠVáº¿t":13446,"Äĳá»Ļi":13447,"ĠOdin":13448,"ĠNhá»ĭ":13449,"illac":13450,"ĠSton":13451,"Ġsec":13452,"Ġpa":13453,"Ġopera":13454,"ĠXavier":13455,"entina":13456,"ĠClara":13457,"ĠZo":13458,"lain":13459,"ourke":13460,"ĠLancelot":13461,"liu":13462,"itchen":13463,"ENS":13464,"ĠAven":13465,"ĠMadrid":13466,"ĠBalthazar":13467,"ĠSandra":13468,"ĠHerbie":13469,"ĠBoromir":13470,"ĠEvery":13471,"ĠBrandon":13472,"Ã¼ntze":13473,"ĠMiguel":13474,"Olivia":13475,"ightyear":13476,"Lorenzo":13477,"April":13478,"Gá»¡":13479,"KE":13480,"Láº¡c":13481,"Miáº¿ng":13482,"Mama":13483,"Sá»ĳt":13484,"SÃ³i":13485,"TÆ°á»£ng":13486,"Vik":13487,"loo":13488,"panh":13489,"tiáº¿n":13490,"yah":13491,"Ġles":13492,"ĠlÃ©t":13493,"Ġkar":13494,"ĠkiÃªm":13495,"ĠmÃŃt":13496,"Ġgá»Ŀ":13497,"Ġgá»ĳm":13498,"ChÃ´n":13499,"Ġdáº¥y":13500,"Ġdáº¡n":13501,"Ġgiá»±t":13502,"aise":13503,"ĠTIáº¾NG":13504,"ÃĶa":13505,"ĠChin":13506,"Phá»©c":13507,"ĠLetty":13508,"ĠLazar":13509,"TrÃ¨o":13510,"ĠDÃ¢y":13511,"ĠThiá»ĩu":13512,"ĠThey":13513,"ĠKiÃªn":13514,"Ġdoor":13515,"ĠPolly":13516,"ĠFin":13517,"Ġghiáº¿c":13518,"ical":13519,"ĠEsp":13520,"Ġbur":13521,"adin":13522,"ĠNhiá»ĩm":13523,"ewart":13524,"ĠQuyáº¿t":13525,"ĠBrooke":13526,"ĠKhaleesi":13527,"onda":13528,"redi":13529,"ĠTHE":13530,"ĠBlood":13531,"ibby":13532,"inkle":13533,"ĠCruz":13534,"nghÄ©a":13535,"GhÃ©t":13536,"ĠHampton":13537,"orsche":13538,"uela":13539,"ĠLyle":13540,"ĠJessie":13541,"ĠMycroft":13542,"Jonathan":13543,"ĠSilver":13544,"ĠSingh":13545,"Leonard":13546,"ĠGerald":13547,"ĠWickham":13548,"ĠLockwood":13549,"Angus":13550,"ä¸į":13551,"ĠFalls":13552,"Jeremy":13553,"rezia":13554,"ĠGustave":13555,"Cuddy":13556,"Cersei":13557,"Flint":13558,"Gun":13559,"Lip":13560,"Lá»±u":13561,"Má»ĺT":13562,"RS":13563,"Sta":13564,"Stop":13565,"Sven":13566,"Sync":13567,"Unh":13568,"Yáº¿u":13569,"hel":13570,"rÃ©":13571,"tiá»ģn":13572,"xu":13573,"ä»":13574,"ĠÄĳÃªn":13575,"Ġlimo":13576,"ĠkÃ¬nh":13577,"Ġká»ģm":13578,"Ġmáº£i":13579,"Ġgáº«u":13580,"Ġnheo":13581,"ĠrÃĴi":13582,"Chá»¯a":13583,"ĠÄĳÃ³m":13584,"ĠgiÅ©":13585,"ĠComp":13586,"ĠTá»«ng":13587,"ĠTah":13588,"NgÃ´":13589,"Ġ123":13590,"ĠMoss":13591,"ĠBank":13592,"ĠSÃ´ng":13593,"ĠLilly":13594,"ĠLink":13595,"ĠLá»°C":13596,"oran":13597,"Trevor":13598,"ĠDak":13599,"ĠThÆ°á»Ŀng":13600,"ĠThá»ĭt":13601,"ĠVy":13602,"ĠVá»įng":13603,"ĠPotts":13604,"Ã¨re":13605,"asley":13606,"QuÃª":13607,"ital":13608,"oton":13609,"ident":13610,"rap":13611,"Ġpo":13612,"ffy":13613,"ĠGian":13614,"trid":13615,"ĠZuko":13616,"Sharon":13617,"ĠScorp":13618,"ize":13619,"aza":13620,"ĠDoe":13621,"ĠBlan":13622,"Ġwithout":13623,"ĠNikki":13624,"ĠBaymax":13625,"ancey":13626,"ĠcHÃºng":13627,"ĠOlive":13628,"ĠStevie":13629,"ĠPacquiao":13630,"ĠRapunzel":13631,"Ġfriends":13632,"ĠAtlantic":13633,"Marshall":13634,"Ale":13635,"Bella":13636,"Gwen":13637,"Linc":13638,"London":13639,"TÆ°Æ¡":13640,"Váº¡n":13641,"bach":13642,"cao":13643,"yt":13644,"æĺ":13645,"Ġlá»Łm":13646,"ĠthÄĤ":13647,"ĠmÃ¢m":13648,"ĠnÄ©a":13649,"ĠhÃ£":13650,"Ġgá»Ł":13651,"ĠrÃ¡t":13652,"Chiáº¿m":13653,"Ġquáº¹t":13654,"KhÃ¡ng":13655,"KhÃ´n":13656,"ĠMis":13657,"ĠHm":13658,"ĠChá»¥p":13659,"TrÆ°Æ¡":13660,"ĠDrazen":13661,"ĠRáº¯n":13662,"ĠFernando":13663,"tham":13664,"lein":13665,"Ġkhuá»·u":13666,"ĠState":13667,"khá»ĳn":13668,"ĠMars":13669,"Ġoanh":13670,"Ġ74":13671,"ĠShadow":13672,"Ġ94":13673,"utler":13674,"ovsky":13675,"oken":13676,"Marco":13677,"estro":13678,"ĠSpider":13679,"ourse":13680,"ĠMoria":13681,"stro":13682,"ĠBlade":13683,"ĠAlexis":13684,"ĠPrentiss":13685,"ĠWild":13686,"Ġleft":13687,"ĠNghá»ī":13688,"ĠRamal":13689,"Ã¤t":13690,"ICA":13691,"Ġdays":13692,"USIC":13693,"ĠRaccoon":13694,"Ġbirthday":13695,"71":13696,"Bel":13697,"LV":13698,"NÃŃn":13699,"Over":13700,"RE":13701,"Sue":13702,"Wes":13703,"máº·t":13704,"sol":13705,"varez":13706,"á»¸":13707,"ĠchÅ©i":13708,"Ġmáº§u":13709,"ĠhÃ¡ng":13710,"Ġhoney":13711,"ĠnhÃ´":13712,"ĠnhÃ¡i":13713,"pho":13714,"phim":13715,"Ġac":13716,"ĠdÃ¡y":13717,"ÄĲáº¡p":13718,"ĠTÆ¡":13719,"ĠTessa":13720,"aum":13721,"ĠBed":13722,"ĠHazel":13723,"ĠLáºłI":13724,"Trinh":13725,"Ġtom":13726,"ĠJob":13727,"uild":13728,"thay":13729,"adeo":13730,"ĠNháº¡c":13731,"Ġmafia":13732,"ĠYour":13733,"edict":13734,"Ġsocola":13735,"ĠConne":13736,"Khoai":13737,"ewel":13738,"á»ľm":13739,"Stannis":13740,"Bravo":13741,"enez":13742,"Ġalone":13743,"ÃļC":13744,"ĠJeffrey":13745,"ĠXuáº¥t":13746,"Leh":13747,"ĠEyes":13748,"Ġstress":13749,"eddis":13750,"ĠNakamura":13751,"ĠMendez":13752,"Natasha":13753,"ĠngÃ²ai":13754,"Diana":13755,"Flynn":13756,"Kenny":13757,"NÃ´ng":13758,"NASA":13759,"Pop":13760,"cÃ¢":13761,"má»Ľi":13762,"tá»¥i":13763,"vath":13764,"Ġtáº©n":13765,"Ġkiáº¿ng":13766,"Ġváº¹o":13767,"Ġmm":13768,"Ġnhan":13769,"Ġdong":13770,"Ġdá»ĩt":13771,"ÄĲiá»ĩp":13772,"Ġnghiáº¿n":13773,"ĠCC":13774,"ĠCáº©m":13775,"ĠCron":13776,"ĠCOL":13777,"ĠÄĲÃ¡m":13778,"ĠHiáº¿n":13779,"ĠHáº¡t":13780,"ĠHur":13781,"ĠDora":13782,"ĠDiggle":13783,"ĠAva":13784,"ĠGob":13785,"ĠGra":13786,"ĠGaines":13787,"ĠRas":13788,"ĠJasmine":13789,"ĠNi":13790,"isle":13791,"ĠKey":13792,"ĠKath":13793,"Ġlaze":13794,"thi":13795,"tháº§n":13796,"ĠNháºŃn":13797,"Ġkhuáº¿ch":13798,"umm":13799,"ĠXandar":13800,"rike":13801,"Ġhyd":13802,"apest":13803,"uts":13804,"ĠKhÃ³a":13805,"udio":13806,"Ãģm":13807,"ĠArms":13808,"eca":13809,"ecial":13810,"ĠÃģn":13811,"ĠJonah":13812,"Taylor":13813,"ĠÃ°Ã³":13814,"THE":13815,"ĠSteele":13816,"ĠReddington":13817,"ĠSkyl":13818,"ĠMegatron":13819,"ĠLeonidas":13820,"ĠSwagger":13821,"ĠWhitney":13822,"ĠMiriam":13823,"Jamal":13824,"ĠViktor":13825,"ĠIsaacs":13826,"ĠBorgia":13827,"ĠKingsman":13828,"Nicole":13829,"shaan":13830,"ĠCadillac":13831,"ĠFerguson":13832,"82":13833,"Báº©m":13834,"DÃŃnh":13835,"Fox":13836,"HÃ¡":13837,"Ja":13838,"Mas":13839,"SÆ°á»Ľng":13840,"Ver":13841,"bá»Ļ":13842,"bá»ĳt":13843,"sel":13844,"xes":13845,"æľ":13846,"ĠcÃĶa":13847,"ĠÄĳÃ²":13848,"Ġláº©m":13849,"Ġláº«m":13850,"ĠlÃµng":13851,"Ġthiá»ĥn":13852,"Ġkháº£i":13853,"Ġnhá»įt":13854,"ĠngÃ¹ng":13855,"ĠrÃ¡m":13856,"ĠrÃ¨":13857,"ĠphÃło":13858,"ÄĲáº¿":13859,"Nhiá»ħm":13860,"ĠCer":13861,"ĠCel":13862,"ĠCage":13863,"ĠTáºŃn":13864,"ĠHann":13865,"ĠHub":13866,"enzie":13867,"ĠLino":13868,"Truyá»ĩn":13869,"ĠDane":13870,"ĠAeg":13871,"ĠGran":13872,"ĠThÃ¢n":13873,"ĠVera":13874,"ĠJenn":13875,"ĠKatherine":13876,"ĠPon":13877,"ĠPlanet":13878,"oms":13879,"Äĳá»ĳi":13880,"ÄĳÃ¡ng":13881,"Ġwar":13882,"ĠHoáº¯c":13883,"rod":13884,"ĠsuÃ´ng":13885,"ondie":13886,"Ġonline":13887,"quÃ½":13888,"***":13889,"ront":13890,"ĠColt":13891,"ĠCali":13892,"192":13893,"Blue":13894,"ĠMurray":13895,"ĠSubtitles":13896,"Ã¤n":13897,"Abraham":13898,"Ellie":13899,"ĠLouisiana":13900,"ĠMelanie":13901,"Caleb":13902,"Ġunder":13903,"ĠSummers":13904,"Ġelse":13905,"ĠBudapest":13906,"ĠHollis":13907,"agertha":13908,"Ġknock":13909,"LAUGHING":13910,"ENNIS":13911,"erstand":13912,"Crow":13913,"Cindy":13914,"Dun":13915,"Geeta":13916,"HÃł":13917,"Jill":13918,"Lang":13919,"Lud":13920,"LER":13921,"Ricky":13922,"Set":13923,"Sansa":13924,"biáº¿n":13925,"eat":13926,"ku":13927,"rol":13928,"ress":13929,"vá»ĭ":13930,"Íģ":13931,"ĠuyÃªn":13932,"ĠcÃĢ":13933,"Ġcháº±ng":13934,"ĠvÃ³c":13935,"Ġmon":13936,"Ġmun":13937,"Ġmine":13938,"ĠmÃºn":13939,"Ġmove":13940,"Ġmother":13941,"Ġkhuy":13942,"Ġkhan":13943,"Ġhan":13944,"ĠngÄĥ":13945,"pháº§n":13946,"ÄĲáº¥ng":13947,"ĠxÃ¢u":13948,"Khá»ķng":13949,"Nháº¯n":13950,"eri":13951,"ĠBin":13952,"ĠBus":13953,"ĠSá»¹":13954,"ĠSentinel":13955,"ĠHoney":13956,"ĠChÄĥ":13957,"ĠLil":13958,"ĠLeb":13959,"ĠDrag":13960,"ĠGonz":13961,"ĠThunder":13962,"imli":13963,"ĠRes":13964,"ĠNÃ¢ng":13965,"oup":13966,"QuÃło":13967,"ĠFen":13968,"ĠTrÃ¢n":13969,"ĠTrá»įng":13970,"eds":13971,"roid":13972,"cean":13973,"ĠQuant":13974,"Khoáº£nh":13975,"ĠSharp":13976,"ĠShifu":13977,"ĠBrendan":13978,"ĠClub":13979,"ship":13980,"ĠScully":13981,"etts":13982,"Ġ111":13983,"ĠMorrison":13984,"ristina":13985,"Ġvuá»Ļt":13986,"Ġ140":13987,"ĠCHáº¾T":13988,"Heidi":13989,"ĠErshon":13990,"ĠtÃ²an":13991,"ĠWatch":13992,"ThuÃª":13993,"ĠDunne":13994,"ĠHawk":13995,"ĠEvans":13996,"Dominic":13997,"ĠWesley":13998,"á»ĨN":13999,"ĠYuki":14000,"Juan":14001,"ĠLestr":14002,"ĠSheldon":14003,"Ġknew":14004,"Ġairbender":14005,"forza":14006,"ĠAurora":14007,"âĢĭâĢĭ":14008,"ĠCasterly":14009,"eechum":14010,"Há»«":14011,"HÃ¢y":14012,"Há»ıng":14013,"Ir":14014,"Koba":14015,"Mak":14016,"OM":14017,"RÆ¡i":14018,"Tá»Łm":14019,"Vas":14020,"Wendy":14021,"buck":14022,"jor":14023,"lÅ©":14024,"Ãħ":14025,"ĠmÃ³i":14026,"Ġnáº¯n":14027,"Ġbass":14028,"Ġkhong":14029,"ĠsÆ°a":14030,"Ġsil":14031,"Ġrá»ĩp":14032,"ĠtrÄĥ":14033,"ÄĲÃ¹":14034,"Ġxáº¯c":14035,"KhÃ¡n":14036,"anor":14037,"Thá»ı":14038,"ĠByr":14039,"ĠÄĲá»įc":14040,"ĠÄĲá»¡":14041,"PhÃ¡n":14042,"ĠLightyear":14043,"ĠDoyle":14044,"ĠGollum":14045,"ĠRid":14046,"atus":14047,"atcher":14048,"ĠPeggy":14049,"ĠPorsche":14050,"real":14051,"rebor":14052,"Äĳá»§":14053,"ĠEva":14054,"Ġwa":14055,"ĠNgá»«ng":14056,"GiáºŃn":14057,"khÃ¡c":14058,"sons":14059,"Chuá»ĵn":14060,"odin":14061,"ĠLuther":14062,"ourbon":14063,"Ġmyself":14064,"ĠTHRO":14065,"Ġforever":14066,"ĠDaphne":14067,"ĠSophia":14068,"ĠMartini":14069,"RACHEL":14070,"Cuá»Ļn":14071,"ĠMedellÃŃn":14072,"Isabelle":14073,"ĠWhitaker":14074,"ĠPilgrim":14075,"ngoÃłi":14076,"ĠTalbot":14077,"Saruman":14078,"Antonio":14079,"Ġafter":14080,"Bond":14081,"CA":14082,"CÃ¡t":14083,"HiÃª":14084,"Náº¥u":14085,"Sen":14086,"Sand":14087,"VE":14088,"VÃ¢n":14089,"bay":14090,"cle":14091,"foot":14092,"nst":14093,"seok":14094,"tai":14095,"wal":14096,"åĢ":14097,"ĠcáºŃt":14098,"ĠthÃ³":14099,"Ġnao":14100,"Ġhit":14101,"ĠgÆ¡":14102,"ĠnhÃ£ng":14103,"ĠphÃĢi":14104,"Chuyá»ģn":14105,"Ġdee":14106,"Ġgin":14107,"ĠMister":14108,"ĠSI":14109,"ĠSyria":14110,"Ġchá»īa":14111,"ĠÄĲO":14112,"ĠHang":14113,"ĠLis":14114,"ĠGÃ¡i":14115,"ĠGerry":14116,"ĠThá»ı":14117,"ĠRory":14118,"ĠJav":14119,"ĠJFK":14120,"ĠKung":14121,"ĠKrist":14122,"ĠKrag":14123,"usuf":14124,"thuá»ĳc":14125,"ader":14126,"ĠPhÃ³ng":14127,"Ġwatch":14128,"á»Ĵn":14129,"igu":14130,"Ġpar":14131,"umin":14132,"ĠShen":14133,"beria":14134,"ÃģY":14135,"Ġ126":14136,"shot":14137,"ĠArendelle":14138,"artan":14139,"Marc":14140,"Marcel":14141,"estiny":14142,"ĠSpring":14143,"ĠWhere":14144,"uez":14145,"Mira":14146,"ĠDeath":14147,"ĠAllie":14148,"ĠTorrance":14149,"ymore":14150,"ĠLiberty":14151,"Iá»ĨU":14152,"Ãīp":14153,"ÃĨy":14154,"umpy":14155,"ĠEdwards":14156,"ĠPepes":14157,"ĠEnterprises":14158,"ĠOscorp":14159,"ĠBabylon":14160,"ĠTanya":14161,"Shawn":14162,"Há»Ĺn":14163,"Ġtonight":14164,"WOMAN":14165,"Bá»¥i":14166,"Eep":14167,"Hannibal":14168,"Kay":14169,"Kathy":14170,"Kristoff":14171,"Lola":14172,"Nolan":14173,"SU":14174,"SÄĥ":14175,"Sally":14176,"Toby":14177,"Vá»Ĺ":14178,"Yoko":14179,"hua":14180,"lá»Ŀi":14181,"part":14182,"tÃŃnh":14183,"váº¥n":14184,"xcÆ¡":14185,"Ġ@":14186,"Ġcrazy":14187,"Ġtháº©n":14188,"Ġnong":14189,"ĠsÃĨ":14190,"ĠhÃ£o":14191,"ĠgÆ°á»£ng":14192,"Ġnhang":14193,"Ġngá»Ŀi":14194,"Ġrá»©t":14195,"phÃ¡t":14196,"ChÃ¢m":14197,"Ġdá»Ĺi":14198,"ĠxÃ³c":14199,"emlin":14200,"ĠCá»ĳc":14201,"ĠTÃ³m":14202,"ĠTown":14203,"ĠMA":14204,"ĠMU":14205,"ĠÄĲÃł":14206,"ĠHÃºng":14207,"ĠHá»¯u":14208,"iak":14209,"ĠThá»Ł":14210,"ĠNow":14211,"ĠNur":14212,"ĠKov":14213,"ĠKowalski":14214,"ĠKitchen":14215,"ĠPapi":14216,"ĠPaige":14217,"ĠPascal":14218,"ĠTruyá»ģn":14219,"ĠIII":14220,"Ġ56":14221,"ĠNgÆ°":14222,"ĠNgá»Ļ":14223,"obal":14224,"Holl":14225,"ĠHod":14226,"Ġpat":14227,"roc":14228,"Ġ91":14229,"awk":14230,"Ġ121":14231,"ĠxoÄĥn":14232,"ĠEddy":14233,"Ġ114":14234,"ĠWales":14235,"lands":14236,"ĠHayley":14237,"itchie":14238,"ĠRamona":14239,"ĠMei":14240,"ĠSalt":14241,"Ġprob":14242,"ĠSnape":14243,"ĠbÆ°á»Ľu":14244,"ucc":14245,"áº®N":14246,"áº®NG":14247,"ĠCosette":14248,"ĠYankees":14249,"Ġtrying":14250,"ĠMammy":14251,"ĠRancho":14252,"ĠIvar":14253,"ĠIllinois":14254,"Ġsalad":14255,"ĠGaston":14256,"Sylar":14257,"ĠAvengers":14258,"uirfield":14259,"rected":14260,"ĠTHROAT":14261,"Damien":14262,"Kr":14263,"Micah":14264,"Pal":14265,"Sáº¯c":14266,"Tau":14267,"Vá»Ł":14268,"XÃ©o":14269,"Zoom":14270,"bÃ©":14271,"bat":14272,"cam":14273,"dÃ¹ng":14274,"jack":14275,"nelly":14276,"sáºµn":14277,"tis":14278,"ule":14279,"val":14280,"Ġlá»±":14281,"Ġmat":14282,"ĠmÃºi":14283,"ĠmÆ°á»£t":14284,"Ġnick":14285,"ĠnÃį":14286,"Ġtrá»Ľ":14287,"Ġtrá»Ŀ":14288,"phin":14289,"ĠphÃ´ng":14290,"Chui":14291,"ÄĲinh":14292,"ÄĲá»£t":14293,"Ġxá»ĳp":14294,"onius":14295,"anu":14296,"inem":14297,"inton":14298,"Æ°á»Ľm":14299,"NgÃ´n":14300,"ĠMod":14301,"ĠSá»©":14302,"ĠHiá»ģn":14303,"ĠHÃĴ":14304,"ĠChÃ¬a":14305,"Phe":14306,"PháºŃt":14307,"Tráº£i":14308,"ĠThao":14309,"ĠloÃ£ng":14310,"ĠVicky":14311,"ĠngoÃ¡y":14312,"ĠKol":14313,"Ġdoo":14314,"Quanh":14315,"ĠFusco":14316,"ĠIáº¡i":14317,"oob":14318,"Ġ624":14319,"Ã©oden":14320,"ĠMaryland":14321,"Ġ750":14322,"ĠShar":14323,"iki":14324,"Ġthá»ģm":14325,"ollow":14326,"ĠDoctor":14327,"Ġgoes":14328,"ÆłI":14329,"everus":14330,"everly":14331,"ĠColonel":14332,"ĠMichaels":14333,"ĠAdler":14334,"LEARS":14335,"ĠMalick":14336,"ĠIsildur":14337,"ĠLucius":14338,"ĠDarius":14339,"ggy":14340,"EST":14341,"ĠPeru":14342,"beard":14343,"ĠBellick":14344,"Aww":14345,"ĠTeresa":14346,"ĠBoov":14347,"Leonardo":14348,"Lizzy":14349,"ĠAmerican":14350,"ĠHendricks":14351,"TÃ©i":14352,"Miranda":14353,"ibbiani":14354,"ĠHasan":14355,"ĠFilip":14356,"Ġunderstand":14357,"ĠDexter":14358,"GROANS":14359,"Ġmorphine":14360,"helm":14361,"æĺ¯":14362,"63":14363,"Aaa":14364,"Cá»Ŀ":14365,"Haha":14366,"Jud":14367,"MIN":14368,"Omar":14369,"Port":14370,"Vá»ĳn":14371,"ben":14372,"hÃłnh":14373,"tan":14374,"å°":14375,"ĠÃ¡y":14376,"ĠvÃŃt":14377,"Ġmiss":14378,"Ġmá»ĭa":14379,"Ġsit":14380,"ĠnhÃ¨":14381,"Ġnháº§y":14382,"phi":14383,"Ġphudeviet":14384,"Chá»Ľ":14385,"Ġdá»ĥ":14386,"ÄĲÄĥng":14387,"...'":14388,"NhÃľng":14389,"ĠMáº¡ng":14390,"ĠBáºŃc":14391,"ĠSH":14392,"ĠHive":14393,"ĠLáº¡nh":14394,"Triá»ģu":14395,"ĠDáº«n":14396,"ĠAK":14397,"ĠAus":14398,"ĠGao":14399,"ĠGIá»":14400,"ĠTháºŃm":14401,"ĠRaul":14402,"Ġlow":14403,"ĠNO":14404,"ĠNational":14405,"Ġthui":14406,"eyer":14407,"ĠFloki":14408,"ĠTráº»":14409,"ĠIÃłm":14410,"ooo":14411,"ĠNgÃ³n":14412,"ĠYoko":14413,"ĠmuÃĵn":14414,"rano":14415,"Ġsofa":14416,"ĠMario":14417,"evil":14418,"ĠQuÃ´":14419,"ChuÃ´ng":14420,"apu":14421,"Bain":14422,"toine":14423,"7890":14424,"ĠCarmen":14425,"ĠMormont":14426,"wayne":14427,"ĠChuá»Ļt":14428,"Charley":14429,"ĠIsabella":14430,"ĠSeason":14431,"Ġvoice":14432,"Gray":14433,"ĠDominic":14434,"ÃĻNG":14435,"ĠzáºŃy":14436,"Ġask":14437,"ĠStarfleet":14438,"Serge":14439,"Ã¯ng":14440,"halla":14441,"Brandon":14442,"ĠTesla":14443,";/":14444,"Bud":14445,"FACE":14446,"Gá»Ľm":14447,"Hunt":14448,"Los":14449,"MÃª":14450,"MÄĥ":14451,"MiÃªu":14452,"Mack":14453,"NÃºp":14454,"Run":14455,"Som":14456,"Ts":14457,"Todd":14458,"Zo":14459,"cov":14460,"here":14461,"know":14462,"mun":14463,"táºŃp":14464,"til":14465,"ĠâĢĭâĢĭ":14466,"Ġthree":14467,"Ġnuá»ĳi":14468,"ĠbÃĤn":14469,"Ġsáº©y":14470,"Ġsleep":14471,"ĠhuyÃªn":14472,"Ġhá»Ľp":14473,"ĠgÃ¹":14474,"Ġnháº±ng":14475,"ĠrÃ¡i":14476,"phone":14477,"Ġpháº¥t":14478,"ÄĲua":14479,"ĠquÃły":14480,"Ġrain":14481,"Nhá»ķ":14482,"ĠCÃ¡o":14483,"ĠTÃ¡":14484,"ĠTÄ©nh":14485,"ĠTango":14486,"Ngá»Ńi":14487,"erxes":14488,"ĠBáºŃt":14489,"ĠSáº¯c":14490,"Phá»ĳ":14491,"ĠLie":14492,"ĠLeed":14493,"iser":14494,"Ġvá»¥t":14495,"ouble":14496,"ĠFoot":14497,"ĠFuller":14498,"ĠTribbiani":14499,"usic":14500,"thá»Ń":14501,"andro":14502,"ĠStewart":14503,"Ġpop":14504,"Ġopen":14505,"Ġ89":14506,"utz":14507,"Ġins":14508,"ÃģNH":14509,"ĠSamaritan":14510,"ĠGraves":14511,"ĠBarbie":14512,"Ġ02":14513,"ĠTHá»¨":14514,"ylie":14515,"ONT":14516,"ĠDeacon":14517,"ĠLaurie":14518,"ĠMrs":14519,"Tá»ķn":14520,"ICE":14521,"ĠzÃ¬":14522,"ĠUnion":14523,"Ġclub":14524,"ĠSwan":14525,"ĠCastiel":14526,"ĠGhi":14527,"ĠVirgil":14528,"ĠIrish":14529,"ĠCosta":14530,"Subtitle":14531,"Rocket":14532,"ĠLanding":14533,"SPEAKING":14534,"Klaus":14535,"ĠAlec":14536,"Mikey":14537,"abbit":14538,"Pepper":14539,"ĠFerrari":14540,"ĠPrinceton":14541,"Ay":14542,"Aug":14543,"Bá»ģ":14544,"Báº¥m":14545,"Huyá»ģn":14546,"LÃ¢m":14547,"Love":14548,"Má»Ļ":14549,"Micky":14550,"Ox":14551,"Pan":14552,"Pen":14553,"RÃ³t":14554,"SÆ¡n":14555,"Sur":14556,"SON":14557,"Tess":14558,"XÃ¬":14559,"cáº©n":14560,"náº±m":14561,"pos":14562,"rer":14563,"sburg":14564,"wang":14565,"Ġtáº£o":14566,"ĠcÃµng":14567,"Ġváº¿u":14568,"Ġváº©y":14569,"Ġnoi":14570,"Ġsáº³n":14571,"Ġsoul":14572,"ĠnhÃ³i":14573,"Ġreg":14574,"ChÃ´":14575,"Ġxáº¥c":14576,"...âĻª":14577,"Thung":14578,"ĠTA":14579,"ĠTerr":14580,"ĠMÃ¡t":14581,"ĠMÃ£n":14582,"ĠMIN":14583,"ĠLÃ´ng":14584,"ĠDow":14585,"ĠDixon":14586,"ĠGry":14587,"ĠThurs":14588,"Ġtouch":14589,"ĠNich":14590,"ĠNolan":14591,"ĠKá»¹":14592,"ĠKree":14593,"asma":14594,"QuÄĥng":14595,"ĠFur":14596,"ĠField":14597,"Ġanymore":14598,"ĠIS":14599,"ĠIp":14600,"Ġ59":14601,"iden":14602,"Hodor":14603,"Ġpen":14604,"ĠXá»©":14605,"ego":14606,"egrin":14607,"quáº£":14608,"uhm":14609,"ĠMore":14610,"Ġnháº¹t":14611,"áº¤U":14612,"ibi":14613,"ixie":14614,"ĠvÃŃu":14615,"ĠTRÆ¯á»ļC":14616,"ATT":14617,"ĠRoch":14618,"ĠLannisters":14619,"Ġhamburger":14620,"ĠJeanine":14621,"Ġsá»īn":14622,"ĠDrago":14623,"Philip":14624,"ĠDavos":14625,"ĠNobel":14626,"ĠHopkins":14627,"Ã°i":14628,"äºĨ":14629,"ĠChelsea":14630,"estapo":14631,"Ġkarate":14632,".-":14633,"85":14634,"Ele":14635,"Hang":14636,"Jet":14637,"Jos":14638,"Kev":14639,"Malley":14640,"Nar":14641,"Remy":14642,"War":14643,"dong":14644,"fly":14645,"hee":14646,"kiá»ĥm":14647,"kill":14648,"mand":14649,"rÃµ":14650,"vid":14651,"ÃĦ":14652,"Ġá»Ľn":14653,"áº¼":14654,"ĠnÃ¡":14655,"Ġbring":14656,"ĠkhÃªu":14657,"Ġsá»©a":14658,"Ġnhá»Ļng":14659,"ĠÄĳá»ħ":14660,"ÄĲÃŃch":14661,"Ġquai":14662,"uá»ĳm":14663,"KhÃ³i":14664,"Ã²e":14665,"á»±ng":14666,"Nhu":14667,"ĠCÆ¡n":14668,"ĠCá»Łi":14669,"ĠCora":14670,"ĠMÆ°u":14671,"ĠBach":14672,"ĠHolt":14673,"Ġya":14674,"ĠCháº¥p":14675,"Pheebs":14676,"ĠLÅ©ng":14677,"ĠLara":14678,"eowulf":14679,"orin":14680,"ĠDÃłi":14681,"ĠDáº¥u":14682,"ĠDod":14683,"Ġtoáº¡i":14684,"imi":14685,"Ġlum":14686,"ĠRyu":14687,"Ġlost":14688,"ĠVoldemort":14689,"ĠNico":14690,"ĠNile":14691,"ĠPont":14692,"ĠPippin":14693,"ĠTrá»¥":14694,"ĠTráº¥n":14695,"ĠTrip":14696,"thy":14697,"Ġ350":14698,"Ġ...\"":14699,"ĠOctav":14700,"ads":14701,"Ġpower":14702,"iva":14703,"ĠthÃ¢t":14704,"ĠmÃ£ng":14705,"Tina":14706,"Ġjean":14707,"Toa":14708,"Ġmoon":14709,"Tuá»³":14710,"ĠÃĤn":14711,"ĠiPad":14712,"ĠUhm":14713,"ĠSchrader":14714,"ĠRonald":14715,"ĠNorton":14716,"ĠAtt":14717,"ĠPHIM":14718,"Really":14719,"Duke":14720,"argas":14721,"Ġtequila":14722,"áº®T":14723,"ĠSkipper":14724,"ĠtuÃ½p":14725,"Avatar":14726,"ĠLonely":14727,"ĠCogburn":14728,"BC":14729,"CÆ°á»Ľi":14730,"Fal":14731,"Lao":14732,"Marl":14733,"Ny":14734,"Pau":14735,"Rome":14736,"Tá»ĵi":14737,"Tessa":14738,"With":14739,"cin":14740,"dÆ°á»Ľi":14741,"fasa":14742,"gee":14743,"hÆ¡i":14744,"jean":14745,"ns":14746,"oke":14747,"Ġcry":14748,"ĠÄĳÃºp":14749,"Ġnáº¥c":14750,"Ġbre":14751,"ĠkhÆ¡":14752,"Ġguá»ĳc":14753,"ĠgÃī":14754,"ĠngÃľÃĸi":14755,"pheus":14756,"ĠquÃ¨n":14757,"NhÆ¡":14758,"NhÃ©t":14759,"ĠCÃº":14760,"ĠCart":14761,"ĠCÃĶNG":14762,"ĠTáº«n":14763,"ĠMÆ¡":14764,"ĠBatt":14765,"ĠSkeeter":14766,"ĠHot":14767,"ĠHagrid":14768,"iad":14769,"ĠAP":14770,"ĠGale":14771,"imes":14772,"ĠRik":14773,"ĠRug":14774,"ĠRusty":14775,"ĠJacques":14776,"ĠNáº¯m":14777,"ĠNEW":14778,"ĠKoba":14779,"ĠKGB":14780,"ĠWind":14781,"ĠTro":14782,"ĠTrÃŃ":14783,"ĠTrá»£":14784,"ĠEner":14785,"ĠtuÃ´n":14786,"adre":14787,"ĠwÃ¡":14788,"ĠYang":14789,"unch":14790,"terson":14791,"ĠConstant":14792,"Ġoáº¯t":14793,"ĠAlam":14794,"Ġ2014":14795,"ĠKhá»Łi":14796,"nake":14797,"ĠScooby":14798,"ĠTHáº¾":14799,"ĠRain":14800,"ĠMafia":14801,"ĠHaiti":14802,"Ġlá»£m":14803,"ĠElle":14804,"ations":14805,"Barnes":14806,"ĠForce":14807,"Ãļi":14808,"Elle":14809,"ĠMackenzie":14810,"Glenn":14811,"ĠPenelope":14812,"ĠPollock":14813,"Russell":14814,"ĠBriar":14815,"ĠCohen":14816,"ĠHassan":14817,"irestorm":14818,"ĠEncode":14819,"Are":14820,"Bre":14821,"CAR":14822,"Grant":14823,"Ouch":14824,"Tá»©":14825,"UT":14826,"dad":14827,"fy":14828,"lia":14829,"vel":14830,"ĠÃ£n":14831,"Ġáº»m":14832,"ĠtÃ¢u":14833,"nháº¥t":14834,"ĠkÃ©":14835,"Ġmass":14836,"Ġkhanh":14837,"Ġkháº¡o":14838,"Ġste":14839,"Ġgram":14840,"Ġnhuá»ĳm":14841,"Ġtrá»ķ":14842,"ĠÄĳá»įng":14843,"Ġden":14844,"aynor":14845,"anan":14846,"ĠCáº¡n":14847,"ĠTemp":14848,"ĠMÃ¢y":14849,"ĠMIT":14850,"ĠBá»¯a":14851,"ĠBard":14852,"ĠBald":14853,"ĠSide":14854,"ĠSÃºn":14855,"ĠHess":14856,"PhÃª":14857,"ĠLike":14858,"ĠGaul":14859,"ĠGCPD":14860,"ĠGirl":14861,"Conrad":14862,"ĠRÃ´":14863,"uie":14864,"ĠPi":14865,"ĠPot":14866,"Giá»Ŀi":14867,"tho":14868,"ĠIT":14869,"ĠYO":14870,"Ġ628":14871,"Ġvá»£t":14872,"Ġpart":14873,"Ġpoker":14874,"ĠXá»Ń":14875,"hoÃłn":14876,"rish":14877,"ĠAlo":14878,"ental":14879,"ĠClA":14880,"tock":14881,"chÃºngta":14882,"Shel":14883,"Marvin":14884,"Ġbeh":14885,"ĠAndie":14886,"consin":14887,"Whip":14888,"ĠBenedict":14889,"Wells":14890,"aleigh":14891,"Ġ148":14892,"Ġ135":14893,"ĠAbbott":14894,"Ġknows":14895,"oshiro":14896,"ĠSmÃ©agol":14897,"ĠDarren":14898,"ĠlÆ°Æ¡n":14899,"ĠToronto":14900,"Ã¥ch":14901,"ĠHuÃ¢n":14902,"Jonah":14903,"ĠGregor":14904,"ĠMelissa":14905,"Ġplasma":14906,"ĠTerrence":14907,"Cruchot":14908,"ĠNicolas":14909,"Skye":14910,"ammad":14911,"ĠKitty":14912,"ĠChech":14913,"ĠAmberle":14914,"ĠNatasha":14915,"ĠWebb":14916,"ĠConnors":14917,"ĠSadness":14918,"ĠVladimir":14919,"Boris":14920,"ĠRINGS":14921,"ĠTreadstone":14922,"Bernard":14923,"cticut":14924,"Oscar":14925,"Cáº¯m":14926,"GE":14927,"Gri":14928,"Naz":14929,"Ob":14930,"Perry":14931,"Sme":14932,"Tang":14933,"TON":14934,"Vic":14935,"XÆ°a":14936,"fort":14937,"hey":14938,"lem":14939,"lÃ¢u":14940,"tá»«ng":14941,"wise":14942,"Ã§a":14943,"ĠÃ¹":14944,"Ġáº¹":14945,"Ġá»ıi":14946,"Ġcat":14947,"Ġcourse":14948,"Ġváº¿":14949,"ĠmÃ²ng":14950,"Ġmáº©n":14951,"ĠnÃ¢":14952,"Ġbin":14953,"Ġbal":14954,"Ġsky":14955,"ĠnhÃ²m":14956,"Ã¬t":14957,"Chá»įc":14958,"Ġchocolate":14959,"ĠTad":14960,"ĠBush":14961,"ĠSex":14962,"ĠSforza":14963,"ĠHappy":14964,"ĠHiggins":14965,"eno":14966,"ĠLáº¡":14967,"amily":14968,"ĠAy":14969,"ĠGIA":14970,"esu":14971,"ĠVerm":14972,"ĠVandal":14973,"ĠNixon":14974,"ĠKah":14975,"ĠPry":14976,"eyt":14977,"ÄĳÃ¡":14978,"edith":14979,"Ġfin":14980,"Ġfly":14981,"ĠMargo":14982,"ĠMardon":14983,"ĠSha":14984,"Ġinside":14985,"Ġ129":14986,"Ġ117":14987,"Ġcá»±a":14988,"Ġ142":14989,"Frankenstein":14990,"ĠMercia":14991,"ĠPeters":14992,"Allison":14993,"ĠSalv":14994,"ĠBangkok":14995,"ĠGalavan":14996,"ĠBolt":14997,"Calvin":14998,"ĠDorothy":14999,"McC":15000,"Santa":15001,"ĠCallahan":15002,"ĠPaula":15003,"Ġ^^":15004,"Ġcredit":15005,"ĠIMF":15006,"Bag":15007,"Cá»¥ng":15008,"DÃ¢":15009,"Dog":15010,"Hood":15011,"Kira":15012,"Kendra":15013,"LÃłng":15014,"MI":15015,"MO":15016,"NÃºt":15017,"Par":15018,"Sulu":15019,"Tung":15020,"Toi":15021,"Wayne":15022,"Woa":15023,"__":15024,"bow":15025,"dÃ¢y":15026,"far":15027,"vá»£":15028,"ngu":15029,"Ġcáº³ng":15030,"ĠnÃ²i":15031,"Ġsáº·c":15032,"Ġsame":15033,"Ġgun":15034,"Ġgetting":15035,"Ġapp":15036,"ĠxÃłm":15037,"Ġxá»ķng":15038,"Thuyáº¿t":15039,"chiáº¿c":15040,"ĠCÃ´n":15041,"ĠTÃ¢":15042,"ĠTÃ¡n":15043,"ĠTus":15044,"ĠTÃ¹y":15045,"Ngá»¥y":15046,"ĠBáº£":15047,"ĠBet":15048,"Ã½ng":15049,"ĠHÃ¡t":15050,"ĠHIV":15051,"ĠChekov":15052,"Ġhor":15053,"ĠDad":15054,"ĠThá»ıa":15055,"ĠRO":15056,"ĠJose":15057,"ĠPost":15058,"ĠTrá»«ng":15059,"ĠTree":15060,"ÄĳÆ°":15061,"ĠEg":15062,"Ġ4000":15063,"Ġ450":15064,"Ġ625":15065,"GiÆ°á»Ŀng":15066,"Giam":15067,"ĠnguÃ´i":15068,"á»ĴNG":15069,"rack":15070,"arley":15071,"Ġfool":15072,"ĠtÃ¹m":15073,"ĠShishio":15074,"iving":15075,"mmm":15076,"áº¢O":15077,"Alt":15078,"ustang":15079,"doch":15080,"Jackie":15081,"ĠMcQueen":15082,"ĠColin":15083,"ĠCHUCKLES":15084,"Amelia":15085,"ĠMaxim":15086,"Carmen":15087,"ĠSimpson":15088,"Grond":15089,"ĠSchw":15090,"ĠMadeleine":15091,"ĠFreddie":15092,"aghan":15093,"ĠRivendell":15094,"racula":15095,"ĠBrooks":15096,"ĠAthel":15097,"IDS":15098,"ĠTiberius":15099,"Ġpounds":15100,"Keith":15101,"ĠPhillip":15102,"ä¸Ģ":15103,"ĠVÃĢO":15104,"Cassie":15105,"ĠApple":15106,"ĠPhilippe":15107,"ĠGriff":15108,"ĠMulder":15109,"Mickey":15110,"ĠMisterT":15111,"eytiri":15112,"BÃª":15113,"Bir":15114,"Coll":15115,"Gin":15116,"KÃªnh":15117,"LS":15118,"Like":15119,"Má»ħ":15120,"Os":15121,"Táº¥p":15122,"UI":15123,"bÃ¡o":15124,"dard":15125,"hold":15126,"káº¿":15127,"kiá»ĥu":15128,"ktra":15129,"non":15130,"pot":15131,"rond":15132,"ãĤ":15133,"Ġchampagne":15134,"Ġmá»ĭn":15135,"Ġná»ĭt":15136,"Ġnext":15137,"ĠkhÃŃt":15138,"Ġháº¥t":15139,"ĠrÄ©":15140,"Ġrest":15141,"Ġang":15142,"ĠÄĳá»Ŀ":15143,"Ġxiáº¿t":15144,"Ġgiáº·c":15145,"ement":15146,"ThÃ¹ng":15147,"cháº·n":15148,"ĠComan":15149,"Ġ127":15150,"arine":15151,"ĠSah":15152,"ĠSak":15153,"ĠHÄĥ":15154,"amander":15155,"ĠAhh":15156,"ĠThiÃª":15157,"ĠTheon":15158,"ĠNÃ©m":15159,"ĠNigel":15160,"Quá»¹":15161,"ĠTrÃ¢":15162,"ĠTravers":15163,"thÃªm":15164,"icillin":15165,"Äĳáº¹p":15166,"Äĳá»ĭnh":15167,"ĠNhÃ¬":15168,"Ġworry":15169,"andall":15170,"Ġ106":15171,"Ġfix":15172,"Ġ93":15173,"--?":15174,"Theodore":15175,"egeta":15176,"ĠClan":15177,"berto":15178,"ĠvÃªnh":15179,"Whiskey":15180,"ĠWhip":15181,"ĠElvis":15182,"ĠBeet":15183,"Edit":15184,"Ġstars":15185,"ĠTuáº¥n":15186,"ĠIsabel":15187,"ĠMance":15188,"ĠTRONG":15189,"Violet":15190,"ĠMeade":15191,"ESE":15192,"Ġready":15193,"ROSS":15194,"ĠRocky":15195,"ÃĲá»«ng":15196,"Prim":15197,"ĠÆ¯ng":15198,"ĠGoodwin":15199,"aught":15200,
[...]
