#version: 0.2 - Trained by `huggingface/tokenizers`
á »
á º
n g
Ġ t
Ġ c
Ġ Ä
ĠÄ ĳ
Ã ł
Ã ´
n h
Ġ l
Ġt h
Æ °
Ġc h
Ã ³
Ġ k
Ġ v
Ġ m
Ġ n
Ġ b
Ã ¡
Ã´ ng
áº ¿
Ġk h
Ã´ i
Ġ s
Ġ h
Ġ g
Æ° á»
áº ¥
Ġ nh
Ġl Ãł
Ã ¬
áº £
Ġ ng
i á»
Ã ¢
Ġkh Ã´ng
Ã º
áº Ń
Ġ r
. .
áº ¡
á» ĳ
Ã ª
Ġt r
á» Ļ
Ġt Ã´i
p h
Ġ ph
Ġc Ã³
Ġ a
Ġt a
i áº¿
Ġc á»
Ã £
Æ ¡
á» Ľ
áº¥ y
Ãª n
ĠÄĳ á»
C h
áº ¯
Ãº ng
Ġth á»
Ŀ i
Ġn Ãł
Ġa nh
Ġ d
á» į
á» ĵ
Ä Ĳ
T Ã´i
Æ°á» £
áº ½
áº §
§ a
Ġcá» §a
Ġn Ã³
ĠÄĳ Ã¢
Ġv Ãł
ĠÄĳ i
a o
Ġ x
á»Ļ t
u y
o n
ĠÄĳ Ã£
.. .
Æ°á»£ c
Ġ q
Ġs áº½
áº¡ i
áº£ i
á»Ľ i
áº¥ t
Ġch á»
Ġg Ã¬
á»ĵ i
Ã¡ c
ĠÄĳ Ã³
Ġq u
á» Ł
iá» ĩ
iáº¿ t
Æ°á» Ŀi
Ġm á»Ļt
á» ¯
Ġr á»ĵi
ĠÄĳ Æ°á»£c
á» ĩ
Ã Ń
a y
u á»ĳ
ĠlÃł m
Ġg i
Ã¡ i
Ġng Æ°á»Ŀi
Ġph áº£i
ĠnÃł y
K h
Ġch o
Ġv á»
Ġng h
a n
A nh
Ã ²
a ng
e m
Ġch Ãºng
áº§ n
Ġb iáº¿t
Ġthá» ĥ
i n
T h
á» «
áºŃ u
ĠÄĳÃ¢ y
Ġ á»Ł
iá» ģ
Ġc Ã´
Ì ģ
Ġnh Æ°
Ġm Ãł
áºŃ y
ĠnÃ³ i
Ã¬ nh
o ng
Kh Ã´ng
Ġv á»Ľi
á» ±
Ġr a
Ġl áº¡i
Ġg iá»
Ġc on
N h
c h
Ä ©
Ġc áº£
Ġs ao
á» ĭ
áº ·
Ġth áº¿
áº¿ t
Ã ¹
uy á»ĩ
ĠnÃł o
áºŃ t
© ng
Ġ áº¥y
Æ° a
Ä ĥ
Ì Ģ
áº¯ n
Æ¡ n
Æ¡ i
ĠÄĳ ang
uá»ĳ n
Æ°á» Ľ
Ġ em
á» ı
iá»ģ u
áº¿ n
Ġ Ã´ng
Ġm uá»ĳn
ĠÄĳá» ĥ
Ã ©
Ġtr ong
á»¯ ng
uyá»ĩ n
Ġ C
a i
ĠÄĳÃ¢ u
Ã¢ n
Ġc áºŃu
Ġv áºŃy
ĠÄĳ áº¿n
á» ķ
Ãł i
Ġc Ã¡c
Ġc Ã¡i
Ch Ãºng
Ã¢ y
áº ±
Ġ T
a u
Ã² n
N g
iá» ĥ
áº ¹
Ġkh i
á» ¥
Ġngh Ä©
Ġh á»į
Ġnh á»¯ng
á»« ng
e r
Å ©ng
Ġvá» ģ
á»į i
i Ãªn
Ġth Ã¬
Ġ 1
Ġ M
áº¡ n
Ġth áº¥y
áº± ng
Ãł y
Ġch uyá»ĩn
Ġl á»
a r
Ġn á»¯
Ì £
áº¿ u
ĠÄĳ áº¥y
Ġb á»ĭ
ĠvÃł o
Æ°á»Ľ c
Ġ B
Ġc Å©ng
áº§ u
Ġ S
Ġth Ã´i
Æ° ng
Ġchá» ī
iá»ĩ c
á» ©
Ãł n
Ġchá» ©
Ġgiá» Ŀ
V Ãł
C Ã³
Ã ½
a nh
i nh
áºŃ n
Ġná»¯ a
Ã Ķ
ĠÄ Ĳ
Ãł ng
Æ° Æ¡
Ġc Ã²n
Ã¹ ng
Ġ H
á»ĳ i
Ġc áº§n
Ãł nh
E m
Ãª u
Ġm Ã¬nh
Ġv iá»ĩc
Ãº c
Æ°á» Ŀ
á»ĳ ng
Ã¡ t
Ġthá» ©
áº¯ c
Ġ y
áº »
Æ°á»Ŀ ng
e n
áº¯ t
Ġ Ch
Ġa i
iáº¿ n
C Ã´
Nh Æ°ng
áº «
Ġr áº¥t
Ġh o
á» ī
á»ĳ t
Ġs á»±
Ġ Ãł
N Ã³
Ġl Ãªn
ÃŃ nh
P h
Ì ī
ĠÄĳ iá»ģu
Ġt á»Ľi
ÃŃ ch
á»į n
Ġth áºŃt
Ġh áº¯n
Ġ L
Ĺ i
á»Ļ i
Ġh Æ¡n
iá»ĩ n
e o
Ã¬ m
Ġnh Ãł
Ã¡ nh
Ġch Æ°a
Ġv Ã¬
á» ĥ
Ã¡ u
ÃĶ ng
áº« n
Ãł o
Ġ Æ¡n
Æ°Æ¡ ng
á»Ļ c
á» £
Ġt á»«
á» Ń
Ã£ y
Ã¡ ng
á»ı i
Ã´ n
ĠÄĳ áº§u
Ã¢ u
Ġb áº¡n
a m
Ġb áº£
Ġt Ã¬m
iá»ĥ u
ĠnhÆ° ng
Ã¡ o
Ġn Ãªn
áº¯ m
Ġch áº¿t
Ã² ng
á» ģ
Ġkh Ã¡c
Ġqu Ã¡
Ġcá» ©
l l
Ãº t
C áºŃu
i a
Ġc u
o r
áº ©
Ġt in
T r
Ġ D
Ġnh iá»ģu
Ġnh áº¥t
á» §
Ã¡ m
Äĥ m
Ġ A
Ġ G
T a
Ġ Th
áº· t
Ġtr Æ°á»Ľc
Ġngh e
ĠÄĳá» ģ
Ġm á»įi
áº· p
ĠÄĳá» ĵ
Ġlá» Ĺi
V áºŃy
N áº¿u
Ġtr Ãªn
Ġt o
C on
Ġb ao
Ġc Ã´ng
Ã¬ n
Äĥ ng
Ġt iáº¿
ÄĲ Æ°á»£c
Ġt á»ĳt
i m
Ġl u
Ġ R
Ġl o
á»¥ c
Æ°á» Ł
Ã¡ n
Ġqu a
Ġth Ãłnh
u ng
ÄĲ Ã³
áº¥ u
áºŃ p
Ãª m
uá»ĳ ng
Æ°á»Ł ng
iá»ĩ t
Ì ĥ
áº ³
á»© c
Ã¢ m
â Ļ
áº¥ n
Ġs á»ĳng
iá»ģ n
Ġn áº¿u
Ġh ay
á» Ŀi
Ġy Ãªu
e s
Ġth ÃŃch
Ġc Ã¹ng
ĠÄĳá» ĭ
Æ° Æ¡i
ĠmÃł y
Ġ V
á»ķ i
Ġl áº¯m
ĠcÃ¡c h
Ġg áº·p
L Ãł
Ãº p
Ġth eo
Ġ J
Ġm á»Ľi
Ġt Ãªn
âĻ ª
Ġx em
á»Ļ ng
Ġm áº¹
Ġng Ãły
ĠÄĳ Ãºng
Ġv áº«n
áº· c
Ġqu an
Ġb áº¯t
Ġ TÃ´i
Ġg iáº¿t
Ġ N
Ġ 2
i s
Ġth u
Ġs au
a t
iá»ĥ m
Ġ Ã½
X in
Ġng ay
Ġng o
Ġr áº±ng
Ġh áº¿t
S ao
Äĥ n
Ġbáº£ o
áº£ y
áº³ ng
Å ©
ĠÄ ĥ
Ġb á»ĳ
ĠÄĥ n
Ġg á»įi
Ġl Ãºc
Ġt á»±
Ġta y
ÄĲ Ã¢y
Ġgi Ãºp
Ph áº£i
á»į ng
Ġh áº£
Ãº a
Ġb Ãł
Ġh iá»ĥu
M á»Ļt
áº£ m
Ġl áº¥y
ÄĲ á»«ng
iá»ĩ u
Ġ K
Ġm áº¥t
Ġ "
e l
Ġvá» ¥
Ġta o
Ġt á»Ľ
Ġx in
0 0
áº© n
Ġnh áºŃn
Ġnh Ã¢n
Ġcáº£ m
á»ģ n
Ã¢ ng
Ġx e
Ġd o
± c
Ġ KhÃ´ng
Ġq uy
Ġnh Ã©
Ġkh á»ıi
Ã¡ y
ÄĲ i
e t
Ġn Äĥm
u i
Ġcu á»Ļc
Ġchá» ĭ
Ġl áº§n
Ġ P
o u
Ġn ay
Ġb á»ı
ĠÄĳ Æ°a
ĠÄĳá»ĭ nh
Ġ Anh
H á»į
Ġb Ã©
Ġc Æ¡
Ã µ
áº¡ nh
c k
a l
i Ãªu
Ġch Ã¡u
áº¯ ng
Ã ¨
Ġt áº¥t
i Ãª
Ġnh Ã¬n
Ġh ai
á» Ŀ
a s
Ã³ c
Ġ á»ķ
Ġtr á»Ł
Ġnh au
Ġgi a
Ġng Ãłi
C Ã¡i
Ġch ÃŃnh
e y
Ġt iá»ģn
Ġx uá»ĳng
áº¡ y
ĠÄĳ á»Ļng
áº§ m
H Ã£y
Ġch áº¯c
Ġthá» Ŀi
Ġb á»įn
Ġm áº·t
Ġl a
ĠÄĳ Æ°á»Ŀng
áº£ n
Ġg Ã¡i
u á»ķi
G iá»
Ġlu Ã´n
á»ĩ nh
á»± c
áº¡ o
á»ĳ c
uyá»ĩ t
Ġgiá» ¯
Ġto Ãłn
Q u
Ġlá» Ŀi
« ng
Ġt á»«ng
ĠÄĳ o
Ġs Ã¡t
Ġt áº¡i
Ġ F
i t
Ġkh o
á»Ł i
Ġn Æ¡i
Ã¡c h
Ġngo Ãłi
Ġng Æ°Æ¡i
áº¡ m
Ġch uy
Ġch Ãºt
o m
LÃł m
á»ĳ n
Ġth o
áº¡ c
Ġs á»ĳ
Ġnh iÃªn
Ġ W
Ġk áº»
Ġ Æ¡i
áº¥ p
Ġh Ãłng
Ġhá»į c
ĠT r
Ġch iáº¿n
u a
Ng h
Ġc o
Ġgi an
i e
Ġvá» ĭ
Ġph Ã²ng
áº¹ p
Æ°á»£ ng
Ġs Ä©
Ġl Ã½
áº¯ p
Ġt Ã¢m
Ġchá» Ĺ
H áº¯n
Ġ ?
7 8
Ń a
Ġh á»ıi
Ch á»ī
Ġb áº¥t
Ġb áº±ng
Ġnh á»Ľ
« a
á» ª
ĠÄĳá»ģ u
a h
Ġthá» ±c
Ġtr ai
ĳ ng
Ġl áº½
Ġb Ãªn
u s
Th áºŃt
C Ã¡c
Ġh Ã£y
Ġx áº£y
t h
Ġ 3
á»ĵ n
Ġqu ay
Ã´ m
Ġk ia
Ġl á»Ľ
Ġv ui
Ľ i
Ġ ...
áº£ nh
Ġs inh
Ng Æ°á»Ŀi
T á»Ľ
Ġm áº¥y
Ġch u
Ġá»ķ n
á»ĵ ng
Ġtiáº¿ p
Ġc á»ĳ
Ġm Ã¡y
ĠÄĳ Ã¡nh
Ġgiá» Ľi
iá»ĩ m
Ġtr áº£
uá»ĳ i
Ġh Ãłnh
ĠÄĳá» ķ
Ġt Ã¬nh
N Ãły
Ġch Æ¡i
ĠÄĳá»ĵ ng
Ġg h
ÄĲ Ãºng
ÄĲ á»ĥ
r e
Ġcá»© u
Ġn Æ°á»Ľc
ĠvÃł i
Ġb á»Ļ
Ġth áº±ng
o l
ĠÄĳá» «ng
Æ°á»Ľ i
Ġch a
Ã¡ p
iáº¿ m
M áº¹
Ġkh Ã³
Ġh iá»ĩn
áº¡ t
á»ĭ ch
Ġt Æ°á»Łng
Ġth Æ°a
Ġa n
Ġk áº¿t
Ġch áº³ng
Ġvá» «a
áº¡ ch
áº§ y
Ã© t
iá» ħ
i c
Ġtr á»įng
M Ãły
Ġc Ã¢u
Ġv iÃªn
Ä ĳ
Ġv Ã´
C Ã²n
Ġb Ã¡o
Ch Ãło
Ġs á»£
Ã³ ng
Th áº¿
Ġtr a
Ġgiá» ĳng
ĠÄĳ áº¹p
V Ã¢ng
2 4
Ġt á»ĳi
áº¡ ng
á» ©ng
Ġlá»Ľ n
Ġb a
ĠÄĳá» ©
Ġ E
uy á»ģn
i ng
Giá» Ŀ
Ġ I
Ġ O
Ġcáº£ nh
Ġb iá»ĩt
á»£ p
iáº¿ c
á» Ĺi
Ġt uyá»ĩt
Ġl Ã¢u
Ġv áº»
Ġk á»
uá»ĳ c
Ġth Æ°Æ¡ng
Kh i
o s
Nh á»¯ng
i l
T áº¥t
Æ°á»Ľ ng
Ġk o
Ġb u
Ġh Ã¬nh
Ġch Ãº
Ã£ i
V Ã¬
ÃĶ i
Ngh e
Ġth Ã´ng
Ġs Ã¡ng
Ġth Æ°á»Ŀng
á» ħ
ĠÄĳ Ã¡ng
Ġc a
á»ĥ n
Ġ âĻª
Ġh á»£p
Ġcá» Ńa
Ġtiáº¿ ng
Ġv áº¥n
Ġph ÃŃ
Ġgi áº£i
Ã© p
Ġt u
Ġk Ã¬
a d
T ao
Ġph á»¥
Ġd Ã¹ng
Ġth Ã¢n
T áº¡i
A i
C áº£m
Ġcá» ķ
ĠÄĳá» Ŀi
áº£ ng
Ġx Ã¡c
Ġb ay
o w
Ġb Ã¢y
Ġnh á»ı
Ġnh anh
Ch o
Ġc áº§u
£ i
ĠÄĳá»ķ i
ĠÄĳá» §
Ġv á»ĩ
á»¥ ng
Ãł u
Ġt iÃªn
iáº¿ p
Ġbáº£ n
o t
B á»ĳ
ĠÄĳ áº¡i
áº¿ p
Ġc uá»ĳi
Ġx a
Ġ Ph
Ġth ay
Ġm ang
Ġqu Ã¢n
iá»ħ n
ÃŃ t
iá»ĩ p
Ġnh á»ī
Ġ áº¡
Ġph Ã¡t
ĠÄĳá»© a
ĠCh Ãºa
Ġng á»§
iá»ĥ n
Ġth Ãªm
M á»įi
Ġ Nh
Ġth áº§n
Ġb áº¯n
Ġtr áº»
áº µ
NÃ³ i
ĠÄĳ iá»ĩn
Ġh á»Ļi
Ġt á»Ļi
O h
uy Ãªn
Ġ 5
Ġ w
an d
á»Ń a
ĠÄĳ á»Ļi
áºµ n
o o
áº¥ m
áº£ o
u r
Ġch iáº¿c
Ġ Ng
i ll
á» ŀ
Ġs Æ°
Ġb Ã¬nh
Ġn Äĥng
Ġm a
Ġl iÃªn
Ġt ÃŃnh
Ã Ģ
Ġtr Æ°á»Ŀng
Ã Ŀ
Ġ 4
e ll
Ch uyá»ĩn
Ġv á»įng
ĠÄĳ á»ĳi
Ġthá» §
á»± a
ĠnghÄ© a
Ġngh i
i d
Ġr Ãµ
C á»©
Ġx u
Ġho Ãłn
Ġquy áº¿t
l e
Ġchá»ĭ u
Ġg áº§n
Ġ Y
Ġh Ã´m
ĠÄĳ áº¥t
ĠÄĳ Ãªm
Ġch áº¡y
Ġch Ãło
Ch Ã¡u
Ġv áºŃt
Ġchá» Ŀ
Th Ã´i
Ġchuy á»ĥn
Ġb á»ĩnh
Ġchá» ©ng
Ġs Ãºng
Ġc ao
B á»įn
a v
o b
e d
Ġ .
ĠÄĳ áº¥u
Ġch á»įn
ĠÄĳ Ã¬nh
Ġ !
Ġgi Ã¡
Ġb á»Łi
Ġm áº¡nh
Ġth á»ĳng
Ġt á»Ń
Ġd Æ°á»Ľi
Ã¹ a
Ġs Ãłng
ĠÄĳi Ãªn
B Ãł
Ġs áº¯p
Ġchá» §
Ġm áº¯t
Ġl Ã²ng
Ch áº¯c
Ġ 6
. "
Ġk iáº¿m
Ġtr Æ°á»Łng
G i
Ä© nh
u n
Ġd á»¥ng
ĠÄĳ a
ĠÄĳ Ãłn
Ġt áºŃp
iáº¿ u
Ġqu Ã¡i
t er
Ġd á»±
Ġ áº£nh
Ġph Ãºt
Ġl á»±c
Ġth Æ°
Ã£ o
Ġb Ã¡c
Ġthá»© c
ĠphÃŃ a
Nh Ã¬n
e ah
Ġkh u
Ġng u
Ġk áº¿
ĠC Ã³
Ġk iá»ĥm
Ġch áº¯n
Ġtr á»Ŀi
á» Ĵ
áº· ng
Ġs ai
) }
Ġ Æ°
Ġlo áº¡i
Ġx ong
Ġb iáº¿n
r a
R á»ĵi
Ġ uá»ĳng
Ġph áº§n
ĠÄĳ iá»ĥm
Ġh á»Ļ
ĠkÃ¬ a
Ġng á»ĵi
Ġtr ÃŃ
á» Ĺ
Ġs áºµn
Ġt á»ķ
i g
Ġd uy
Ġk á»ĥ
r y
Ġ Em
Ġthá» Ń
Ġt Ãłu
Ġm inh
Ã© o
á» ¹
Ng Æ°Æ¡i
Ġ #
ĠS t
C Ã¡m
Ġm á»«ng
Ġkh ÃŃ
Ġth uá»ĳc
Ġtr ung
Ġd á»ħ
á»© a
Ġs á»©c
ĠÄĳ au
T á»ĳt
k e
Ġqu áº£
o h
Ġt á»ĩ
Ch a
Ġthá» ĭ
Ġph á»ĳ
Ġh Æ¡i
Ġh iá»ĩu
Ġph Ã©p
áºŃ m
áº± m
Ġm u
Ġquy á»ģn
Ġch Ã¢n
Ġh á»ĩ
Ġn á»ķi
Ġm á»Ł
Ġt á»¥c
Ãº i
Ġt áº¡o
ĠÄĳá» ©ng
ĠÄĳ á»Ļ
ĠÄĳá» £i
Ã² a
ĠÄĳ Ã´
Ġ ÃŃt
Ġtu áº§n
Ġ ChÃºng
Tr ong
Ġqu Ãªn
o i
t Ã´i
Ġm ua
k h
Ġh iá»ĥm
i r
Ġh uy
Ġd iá»ħn
Ġtr Ã²
Ġph Ã¡
Ġt Ãłi
Ġv Å©
H o
B Ã¢y
ĠC Ã´
Ġ1 0
Ġnh iÃªu
Ġkh á»ĳn
Ġkh iáº¿n
Ġm ay
r an
Ġph á»¥c
Nh Æ°
Ġd áº«n
Ġy Ãªn
Ġká» ³
Ġn a
Ġt uá»ķi
Ġk inh
Ġtr Ã´ng
Ġch ÃŃ
Ġt iÃªu
R áº¥t
Ġd Ã¹
Ġd Ã¢n
Ġh áº¡
Ġtr Ã¡i
Ġm ai
Ġvá» £
a g
Ġth Ã¡ng
Ġn o
Nh anh
Ġg Ã£
Ã³ a
Ġth Ãºc
Ã³ n
ĠÄĳ áº·t
á»Ľ m
Ġqu Ã½
Ġc Ã¡
ĠkhÃ¡c h
2 7
Ġb uá»ķi
ar l
á»¥ i
Ġm áº¡ng
Ġtho áº¡i
Ġt Æ°
Ġtr anh
Ġph áº¡m
Ġh Ã´n
7 9
Ġm Ã¡u
Ġb Ãłi
Ġth Ãº
Ġt iá»ĩt
ÄĲ iá»ģu
Ch Ãºa
Ġ f
Ġt inh
Ã³ m
ĠÄĳ áº·c
Ġy ou
Ġs o
Ġt Ã¹
Ġg Ã¢y
Ġch i
ĠÄĳ Æ¡n
ĠH o
Ġtho Ã¡t
Ġtr Ã¬nh
Ġch Ã³
Ġth áº¯ng
Ġx áº¥u
Ġs e
Æ°á»£ t
i ck
á»Ļ n
Ġs Ã¡ch
Ġt Æ°á»£ng
á» ·
ĠÄĲ Æ°á»£c
ĠM ar
Ġnh iá»ĩm
Ġb Ãłn
a ck
Ġt áº¥n
Ġho áº·c
Ġd anh
Ġxu áº¥t
Ġc Ã¢y
Ã¹ i
Ġ p
Ġt iáº¿n
ÄĲ Ã£
Ġv a
Ġl áº¡c
á»§ ng
Ġth Ãª
á»¯ a
u m
t on
Ġc áº¥p
Ġho áº¡ch
Ġm áºŃt
Ġlu áºŃt
e v
ı i
Ġx á»Ń
r o
ĠC on
Ġt ÃŃ
Ġ Ã¡o
T Ãªn
M Ã¬nh
c e
ar d
uá»ĳ t
Ġr á»Ŀi
á»Ń i
Ġco i
Ġvá» Ŀi
Ġth i
n d
Ġ o
Ġl á»ĩnh
áº¹ n
1 0
Ġth iáº¿t
iÃª ng
Ġth e
á»į c
Ġm áº·c
Ġd á»ĳi
Ġng uy
Ch á»ĭ
Ġh áº¡i
ĠÄĳ Ãª
ÄĲ Æ°a
Ġgi áº£
Ġb Ã¡n
Ġt Ä©nh
Ġ Qu
Ġs á»Ń
ĠÄĳ Ã´i
Ġ Ã
Ãł m
Ng Ãłi
Ġthu áºŃt
ĠÄĳo Ã¡n
v Ãł
Ġh á»©a
i ch
uy áº¿t
s on
Ġph a
Ġgiá»¯ a
k ay
Ġtr á»ĭ
á»§ y
ĠV Ã¢ng
N G
Ġs á»Ľm
Ġt im
in e
Ġm á»Ĺi
S au
Ġkh Ã¡
Ġ ,
Ġh Æ°á»Ľng
H ay
Ġl Æ°á»£ng
Ġm Æ¡
Kh o
Ġd i
Ġph áº£n
Ġm Ã´
Ġtr á»ĳn
į c
Ġ ÃĶng
Ġ -
Ġt áº¿
Ġth áºŃn
Ġv iáº¿t
.. ..
Ġr á»ĳi
ĠÄĳá»ĭ a
á»ķ ng
ĠS ao
Ġchu áº©n
Ġng on
Ġch Ãłng
Ġl iá»ĩu
G Ã¬
Ġc Ã¡nh
t a
Y eah
S áº½
Æ°á»£ u
ĠCh Ãło
Ġl áºŃp
ĠÄĳ Ã¡
Ġngh á»ī
Æ° u
Ġn áº¡n
; #
Ġd áº¥u
Ġnh Ã³c
Ġgi ao
Ġng á»ĳc
Ġh á»ģ
Ġv Ã²ng
Ch Ãº
Ġb Ã³ng
Ġv i
an n
Ġ 7
Ġch Ãºa
Ġ Pháº£i
6 0
f f
Ġh á»ĵ
Ġt Ã¡c
Ġd áºŃy
Ġd á»«ng
Ġb Äĥng
H ai
Ġv iá»ĩn
Ġph Ã¡p
ĠÄĳá» įc
Ġd a
Ġth am
á»ı ng
Ġc Äĥn
Ġl áº¡
Ġgiá» ıi
Ġ 8
a b
24 4
Ġngh iá»ĩp
Ġgi Ãł
Ġ X
Ġph im
oh n
a ll
00 0
á»« a
Ġb ÃŃ
Ġchá» ¯
ĠM á»¹
r i
Ġc Ãłng
á»£ i
ĠC áºŃu
á»ı e
Ġ Ã¡n
ÄĲ áº¿n
Ġngh iá»ĩm
Ġgi Ã¡c
Ġb Æ°á»Ľc
Ġt á»©c
áº· n
Ġm á»¥c
Ġc Æ°á»Ŀi
" .
kh Ã´ng
e w
ĠÄĳ á»Ļc
Ġn áº±m
Ġr Æ°á»£u
Ġs áº¿p
Ġc Ã¡o
Th Æ°a
áº© m
ĠÄĳ áº§y
27 3
Ã³ i
ĠÄĳ Æ°Æ¡
Ġh y
u l
Ġtr ang
Ġk iá»ĥu
ĠG i
áº¡ p
Ġth anh
Ġh áº¡nh
ĠS h
Ġth Ã¹
Æ°á» ¡
T á»«
Ã¨ n
Ã³ t
Ch áº¿t
Ġqu anh
Ġk iáº¿p
B á»Łi
B áº¡n
Ġs uy
e e
Ġth áº¥t
R a
Ġkh á»§ng
ĠÄĳ Ã¹a
D Ã¹
Ġm ong
Ġkh áº£
Ġm á»Ŀi
Ġtr iá»ĩu
ĠÄĳ Ã¡m
ĠÄĳÃ³ ng
iáº¿ ng
Ġlá» Ńa
Ġ Q
Ġg á»Ńi
Ġng á»Ŀ
Ġd Ãłi
Ch u
Ġm Ã£i
t r
Ġr Ã´
á»ī nh
Ġd á»ĭch
Ġm au
Ġho áº¡t
C Å©ng
ĠC Ã¡i
Ġn á»ķ
Ġd Ãłnh
Ġl Ã¡i
Ġr iÃªng
Ġho Ãłng
Ġ á»ª
h o
Ġtiáº¿ c
Ch ÃŃnh
Ġm áº¯n
Ġv Äĥn
Ġcá» ¥
Ġb Ã¡nh
Ġl Ã£
Ġl Å©
Ġb iá»ĥn
Ġs uá»ĳt
V á»Ľi
2 24
Ġs Æ¡
H ey
r is
Ġkh á»ıe
Ġchá»© c
Ġ 9
Ġm Ã³n
Ch á»Ŀ
Ġthu á»Ļc
Ġg áº¯ng
Ġtr áºŃn
i v
Ġ VÃł
Ġth áº³ng
Ġnh áº£y
áº³ n
ĠÄĳá» ¡
Ġqu á»ĳc
Ġch á»ĳng
Ġl y
a p
áº© u
Ġth a
Ġh Ã³a
Ng ay
Ġnh áºŃp
Ã© m
Ġt Æ°Æ¡ng
Ġqu en
T uyá»ĩt
ĠÄĳ áº¡o
ĠmÃł u
d y
' s
Ġgi Ã¡o
áº« u
Ġc Å©
Ġl á»ĭch
á» Ķ
Ġng Äĥn
ĠA l
en n
Ġd áº¡y
Ġbu á»ĵn
a c
Ġh á»ĵi
Ch áº³ng
Ġ U
L áº¡i
Ġ u
Ġgh Ã©t
a k
Ġk iáº¿n
Ġch áº¥t
Ġth uyá»ģn
Æ°á»Ľ p
Ãµ i
D á»«ng
ĠkhÃ³ a
ĠÄĳ áº¡n
Ġho a
ar k
78 4
ĠÄĳ uá»ķi
L Ãºc
Ġb á»©c
Ġl áº¯ng
Ġth iÃªn
Ã¨ o
s e
Ġph i
Ġtr Ã¡ch
N Ãªn
Ġá»ķ ng
2 5
Ġb iÃª
Ġh á»§y
Ġb inh
Ġb á»¯a
Ġb i
Ġtr á»£
Ġng Æ°Æ¡
Ġlá» £i
Ġchá» «ng
Ġv ua
Ġl ÃŃnh
t e
Ġkho áº£ng
ĠÄĲ Ãºng
Ġb an
H Ã´m
O kay
Ġb áº¡i
Ġh a
Ch Ãºc
Ġl áº§m
Ġch ia
Ġd Ã¢y
Ġng uyÃªn
Ġch áº¿
Ġ NÃ³
Ġk Ã©o
Ġc Ã¢
M áº¥y
Ġtr uyá»ģn
C áº£
C oi
Ġgh i
Ã£ n
ĠÄĳ áº£m
Ġh áº¹n
- -
ran k
ĠÄĲ áº¡i
ĠÄĳ em
Ġr Ãłng
Ġk Ã½
Ġ VáºŃy
Ġl á»±a
Ġv Ã¢
áº© y
Ġt Ã¡
Th áº±ng
ĠÄĳ en
Ġc Æ°á»Ľi
Ġth Ã¢
Ġcá» Ń
Ġtr Ã¡nh
N Ãło
ĠvÃł ng
u t
l o
m an
VÃł o
Ġng á»±a
Ġph iá»ģn
Ġch ung
Ġch á»ĵng
Ġph Ã¢n
Ġng Ã´i
á» §a
á»Ļ m
10 60
Ġc Æ°á»Ľp
Ġch áº£
Ġs á»Ł
Ġngh á»ĭ
Ġ Xin
Ġm á»ĳi
Ġc áº¯t
F F
á»ı a
Ġ Ã¢m
Ġ2 0
Ġd Ã¡m
Ch Æ°a
Ġl inh
Ġt i
Ġch áº¥p
Ġl ai
ig h
L áº§n
ĠB r
X em
e b
Ġn á»Ńa
Ġt iá»ĩc
en t
2 3
Ġta i
i p
Ġtr á»«
ĠnÃł ng
Ãº y
Ġv áº¿t
Ġ Kh
Ġqu áº§n
Ġt ÃŃch
M Ãł
Ġth áº§y
u Ã´i
ĠÄĲ á»«ng
Ġr Æ¡i
i an
Ġv Æ°á»£t
Ġnh áº¯c
Ġph Æ°Æ¡ng
Th Ã¬
á» ¡
Kho an
V iá»ĩc
Ġt Ã²a
Ġkh Äĥn
Ġh Ã¡t
ĠTr ung
Th eo
ar ry
Ġl á»ĩ
Ġth uyáº¿t
at h
Ġgi Ã¢y
áº¥ c
Ġt áºŃn
Ġt á»¥i
ĠÄĳ Ã´ng
m m
u d
Ġs Äĥn
ĠÄĲ i
B á»ı
Ġthu áºŃn
Ġc áº§m
Ġh áº³n
Ġv Ã¹ng
ĠT a
B a
Ġk ÃŃch
Ġc Æ°
Ġ Æ¡
o d
m y
o y
Ng Ãły
e g
ĠCh a
Ġso Ã¡t
Ġnghi Ãªm
es s
Ġr áº¯c
a w
Ġt iáº¿t
t y
Ġd á»¯
ĠÄĲ á»©c
Ġbu á»Ļc
Ġh u
ĠJ ohn
ĠÄĳo Ãłn
ĠnÃ³ ng
78 7
Ġph Ãºc
iá»ĩ ng
er s
Ġ NhÆ°ng
Ġm Ã¡i
Ġthá»ĭ t
B áº¯t
Ã¬ a
Ġv Æ¡
Ġ NgÆ°á»Ŀi
Ġn Ã¨
nh Æ°ng
Ġtr á»Ļm
S á»±
B Ã¡c
Ġnh áº¡c
Ġngo áº¡i
Ġy áº¿u
Ġchuy áº¿n
Ġnh á»Ŀ
Ġd Ãµi
Ġt y
Ġthá» ı
Ġs a
or d
iá»ģ m
Ġgi áºŃn
Ġ á»©ng
Ġd u
Ġ (
i on
ĠM áº¹
Ġs u
Ġph Ã¹
Ġm iá»ĩng
ĠÄĲ Ã³
ÄĲ á»ĵ
ĠQ uá»ĳc
Ġs áº£n
Ġm i
Ġch Äĥm
Ġx Ã©t
Ġ Æ°á»Ľc
Ġgi áº¥y
ĠC l
Ìģ .
Ġh Æ°á»Łng
ÄĲ áº¡i
Ġ in
Ġl áº¡nh
Ġqu á»·
Ġt Äĥng
{ \
Ġm á»©c
u á»Ļc
ĠÄĳ áº¿
Ä© a
Ġ ÃŃch
o v
c H
n e
Ġl ÃŃ
Th á»©
Ġlá» ħ
Ġnh Ã³m
on d
Æ ¯
Ġ1 9
Ġs á»Ńa
l er
Ġs Ã¢u
Ġt Ãºi
Ġ Z
Ġc Ãł
V á»ģ
Ġnh a
Ġh Ã¹ng
ĠA n
Ġb om
Ġd iá»ĩn
Ġph á»§
a ch
Ġth iáº¿u
Th áº¥y
Ġd á»ĭ
Tr Æ°á»Ľc
Tr Ã´ng
ĠÄĳ áº±ng
Ġl á»«a
M au
Ġnh áºŃt
U h
ĠtÃŃ n
Ġm Å©
L u
Ġc Æ°ng
Ġd iá»ĩt
Ã² i
Ġkh ai
Ġt Ã³c
ar a
Ġlo áº¡n
ÄĲ á»©ng
Ġt á»īnh
Ġm e
Ġl uyá»ĩn
Ġx Ãºc
ÄĲ á»£i
Ã Ĭ
Ġth áº£
Ġm Ã£
l a
Ġl Ã£o
Ġc áº¡nh
á» ³
Ġn áº·ng
Ġgi áº£n
b er
Ġchá»¯ a
t o
Ġl á»ĳi
Ġvá» ±c
i k
Ġcu ng
ĠÄĳ áº£o
oo d
Ġh á»ĵn
Ã ģ
Ġ Ã¡c
Ġl á»Ļ
ĠÄĳ á»Ļt
Ġthá» ģ
s c
Ġká» ¹
Ġph Ã³ng
Ġs Ã³c
ĠTh áºŃt
T áº¡m
i o
er e
Ġs áº¡ch
Ġc áº©n
á» ľ
igh t
Ġb iá»ĥu
Ġb áºŃn
Ġs ang
Ġ1 2
Ġc Ã¡m
áº§ ng
Ġc uá»ĳn
á»ĵ m
ĠA i
Ġs Ã³t
3 2
Ġth Äĥm
ch Ãºng
Tr Ã¡nh
Ġt á»ĵi
Ġchuy Ãªn
ĠÄĳÃ³ n
á»ĩ t
o g
Ġt áº¥m
Ġh Ã²a
Ġh á»ıng
ĠN ew
Ġ Ã¢
Ġn á»Ĺi
Ġn Ã£o
Ġgi áº¥u
as h
Ġlá»Ľ p
ĠlÃł nh
l y
en d
Ġcá» ±c
Ġx áº¿p
ĠÄĳá» ı
ĠJ o
ĠÄĳo áº¡n
Ġtr áº¡i
c o
Ho áº·c
á»į a
Ġc Æ¡n
g e
Ġl áº·ng
Ġth áºŃm
ĠL u
Ġthu Ãª
c Ã³
s h
Ġtr áº¯ng
Ġlo Ãłi
Ġh áºŃu
ĠL Ãłm
ĠM á»Ļt
Ġk áº¹
Ġng uyá»ĩn
T á»Ľi
Ġk ÃŃ
M uá»ĳn
Ġkh áº©u
Ġn Ãºi
ĠA r
b y
ĠF rank
Ġh áº¡n
l ey
Ġ Ã¡nh
ar t
Ã į
Ġkh áº¯p
Ġx anh
Ġ3 0
Giá» ¯
Ġthá» Ł
Ġdá»± ng
Ch áº¡y
Ġn á»£
Ġnh áº¯n
C Ã´ng
Nh Ãł
g h
Ġm áº¯c
it h
Ġl Ã¡
Ġt Æ°á»Ŀng
S h
Ġhá»Ļ p
e c
Ġ im
Ġch Æ°Æ¡ng
Ġthá»ı a
á»¯ u
Ġ1 5
Ġt á»ĵn
Ġk iá»ĩn
B Ã¬nh
Ġh i
Ġc an
e x
Tr á»Ŀi
Ġk ÃŃnh
ĠÄĳ ÃŃch
C á»ĳ
V áº«n
Ġhuy nh
ĠS am
ĠB áº¯c
Ġtr uy
Ġch im
ĠN am
Th á»±c
ĠT Ã¢y
ĠlÃ£ nh
u b
Ġháº£ o
Giá» ĳng
Ġs ay
Ġt áº¯m
78 9
á»ĭ p
ĠJ ack
Ġs Ã¢n
Ġtr á»±c
Ġt áº§m
Ġthá» «a
ĠC áº£m
Ġc á»Ļng
av e
ĠÄĳ á»ĳng
Ġtá»ķ ng
T in
Ġch áº¡m
Ġqu Ãł
Ġ on
Ġo f
i ke
Ġng áº¡c
ĠquÃ¡ n
R Ãµ
Ġh á»¯u
Ġmu á»Ļn
T Ã¬m
Ġt Ãłn
79 1
Ġr Ãºt
Ġt uy
Ġx Ã¢y
Ġph áºŃn
in a
or k
L áº¥y
Ġb áº¡c
Ġkho a
ĠÄĳ áºŃp
Ġgi áº¥c
ĠNg Ãłi
t or
Ġgi Æ°á»Ŀng
Ġm Ã¹i
á»į t
24 3
Ġt Æ°á»Ľng
Ġh Ãºt
Cá»© u
Ġx inh
Ġnh áº«n
Æ°á»¡ ng
Ġthu a
Ġqu áº£n
Ġt Ã´n
Ġchá» ¥
Ġ áº©n
Ġthá»§ y
Ġm Ãª
ho a
Ġt áº§ng
p er
ĠTh áº¿
Ġt Ã´
Ġth Æ¡
79 0
Ġch áº·t
ĠG Ã¬
Ġng Ãłn
an t
om e
C uá»Ļc
Ġch áº·n
Ġl Æ°u
Ġph Ãª
Ġr á»«ng
Ġnh áº§m
Ġth ang
78 8
Ġd ÃŃnh
o ck
et er
Ġh Ãło
ÄĲ ang
ĠÄĳá» ĩ
Ġb o
Ġkh áº¯c
4 32
Ġt á»Ļc
Æ°á»¡ i
Ġs á»ķ
Ġt áº¡m
o k
n a
T á»ĳi
Ġn uÃ´i
Qu ay
ĠÄĳÃ³ i
Ġtr áº¥n
ĠS c
M ar
Ġd á»įn
a x
Ġ e
e an
áº« y
in d
áº ¢
Ġmu Ã´
Ġl Æ°ng
Ġt á»Ŀ
ĠÄĲ Ã¢y
Ġd Ãłng
Ġ Ã¡p
Ġt Ãºc
Ġkh Ã³c
i f
Ġt ung
Ġb e
Ġlu áºŃn
A h
q u
Ġn á»Ļi
áº· m
B áº£o
B áº¥t
C áº£nh
Ġngh á»ĩ
Ġkh á»ķ
ĠÄĳ Ãłi
Ġngu á»ĵn
Ġng á»«ng
Ġd á»įa
v e
B iáº¿t
ĠA nd
Ġv Ãª
N o
ĠT á»ķng
et h
Ġx á»©ng
Ġph u
Ġv áºŃn
Ġt iá»ĥu
Ġng Ã¢n
Ġ it
o ll
Ġh áº§m
a el
Ġch Æ°
Ġvá» ¡
á»© t
ĠÄĲ á»ĥ
Ġtr áº¡ng
Ġd á»¥c
Ġ Ãºy
ĠÄĳ e
Ġn áº¯m
i z
T iáº¿p
Ġkh iá»ĥn
Ġs iÃªu
Ġ Ã¡
Ġgi Æ¡
an s
Ġho ang
A l
i el
Ġt áº¯t
B áº¯n
Ġkh á»Łi
Ġká» ·
Ġm á»ĩnh
in s
Ġx o
A n
' t
Ġch Ã¡y
Ġtr áº£i
le x
Ġm áº«u
Ġan d
Ġh á»Ĺ
Ġph ong
Ġm Ã¹a
Ġg a
į ng
ĠÄĳ áº©y
K o
L Ãªn
Ġtr á»ħ
Ġt á»ĳc
os s
ĠÄĳ Ã¨n
Ġd Ã²ng
1 2
Ġtr iá»ĥn
ĠC ar
Ġng á»¥c
ĠG r
Ã¹ m
Ġ Ã¡m
Ã¨ m
Ġch e
Ng á»ĵi
G á»įi
á»Ľ t
ĠPh Ã¡p
M á»Ĺi
Ġb á»Ļi
Qu Ã¡
Ġl Ã´
as s
f sc
ĠT áº¡i
ĠNg a
Ä Ĥ
Ġch Ã¬a
Ġgi áº£m
Ġm á»ĩt
an e
ĠO h
T iáº¿n
Ġn inh
c on
Ġch Ã¡n
ĠHo Ãłng
M á»Ł
Ġb áº§u
et t
Ã© n
ĠC Ã¡m
ĠHo a
ĠG iá»
Ġcá»¥ c
Ġt iá»ĩn
Ġn Ã©m
Ġh á»©ng
ĠY ork
Ġngh iÃªn
Ġd ao
Ġd áº·m
Ġtr á»¥
Ġchá»¥ p
an k
ĠH á»į
Ġh áº§u
Ng o
Ġs Ã´ng
Ġth Ã¡i
Ġch Ãºc
á»Ķ n
Ġh á»ķ
us t
Ġb ang
Ġch áº£y
ĠB á»ĳ
ĠN Ãły
at e
n ie
u h
Ġs áº¯c
Ġx ung
c Ã´
Ġt áº·ng
ic e
Ġb Ã²
Ġv inh
Ġk Ãªu
Ch Ãł
l d
Ġtá»ķ n
Ã½ t
T iáº¿ng
l Ãł
am es
Ġv Ä©
Ġc áº¯p
Ġlá» Ĺ
Ġt á»ı
ĠE d
a z
Ġgi Ã¡m
W h
e on
Ġn á»ĳi
Ġch á»ĳi
ĠCh á»ī
G iáº¿t
at t
or n
Ġk im
Ġch áºŃm
á»Ķ ng
ĠmÅ© i
es t
78 5
Ġ 00
ĠS p
C áº©n
Ġ Ã´
ĠCh arl
ĠB a
Ġth iá»ĩu
Ġch iá»ģu
Ġkh Ã¡m
ou r
Ġv Æ°Æ¡ng
Ġr á»Ļng
6 9
ĠÄĳ Ãło
Ġch iáº¿m
Ġto Ã¡n
Ġh Ã£i
Ġn Æ°
ĠÄĳá» ¥
Ġgi am
Ġgh áº¿
Ġt Ã¡n
Ġng Æ°á»£c
Ġh Ã²
C a
Nh á»Ľ
k y
Ġk Ãª
Ãį t
ĠH Ã£y
Ġkho áº£n
Ġth Æ°á»Łng
Ġcáº£ n
C o
Ġm y
ĠC Ã²n
Ġc Ãº
Ġph áº©m
l in
Ġ áº¥n
Ġb Ã¨
Ġ1 1
Ġb á»¥ng
ĠÄĳ á»ĳc
Ġr u
Ġthá» Ŀ
A N
Ġh Æ°
Ġv ai
Ġ1 00
ĠH áº¯n
ĠB ar
ich ael
Ġm á»Ļ
Ġs áº¡n
Ã³ p
N Æ¡i
Ġgi Ã³
ī nh
Ġth Æ°á»£ng
Ġh Ãłi
K áº»
Ġ ÃĿ
Ġx Æ°a
Ġ á»ĳng
Ġchuy Ãª
H iá»ĥu
Ġhá»į p
Ġ 0
Ġkh á»ī
Ġh Ã´
Ġtr Äĥm
ÄĲ Ã¡ng
ĠÄĳá»ĭ ch
ĠT á»Ľ
Ġn Ã´
ÌĢ .
Ġ ÃĶi
Ġnh Ã¢
á»Ľ n
n y
Ġm Ã´ng
Ġl Æ°Æ¡ng
Ġr á»ĵ
ĠL a
ĠTh Ã´i
Ġv áº½
Ġk á»ĭch
Ġnh iá»ħ
Nh iá»ģu
2 2
Ġbá»ĳ n
Ġh áº¡t
Ġl ao
Ġta n
ĠÄĳi Ãª
Ġthá» ķ
ĠD o
Ġh áº¥p
is s
as t
Ġkh iáº¿p
ĠL Ãł
ol d
Ġtr ao
ÄĲ á»Ļi
Ġn iá»ģm
Ġn am
D Ä©
I NG
ĠW h
Ġt áº¡p
Ġg Ãł
c a
ĠM or
eo r
Ġgh Ãª
Gi Ãºp
K á»ĥ
Ġb áº¡o
Ġkh á»©
Ġth ÃŃ
Ġd áº¡ng
ĠÄĳ á»ĳt
ĠÄĳ iá»ĩp
Ġnh áº¹
ĠJ im
Ġkáº¹ t
Ġcá» ¡
H Ã¬nh
ĠB en
re d
Ġngo an
Ġt áº¯c
Ġ j
Ġ ..
... ?
s t
Ġth Ã¡nh
Ġph Ã¡n
Ġth iá»ĩn
Ġ5 0
Ġm áº½
Chu áº©n
2 25
C á»§a
Ġt iÃª
áº ¤
Ġc am
ic a
Ġr á»ĵng
ai re
Ġcá» Ŀ
ĠH ar
Ġph áº¡t
787 1
C Ã¢u
C uá»ĳi
H a
ĠÄĳ eo
on e
Ġw h
ĠT om
Ġc anh
Ġtr á»ĳng
T o
e en
n ow
ĠÄĳÃ¢ m
Ġx uyÃªn
Ġ Náº¿u
I m
Ġs Ã³ng
ĠCh uyá»ĩn
H y
ot t
C l
J ohn
in c
Tr Ãªn
Ġtho áº£i
Ġchu á»Ļt
Ġcá» ©ng
ÄĲ á»§
Ġcá»ķ ng
os e
Ġl áº«n
Ġg o
Æ°á»£ n
ĠY eah
ĠmÃł n
Ġngh á»ģ
C á»ķ
Ġb áº©n
Ġng a
ÄĲ Ã´i
S t
Ġkh uyÃªn
Ġt áº£i
ÌĢ ?
Ġ áº£
or e
Ġng á»įn
Ġgiá» įng
u ck
au l
Ġh iá»ĩp
S áºµn
ĠT á»ĳt
Ġr Äĥng
Ġth áº£m
ĠA m
Ġc áºŃn
Ġs Ã´
Ġx Æ°Æ¡ng
ĠÄĳ ua
v er
ÄĲ áº§u
Ġ1 8
Ġc áº·p
B á»ĭ
ĠÄĳá»¥ ng
Ġd áº§n
Ġk á»ĭp
Ġc Ã¢n
ĠR ob
Ġt Ã³m
ÄĲ o
" ?
Th á»Ŀi
oo k
ĠE l
ĠT H
Ġs h
âĻ «
ĠlÃ£ ng
y n
ĠcÃ³ c
Ġgi Ãłu
m a
Ġs á»©
Ġb Æ¡i
Ġl Ã´i
Ġtr Ã¹ng
Ġd á»¥
Ġt á»ĳ
Ġg áº¥p
ĠT áº¥t
Ġth iá»ĩt
av id
l iv
ÄĤ n
L o
i am
Ġx Ã¢m
ĠÄĳá» ±
* *
? "
ĠÄĳ Ã¡p
ĠM on
ĠÄĳ Ã²i
d o
T á»¥i
Ġv áº©n
Ġm á»ĵm
H áº£
Ġtr Æ°a
á»Ľ p
B Ãªn
T Ã¬nh
ĠM Ãły
Ġkho an
B áº±ng
n er
Ġr Ã¡c
H áº¿t
Ìģ ?
on y
ĠÄĲ Ã´ng
S am
Ġb á»Ŀ
Ġt Æ¡
Ġv Ãµ
Ġthá» £
ĠCh o
Ġ Â
Ġc Ã£i
Ġh á»ĳi
u ll
G áº·p
Ġn Ã¡t
is h
B ao
ĠÄĳ áº¡t
ĠÄĳ u
ĠTh áº§n
Ġl Ã¢
ĠW ill
Ġnh iá»ĩt
Ġm áº£nh
Ġ á»Ĵ
Ġl Ä©nh
ĠÄĳá»© c
ĠÄĳá»± ng
Ġth áº¥p
Ġng á»±c
Tr ung
Ġt Ã¢y
Ġph iáº¿u
N Ã¨
y l
ĠÄĳá»ĵ n
u g
Ġth áº»
Th áº§n
Ġd Æ°Æ¡ng
Ġth ai
Ġnh i
Ġch iáº¿u
ou t
Ġc áº¥t
C H
S á»ĳ
r en
Ġx Ã£
o p
Ġng Ã£
N Äĥm
Ġc áºŃp
B I
Ġv Ã¢ng
ĠNh áºŃt
Ġ Ã©p
Ġ áº¥m
Ġtr eo
er t
Ġr á»Ńa
Æ ł
Ġ '
Ġnhiá»ħ m
Ġgi Ãły
Ġb Ã£i
c y
Ġ á»«
Ġh e
Ġm iá»ħn
ĠW al
ĠTh e
Ch á»Ĺ
ÄĲ Ã¢u
Ġm Ã¨o
Ġ4 0
Ġth áº©m
23 6
Ġcá» Ľ
ann y
Ġu h
Ġv iÃª
ĠC Ã¡c
ĠTr Ã¡i
ĠB l
Ġng Æ¡i
Ġ á»ŀ
ĠCh áº¯c
c áºŃu
n Ã³
Ġkh áº©n
Ġng ang
W ell
Ġs Ã¡u
Ġth Äĥng
ĠB e
C Ã¡ch
J ack
O K
Ġth at
W ow
i b
Ġd ung
ĠlÃł ng
er ry
a ke
Ngh Ä©a
il y
Ġ áº£o
Ġd Å©ng
H i
Ġc Äĥng
B á»Ļ
Ġl ang
Ġth Ã¨m
e p
Th áº£
Ġchá»© a
O k
ÄĲ á»ĵng
ĠR á»ĵi
ĠD an
ĠCh Ã¡u
al e
ĠTh Ã¡i
Ġm Æ°u
Ã£ ng
V áº¥n
m á»Ļt
k i
Ġv á»Ľ
Ġt á»ĳng
ĠC Ã´ng
Ġn iá»ĩm
ĠF l
ĠM c
M áº·c
áº¹ o
áº± n
Ġch áº¥m
Ġtr i
Ġb áº«y
Nh Ã¢n
ĠÄĳ Äĥng
Ġl iá»ģu
Ġg an
Ġho áº¡i
Ġyou r
ĠB Ãł
ĠC á»©
ĠL an
l Ãłm
ĠB ob
A nd
k a
Ġl á»¥c
Ġm áº¡ch
Ġlá» ¡
Ġ is
Æ°á»Ŀ n
X ong
Ġng Ã³n
Ġch Ãª
M á»Ŀi
Th e
Ġg Ã¡c
Ġch ai
Tr áº£
T á»±
W hoa
z a
Ġb iÃªn
Ġtr Ãł
Ġv Ã©
á»Ļ p
er a
Ġph á»©c
ÄĲ Ã¡nh
784 5
r on
Ġb ia
ĠP ar
Ġth Ã¡m
Ġch Ã´n
Ġm Ã¹
Ġ- -
T uy
M Ã¡y
r ow
Ġl Ã¹ng
Ġb áº¿p
Ġh á»ıa
Ġt Æ°á»Ľc
3 0
Ġdo anh
Ġs áº»
Ġng áº¯n
Ġl Æ¡
Ġd á»©t
Ġm Ã´n
ĠV Ã¬
o th
Ġth Ã¡ch
Ġch Äĥ
Th áºŃm
K áº¿t
á» Ĳ
ris t
Ġh iÃª
eor ge
Ġ :
Tr á»«
ĠP eter
Ġhu áº¥n
G áº§n
ĠÃ ģ
Ġtr Ãºng
Ġho áº£ng
Ġlu i
ĠTh iÃªn
Ġtr Äĥng
Ġh ung
Ġng áº¡i
ĠÄĳ iáº¿m
Th áº§y
Ġt Ãºy
Ġm Ã¡t
Ġ á»©c
ad e
Ġl Ã¡t
Ġb Äĥ
G Ã£
Ġ NÃ³i
Ġt Ã¡i
E R
Ġg Æ°Æ¡ng
ic o
ĠÄĳá» īnh
ĠA lex
i Ãªm
Th Ãłnh
J o
V a
Ġb áºŃt
ĠR áº¥t
Ġm Æ°a
u e
Ġl Æ°á»£t
Ch uy
' m
Ġm iáº¿ng
5 0
ĠR e
al d
Ġn áº¥u
ill y
Ġph Ã³
Ġm áº¡o
ev er
Ġhá»į a
ĠÄĳáº¿ m
V á»£
Ã¹ n
Ġl á»Ļn
ĠPh i
T iá»ģn
784 3
Ã£ nh
ĠCh Ã¢u
X e
Ġr Ã¢
Ġx ÃŃ
Ġb Ã¡m
N H
en s
Ġkh a
Ġnh áº¯m
ĠT ao
ĠR a
Ġth áº£o
M ang
S áº¿p
Ġf or
á» µ
Ġt Ã¢
C Ã¹ng
Ã Ĥ
l and
ĠD on
Ġph e
ÌĢ ,
Ġg Ã³c
ĠM a
Ġkh Ã´
Ġ Nghe
á»ĭ nh
Ġchá»ī nh
Ġb Ãª
á»¥ p
ĠB an
Ġth Ã¹ng
Ġ2 4
á»Ĺ ng
N áº±m
Ġt uyÃªn
Ġm o
C áº§n
B u
n ey
ĠÄĳ Ã©o
Th á»Ń
Ġ á»§ng
Ġv u
ĠtÃ¹ y
Ġc áº£i
Ġgi Ã£n
C Æ¡
V Ãłi
Ġcá» ±
it y
Ġn Ã´ng
Ġgi Ãłnh
ĠNh Ãł
Ġ1 4
ĠJ ames
Ġ1 3
Ġbu Ã´n
Ġn Ã£y
ĠV Æ°Æ¡ng
G ia
ĠÄĳ c
Ġl á»ĵ
an a
Ġy eah
Ch iáº¿n
ou se
Ph Ã²ng
F rank
Kh á»ĳn
ĠP r
L Å©
V ui
Ġvá» Ŀ
Ġs áº¯t
ĠJ on
ar y
ĠÄĳ á»Ľn
y d
Ġch Ã³ng
á»ª m
enn y
ran c
ĠB er
ÄĲ áº·c
Ġx á»©
is t
Ġt áº£
ĠC ol
Ġb Ãło
2 0
Ġt á»ī
Äĳ á»ĥ
Ġkh á»ķng
ĠÄĳ áºŃu
ĠGi Ã¡o
Ġm Ã³c
Ġl i
S Æ°
g o
D o
ĠNh a
ĠC arl
L áº¡y
Y ou
Ġh áº£i
I A
Ġx Ã³a
" ,
Ġc á»ĳc
or t
Ġh Äĥ
Ġd Ã¬
M a
Ġch Ã¬m
ĠL ong
c us
Ġl iá»ģn
Ch iáº¿c
ch o
Ġd áº¡o
liv er
Ġd áº§u
ĠA b
25 0
Ġtr á»©ng
Ġtr Æ°Æ¡
B Ã¡o
Ġchá» Ł
Ã ĥ
Ġm á»ĵi
Ġt Ã¡ch
Ġbáº£ ng
Æ°á»Ľ t
i us
Ġph áº«u
Ġm Ã´i
Äĳ Æ°á»£c
Ġm á»¥
ĠÄĲ áº¥t
ĠV ua
22 6
Ġh á»ĵng
Ġm Ã¢
M i
ĠS an
á»§ i
Ġtr Ã¡
Ġnh u
Th Ãªm
ĠK im
Ġc áº¯n
ĠH ai
L a
Ġph á»ıng
Ġch á»Ľ
Ġnh o
B r
Ġthá»ķ i
Ġs á»¹
N Æ°á»Ľc
Ġ2 00
1 7
Ġt á»¥
ĠÄĳ Æ°
Ġh áºŃn
ĠkÃŃ n
Ġg áº¯n
Ġd Ã¢m
Ġng á»¯
ĠSt ark
i er
w ood
in k
ĠK á»³
L áº½
ng el
Ġd áº¹p
Ġqu ang
V á»¥
Ġd á»±a
Ġtr áº§n
i x
Ġg áº¥u
Ġb Ã£o
ÄĲ Ãªm
ĠÄĳ áº¥m
á»ĭ a
Ġm á»Ļng
ĠB á»Ļ
e et
Ġb Ã´
785 3
d ie
Ġph iÃªn
A R
Ġng á»įt
1 1
Ġng uyá»ģn
Qu Ã¢n
A r
Ġkh Ã¡t
Äĳ Ã³
ing ton
Ġtr Ã¬
Ġtr Ã´i
Ġk Ä©
ĠW il
Ġtuy áº¿n
M ay
T ay
L Ã¹i
Ġh Ã©t
á»ĭ t
ĠC al
Ġm Æ°á»£n
Ġt á»ĳn
á»ĳ m
Ġa h
ÄĲ Æ°á»Ŀng
Ġgi Ã¡n
Ġd Æ°
ĠH á»Ļi
Kh á»ī
n áº¿u
it a
E d
Ġn iÃªn
ĠH arry
Ġgh Ã©
J im
Ġt Ã¡o
Ġs Ãłn
ĠM á»įi
V Ã´
K iá»ĥm
Ġ Ã³c
O N
Ġc áº¥m
Ġnh iÃª
ĠG re
Ġ1 6
H Ãłng
ĠÄĳ uÃ´i
ĠL iÃªn
Ġr áº¯n
Ph á»¥
áº¢ nh
Ġtr Æ°á»£t
U á»ĳng
ĠM ichael
ĠC r
ĠD e
Ġh Ã¨
ÄĲ áº¥y
Ġnh á»¥c
ag g
Ġm Ã²
Ġd Ã²
á»Ł m
ai l
Ġ Ã´m
Ġ2 5
Ġng áº§m
w ay
Ġh Ã²n
á»ĩ n
Äĳ i
Ġth áºŃp
ĠM er
Ġb Ãły
Ġl Æ°á»¡i
Ġch iÃª
ĠA d
ĠCh u
Ġqu Ãª
Ġk now
Ġkhi Ãªu
L iá»ĩu
ĠT uyá»ĩt
Ġcá»Ľ m
it e
fsc x
fsc y
1 9
Ġl Ã´ng
Ġg Ã£y
k o
áº« m
H Æ¡n
Lu Ã´n
ĠF BI
Ngo Ãłi
Ġquy á»ĥn
Ġ1 7
H mm
T áºŃp
ĠÃ ĩ
Kho áº£ng
os h
Ġs t
To Ãłn
B iáº¿n
Ġb Æ¡
b o
Â ¿
Ġthá» ¥
Ġl iá»ĩt
ar ah
s a
' re
T u
Ġph Ã¡o
ĠC H
Ġt á»§
Ġl eo
Ġm anh
p e
ĠM ike
en e
Ġkhu Ã´n
Ġv á»Ļi
th Ã¬
Ġt uyáº¿t
Ġth áº£i
Ġtr áº¡m
or y
ĠA ll
Ġv Ã¢y
Ġg á»ĳc
Ġh Ã¨n
ou s
Ġcá» Ł
Ch arl
ĠCharl ie
A m
Ho Ãłn
Ġh áº¡ng
Ġn á»ģn
T iá»ĥu
Ġ ÃĢ
Ġm Ã¬
Ġcá» ı
ĠGiá» Ŀ
ag e
Ġn Ã¢ng
as on
ph áº£i
ob ot
uy nh
Ngh Ä©
ĠO r
ĠCh ÃŃnh
ĠPar is
U m
Ġw e
Ġs Ã³i
á»ģ m
ĠTh Ã¡nh
L á»ĳi
L Ã£o
i re
Ġhuy áº¿t
788 9
Ġngh iá»ĩn
Ġtr Æ¡
Ġchá» £
Ġm Äĥ
ic tor
t in
Ġt Æ°Æ¡i
Ġkh Ã¡ng
Ìī .
ell e
Ġo kay
Ġl Ã¹i
Ch i
Ġm áº¿n
Ġm áºŃp
ĠT áº¡m
ow n
ro do
R áº±ng
Ġkh Ã´n
Ġkh Ã¹ng
Ġm áº¡n
Ġcá»Ł i
áº ¾
Ġn Æ°á»Ľng
ĠR ach
N Ãłng
ĠG od
ÄĲ áº¹p
Ġ ung
ev in
ÃŃ n
áº¤ n
78 79
s y
ĠÄĳ uá»ĳi
Ġth Ã´
Ġtr o
784 1
ĠÄĳ áº§n
ĠÄĳ iá»ĩu
ĠÄĲ Æ°a
ĠC am
ob b
r ey
ÄĲ á»ĳi
S Ã¡ng
ĠTh Æ°á»£ng
Ġbá»ı ng
Ġk i
es ter
ou g
Ġb Ã´ng
Ġ Nhá»¯ng
a ce
ĠM Ã£
ĠÃ Ĥ
it t
or g
S u
Ġd á»Ł
ĠH ay
ĠH y
6 69
o x
K áº¿
Ġl Äĥ
ĠÄĳ ÃŃt
ol m
Ġb á»ķ
Ġm á»ıi
Ġnh á»ĳt
ĠH e
ĠT u
Ġh Ã´i
Ġm á»ĵ
en a
ĠD avid
H e
ĠCl aire
C áº§m
Ġm áº¡c
Ġg Ã³i
D áº¡
Ġm an
Ġs á»¯a
ĠN o
as e
Ġn Ãºt
Ġb y
ri an
ranc is
ĠR oss
d a
Ġv ÃŃ
Ġph Ã¡i
FF FF
H áº¡
Ġk em
Ġn áº¡
Ġh Ã¢n
Ch Æ¡i
Th Ã´ng
ĠB Ã¡c
Ġ6 0
Ġb á»¥i
Ġnh Ã¡t
K Ã©o
áº¿ m
ĠE r
ick y
Ġx áº¡
x i
Ġc Æ°Æ¡ng
C Ã¢
Ġs á»ĳt
Ġkh á»ĳi
ĠT iÃªn
H áº¹n
ĠR ay
L E
O R
i et
Ġk iÃªn
ĠB Ã¬nh
ou ld
Ph áº§n
ĠI n
Ġcu Ã´
Ġtho áº£ng
ĠCh Æ°a
; .
S c
Ġtr á»«ng
k er
1 5
Ġk á»ī
I N
d er
Ġl Ã²
Ġch á»įc
ĠJo e
ĠT V
Ġth iÃªu
Ġgi Ã¡p
ĠCh Ãºc
790 1
ĠTh Æ°a
Qu Ãªn
ell o
Ġr Å©
Ġa ll
Th uyá»ģn
Ġta ng
Ġh ang
ĠN á»¯
Ġt á»·
¡ n
ĠP et
ĠTr á»Ŀi
ĠG eorge
Ã ľ
Ġh Ãª
Ġqu áº£ng
Ġl an
Ġb áº¯c
Ġb Ã³p
Ġbá»ĳ c
en ry
ĠNh anh
Ch áº£
ĠS m
ich ard
Ġch Äĥng
Ġb ar
Ġ10 60
g iá»
v an
Ġh iáº¿n
ĠM ax
ad a
Ã ĵ
T om
ng Æ°á»Ŀi
Ġth Ã¡p
Ġm Ã©t
p p
ĠÄĳ Ä©a
Ġh eo
ĠB á»įn
Æ°á»Ł i
! "
Ġng áº¯m
a in
l es
Ġk Ã©m
ev e
m er
M á»¥c
Th anh
Ġm iá»ģn
M áº·t
Ġb á»ĵi
am a
ar e
Ġl Ãª
ĠK at
Ìģ ,
Ġd Ã¢u
Ng á»§
' ll
Ġtr Ã²n
á»¥ y
in o
Ġl áº»
Ġh Æ°Æ¡ng
... "
ĠC áº£nh
ĠNh Ã¬n
ĠÃ °
5 6
C ar
Ã Į
iel d
and a
D Ã¹ng
á» ¦
ch á»ī
ĠÄĳá»ģ n
A L
r ie
id e
Ġhá»Ĺ n
Y Ãªu
Ġv Ã£i
Ġlá» £
Ġc Æ°á»£c
Ġbáº£ y
ĠL au
ath an
Ġkáº¹ o
h Ã£y
L á»Ŀi
Ġt á»Łm
Äĳ Ã¢y
Ġxo ay
Ġvá» ©
c Ã¡i
ir o
Ġng Å©
ĠP ark
Ġd Ã¡ng
ĠM Ã¬nh
B á»ĩnh
Ġru á»Ļt
Ġv Ã¢n
ĠRach el
M áº¥t
Ġt iá»ĩm
Ġth á»ĳi
Ġk iÃª
Ġto a
ap p
1 000
ĠM al
T á»ķng
Ġm á»ı
Ġ á»ĳm
Ġgi ai
ond on
Ġ Ã¢n
Ġm á»ģm
Ġb Ã¡u
Th Æ°
D on
S áº¯p
Ġmu á»Ļi
ĠE ll
Ġvá»© t
Ġgi áºŃt
ou nd
M u
X uá»ĳng
b a
ir us
Ġl e
Ġx Ã³m
Ġqu Ã©t
Gi Ã¡o
g i
h h
Ġ Khi
ĠT y
b ie
Ġ $
u z
ĠCh áº¿t
Ġh uá»ĳng
ĠT Æ°
Ġcá»© t
ĠÄĳá»ĵ i
ell a
Ġu p
Ġc á»Ļt
or a
Ġcu á»ĵng
ÄĲ Æ°Æ¡
Ġx ÃŃch
l i
áºŃ c
Ġv á»¯ng
Äĳ Ãºng
ÃŃ a
Qu a
Ġti Ãªm
b ur
Ġc Ã¡t
Ġng Ã´n
Ġsu Ã½t
y an
Ġt á»ĭch
Ġk á»ĩ
ĠI s
Ġw ith
ĠA ngel
Ġc ai
ng h
lo ck
" ...
Ġl áº§u
ĠM an
Äĳ á»«ng
ĠB áº¡n
Ġg á»£i
tr ong
Ġd Ä©
ĠTh uyá»ģn
it z
Ġm Æ°á»Ŀi
Ġtr Ãłn
ĠÄĲ iá»ģu
Ġl ong
ÄĲ áº·t
ĠM in
B en
Ġg á»Łi
ĠÄĳ áº¡p
A lex
Th ay
Qu áº£
Ġh iáº¿p
ĠNh Æ°
V á»«a
Ġtr uyá»ĩn
Ġvá» ı
Ġt Ãłng
ĠCh Ãº
G h
Qu an
Ġg á»¥c
Ġt Ãª
Ġch Ã¢u
Ġd Æ°á»Ŀng
Ġth is
and y
23 4
H iá»ĩn
Ġh iáº¿m
Ġchá»§ ng
l or
Ġd Ã£
Gi áº£i
P eter
Ġkh ÃŃch
Ġd iá»ĩu
ĠMar y
ĠH am
ĠP aul
Ġb á»ĳi
Ġkho Ã¡c
ĠMar k
Ġg Äĥ
ĠB arry
ĠL ou
is e
4 5
Ġv áº§y
re w
ath er
ĠÄĳ áº»
Ġn Ãª
Ġgiá» ¡n
H áº§u
ĠT Ãªn
ĠT iáº¿n
Ġtr Ã³i
Ì£ .
os t
C K
ĠT R
ex ico
Ġx á»ī
ĠI m
all y
ĠÆ° u
Ġnh áº£m
Tr á»Ł
er n
ĠTh Ãłnh
v Ã¬
ĠH áº£i
it ch
s ao
Ġth áº¯c
Ġth iá»ĩp
Ġlá» ģ
ĠCh á»ĭ
ing s
S p
e ed
ĠTr ong
Ġlá»£ n
r ick
Ġv Ã¡y
ĠL ee
Ġg á»Ĺ
7 0
A S
Ġv iá»ħn
Ġg á»ĳi
Ġr o
Ġr Äĥ
ĠL ondon
2 1
787 5
ĠJ ul
ĠTr áº¯ng
789 7
Ġth Ã¡o
Kh u
Ġl áº·n
Ġng áº©n
Ġm Ã£n
Ġn á»Ļp
er y
Ġ0 1
N Ãª
ĠÄĲ Ã£
al f
T H
Ã Ĵ
Ġ Ngh
Ġb á»ĵ
ĠbÃ© o
Ġtr á»¥c
Ġv Æ°á»Ŀn
ÄĲ Æ°
on s
us s
th Æ°a
H uynh
I á»
and ler
ĠH ey
ĠG ar
ĠC a
Ġkho ang
Ġtu Ã¢n
ĠÄĳ Ãłng
Ġh uyá»ģn
u p
Ġtr Ãºc
Ġn Æ°Æ¡ng
ĠS im
B l
Ġv á»ĳn
ĠT á»Ń
Ġngh Ã¬n
á»Ľ c
ĠPh il
787 3
Ġth an
Ġcá» §
Ġchu Ã´ng
ĠLu c
Ġ âĻ«
Ġv Ä©nh
Ġph o
ra g
Ho Ãłng
ĠSt e
Ġs á»¥p
Ġg á»¡
Ġnh ÃŃ
H uh
ÄĲ á»©a
1 3
Ġb á»±c
Ch á»§
ly n
n et
s u
b l
Ġg Ã¡nh
Ġd e
ĠC o
ĠM r
or m
Ġr ight
ber t
Äĳ Ã£
x in
Ġt Ã²
E A
ĠÄĲ á»ĵng
Ġquy áº¿n
ĠkhÃ³ i
ĠGi Ã¡ng
K iá»ĥu
Ġ Æ°a
ĠS Ä©
ĠP at
Ġth ao
Ġb á»±
Ġg á»ĵm
Ġgh en
oll y
2 27
er o
Ġt Ã¹ng
Ġgi Ãª
es e
ĠM exico
Th iÃªn
Ġr áº»
Ch Ãłng
Ġqu á»¹
Ġng Æ°
Ġk e
Ġn á»¥
ĠJ e
Ġsá»£ i
Lo áº¡i
Ġng á»Ľ
Ġd Æ°á»¡ng
M ichael
C Ãºt
Ġth iáº¿p
ĠC ap
ell y
Ġg Ã³p
Tr Ã¡i
is a
Ġd Ãły
iá»ħ u
ĠD ave
1 6
h á»į
ĠM ay
Ġch áº¥n
Gi Æ¡
H áº³n
y e
C áº§u
Ġt Æ°Æ¡
ĠJim my
B Ãłi
â Ģ
ĠB ro
ig g
ÄĲ áº±ng
ĠB ill
Ġng Æ°á»¡ng
D i
v a
Ġcá» «
Ġtr Ãº
789 9
ĠÄĲ Ã´
ĠÄĳ Æ°Æ¡ng
ĠS inh
Æ¯ á»Ľc
Ġb Ã¢
áº¿ ch
ĠH ouse
ĠNh Ã¢n
V i
Ch á»ĵng
Ġx Äĥng
ch er
Ġnh Ãłng
Ġcá» Ĺ
Ġlo áº¡t
Ġsu áº¥t
Ġnh Æ¡
ĠM o
Ġv oi
Ġm Ã¡
L Ã¢u
Ġb á»ĩ
ĠD a
ĠF rancis
ĠH á»ĵng
Ġkho áº»
ÄĲÃ³ ng
D áºŃy
Ġs Æ¡n
ĠE n
Th Ã¢
ĠCh á»Ŀ
Qu Ã½
B áº£n
ĠJo ey
Ġngh Ã¨o
ĠT ony
H arry
ĠÄĳ Ã²n
Ġg ot
Ġd on
, ...
D á»ħ
ĠÄĳ áº¯n
Ġch ui
ĠV al
Kh Ã¡
ĠS e
u ch
ĠSh er
nh á»¯ng
Ġng á»Ńi
ĠÃĤ u
m e
Ġl Ã³t
re e
Ġ i
áº ¬
áº ł
ĠÄĳ Æ¡
Ġa re
ou gh
f ield
Ġch Ã´
in ch
is ter
Ġt Ã¡m
Ġb á»ģ
Ġn áº¯ng
ĠJ ake
ĠO liver
ĠdÃ¹ m
C Ã¢m
H á»ıi
B ob
Ġl Ã©n
Ġg áº¡t
Ġd áº¡
ĠD ar
áº» o
E L
M m
Ġv ong
Ġb á»įc
Ġthá» ī
ĠH áº£
Ġkho Ã¡
Ġc áº¯m
ann ah
790 7
H á»ĵi
v áºŃy
Ġch iÃªu
Ġb áºŃc
791 3
Ġ áº¤n
in n
ĠC IA
and er
) \
V Ã¢
ill e
Ġb á»Ľt
Ġnh e
Ġm á»įc
ĠcÆ¡ m
d e
c Ã¡c
Ġ out
ĠM at
c t
Ġph á»ķi
Ġx Ã©
om as
in i
ĠT e
Ġho Ãłi
1 4
ĠchÃŃ n
D á»ĭch
Ġb iá»ĩn
ash ington
V á»ĭ
M Ã´
S o
g er
o eb
Ġw as
Ġc áºŃy
Ġl Æ°á»£c
E l
W ill
Ġl áº¡y
Ġkho áº£nh
ĠN ick
um b
6 7
m Ãł
ar s
Ġcam era
1 8
Th uá»ĳc
Giá» ıi
h a
Ġnh á»ĭp
C á»Ńa
w ard
27 2
Ġt áº¡
Ġh ave
ĠTh anh
Ġr obot
ĠB áº£o
th ur
ip p
B iÃªn
Ġthá»ī u
Ġr Ãło
Ġtr Ã¹m
Ng on
Ġt Ã¢n
Ġng Ãło
Ġr áº½
ÄĲ á»ĩ
ĠG l
ĠTh Ã¬
791 1
Ġ á»ĵn
C Ã¡
l an
r om
2 9
ÄĲ a
á»¥ t
ĠQu Ã¢n
Ġl áº·p
Ġh Æ°á»Ľc
Ġr á»§a
B uá»ķi
Ġ Æ°á»Ľt
ĠD Æ°Æ¡ng
ĠH iá»ĩp
ĠD el
ĠRob ert
x y
Å© i
ĠW e
Ġch á»ĳt
Nh áº£y
Ġ [
Ġkh á»Ľp
) .
Ġl Æ°á»Ľi
id eo
Ġv o
Ġwh at
Ġv irus
Ġh Ãł
B Æ°á»Ľc
ĠÄĳ Ãłm
Ġl Æ°
am e
Ġ5 00
Ġtuy á»ĥn
Ġn ot
T á»ĩ
Ch Ã³
u k
ĠÄĳ iá»ĥn
Ġch Ã³c
ĠT ed
ĠJ es
Ġl au
Ġt á»ıa
Ġtr á»¯
Ġbu Ã½t
áº¹ t
ĠC an
T Ãłu
ĠS o
Ġv e
Ġb áº¿n
om an
Ġs Æ°á»Ľng
Ġtr u
Nh áº¥t
g g
s áº½
y r
Ġng Ãłnh
Ch Ã¢n
ĠÂ ½
Ġ ]
ĠT im
re ll
kh i
i es
Ġhá»ĩ t
te in
M mm
f ord
Ġt ia
Ġn Ã´n
Wh at
H Ãłnh
o e
į t
Nh iá»ĩm
Lu áºŃt
ĠWill iam
ÄĲ Æ¡n
il ey
ĠM ill
ĠB ur
ĠD anny
ĠR ed
E N
K at
ud dy
ĠJon es
m ond
Ġm á»Ŀ
ar on
Ġc á»ĳng
e el
Ġh Ã¢m
uy áº¿n
Ġl á»ĳ
Ġng Ã´
er on
G r
ĠM áº·t
ĠU h
C arl
N a
Æ¯ á»ľ
M á»Ľi
Ġph áº¥n
Ġd áº¯t
ĠCh rist
ĠR am
ĠÄĳo áº¡t
4 0
D Ã¬
h ay
Ġth Ã¡c
3 6
Ġph á»ĳi
z o
Ġl ike
ĠT o
Ġnh Ã¡
Ġngo Ã¡i
Ġ8 0
A ah
T á»«ng
Ġb á»ĥ
Ġ4 5
ĠQu een
789 1
Ġra d
ĠSc ott
P H
ar ta
ĠW ashington
A T
T Ã¹
h mm
Ġb Ã³
ĠS au
Ġph Ã´
or s
Tr Ã²
th er
ĠS áº½
il e
s s
ĠS ch
Ġth Äĥ
ind a
Ġm á»Ľ
Ġr á»Ļn
Ġd áº¡i
ĠL o
f e
ĠÄĳ Ã¡o
Ġb á»į
Ġcáº£ ng
ĠM au
ĠÄĳá»© t
ee p
v in
Ġs á»ĳc
ĠR on
Ġng áºŃp
nh Æ°
ĠD á»ĭch
Ġch Ã©p
ÄĲ em
D an
Ġb áº¯p
Ġtr inh
Ġv ang
ĠCh á»§
ag n
ĠMar tin
Ġb Ãºt
ĠO kay
Æ°Æ¡ m
ĠT ur
ĠCh ris
g an
ĠÄĳ áº¡c
Ġl á»ĵng
Ġb á»ĵn
ÄĲ iá»ĩn
Ġchá» ķ
ĠM ur
Ġho áº¡n
y a
Ġr Ã¢u
Ġgi u
Ra ch
r id
ĠÄĳ áº£ng
ĠS arah
A U
Ġth Ãł
er m
Ġw hoa
K im
Ġtr Ã¡ng
Ġng áº¯t
ĠM e
ĠR o
ĠTh iáº¿u
ĠV ictor
1 00
H Æ¡i
Ġh Æ°u
ĠL áº¡p
ĠN or
ol a
bl ur
G H
ĠS u
Ġc Ã¢m
Ġm á»ķ
ĠA t
Ġt áº£ng
Ġa l
Ġd Ã¢
ĠÄĲ á»ĵ
ĠL e
Ġg á»įn
is on
Ġc Ã²
Ġc áº¡n
B ay
ĠS ara
n es
s p
Ġv á»Ł
ĠM ac
ĠH a
th áºŃt
c ia
Ġv Æ°
ĠK inh
Ġkh Ãºc
g ar
ÄĲ Æ°Æ¡ng
á»ģ u
and alf
C Æ°ng
T á»ķ
Ġm Æ°Æ¡i
Ġh ÃŃt
ÄĲ Ãłn
Ġgi áº·t
ĠB Ã¢y
ĠY ou
T im
em an
ĠR ichard
78 69
D avid
Ġr un
Ġcu á»Ļn
Ġc Æ°á»Ŀng
Ġng Æ°ng
ĠM inh
ll y
Cl aire
on t
ĠB á»ı
us h
L iÃªn
Ġ um
ĠR Ãµ
et te
S Ãºng
e z
ÄĲ Ã¡m
ai t
B Ã¡nh
a a
w n
Ġs ong
ĠM il
Ġgh Ã©p
T Æ°á»Ľng
Ġv an
Ġkh en
Ġg áºŃy
ĠS ky
ĠEd die
r el
Ġc Æ°á»¡ng
Ġd Ã£y
ĠT ay
ĠK ar
% .
u ce
Ġd Ãª
ĠA v
ol e
Ġt Ã©
ĠÄĳá»Ļ n
4 2
Ġc áº¥u
Ġl á»ıng
ĠF rodo
R ob
Ġv áº£
Ġr á»Ĺng
Ġcá»¥ t
Â ¶
ÄĲ Ãª
ÄĲ au
Ġx áº¿
Ġngo a
Ġv áº¯ng
Kh Ã³
ÃĶ NG
ĠD á»«ng
ad y
Ġn á»Ĺ
Ġth áº¯t
at ion
R I
Ġv Ã¡n
Ġp in
Ġthu áº¿
Ġn á»ĳt
en ce
ĠTh á»§
ĠJ ane
ĠW at
J ames
ĠÄĲ áº¿n
B o
L Ã½
ĠC as
N á»¯
s an
Ġta xi
Ġd Ãłn
ĠT á»±
Ġ2 1
ĠCharl es
ĠxÃŃ u
ĠL áº¡i
ĠD oug
al i
Ġ ong
Ġnh áº¡y
ĠH á»ıa
T áº¯t
á» ĺ
ĠM i
v á»Ľi
Ġj ust
D Æ°á»Ľi
Ġl Ã¢m
Ġm Ã³ng
A ll
ÄĲ á»©c
ag o
Ġng á»įc
Ġx Ã¬
ĠnhÃ© t
Gi Ã¡
oeb e
ĠÄĳ áº¯t
ĠP H
B ar
S inh
Ġc Ãłi
ÄĲ u
E S
Ġchu á»Ļc
r ic
Ġd á»Ĺ
Ġ3 00
C Äĥn
Ġn á»į
ĠM ad
Ġg et
th an
un d
cH FF
Ġv ideo
ĠTh eo
ra z
ay ne
ĠCh iáº¿n
W e
Ġ {\
Ġk iá»ĩt
Ġx Ãłi
ĠÄĲ Æ°á»Ŀng
Ġk Ã©t
, "
H ar
ĠC á»§a
Ng u
ĠR ome
ĠÄĳáº¿ ch
L au
Ġch Äĥn
Ġthu áº§n
T á»Ļi
ĠT or
ĠB ut
Ġ1 000
ĠV iá»ĩt
i ff
Th iáº¿u
ĠTom my
Ġs i
am p
ĠO k
S á»ĳng
Ġtr iá»ģu
ĠÄĳÃ£ i
ĠG ia
Ġlo ve
e ck
Ġch Ãł
ĠS al
ph a
ĠF or
Ngo áº¡i
4 17
o ung
788 5
R e
Ġr e
ord on
ĠAn na
H á»Ļi
Ġ á»Ŀ
w en
ĠÄĳi nh
Ġgi ang
Y es
Ġx Äĥm
ĠT á»«
ĠÄĲ ang
Ġh á»ĳ
Th ÃŃch
Ġá»« m
. :
B á»¯a
m Ãły
ĠS ub
am b
B Ã¡m
Ġg Ãµ
ĠC oi
er son
Ġho Ã¡
Ġh iá»ģn
ĠP al
Â ī
Ġt iá»ģm
Ġb Ã¡
Ngh iÃªm
W al
Ġx Ã´ng
ĠT á»ĳi
ĠkÃª nh
Ġb áº§y
Ġd Æ°á»£c
ĠNg Ãły
av is
áº¥ ng
ĠM att
u el
ĠD om
ĠK y
e k
R O
Ġn uá»ĳt
Ġr Æ°á»¡i
ĠC á»Ļng
ĠN Äĥm
Ġgi Ã¹m
Ġnh áº·t
R Ãºt
T Æ°á»Łng
Ġd á»įc
c Ã²n
Ġc Æ°á»¡i
Ġtr áºŃt
á»ĥ m
Ġkho Ã¡i
iv e
ist an
ĠH enry
ĠP er
ol n
nd er
Ã£ m
ĠcÃ´ n
Ġ2 2
£ t
Ġhu á»·
Ġho Ã£n
iz za
ĠDan iel
Ġl Äĥn
Ġh ey
Nh á»Ŀ
Al Ã´
ĠÄĳ ai
B an
Ġt Äĥm
ĠH áº¡
Ġkh áº¥u
Ġnh áº¥n
R A
X Ã¡c
Ġqu áº¥y
ĠV an
M Ã³n
t á»Ľ
ĠT ex
ĠV á»ģ
Ġbu Ã´ng
id a
um an
Ġcá»« u
Ġs á»Ŀ
á»± u
ĠÃł h
H á»ĩ
Ġm á»±c
Ġxu Ã¢n
5 7
M ax
Ġ4 8
785 5
P S
Ã ¤
v ey
Ġr áº£nh
ĠH an
ĠH el
Ph ÃŃa
Ìī ?
ĠTh á»ĳng
B á»ĳn
Ġl Ã¹n
Ġtr á»Ļn
ĠT Æ°á»Ľng
Ġtr Æ°ng
ĠC ity
Ġhá»į ng
ĠBl ack
olm es
ĠD u
ĠB illy
ĠS ong
ĠW ell
Ġt á»ĥ
Ġv áº·t
Ph a
ĠL y
Charl ie
á»ĭ n
om b
Ġ9 0
ĠN H
ĠFl or
p t
Ġqu á»³
ĠH ank
ĠK H
ĠF red
Ġc áº¡o
Ġl áºŃt
ou l
ĠEm ily
Ġb Ã£
Ġr ung
ĠK evin
ann a
i i
Ġb Ã¹
Ġg Æ°Æ¡m
M on
Ġch Ã©n
C u
Ã ±
Ġ2 3
th áº¿
ĠO K
Ã Ļ
ĠM os
M Ã¡u
ï ¼
Kh Ã¡ch
Th u
inc oln
M ike
Â ¡
ĠC Å©ng
ĠA sh
A d
G á»Ńi
M ai
Y Ãªn
Ġk iá»ĩm
Ph i
Ġh áº±ng
Ch á»©
Ġra nh
Ġdo wn
ĠÄĳ Äĥ
Ġx Ã¡
L ÃŃnh
ĠÄĲ á»ĭa
et ty
ĠCh andler
Ho a
Ġt iá»ħn
Ġm áº¡i
Ġs Äĥ
ĠL ann
Ġdá»ĭ p
A b
Ġm Ã¢y
ĠAd am
M ong
Ġa t
ĠTh á»©
ĠÄĳ Ã¡y
Ġl Äĥng
Ġch Ã©m
Ġr á»ī
Ġlo a
Ġthu á»·
Ġon e
Ġb áº»
ĠCar ol
i um
Ġto Ãł
I t
I áº¾
c el
ĠL inh
ĠV Å©
I S
N A
Ġt áºŃt
ĠTh áº±ng
Ġkho ai
Gi áº£
Ġ7 0
á»¡ i
ĠMon ica
7 5
t áº¥t
Ġ ÃĶ
ĠÄĳ Ãł
ÄĲ á»Ļng
Ġx Ãł
Ng á»«ng
Ġn áº¡p
Ġ Khoan
ĠR os
ĠNg Æ°Æ¡i
ab lo
C Ã¢y
Ġth Ã¢m
Ġth áº§m
Ġth áº¡ch
Ìģ !
ĠH obb
Ġr Æ°á»Łi
ĠB áº£n
ĠK ing
et a
av en
Ġ oh
y m
ai r
ur t
ot ch
4 8
d en
Ġnh á»Ł
ec ca
ol f
Ġthá» īnh
á»µ t
ĠTex as
M á»«ng
j a
Ġb áº¡ch
Ġd Æ¡
ĠÄĲ á»Ļi
ĠJ ess
ĠB ao
ĠS Æ°
Rach el
Ġxu Ã´
m áº¹
Ġv áº¡n
ĠL ang
ĠPh Ã²ng
M áº¯t
ĠV inc
Ġcá»± u
Ġrad io
Ġt á»ĭ
Ġt áº©y
ĠSt eve
Ġth Ã©p
D a
e il
Ġl áº¯p
ĠC á»±c
ĠH Ãłn
ĠCh áº³ng
l at
Ġx á»Ļn
ĠNg ay
' ve
s ter
Th Æ°á»Ŀng
M an
ou n
Ġr á»§i
ĠR oy
ic ago
Ġ: .
c á»§a
h áº¯n
Ġch Ã¢m
Ġn Ã£
Ġs ung
Ġr á»Ľt
12 0
K inh
Tu áº§n
âĢ ĵ
ĠÄĳ áºŃy
Th a
790 3
th a
ol as
ad o
1 10
Ġgi áº£ng
f t
Ġkh áº£o
ĠC Æ¡
ĠM áº¥y
Ġmu Ã´n
I C
Ġ *
Ġk iÃªu
arl ett
Ġv áº¥t
uy Ãª
ĠF el
Ġl Ã¢y
Ġbu á»ĵng
ĠSh aw
Chuy áº¿n
Å© a
ĠVÃł o
H Ã³a
g a
Ġnh Ã£
Ġa b
Ġgi Æ°
ĠA h
Ìĥ .
ĠU nder
Bu Ã´ng
eg as
ash a
Ġt áº§u
ĠM y
Wh oo
Ġ á»§y
om p
ĠW all
M o
Ã ļ
Ġch áº±m
Ġm á»ī
Ġph iÃªu
ĠJ u
C á»Łi
Ġg Ãłi
Ġph un
Ġquy Ãª
th ew
/ /
j i
ĠT iá»ĥu
es ar
ĠPh Æ°Æ¡ng
ta in
ĠJohn ny
S á»©c
ĠWil son
Â °
ĠB rian
J ul
Ġm Ãºa
Ġb á»Ļt
at ar
M r
O liver
791 5
Ãª nh
ĠS Æ¡n
ĠÄĲ á»Ļ
Ġw ant
orn ia
M e
ĠS av
ĠR og
R ay
r á»ĵi
Ġt áº©u
ĠÄĳ áº³ng
ĠF r
Jo ey
J es
Ġs Ãºc
ĠC or
ĠD áº¡
ĠW in
ĠPh ong
ĠCá»© u
C áº¯t
Ġvá»ĭ t
giá» Ŀ
H Æ°á»Ľng
T á»īnh
l ing
Ġn on
Ġx Æ°á»Łng
Ã ¥
ĠÄĳ iáº¿u
ĠÄĳá» Ĺ
ĠH áº¯c
Ġtho a
H ello
V ua
if ornia
m á»įi
Ġ ever
Ġt áº£n
T Ã³m
ĠC á»ķ
ĠV á»Ľi
ĠN G
ĠWal ter
h am
ĠK áº»
ra ce
ian a
ĠthÆ¡ m
Q uy
T Ã´
ÄĲ Ã´
Ġ2 8
M Æ°á»Ŀi
ĠH un
ĠK o
3 3
9 9
Ġl á»į
Ġth Ã³i
ac ob
( \
Ġ Ã¡i
ÄĲ Ã¹a
in ce
ĠB áº¯t
Ġp r
ĠQu an
C Ãłng
t ao
Ġh ere
Ch á»«ng
Ġd Ã¢ng
Ġs Ã©t
Ġs áº¹o
S á»£
Ġl Å©ng
ĠnÃ³ n
oo dy
id eon
6 56
K iáº¿m
e ar
Ġth Æ°Æ¡
Ho an
Ġth iÃªng
Ġs Ã¡nh
on a
ĠB á»Łi
ĠTh áº¥y
ton e
Ġ z
ĠC áº£
ĠK r
ĠF ar
ur a
Ġph Ãº
in t
Nh áº¯c
Ġhu h
á»Ĳ i
Ġt Ã¡t
on ey
ĠD r
O oh
Ġh im
Ġtr ÃŃch
ĠH u
ĠD un
ĠJack son
H Ã´n
O w
Ġ ....
á» ¨
ĠH olmes
ĠL os
ĠV áº«n
ĠsÆ° u
ust in
ĠL or
it ler
ter p
qu e
n Ã³i
Ġc Äĥm
Ġl á»Ļt
Ġm uá»ĳi
au s
Tr áºŃn
ĠTh u
Ġth ere
Ġd iÃª
ĠH Ãł
ĠH ill
Ġlá»ģ u
ĠB o
Th á»īnh
Nh áºŃn
Ph Ã¡t
ĠA p
Ġ4 2
ĠLann ister
ĠBe ck
agg ie
N ick
n Ãły
Ġtr Ã¢n
Ġa s
Th Ãº
Th iáº¿t
ĠTh omas
ĠR ick
ĠU n
E ll
Ġl á»įc
Ġng áº«u
Tr Æ°á»Ŀng
Ġká» µ
ĠAl ice
Chuy á»ĥn
ĠSm ith
B arry
M iá»ħn
Ġs á»į
Ġnh áº±m
ĠÄĲ áº§u
V Å©
z z
Ġh iá»ĥn
ĠTr Ã´ng
us an
Ġw ill
Ġlá» Ŀ
S A
T ony
Ġb l
ĠH aw
am i
am in
Lu c
ĠAnd y
n Ãªn
is k
791 9
E T
k ins
Ġch iÃªn
Ġk Ã¨n
ĠM eg
ĠH iá»ĥu
ĠCh icago
8 0
Ġnh á»ĩn
ĠW ayne
ĠY i
Ġdá»ĭ u
Ġch ua
Ġa m
at es
Ġchu á»ĵng
z e
on na
ĠÄĲ á»£i
ia s
ĠJ an
Há»į c
ĠJe ff
J on
Ġkh á»Ń
Ġg á»Ľm
Ġba by
itt le
á» Ĭ
Ġm á»¹
... !
Ġbá»ĭ ch
ĠL eon
ĠR ock
ĠT in
er r
our ne
; ?
c an
ĠN athan
ĠR yan
0 3
Ġl áº¯c
Ġh am
Ġtr á»ĵng
Ġgi Ã¡ng
ĠB u
784 7
Jim my
H á»©a
J ake
Ġth Æ°á»Ľc
Ġ3 9
p s
Ãº m
ĠTr Ã¡nh
w in
Ġ á»§i
Ġs p
Ġb anh
Ġtr Æ°Æ¡ng
ĠK en
Ġchu á»Ĺi
ath y
D Æ°á»Ŀng
e us
an ce
ot ter
TÃ¹ y
ĠL i
ĠW ard
ran t
ev en
Ġn áº¿m
Ġtr Ã¨o
ÄĲ á»ĭnh
as ter
ann e
Mar y
Ġd áºŃp
Y o
on nie
Ġqu áºŃn
Ġkhi nh
Ngh á»ī
Ġvi Ãªm
L A
L inh
S á»Ľm
Ġs áº£nh
ph Ãª
ĠnÃł n
Nh Ã³c
ĠR iley
Ġse e
ĠÄĳ ÃŃnh
Ġv áº¹n
ess a
Ġb Ãºp
ĠJ am
ĠSt r
Iá» Ĩ
8 7
Ġv áº¡ch
et e
Ġt Ã´ng
Ġo k
Ġr á»£
Ġd á»Ļi
Ġqu ÃŃ
ĠAr thur
2 6
Ġc l
Ġr Ã¨n
Ã² m
ĠB ang
enn is
Th á»§
ÌĢ ...
ĠL Ã½
ĠGre g
B á»©c
K á»ĩ
T ÃŃnh
T áº¥n
Ġc á»ĳt
ĠÄĳ Ã¨
Ġng áº¥t
ĠT Ã¬nh
Ġg ay
Th Ã¡nh
at er
ab eth
ord an
ÄĲo Ã¡n
Ġh á»Ł
D u
Ġch Ãły
ÄĲ á»įc
5 00
t áº¡i
Ã Ĳ
Ġch Ä©a
ĠM iss
Ġtho áº£
D Ã¢n
q ui
Ġt Ã¨
Ġl iá»ħu
Ġchu á»ĵn
S arah
Ġc Ãºi
ĠC áºŃp
ĠS w
it an
oo per
M ark
c Å©ng
Ġc Ã²ng
Ġkh á»ıa
Ġ3 6
G o
Ã ī
Ġl Ã¡o
Ġtr áº§m
L ui
T Ãłi
Ġs Æ°á»Ŀn
Ġqu Ã£ng
ĠS áºµn
ir k
ĠWh ite
b e
ch e
ĠT á»Ľi
N áº¯m
Ġ uy
Ġb Ã¹a
Ġs Ãª
d on
Ġh ack
enn a
ian o
ĠMill er
V áº¿t
y o
Ġ us
Ġkhi Ãª
Sh h
G eorge
Ġt ui
Ġl áº¥p
ĠT áºŃp
ĠTh or
An na
ĠLou is
I n
b áº¡n
Ġt áº·c
Ġn ÃŃt
Ġkh Ã´i
ÄĲ iá»ĥm
ĠN a
to p
Ġk y
Ġs áºŃp
Ġh Ã£ng
ĠlÃł n
Ġngh á»ĭch
ĠSc ot
2 8
Ġkh Æ¡i
Ġh Ãłm
ĠS now
Ġho Ãł
Ph ong
ri k
T ai
Ġh Ã£nh
Ġd Ã¡n
ch a
ĠS a
or ld
ĠJ er
ĠM m
ion a
Ġc Ãºp
Ġch inh
Ġgiá» įt
ĠMor gan
Ġch á»Ľp
th ing
ol o
ĠO m
ĠNg o
K ia
ak er
C Ã¡nh
F rodo
L eo
Ġv ay
ĠÄĲ o
Ġlu ng
Äĳ áº¿n
ĠCal ifornia
áº¬ T
á» ļ
Ġr á»ĳt
Th Æ°á»£ng
ĠB os
ĠH all
4 4
D anny
ĠUnder wood
R oss
ĠÄĳá» £t
k in
Ġl áºŃn
Ãº n
at a
Ġn Ã¢u
Ph u
ĠD i
00 00
ĠG al
eet a
Æ¯á»ľ NG
agn ar
C am
M Ã¹i
Ġv áº£i
Th o
ĠC ast
Ġchuy á»ģn
ber g
L Ã¡i
ĠB al
ĠG ordon
Ġbu á»ĵm
Ġb áº¥m
Ġnh Ã¬
ÄĲ á»ĭa
ĠM uá»ĳn
ĠÄĳ á»ĳ
em y
ĠB oy
ĠD ean
ĠÄĳo an
B ÃŃ
S im
Ġ =
Ġn ow
Ã© c
ĠH or
ank s
O n
Ã Ĩ
Ġkh ao
Ġr á»ĥ
ĠT am
Mu á»Ļi
9 1
D á»±
Ġr á»Ĺi
arta cus
Ġch á»ĳn
Ġnh Æ°á»Ŀng
ÄĲ iÃªn
ĠCh i
ĠV egas
Ġk áº¹p
Ch áºŃm
Ġqu áº§y
ĠS n
ĠL incoln
Qu á»·
ĠMar ty
Jo e
ĠPet e
I M
l Ã´
Ġtr e
Ġph á»ķ
Ġchá» Ń
Th á»Ł
Ġho an
ren ce
C Æ°á»Ŀi
ĠA my
ĠPark er
Ġc áº¥y
áº» m
ĠBob by
V iÃªn
ĠÄĳ Å©a
ĠS and
ĠH er
im a
Ġth iá»ĥu
Ġa r
ĠM el
ot te
ĠMon t
Ġl Ã¡nh
Nh Ã³m
Ng Ã´i
ĠA s
Ġ3 5
Ġk Ã¨m
ĠPh im
Æł n
Ġkh áº³ng
ch uyá»ĩn
ĠÄĲ á»©ng
ĠI t
ĠAngel es
R Æ°á»£u
T Ã³c
Ġ á»Ķn
Ġh Ã¢
Ġg en
Ng uyÃªn
Ġ2 7
23 7
S uá»ĳt
T Æ°
Ġx áº£
ĠS áº¿p
iz abeth
X u
Ġ Ã´i
Ġm oi
Ġh Ã£m
Ġcho Ãłng
Ġf rom
eor g
ĠÄĲ á»ı
S ai
Ġkh Ã¡n
Ch ris
Gi ao
ather ine
4 3
N Ã©m
Ġm Ã²n
ĠW est
c á»©
Ch Æ°Æ¡ng
ĠC á»ĳ
ĠV i
ud e
Ġr Ã¡ch
ĠH ow
ĠG h
ĠP e
ĠE v
ose ph
Ġs áº¯m
S Æ¡
C Ãºi
I I
Ġkh iáº¿u
Th iá»ĩt
79 21
um p
Ġxá»ī n
ĠSher lock
H á»ĵ
ĠÄĲ Ãªm
ĠMar ia
Ġp izza
Ġtim e
C ao
M Ãłu
Ġx Ã´
78 6
B ill
r áº¥t
Ġ á»ľ
Ġh áº¡m
is co
ĠÃ Ĭ
ĠGiá» ¯
B áº£
o c
ĠM ich
V ictor
h uh
Ġl áº©n
ĠJes us
v n
w ell
ĠÄĳ Ä©
Ġth ey
Kh á»ıe
ĠR u
ĠN ik
ag h
Ġab out
i ra
Ġc áº·n
Ġh Æ°Æ¡
ĠT Ãłu
D anh
ĠH annah
Ġkho e
ĠKh u
Ġc ome
Ġng Ã¢y
ĠJ ean
at ch
Ġw eb
ĠÃ ļ
H u
L áº¡
Ġd áº·n
ĠÄĲ áº¿
H Äĥ
H enry
ĠR iv
Ãģ o
D áº¥u
Ġx Ã¡ch
Ġvá» Ĺ
ell er
ÃĬ N
K evin
Ġnh áº¡t
ĠM ed
im e
at s
ĠP an
Ġp l
Ġm iá»ĩn
Ġb Æ°á»Ľ
ĠB ol
el ia
ĠTH U
ĠChu áº©n
Ch á»įn
ĠB ond
ĠD Ä©
et ro
Ġs Ã¡o
Ġy á»ĥm
ĠU S
oth am
u re
Ġ Ãªm
ĠS l
ĠS iÃªu
Ġf eet
ĠBer lin
C al
K ÃŃnh
ĠL áº¥y
S ara
ĠÄĳ Ã¡i
Ġkh Ã©o
it s
ĠQu á»·
ĠBr own
J e
r ad
Ġc Ã´i
Ch á»©ng
Em ily
ĠGi Ã¡m
ĠbÆ¡ m
T Ã¢
d ore
Ġkh ung
ĠS ar
Ph Æ°Æ¡ng
ĠÄĲ á»§
ĠL eo
ĠL Ã¢m
ĠV Ã´
B Ãłn
Ġc Ãµi
Ġx Æ°ng
Ġqu áº·c
ĠmÃł ng
ĠP o
ĠGre en
ngh e
R á»ĳt
Ġv Ãº
Ġn á»Ł
Ġb Ã¹ng
Ġd ay
Kh á»Łi
u c
Ch Ã¬a
uy a
788 3
ĠAnd rew
ĠWell s
Äĳ ang
ab y
ĠWal ker
" !
t á»«
Ġs á»ī
Ġg Ã¢
ar i
ĠX em
M áº¡nh
ĠÄĳ áº½
ĠM á»Ł
Ġkhu áº©n
ĠFl ash
ĠAv atar
Ngu á»ĵn
8 8
E V
b end
l áº¡i
ĠB áº¯n
D Ã¡m
c áº£m
Ġv uá»ĳt
ĠB ay
ot o
ra c
ho áº·c
C O
I L
ĠN Ãło
ĠTr iá»ģu
Ġtuy Ãª
T á»©c
Ġch áº©n
ang e
Nh áº¯m
or th
ĠTh áº§y
ĠP otter
Ġbu Ã´
ĠNh áº«n
ĠCar ter
c olm
Ġb áºŃy
ph y
Ġqu áºŃy
ar th
ĠMar cus
ĠWin ter
K H
U Y
Ġth áº¥u
Ġg ood
Ġg onna
an o
ĠC áº©n
im us
ĠF inch
Ġng á»Ļt
ÄĲ á»ģu
Th á»©c
ĠB iáº¿t
Ġnhu áºŃn
LE S
Ġt áº§n
Ġm á»ıng
Ġng á»Ļ
ĠH itler
ĠW hoa
re am
ĠO s
ir g
á»¦ y
T Æ°Æ¡ng
ĠS Æ¡
ĠD or
ĠN az
3 7
m en
n or
v ille
Ġca fe
67 2
b á»ĳ
ĠB enn
ĠÃł o
app y
B Ã³ng
S Ã¡u
á» ¤
Ġc áº©u
ch Ã¡u
ĠÄĲ Ã¢u
et to
Ġthá»§ ng
Ġkhu áº¥t
Ġl áºŃu
Ġh Ã´ng
Ġtr á»įn
Ġph Ãłn
ch an
ĠT Æ°á»Ŀng
ĠD eb
ĠR ose
5 5
Ġn eed
Ġs Ã´i
Ġr áº¡p
Ġph Ã¢
Ġem ail
Ġ4 3
ul a
P D
Ġt Ãºng
Ġm áº»
D ave
ĠÄ Ĥ
Ġng áº¡o
Th i
ĠM Ã´n
Ġbá»ĭ a
Gi Ã¡m
ĠSt an
v en
Ġnh á»ķ
ĠB áº£y
ĠD en
ĠAll en
Ġd id
ĠBr uce
C Ãł
Ġg ai
Ġnh áº¥c
ÄĲ uá»ķi
Ġra u
ĠJ ason
ig an
ff rey
ac y
Ġl Æ°á»£n
ĠÄĲ áº·c
ah am
Ġ3 7
ov e
ĠGr ay
Ngo an
C ome
ĠTh á»§y
Ġchá»¥ c
Bu á»ĵn
ĠÄĳ áº¯m
nh Ã¬n
Ġs oi
Ch rist
ĠR om
Ġf an
M ua
V ÃŃ
a e
Ġch Æ¡
Ġh áº¹p
Ġthá»ĭ nh
ĠHobb it
C Æ¡n
L ou
Ġh Æ¡
P aul
Ġth ung
Ġb Ãłng
Ġkh á»Ŀ
cH FFFF
ĠEd ward
c áº£
Ġc ould
Ġtr Ãªu
em o
ĠP ablo
ĠHar ris
ĠRob in
Am en
b Ãł
Â §
and o
ter net
9 0
z y
ĠTh á»ķ
ff ff
ri el
Sh er
Ġtá»ī a
D e
Ġ **
Ġc Æ°Æ¡
ĠÄĳ am
Ġng á»±
ĠG á»įi
Ġw ay
ĠtÃŃ m
D á»įn
T áº¡
r am
Ġxo a
ĠOr c
Ġth iÃª
H el
ĠÄĲ iá»ĩn
ĠH áºŃu
ĠSt ar
Ġf eel
2 00
M er
T y
V á»Ľ
Ġt H
Ġn Æ°Æ¡
Ġn áº¥p
Ġb Ãºa
ĠS á»±
ĠK ate
ard o
Ġo xy
w ich
th Ã´i
N Ã¢ng
S m
U N
o ot
Ġ á»ĳc
Ġt á»įa
ai sy
ĠB at
ĠG andalf
ĠTh iáº¿t
at al
Ġru á»ĵi
ĠCan ada
P r
S e
ĠTr Æ°á»Łng
ĠPh áºŃt
kh o
Ġn áº¥m
ĠT Ã¬m
ĠR uss
ĠI nd
Ġ4 00
ĠSc arlett
Ġl á»įt
Ġb Ã¹n
ĠL iz
Ġto i
9 5
k m
ĠV á»¥
ÃĤ m
B Ã´
Ġk m
Ġr á»±c
Ġgi Ã¢
Th á»ıa
es h
ĠLuc as
L á»ĩnh
b á»įn
f red
nh anh
Ġkh á»ĳng
Ġkhi Ãªn
og an
ĠBos ton
0 4
D áº«n
v es
Ġkh Ã¡i
ĠV á»ĩ
Ġbu t
Ġng áºŃm
Ġd á»ĵn
Ng uy
er g
ĠS á»Ł
ĠS ean
ĠL Ãºc
ĠTr áº§n
24 2
Ġba ck
ĠQu Ã¡
Â £
Ġc ay
Ġngh iá»ĩt
ĠC Ã¢m
E r
V Ã²ng
s au
Ġng ai
ÄĲ áº¥t
ĠC ao
ĠB Ã³ng
ĠG en
th áº±ng
il d
. ,
I s
b le
v á»ģ
Ġ if
Ġn Ã¡o
ĠT á»ķ
ĠH á»ķ
ur y
ĠWal t
Sc ott
b s
Ch Äĥ
ĠL Ãªn
ĠSim on
s ki
ĠÄĳ áº§m
Ġx ui
Ġqu Äĥng
Th Ãª
ĠM u
ĠH Ã´m
ĠD NA
á» °
ĠB ell
ĠCh uck
Ph áº£n
ĠTr Æ°á»Ŀng
.... ....
D om
S uy
Ġ Æ¯
ph en
Ġd uyÃªn
ĠCh áº¡y
ĠG otham
ĠY oung
ew is
F BI
á» Ģ
Ġg áº¡ch
ĠlÃŃ u
ĠEr ic
3 5
T iÃªu
o on
Ch á»¥p
ĠÄĲ en
ĠR ey
Ãģ nh
Ġk iá»ģm
ĠH á»ĵi
ic ity
V Äĥn
j u
Ġt Ãł
Ġth Ã©t
Ġkh e
ĠQu ay
Ġ7 5
if e
G re
Ġd á»Ŀi
Ġgi Ã´
ĠPh oebe
h e
k es
ĠÄĳ iá»ģn
Ġm en
ĠS ant
4 7
B á»ĩ
Ġc Ãºt
Ġth ink
Ġn áº£y
Ġr Æ¡
Ng Æ°Æ¡
ĠTh á»ĭ
ur i
Ġl am
ÄĲ á»ķi
ĠnÃ³ c
ĠG ro
T ed
á» ¢
Ġngh iá»ģn
Th Ã¢n
ĠJ acob
Ġphá»¥ ng
ĠmÃ£ nh
M Ã¹a
w a
Ġg Å©i
ĠM Ã¡y
Äĳ iá»ģu
co field
ĠMat thew
oul son
Ġth áº¯n
Ġng Æ¡
ĠT iáº¿p
ĠB or
or p
ĠG áº·p
ĠHar vey
Ġv áº§n
ĠS Ã¡u
ĠA f
ĠE than
Ġso áº¡n
cH F
ĠLu ke
P er
v Ãło
Â º
Ġx i
Qu á»³
it o
ĠTr Ãªn
ĠHo lly
ans lat
ĠSav age
A w
S T
n ess
Ġl Æ°á»Ľt
Ġnh ÃŃch
Ġcá» į
ar g
Giá» įng
un e
Tom my
V Æ°Æ¡ng
Ġv á»ĵ
Ġn á»Ļ
Kh á»ıi
B ut
B ye
H ow
Ġs Ã²ng
Ġtr áº·c
Ġnhiá»ħ u
M y
s en
ĠU m
ent ine
ĠCl ay
ull y
Ġever y
Ġb Ã¡t
Ġx Ã³t
ch i
ĠB á»©c
Giá»¯ a
yn c
H Ã¢n
I T
L Ã£nh
U CK
n old
Ġh is
ĠB á»ĭ
ĠL at
ĠJ ay
ĠK e
Ġxu Ã´i
ĠX u
ak u
H ouse
ĠS y
ĠS on
ĠF ran
av o
ĠX ong
ĠGr ey
ous ton
ĠÄĳá» ±c
ĠTh á»¥y
ĠR oman
il bo
la ke
F el
L e
b r
el f
ĠLu Ã¢n
uz z
B Äĥng
C Æ°
R am
Ġs Æ°Æ¡ng
Ġs Ãºp
ph ia
oh an
M Ã£
O L
an cy
au se
Ng a
ĠB áº¥t
Ġ2 6
al a
tr al
' d
áº ¦
Ġn Ã©t
.. ...
ĠH uy
ĠR áºŃp
yd ia
Ed die
ĠbÆ°á»Ľ m
K á»³
R ichard
d i
h an
Ġvá»¥ n
ĠAl pha
l ad
v is
Ġs á»«ng
Ph Ã¡
Ġxu áº©n
ra el
H ank
Ġn á»©t
ĠH i
Ġchi p
Ġlá»ĩ ch
ĠAn nie
Dan iel
terp ris
J an
Ġ Kho
Th Ã¡ng
Th at
ch áº¯c
el e
E O
ĠÄĳ Ã¹i
Ġs Ã¢m
Ġnh Ãºc
ĠC ass
á»£ m
ĠJ oy
Ġthu Ã´
ĠK ai
ĠE sc
Uh m
Gh i
3 9
H á»£p
Ġch Ã¢
Ġd á»ĳc
Ġu Ã½
l et
Ġc Ã
Kh iáº¿n
ĠT er
Ġh Ãłn
Ġnh áº¡o
ĠT Ã²a
or ry
Ġ4 6
ĠX Ã´
Su Ã½t
Ġláº» n
H iá»ĩp
Ġh on
Th á»ĭ
ĠB á»ĩ
ic an
Rob ert
C uá»ĳn
U S
Ġc Ã²i
Ġl Ãµi
ÄĲ áº©y
A M
b i
m s
Ġkh Ã¢u
Ġh iáº¿u
ĠT inh
Ph Ã¢n
Ġw ould
AL L
3 8
L y
M att
N á»Ńa
Ġc Ã¡u
Ġch Ã¬
Ġx Ã´i
ich olas
ond or
ĠAn ton
Q uyáº¿t
ĠL inda
ĠG ood
ĠEm ma
Mon ica
G ar
p o
Ġc m
Kh Ã³a
ĠL Ã£nh
R oy
f ell
Ġn áº¡t
Ġkh iáº¿t
Ġph áº¿t
ĠS er
ĠTy ler
Ġchá»Ń i
4 1
B Ã¡n
Q uyá»ģn
Ġh Ã²ng
Ġg Äĥng
ĠS il
ĠD ory
ĠG u
ĠX e
ĠBr ad
ash i
iam i
c ow
o dy
Ġc Ã¡n
Ġb Ã³c
Ġph áº¿
ÄĲ Ã¡
ÄĲ á»Ŀi
ĠB ourne
ĠCh un
ĠL Ã£o
ĠA g
ĠP ep
St eve
M al
n iss
Ġnh ai
ĠG rant
Qu áº§n
ow er
if er
Ad am
J ane
M c
Ġ un
Ġv Ã£
Ġb Æ°
ĠgÃ¬ n
ĠM Ä©
ĠV iá»ĩc
Ġdo áº¡
Ġtho Ã¡ng
)} ...
' .
b on
k s
Ġk á»ģ
in dy
ĠM ag
ĠCh ase
ĠL aw
ĠN Æ°á»Ľc
ĠN ap
ĠBr ook
umb le
C r
D oug
E n
T i
t á»ĳt
Ġv áº«y
Ġx Ã¡m
ĠM ia
ĠÄĲ Ãłi
or i
ĠPh u
ĠCl ark
ec tor
cHFFFF FF
M at
y s
Ġn áº¿n
Ġb áº§m
Ġng áº§u
Ġph Æ¡i
Ch áº¥t
au gh
Ġho Ãłnh
ĠR agnar
ol t
Ġ4 9
ir d
ÄĲá»ĩ ch
c er
y att
Ġ áº¢
an i
Th áº¯ng
ĠÄĲ áº£ng
ĠV irg
ill a
29 7
ĠFlor ida
Ġs Æ°á»Łi
Ġng á»£i
Ġqu e
ĠG ideon
ĠR á»ĵng
ri x
Â ©
Ġh Ã¡i
Ġh áº»m
Ch im
ĠB iÃªn
ĠL áº§n
ĠA ng
Ġtu á»ĩ
arl ing
ĠTed dy
B A
N ew
g Ã¬
Ġt Ã½
in es
ĠM olly
ui ll
Ġwh en
B áºŃt
L Ã²ng
r l
Ã ĳ
Kh áº£
ĠM ai
ĠN ic
ĠWat son
P at
Ġch Ã´m
Ġnh Ã¡y
Ìģ ...
ĠG eorg
id d
se i
ĠCl ar
. '
B illy
C ung
W il
Ġl áº«y
Ġn ever
Ġd Æ°a
Ġqu áº¡
ch u
ĠP ro
Ġ9 11
aw a
C á»¥c
M AN
Ġnh á»ĭ
Ġtr Æ¡n
Ch ia
Ġcu a
A lo
C á»Ļng
Ġx áº»
ĠT Ã´
Ġbá»ĭ t
ĠV áº¥n
et s
it ol
H iá»ĩu
M á»¥
ph ie
ĠM ik
ĠB ing
Ġan y
ĠVinc ent
0 1
S ky
r ich
Ġnh Ã£n
Ġtr á»į
ĠC uá»Ļc
ĠS áº¯t
Ġbáº£ nh
ĠR and
ĠlÃ£ m
att an
R ick
Ġt e
Ġkh uyáº¿n
Ġs ome
ÄĲ á»¡
ĠB inh
ĠH á»ĵ
bur g
AU GH
Ġc Ã¡p
á»« m
ĠB Ã¡
ĠS un
es a
ĠJ osh
ot e
Ġw ell
Gi áº¥y
Lo Ãłi
B e
S á»Ł
Ġtr Ã¡n
Ġthá» ±
ĠS ol
Ph Ã³ng
ĠL isa
ĠNg á»ĵi
ag ol
ĠWh it
ĠTHU áº¬T
H D
Ġc ong
Ġr áº§y
ĠB au
ĠB áº±ng
ĠB eth
ĠSt orm
ĠQ U
ent in
4 6
K en
d ay
ĠÄĳ iáº¿c
Ġl Æ°á»Ŀi
Ġtr Æ°á»£ng
an y
in ia
Th Ã¡m
ĠH á»įc
Ãµ m
ĠI ris
ob ar
od d
ĠHar old
T S
j amin
Ìī ,
Tr ang
ĠV ui
Qu Ã¡i
id er
D á»±a
Ġ á»Ľt
Ġb Æ°u
Ġs and
ĠÄĳÃ£ ng
ie d
Ġn u
Ġs om
ĠCh Ã¢n
Su á»µt
ĠFrancis co
áºł I
m i
Ġch Æ°á»Ľc
Ġv Æ°á»Ľng
ĠM ord
ĠN á»Ļi
ĠQu Ã½
ĠRay mond
Xu áº¥t
E C
l as
Ġm Æ°
Ġtr Ãło
ĠC oll
ĠS ing
Tr á»ĳn
Ġma ke
ĠBar b
oth er
sa ac
4 9
D ean
T Äĥng
b á»Łi
h ai
ng ay
Ġl áº¡m
an c
ĠF itz
ĠLu cy
L á»Ĺi
t i
Ġn áº¯p
Ġnh Ã¡nh
Ġr oi
ĠM aggie
ĠD ol
ĠA th
ĠP ier
Ġp iano
eb ecca
3 1
N am
T Æ¯á»ľNG
l ine
m p
Ã ĸ
Ġl Ãºt
Ġnh Ãºng
Ġnh áº½
Ġd Æ°Æ¡
ĠM iami
am m
Ġ2 9
ou th
ĠÄĳo a
B Ã©
N á»Ĺi
ĠT Ãło
ĠR eg
el y
Ġc H
Ġnh á»ĵi
ĠG ary
ĠJ erry
Ġse x
ĠBar nes
Charl es
t Ãªn
Ġ áº©m
Ġt á»§y
ĠD ra
Äĳ á»ĵ
r ing
Ġn ight
Ġg áº§y
ĠC á»¥c
ĠK n
Ġw ho
ec t
Al ice
Ġhe art
ĠTe am
A C
Ġv Ã£n
Ġh er
Ġph iáº¿n
ay a
ĠC L
ĠS ung
Ph im
Tr uyá»ģn
ip s
G andalf
Ġch Ã¨o
Ġb Ã´i
Ġng áº§n
ĠT á»Ļc
el and
ĠE ver
Ġxo Ã¡y
Will iam
ĠTur ner
ĠPal mer
T inh
Ġb us
Ġh á»ķng
Ġng á»¥
at ron
Ġo ff
ind er
ĠGiá» ĳng
S ean
Ġn Äĥ
Ġg áº§m
Ġr Ã¹a
Ġd inh
ĠM ick
ĠG all
ed y
ĠRe ese
B rian
M áº¡ng
T Ã¢m
X Ã©t
m Ã¬nh
Â ¾
Ġb áº¿
Ġkh uya
ĠC Ã¢u
anh attan
Ġlo ok
ic ia
ĠÄĳÆ°Æ¡ c
And y
ĠKat ie
" Â
K K
r u
Ġ en
Ġv Ã¡c
Ġv Ã¡ch
Ġv Ã²i
Ng áº¡c
ĠV iÃªn
av er
Ġ15 0
Ah h
8 3
K Ãªu
M eg
n t
p y
Ġl Æ°á»¡ng
Ġb á»Ĺng
Ġx en
ĠC áº§u
ĠB áº¡ch
ĠÄĲ á»ĩ
ĠH á»£p
Ġ6 7
ĠSt one
ĠSan ta
ĠJes se
rid ge
H ÃŃt
R á»Ŀi
áº ®
Ġl en
Ġth áº¹n
Ġv iáº¿ng
Ġm Ã¡nh
Ġm á»¡
Ġb Ã¬
Ġg Ãło
Ġnh Æ°á»£ng
Ġnh á»±a
Ġr á»¡
Ġph anh
ĠÄĲ Æ°
ĠTh á»Ŀi
ĠN e
ĠNg uyÃªn
Ġ6 42
ok yo
ĠEn terpris
ĠS á»ĳ
ĠAl b
ĠAn n
Ġbo ong
ok i
D O
w o
Ġn á»ģ
Ġph áºŃt
Ġx áº£o
ĠÄĲ Ã´n
ĠMar ie
A NG
c tor
ĠÄĳ ao
ĠE van
ĠNg á»§
D ar
M art
p r
Ġ á»Ķng
Ġc om
Ġv áº¡t
Ġr i
Nh áº¹
ĠD avis
ĠR en
ĠN Ãªn
C as
M áºŃt
S an
Ġc ar
Chuy Ãª
: .
J ess
c ul
Ġch á»ĵn
Ġb á»«a
Ġd Æ°ng
Ġngh Ãªnh
ĠM ir
ĠL ily
ĠW ow
Ġ5 5
iv i
D N
T áº§ng
Ġ or
ĠJ oseph
il a
Ġ9 9
ĠVÃł ng
D Ã¢y
S a
Ã ©ng
Ġ our
Ġn á»ĵng
Ġph iá»ĩn
ĠC at
ĠC ooper
ĠH Ã¬nh
ĠD ur
ĠG o
áº³ m
ï¼ Ł
ĠGray son
C áº¡n
G ood
S I
T Ã²a
Ġl iÃªng
Ġgiá» Ł
ch á»ĭ
ĠB oo
ĠH ong
Ph oebe
ĠJ ordan
ĠF iona
le ase
ip er
ĠLan ce
L á»±c
p ton
t iáº¿ng
Ġhu á»ĩ
John ny
op e
á»¦ A
ĠKar en
Ġsand wich
S iÃªu
b á»ĭ
Ġv ali
Ġr Ã¡n
ĠC os
ĠTh á»±c
ĠRe id
V Ã¹ng
Ġ á»¦y
Ġl áº§y
Ġtr Ã´
Ġ3 4
ad el
Ġn Ã©
ĠT Ã¢m
ĠW ar
ub a
oll o
Bob by
ĠAsh ley
Ġl et
Ġth em
ĠD EA
ĠTr oy
ah a
Ġá»ª m
ĠÄĤ n
ĠC á»¦A
ĠG ondor
ot a
eg a
B O
B áº£y
H annah
M ur
Ġl Æ°á»Ŀng
Ġb áº¥y
Ġr Ãłnh
Th iáº¿p
ĠG I
az z
ĠTu áº§n
V áºŃt
Ġm ore
ĠÄĳá»ĥ u
ĠS Ã¡t
ĠA aron
ĠY Ãªu
ik o
ĠEl izabeth
Ġsh ow
ĠBer n
ĠMos cow
L eon
o om
Ġch ÃŃch
ÄĲ áºŃp
an ey
ĠC en
os ter
ĠAm anda
Ġc Æ°a
ĠS ai
ĠH ans
Tr a
ĠD Ã¢n
ĠG ab
25 9
ĠCap itol
Ġtru á»ĵng
0 2
H á»¡i
c i
d d
Ġn áº£n
Ġta ke
et ch
il i
ĠNg á»įc
ĠBro dy
ĠWinter fell
B B
Ġth Ã¢y
Ġthu áº«n
ul u
tr Æ°á»Ľc
az ar
Jes se
ĠScot land
ĠMord or
H O
h oo
Ġk Ã¨o
Ġm iÃªu
Ġcho Ã¡ng
á»ķ n
ĠB uck
ĠH mm
ery s
isk ey
h i
s ey
ĠR od
ĠHow ard
ĠEsc obar
I NH
K ar
M olly
S ub
V al
j ah
s á»±
Ġl á»±u
ÄĲ á»ĳt
Æ°á»£ m
ĠH áº§u
Ġ3 2
ĠNh á»ĩn
Ġ8 8
ĠQ uyá»ģn
T áºŃn
s o
t it
Ġb á»ķng
Ġs an
Ġph Ãłm
ĠS at
ĠMar sh
ov a
K ate
S te
U D
ar ty
ĠJ in
ĠE x
ak a
ers ey
ens tein
A Y
E E
Q KK
Ġm Ã¬n
Ġh á»¥t
Th á»§y
ĠS Ã¡ng
ĠD ick
ĠR ich
ĠAnd re
Car ol
ĠLau rel
omb ia
Ġ Ã¢u
ng Æ°Æ¡i
Ġc á»ĳi
Ġch áºŃt
Ġa way
Ġta m
ĠC ung
ĠT iáº¿ng
ĠS yl
ĠV er
ĠK irk
ere k
ĠThe a
C an
f sp
g y
i ot
Ġk áº½
Ġd áº«m
Th á»ĭt
ĠC uddy
ĠM Ãł
ĠB Ã¡o
ĠG er
ĠV Äĥn
ĠJ ai
el t
ĠÂ ¶
Ġchá»£ t
9 6
v i
Ġs ir
Ġh Ã¹
Ġh Äĥng
Ġr Ã£i
Ch andler
ch Ãło
ĠM ak
Tr áº»
ĠO x
ud ev
ĠJohn son
ain t
Kat ie
ĠRog er
A my
Ġ Ã´n
Ġt Ã¡ng
Ġt Ã´m
Ġl Æ°Æ¡
Ġg u
Ġg uy
ĠM anhattan
Ġ5 2
ĠQu áºŃn
K ÃŃch
T iÃªn
l u
Ġch áº£i
Ġm Ã©p
Ġb áº©m
Ġd uyá»ĩt
ÄĲ á»ģ
ĠL Ã¹i
ĠD Ã¹
ĠTh Æ°
ĠV Ãµ
ĠNh áº¥t
uck er
ĠBenn et
B i
H er
Ġtr áº¯c
ĠH al
im o
Ġvá»ĭ nh
S Ä©
b ord
k ing
Ġm Ã¡ch
Ġs Ã©c
Ġph Æ°á»Ľc
ÌĢ !
ĠK enn
ry an
agg ins
- ...
B eck
Ġph ang
Ġa o
ĠS um
ĠH iro
ĠK Ã´ng
ĠBr and
0 5
b ook
Ġch Ã¹i
á»¥ a
ĠJ ersey
ĠK it
ing er
ur o
A sh
D iá»ħn
b iáº¿t
ĠÄĳ áº¯p
Ġg ame
Ġtr Ãºt
Ch áº·n
ĠT Ã´n
Ng Ã¢n
á»£ n
ĠA z
ĠK elly
ĠLu áºŃt
Ġbe en
AS A
udev iet
D Ã²ng
R os
Ġth áº£y
Ġs c
Ġthá» «ng
Th omas
ĠM mm
ĠB á»ĵ
ĠÄĲ Ãło
ĠL yn
ĠR io
ĠK ong
ĠF ox
ĠW ick
ĠBar ney
B inh
D r
R u
v Ã¢ng
z ie
Ġl on
Ġch uá»ĳi
Ġr Ãªn
Ġd ÃŃ
Th am
Th ank
Nh i
ĠC Ã¡nh
ĠL ewis
Ġtho Ã¡i
ah l
ri end
Ed ward
N áº¡n
Ġn Ã©n
uy á»ĥn
ĠG PS
ĠbÃ© n
ĠI an
Ġ9 6
iss a
b or
l ow
Â ¥
Ġt Ãło
Ġx á»ĭt
Th or
Ġkhi Ãªm
ĠV iá»ĩn
ĠN ed
ĠPh Ã³
ly mp
ĠMc G
ĠNgh á»ĭ
A P
U gh
Ġ ex
ĠÄĳ áº¯c
Ġch anh
Ġcá» įc
ĠS k
ĠG old
il es
ĠVictor ia
A ngel
R on
a ff
Ġc Äĥ
Ġl Ã¡ch
Ġb Ã¡ch
ĠL á»¥c
ĠQu áº£
lo e
ok o
Tu Ã¢n
N or
N athan
s ky
Ġch á»įi
Ġnh Ã£i
Ġr áº£i
Ġr á»§
on i
ĠB uzz
ĠS cofield
Ġca ll
ap a
Ġl á»Ļng
Ġch áº·ng
Ġa g
or es
is ion
al y
Ngh i
ie go
ĠKh á»ī
ins tein
ĠAlex ander
ĠCa esar
M á»ĳi
R áº½
p le
Ġn e
Ġngh áº¿ch
iá»ģ ng
ĠS el
ĠL Æ°u
ĠTh áº£
ĠS id
ĠTh Ã´ng
ĠTh áº©m
ev or
An n
ĠNgo áº¡i
D áº¹p
M Ã£i
S Ã¡t
X o
g r
r ough
Ã «
Ġr Ã¬nh
Ġr á»ķ
ĠK iáº¿m
ans a
ĠCam eron
ĠCast le
V iáº¿t
b orn
d ock
k en
Ġkh Äĥng
Ġd á»¡
ia go
ĠG iáº¿t
ĠW es
Ġ. :
ĠSt arling
te am
788 7
ĠTay lor
u art
ĠÄĳ iá»ģm
Ġv Ã¹i
Ġm áº©u
ÄĲ áº¿m
ĠÄĲ a
ĠTr Æ°á»Ľc
gh an
ok u
L á»ĭch
Ġc Ãºng
Ġv áº·n
Ġgi rl
ang o
Ġ3 3
ĠHo Ãłn
ab el
ĠGi Ãºp
ĠAngel a
I D
L et
L ee
Ġngh iÃª
an ie
ĠS usan
ĠÄĲ á»Ļng
ĠG race
ÃĢ Y
Ġ19 8
ĠCen tral
n i
t us
Ġth áº³m
Ġh ad
ĠC Ã¡
Ġbá»ĭ p
ĠP l
th eo
re ak
ĠE s
788 1
Ar thur
Æ¯á»ľ I
Wal ter
Sim on
T iáº¿c
á» Į
Ġth áº£n
Ġb ong
Ġd áº»o
Ġgi áº§y
ra w
od ka
Ġxo áº¯n
E D
L áºŃp
R ed
m ons
Ġs áº¥u
Ch Ã¡n
ĠC oulson
ĠB el
ĠH Ãłng
ĠTr Äĥng
th e
ĠO z
Ġ6 00
ĠHo áº·c
ĠSu per
ĠJess ica
D áº¡o
E than
F rancis
H iro
Ġ á»ĵ
á» Ĩ
Ġr ock
Kh áº©u
ĠB ig
ĠO sc
Mar cus
ĠGar cia
B oy
l t
Â Ń
Ġt áº¡ng
Ġt ell
Ġc Ãło
Ġc áº±n
Ġb á»įt
or en
ĠK l
Ġ5 1
Ġ4 7
5 8
C Ãº
J am
Ġk Ã¬m
Ġn Äĥn
Ġg iáº¿ng
Ã¬ u
ĠM ason
ĠH otch
ĠL arry
5 2
A t
K Ã½
M Æ¡
M org
Ġl iáº¿m
Ġn á»±c
at or
ĠTr áº£
24 9
ĠO liv
ÃĤ N
ĠCol e
ĠPat rick
UCK LES
T Æ¡
b ing
Ġt ivi
Ġl Ã¢n
Ġn Æ¡
Ġs ho
Ġtr Ã¢
Ġx Æ¡
Ġgiá» Ŀi
ĠCh e
Ġthu Ã¢
el yn
Ãµ ng
ra ine
ĠCar rie
9 2
Ġng Ã³
ĠvÃł nh
ĠT i
Ì£ ,
NÃ³ ng
ĠO lymp
ĠcÃº n
Ġbá»ķ n
m o
Ġn ai
Ġng áº¡t
Ġx á»ĭn
re et
Sher lock
Ġl Ã¬n
Ġr ay
Ġd ang
ĠC all
ĠL ock
ĠW ade
ĠNh á»Ľ
Ġ7 2
S á»Ń
Ġch ay
Ġng á»¥y
Ġquy Ãªn
áºµ ng
Ġin ch
ÄĲo Ãłn
ĠCol ombia
Ġchá»ķ i
Jes us
S ang
Ġl áº¹
Ġv Äĥng
Ġh áº¡ch
Ġnh Äĥn
Ġd ai
Tr áº¡m
ĠD am
as a
ĠF ace
ach e
gar et
ĠFor eman
ĠHun t
T ÃŃn
b ar
l Ãºc
Ġv Ã©t
Ġb Ã¡ng
Ġx iáº¿c
ĠH á»Ļ
at o
ÄĲi Ãª
ĠE y
Ġw on
Ġ- **
ĠÄĳá»ĩ t
Ġcá»§ i
O r
X á»Ń
c l
Ġqu Ã¡ng
Th Ã¡i
ĠC le
Ph il
ia l
M ad
R ose
T áº¡o
r ice
Ġ ~
Ġr Ã²
Ġgi o
ĠT iá»ģn
Ng Äĥn
as c
ug ene
row s
L á»ħ
M or
Ġn áº¥y
ÄĲ Ã¨n
Th á»ģ
ar is
ĠH áº¹n
ĠCh á»Ĺ
ĠD iá»ĩp
ĠD aw
ĠA DN
eth er
g ie
g le
h m
Ġ el
Ġng á»©a
Ġngh iÃªng
ĠB onnie
ĠV ik
Chu ck
ĠAl fred
ĠÃģ o
ĠMer lyn
36 1
ghan istan
ĠC Ã¡t
ĠB ab
Ġho t
ĠnhÃł m
ĠD av
ĠV I
Äĳ Æ°a
eth ing
ĠMos es
L áº¡nh
N ik
T R
Â ®
Ġ áº¥u
Ġs uá»ĳi
Ġnh á»įn
Ġng Ãµ
m us
t s
Ġl iÃª
Ġn eo
ph er
ĠcÃ³ ng
ĠL am
ll ie
el a
C áº¥p
F red
Ġh á»Ń
Ġx Æ°
ĠT ÃŃ
Ġngu á»Ļi
ĠAl i
ĠAr k
ĠSp ock
áº¤ T
EL L
lan ta
E ric
H I
L á»¡
Ġth en
Ġs on
Ġs á»§a
Ġg áº¡o
ch Ãº
ĠT uyáº¿t
ĠT okyo
en dy
Ġho áº£
Ph Ã¹
at ter
un a
lo yd
H á»ıa
R og
f a
Ġtr Ã¢u
on es
Th ÃŃ
ĠC áº§n
á»£ t
ak i
ĠSam uel
790 9
C á»±c
s ide
Ġ 78
Ġl áº£ng
Ġk H
Ġh Ã¡o
ÄĲ áº¥u
ĠB ud
en erys
ĠR h
et ter
ĠY u
ann is
ĠGiá» Ľi
ĠMal colm
d or
ĠÄĳ áº£
Ġd áº£i
ĠB raz
ĠH áº¿t
ĠD aisy
ĠG Ã£
Oh h
Cá»© t
ĠY Ãªn
d es
j o
Ġ áº§m
Ġtr iáº¿t
Kh Ã¡c
ĠM ack
ĠV áºŃt
Ġ5 7
id t
ce pt
ĠBe au
Br uce
ĠIs rael
lyn n
E M
c Ã¡m
Â Į
Ġt á»©
Ġt áº»
Ġl ife
ÄĲ á»Ļt
Nh áº¡c
ĠB Ãªn
ĠB ilbo
ĠL áº¡y
at i
enn ifer
3 4
P ete
R yan
c Ã´ng
Ã ŀ
Ġm á»£
Ġb á»Ŀi
Ġg om
ĠH Ãłnh
ĠD ennis
ĠG e
ol i
ĠNg Ã¢n
ight s
ĠVirg inia
5 4
G l
H áº£i
x em
nh Ãł
Ġg r
Ch áº¥p
Ġx ÃŃt
ĠB og
ĠL á»ħ
Ġ3 8
ic on
Äĳ áº§u
Iáº¾ NG
. ]
H m
R ock
w e
Ġch á»ĳc
Ġk eo
Ġb á»Ľi
Ġnh Æ°á»£c
Ch á»¯
Ġx áº»o
ĠB lake
as er
23 3
ion e
ĠJo ffrey
ĠKy le
. !
L á»±a
T V
ĠÄĳ Ãły
Ġr Ã¡ng
Th is
á»ı m
Ph á»¥c
ĠF al
Ġo ver
Ġ19 6
ĠÄĳá»ĩ ch
Ã ĺ
ch áº¿t
ch ÃŃnh
ĠT erry
ĠM Æ°á»Ŀi
ĠM anny
ui t
ĠF inn
ol y
ab elle
ĠCharl otte
Ġgo ing
OR G
ĠMur phy
ĠJu dy
ĠBrook lyn
B Äĥ
Ġnh á»©c
ai d
ĠÄĲ áº¹p
ĠH Ã²a
ĠF ish
ut obot
Ca esar
cul es
G er
L Ã¡
v ard
Ġtr á»¥i
ĠB aker
ĠG áº§n
ĠPh á»¥
ĠSte phen
ĠTor etto
9 8
D eb
I nd
w oo
Ġ )
ĠÄĳ Ãºc
Ch iá»ģu
ĠT w
ĠB y
ĠÄĲ Ã¡nh
ĠL ogan
ĠW oody
Lu cy
ĠOr le
V N
Ġth Ã´n
Ġn Ã¡u
Ġnh á»§
Ġnh á»ĭn
Ch e
Ġx áº¯n
ĠC Ã¹ng
ĠS i
ĠL and
ĠNh i
ed er
ï¼ Į
ĠDeb bie
atal ie
ĠAf ghanistan
A I
J u
L Ã´i
Ġl á»Ļi
Ġl Ãºa
Ġn om
Ġnh á»Ń
Ġnh iáº¿p
Ġph áº³ng
ĠB ull
ĠÄĲ iÃªn
Ġ3 1
ĠHo ll
ĠX Ã¡m
ĠEnterpris e
J osh
V Ã£i
n o
Ġ Æ°Æ¡ng
Ġ áº¿ch
Ġc Æ°á»Ľc
Ġtr Æ°
ĠK iá»ĥm
á»ħ n
ĠchÃ³ i
pt imus
Ġmá»ī a
C ap
S on
S Ã¡ch
r n
r aham
Ġt ua
Ġth áº¯p
Ġnh áº±n
Ġd á»ĳt
Ġgi ve
Th áº©m
ĠC Ã¢
ĠB á»ĩnh
ĠD ev
Ġco ca
ĠNh iá»ģu
ĠQu Ã¡i
ĠAl an
rag orn
Ġlá»ĳ p
Luc as
786 3
V an
Â ĭ
Ġb Äĥn
Th ey
ch á»Ŀ
ĠM áºŃt
ar in
ĠTh a
ĠN icholas
ĠK iá»ĩt
Ġkho Äĥn
ĠPh a
ans as
ĠNor man
0 6
C Æ°á»Ľp
D el
L O
á» ®
Ġn á»ĵi
Ch Äĥm
ÄĲ áº¡n
Nh áºŃt
Ng á»įn
er to
ĠB iáº¿n
ĠS om
ĠÄĲ áº¥ng
ĠH uh
ĠF ort
us e
il et
Ġw orld
ill er
un t
ĠchÃ³ t
Chá»ĭ u
ĠWh at
On ii
Ġ** **
0 7
L á»Ľn
f ia
z el
ĠÄĳ áº«m
Ġr Ã³t
ĠC Ã¡ch
ĠB uddy
VÃł ng
ĠG iÃª
ĠJ ar
ĠJ ill
Ġtá»± a
ĠSam my
Mar ty
Am anda
A g
L á»Ńa
T iÃª
Ġg Ã³a
ÄĲ áº£m
Ġx á»ı
Ġqu áº¥n
ĠM Ã´
ĠB ai
ĠH ouston
ĠN Æ¡i
ĠP ort
ad es
ĠAl bert
ĠSp artacus
ĠChrist ian
S al
T áº¥m
c c
Ã İ
Ġb Ã¬a
ĠTh at
ĠO N
ĠPh Ã¡t
end a
ĠSp arta
Wal t
D ory
R o
b in
f s
g on
áº ¨
ĠM á»Ŀi
Ġto o
ĠF e
ĠÄĳÃ´ la
ĠQu áº£ng
ut ch
ait lin
3 00
K an
f an
r ight
ĠS eth
á»ī a
ol is
ol et
Ġtu Ã½
ĠAr row
ib al
J C
l ess
r in
Ġl ittle
Ch ÃŃn
ĠM áº¯t
ĠB aggins
ĠG us
oth y
adel phia
F or
m on
Ġt á»µ
Ġc Ãłnh
Ġl á»¥a
Ġg Ã¡y
Ã© agol
ĠCh im
Ġho w
ĠTh áº¥t
Ãµ a
al o
ob y
Morg an
. ?
F l
q ua
Â Ĩ
Ġm iÃª
Ġh á»©c
ÃĶ m
ĠH erm
Ġy o
Ġw ere
Ġp ound
Ġ8 4
Ġu Ã´
ER S
ĠNo ah
rell i
f n
m ar
r et
Ġm iÃªn
Ġm áº¯ng
Ġr áº¡ch
ÄĲ áºŃu
ĠC isco
ÃĶ I
ĠN ina
Qu Ã¡n
Ġw anna
ĠÄĳá»ĩ m
ĠAt lanta
ĠOrle ans
H á»§y
Q uá»ĳc
T áº§m
V inh
b áº¯t
d Ã¹
á» ¬
Ġs Ã¹ng
ĠV en
ĠGr im
ĠFlor ence
N Äĥng
R EA
T ÃŃ
Y D
ĠÄĳ á»ĳn
Ġl anh
Ġl áº±n
Ġk iÃªng
ĠT áº¡
ĠL ane
ĠD iv
ĠTh á»Ń
ĠK áº¿t
ĠSh ire
Æ¯ á»¢
ĠCam p
eron ica
ĠXu Ã¢n
ĠLaw rence
H Ãłi
l Ãªn
Ġm Ã¢u
Ġtr iÃª
ÄĲ áº¡o
ĠS ally
ĠL ydia
ĠTr Æ°Æ¡ng
An nie
ĠLau ra
ĠKH ÃĶNG
B ro
ng Ãły
Ġt á»¥ng
Ph Ã¡p
ĠTh Ã¡o
ĠV á»ĭnh
Ġ2 000
ou d
th á»©
li ff
ĠVal entine
ĠHolly wood
J ason
Ġt Äĥ
Ġs m
Ġg áº¯t
ch áº³ng
ĠH Ã¡n
ĠL es
ĠL ab
ĠJ enny
Ġvá»¥ ng
ĠW ins
Gi Ã¡ng
ĠZ oe
ĠZ eus
Mar ia
Ġsh h
gg sy
rell a
rix us
T iá»ĩc
V Ä©nh
V Æ°á»£t
Ġ Æ°á»Ľp
Ġb oy
Ġr eo
Ġd iá»ħu
ĠB Ã¡nh
ĠB ow
ĠA k
ĠA ri
ĠG uy
ĠK ent
Qu Ãł
ĠW yatt
ĠCon nor
Ġo Ã¡n
ĠQu Ãªn
iv es
lo g
A E
A ng
H Ã¡t
K e
L iz
L á»Ľp
Ġh Ã¡
Ġr á»ħ
Ġd Æ¡i
Th á»ĳng
ĠC uba
Ġ5 4
ĠÃ įt
ĠSub bing
Ġag ain
ĠBraz il
= =
B á»ĵ
C áº¥m
J ean
M Ãłn
Ã ĩ
Ġ Æł
Ġch en
Ġkh uyáº¿t
Ġd Ã´
Th Ã¡o
ĠÄĲ Æ°Æ¡
Tr á»±c
ĠJ en
ĠP enn
ĠPh á»¥c
ell ow
ik a
ipp in
M ac
U R
ng Ãłi
Ġch Æ°á»Łng
Ġnh áºŃu
Ġng á»«a
Ġr Ã£
Ġthá» į
ĠT an
ĠÄĲ Ã¡ng
ĠL á»±c
ĠTh Ã¡m
om a
ac on
ak es
Ġon ly
Sp artacus
ĠHel en
ĠUm b
Ġ Ãª
Ġm á»ĳc
Ġqu áº©n
Th á»«a
ĠM itch
ĠD Ã¬
al ia
Ġkho Ã¡n
Ġtu áº¿
ad ia
ĠAm er
A D
H am
L i
O S
T e
m ont
o id
Ġl Ã©o
Ġn á»ī
Ġb áº¡
Ġph Ã²
ĠS ab
ĠH end
al in
ĠMc C
áº¾ T
H Ã²a
M ia
T ÃĶi
w eet
Ġn H
Ġr á»¥i
Ġgi eo
ĠL Ã¹n
us k
ĠPh ill
ig n
ri on
tr on
Ġmá»ī m
ĠLat in
- **
M Ã¨o
T Ã´n
m áº¥y
s tone
Ġb á»ī
Ġs Æ°ng
Ġr á»¯a
Th áº»
ĠS aint
Tr áº§n
ĠTr a
Ġ6 6
arl et
ĠX anh
ho p
Ġcá»¡ i
ĠvÆ° Æ¡n
ĠVinc i
ĠHun ter
ĠBeck y
T á»Ń
b Ã¡c
Ġm áº¡
Ġs iáº¿t
Ġg Ã´n
Kh ÃŃ
Th á»£
ĠM á»¥c
ĠI saac
os a
ur ai
ĠNg uyá»ĩt
ry pton
ĠSt ev
ann er
A s
K Ã¬a
L inda
R Ã´
Ġh á»¡i
ĠC row
ĠC atherine
au x
ĠS aul
ĠN eil
ĠK i
Ġkho Ã¡t
Ġláº½ o
id ge
ul f
ĠGi áº£i
ris on
umble dore
M Å©i
g ard
ĠÄĳ áºŃm
Ġth áº§u
Ġth áº¥m
Ġs ing
Ġnh Äĥ
Ch uyÃªn
ang er
Ġto ilet
ĠV ic
ĠE rik
ad dy
Ġ6 69
un o
ag er
ÄĲo áº¡n
Gre g
ĠÄĳ áº¯ng
Ġl Ã³c
Ġl á»ĳc
Ġnh á»įc
Ġr Ã¡p
ĠÄĳá» į
ĠL as
Tr á»ĳng
ĠD iego
ĠA T
ĠA ir
ĠbÃ© t
ow een
id on
ĠKh á»ĳn
Ġ19 7
ĠÄĳá»¥ c
lin t
ĠJul ie
ĠRon nie
Ty ler
C áº·p
n Ãło
s w
Ã ¸
Ġcá» ıi
ĠC om
ĠM ah
Tr Æ°á»Łng
ĠTh áºŃp
Ġtho i
ĠAm ber
yl an
Ġvu Ã´ng
giá» ĳng
van ia
ĠSher man
ĠWilliam s
S l
S er
b b
l m
ä ¸
Th áº³ng
Ph Ã©p
Ìī ...
ĠTh Ã¡p
ĠW orld
il ton
ĠPh Ã¹
ĠNh á»ı
ÃĢ NH
Cl ay
ĠNo el
ĠSte in
bend er
8 4
E x
M el
N O
N á»ķ
V Ãµ
d in
t Ã¬m
Â Ĭ
ĠM ach
ĠÄĲ u
ĠG Ãł
ĠmÃ´ t
ĠKh á»ıe
ĠGr and
ÄĤ M
ĠEll is
Ġsom ething
Mart in
ĠKenn edy
X a
b Ã¢y
k g
m uá»ĳn
Ã ¯
ĠT á»©
ĠT á»¥i
ĠT itan
ĠB etty
ĠL av
Ġlu á»ĵng
ĠR ebecca
ĠP ow
Qu áº£n
Ġgh e
Ġ8 00
ĠBr avo
ĠPhil adelphia
ĠÃļ c
C ol
t im
Ġl ay
Ġb iáº¿ng
Ġs tr
ÄĲ áº§y
Ġqu á»ī
Kh ai
ĠM ang
ĠM aster
ĠV ÃĢ
ĠN at
ĠW eb
ĠhÃ² m
ĠCL B
H ung
v áº«n
y u
Ġkh á»ĳc
Ġs áº¥m
ÄĲ á»ĩt
Th áº¥t
ĠC Ã¢y
ĠN Ã¨
Äĳ a
ĠO b
AN D
ĠFel icity
Gar cia
A A
G ab
T ER
r us
ã ģ
Ġh Ã©
Ġd Ã³
ÄĲ eo
ar n
ĠS ur
ĠV iáº¿t
Ġf ind
789 5
Cl ar
ĠRe ed
ĠSo phie
M áº«u
M aggie
c ol
Ġ +
ĠÄĳ an
ĠÄĳ Ãłnh
ĠÄĳ áº¥ng
Ġth rough
Ġm áº¥u
Ġn Ã²ng
Ġh á»ĳt
Ġqu á»µ
ĠK á»µ
ĠY an
ĠSt reet
ĠBen jamin
ĠJul ia
I ET
l ant
n Æ¡i
o ff
Ã ®
Ġs er
Ġr á»¥ng
Ġr Ã¬a
ĠB iá»ĥn
ĠL Ã¢u
ĠD umbledore
il o
oo h
od e
la ce
yd ney
ĠTo Ãłn
Ġar ound
l áº§n
r as
v iá»ĩc
} [
Ġt Æ°ng
Ġk g
Ġh as
Ġcá» ĵ
Ġqu i
Ġqu áº¥t
ĠTh Ã¢
ĠK id
om on
Ġtu á»Ļt
Ġf ire
ĠSh el
tr Ãªn
ĠDo c
ami en
C ass
G ideon
N áº¡p
V inc
Ġv est
Ġr Ã¬u
Ġtr iá»ĩt
ĠÄĲ áº±ng
ĠH O
Ph iá»ģn
ĠnhÃł o
ĠA pp
th áº¥y
ĠI ra
ed d
ig er
ro e
ĠQu a
Æ¯ á»ļ
No ah
ĠBl ue
Ġtá»¥ t
ĠDar cy
ĠMik ey
B er
c Ã¹ng
e ad
s elf
x it
Ġth uyÃªn
Ġtr y
Ġx Æ°á»Ľc
in us
ĠT Ãłi
ĠB org
ĠL A
ĠW ester
ĠE instein
ĠO t
Gi Ã³
Ġo an
ĠSh in
enn ess
And re
á»Ĳ ng
giá» ¯
ĠPhil ip
D Ãłnh
L Æ°u
T am
u u
Ġ á»ĭ
Ġ áº¢nh
Ġn Ãªu
Ġkh Ã©p
Ġd ream
ÄĲ Ã´ng
Ġx ao
ch Æ°a
ĠB ra
ĠN ak
ĠK á»ĥ
Ġcá»ĳ p
ĠO wen
ĠMar t
Ġ7 6
ĠU á»ĳng
Ġhu Ã¢n
our t
ĠBl u
ĠDa enerys
R UN
k un
r áº±ng
w an
ĠC u
ĠT ai
ĠCh Ã³
ĠCh app
ĠJ ed
ĠN ev
ĠW olf
ing ham
ett i
Ãľ Ãĸ
0 8
E Y
F inch
N iá»ģm
P o
Ġk n
Ġn áº¡i
Ġb ÃŃt
ĠT arg
Tr Ãºng
ĠA ang
ĠP il
ro p
ĠZ oom
ĠDon nie
ĠMer lin
ĠEll en
B Ã¡
K ai
m ax
y le
Ġr Æ°Æ¡ng
ĠH á»Ļp
al ine
ic s
ĠPh á»ĳ
ur ch
ÃĢ I
ee bs
eb ast
Bu zz
Ġnhu á»Ļm
ĠhÆ°Æ¡ u
5 9
J ust
L Ã¡t
N á»¯a
V iet
Ġ âĢĵ
Ġth áº¡o
Ġm á»³
Ġx áº©y
er sei
ĠÄĲ áº£o
ll a
ĠR ho
ĠP or
Giá» Ľi
ĠTr ang
ing o
id i
791 7
yl vania
ĠSyl ar
l ie
r ia
y eon
Ġl Ã£i
Ġthá» ĩ
em p
Tr áºŃt
ĠY oo
enn e
ĠMil es
ĠBol ton
EV IET
UD EVIET
C á»Ń
L á»¥c
k ov
Ġth ÃŃnh
Ġn Ãºp
Ġh iÃªn
Ġtr á»įc
Ng á»±a
ĠM etro
Ġlu Ã¢
ĠJ i
ĠN ASA
ĠI f
ĠNg Ã´i
Lu ke
Ġsh e
CH UCKLES
op s
Gh Ãª
( *
C C
c Æ¡
g en
ng o
Ġs am
Ġa k
ĠB ax
ĠÄĲ Ã¡
ĠL ittle
Tr iá»ĩu
ĠG un
ĠN áº±m
Ġngo áº¡n
et ta
ĠP ac
iá»ħ m
Gi áº¥c
og a
ĠFrank lin
ĠPr ime
ĠJam ie
áº¦ N
Xo ay
B om
B Ã¹m
G I
T Ã¡c
T Ã¡m
c liff
d á»«ng
u x
Ġt áº¥p
Ġm á»įt
Ġd á»Ļt
Ġqu Ã¨
Nh iá»ĩt
Ã¹ y
ĠH á»©a
ĠCh Ãł
al em
Ġxu Ã¢
ĠX Ã¬
ĠJack ie
AN H
Bl ack
ĠMi ra
ĠFel ix
anslat ed
ĠBau er
YD RA
N ow
Z T
g et
} âĻª
Ġx Æ¡i
em ber
Th ere
ai i
ĠM id
ĠH ard
ĠD erek
Ìĥ ,
ic ah
il da
ad ow
ĠCon n
Ġtá»¥ y
Sp ock
Tho áº£i
A aron
D iá»ĩp
P ablo
X áº¿p
l on
Ġg áºŃt
Ġr áºŃp
ar ao
ĠÄĲ áº¥u
ĠH yd
Ġlu Ã¢n
ĠK ings
ĠE arth
ac qu
Ãģ p
Ãģ NG
urt is
Nor man
L Ã¢
s k
Ã »
Ġc r
Ġch Ã¹m
Ġn an
Ġb á»Ļc
Ġh Æ°ng
Ġg Ã³t
Ġd Ã£i
ĠÄĳi Ãªu
ĠC athy
au d
ĠH Ã¹ng
ĠL enny
Tr uy
ĠN Æ°Æ¡ng
ĠK end
Ġkho Ã¡ng
ĠO n
Ġngá»§ i
ud son
Ġxo Ã¡
ĠHar vard
Car rie
ĠSau ron
ĠFace book
I an
L ong
M ich
S ong
T er
T Ãºi
b ro
Ġgiá» ı
ĠT al
ĠB ir
ĠTr evor
Ġ5 8
ed a
Ġ6 57
un zel
ann ibal
Ġ12 0
Sh aw
789 3
Wh y
ĠEl i
á»Ĭ CH
ĠTarg ary
D áº¡y
L ook
S S
f er
l s
Ch áº¥m
Ġd z
Ġd Æ°á»£ng
Ġd áº±n
ÄĲ Ã©o
ĠS uz
ĠCh á»īnh
ey es
ĠF all
Äĳ á»£i
ĠI Ãł
Ġdi Ãªm
St an
The a
ĠHarris on
ebast ian
H an
Ġ NghÄ©a
Ġv Ã¡
Ġg ara
Ġng áº·t
Ġtr Ã¡t
ĠÄĲ Ã¬nh
Ġai r
ĠL ester
ĠN ob
ĠO ne
Ġ5 000
ir st
ĠMar tha
Ġcá»Ń u
ov er
ĠMer c
ĠPer cy
C PD
N ic
R iley
Ġkh Ã©ng
Ġng Ã²i
Ch Ãºt
ar o
en cer
ĠJ os
ĠP ic
Ġtu á»³
oo p
ĠkhÃŃ a
-- -
ver y
ĠUmb rella
H al
K ING
M in
S ar
Â ½
Ġ Khoáº£ng
ÄĲ á»ĭt
Ġqu áº³ng
Ph Ã¡o
ĠL oth
ĠJ ustin
ĠF ord
us ty
us alem
ĠO ld
um i
ak o
Ġsu b
ĠJo on
if ler
á»ĺ T
ĠMeg an
bend ing
Ġdid n
ĠMarsh all
Vinc ent
) )
T ui
T á»·
b áº¥t
i or
m idt
n am
Ġtr Ãłng
ĠH en
ĠH igh
Tr ÃŃ
ĠD ay
ĠD is
ĠD ale
ĠV Ã¢n
ĠK ansas
th ia
un k
Ġ30 9
ose idon
gi Ãºp
ĠBur rows
ĠAp ache
2 12
K i
X áº¥u
Ġl Ã¬a
Ġx Ã¢
Ġx ua
ĠmÃł i
Nh á»ı
ĠÄĲ á»ĳc
Ġho me
ĠTh Ãº
Ġngo Ã£n
ĠP en
al ph
ĠO oh
ill o
ĠSt even
ke e
Ġsu Ã´n
ÃĮ NH
ĠLau ren
lor ia
Lau rel
Ġpl ay
ĠBai ley
ĠBax ter
D Æ°
S á»Ńa
m ail
r ig
t uyá»ĩt
ĠC Ãł
ĠB Äĥ
ĠCh iáº¿c
Ìī !
ĠD O
Con ner
ĠR ohan
ĠJ ud
el ine
ĠW oo
ro v
ĠQ ui
ĠbÃª nh
ÃĴ ng
ĠSub team
ĠBor is
ĠPep per
5 1
C áº¥t
] :
t á»Ľi
Ġ Æ°ng
Ġl Ã¡ng
Ġch uá»ĳc
Ġg as
Ġr Ã£nh
Th á»ĥ
ĠÄĲ á»Ļc
Tr á»ħ
ĠD w
Ġ2 50
Ġ6 4
ig ne
osh i
Mat thew
Rog er
b ridge
g om
m ai
r ay
Ġng Ã¢m
Ġr áº¡ng
Ġr áºŃm
Ġd Äĥ
Ġho áº¡
ĠTh omp
ĠJ a
ĠK al
el son
as m
Ġla p
ĠF u
th á»±c
ĠY o
un ny
ok ka
oll um
ĠMor g
oun t
KH ÃĶNG
ĠBern ard
ĠOx ford
F ar
G Ãł
K áº¹o
N Ã£o
S P
Ġt áº¹o
Ġr ia
Nh á»¡
ĠS eo
ĠH Ã£n
ĠL áºŃp
as y
it ter
il ia
ell i
ĠMor i
Ġwh ere
And rew
AR S
Ġrá»£ n
ĠBat man
B ang
J oy
L á»£i
T or
V á»ĩ
b um
g ic
Ã ¼
Ġh and
Ġr Æ°Æ¡
ÄĲ áº£o
Nh áº¥c
ĠS outh
ĠV a
al s
ĠI ran
ĠHo p
ĠAl Ã´
Ġin ternet
art s
qu ang
An ton
Ġcá»§ ng
agh er
Lou is
Ġcm n
ĠGeorg ia
ĠMick ey
C á»¥
R Ã¢
k ey
Ġ áº¥p
Ġ end
Ġl áº¥n
Ġb Ãº
Ġg Ã´
Ġng Æ°á»£ng
Ġph á»ĵng
ÄĲ á»ķ
ĠC O
ĠC uá»ĳi
ĠC á»Ńa
ĠM áº·p
ĠM arl
ĠB ag
ĠS ansa
ĠÄĲ inh
ĠH and
ĠK Ã©o
ir i
ĠDon ald
Sc arlett
Re id
LA Y
ĠUS D
ĠLav igne
A ss
V áºŃn
v ie
Nh áº£m
ĠG am
ĠPh áº§n
ÃĢ y
ob a
ob o
ff in
Ġ19 23
att le
H uyáº¿t
H á»«m
L AUGH
o a
t en
Ġt Ã£
Ġk eep
Ġm ic
Ġn á»ĥ
Ġg Ã¢n
Ġd Ä©a
em on
ĠC ai
au t
ĠH udson
am ine
ĠR ap
ĠK ang
ck er
Ġ3 45
oo ke
ag i
Ġf riend
ab ella
ĠAn ne
ĠCol umb
ĠIn ternet
tit le
L ily
w ater
Ġ Ã©o
Ġph Ãł
ĠM et
ĠB ad
ĠN icky
ĠP oll
Ġbá»Ļ n
ol an
ÃĢ N
ĠSh e
ĠDe cept
ĠKat niss
bur n
oun tain
ĠWall ace
ĠSant iago
D or
J O
N e
N á»Ļi
N ina
T iá»ĩn
V áº£
h all
k áº»
u ko
ĠÄĳ Ãºt
ĠÄĳ á»ĳm
Ġl im
Ġl Æ°á»£m
Ġm á»Ļc
Ġtr ym
ĠCh ap
ĠR ad
ĠV at
ĠJ un
ĠK Ã¬
ou ch
Qu een
ro ft
ian e
la f
ĠFrank ie
Mar ie
con e
ix on
gom ery
J er
W oo
b á»ı
Ġn i
Ġb á»ģn
Ġkh Ã¢m
Ch ase
ÄĲ Ãło
em en
ĠT Ã¹ng
ĠT áº¯t
ĠT ara
ĠS ue
ĠH ector
ĠCh á»įn
ĠL ai
ĠV á»£
ĠN ZT
et cher
ol and
ra b
ee k
Ġ9 2
Sh e
ens en
Mu á»Ļn
uch ot
ĠMiss iss
Ġ= =
anslat or
Thor in
; ,
K it
M os
T O
b ee
Ġl á»Ł
Ġn ÃŃn
Ġh Ãº
Ġh áº¯c
Ġr Ã´i
in ja
ar p
ĠN Ãºi
ud a
sh a
áº¤ y
ĠPr es
ĠNor th
ĠRiv er
ĠRey es
ĠkH Ã´ng
ĠTargary en
G et
M anny
P ark
T ING
V Æ¡
s ylvania
Ã Ł
Ġt Ãº
Ġl Äĥm
Ġv áº¯t
Ġqu Ã¢
Nh áº«n
ĠCh an
ĠCh Æ¡i
ĠL á»ĳi
ĠN ÄĤM
ĠK rypton
Ġw ork
ath eon
Ġst ill
igg s
Mal colm
Ġcá»ĵ n
9 7
B Æ¡
R áº¯c
f or
Ã ¦
Ġtr á»Ĺi
Ch á»ĳng
Ch Ã¡y
ĠT á»ĥ
ĠB Äĥng
ĠG ates
ĠV Iá»Ĩ
ou ri
ĠI r
Ġtu Ã´
Ġw ow
av ier
Ġin to
ĠkÃŃ p
ĠWh en
Ġwh iskey
ug o
ĠPet relli
Iá» Ĥ
rag on
á»° C
ĠIra q
E van
F iona
J acob
T Æ°á»Ŀng
Ġt Æ¡i
Ġl ÃŃt
Ġb áº½
Ġr Ãł
Th anks
ĠB on
ĠA utobot
ĠG ri
es i
ĠN ancy
ĠTr um
oo gle
Ġ6 45
Gi Ãły
ag en
all as
iv an
Ãģ T
ĠOm ar
K á»¹
M á»¹
r ine
Ġ Ã³i
Ġch áº½
Ġv á»Ľt
Ġh el
Ġnh Ã³t
Ġx á»ķ
Th Æ°Æ¡ng
ĠC ave
ĠS ad
ĠÄĲ á»Ģ
ĠW ood
ĠO ak
ion el
ĠBar atheon
Charl otte
ĠMin ion
ush i
ĠHaw aii
ĠJer usalem
ĠÃļ y
I f
R Äĥng
W oody
Ġ Ã¢y
Ġl á»Ļc
Ġs áº£ng
Ġg áº·m
Ġnh Å©ng
ĠC áº§m
ĠM ath
ĠB ong
ĠH arl
Em ma
Ġmu ch
ip per
Ġme an
ĠMay a
ĠBarb ara
A ang
B E
C anh
R uss
b áº±ng
Ġ |
Ġg Äĥm
Ġg olf
Ch Ã¢u
Ġqu áº¡t
ĠT áº¿
Ng Æ°á»£c
ĠM áº¥t
ĠÄĲ áº¡o
ĠH Æ°á»Ľng
ĠN ight
el s
ĠF eder
ĠO ut
ĠNg on
ĠU l
ach i
ĠAnd erson
Ġxá»ī u
EL D
Kat niss
Fel icity
ĠJai me
0 9
F itz
H á»Ĺ
J ay
N Ã£y
ĠÄĳ Ã¹ng
ĠC D
ĠS oo
ĠH ood
ĠCh ang
ĠL á»Ĺ
ĠP op
it er
.... ..
ris to
st an
ranc es
GH S
ĠKy ung
terp ol
6 8
R obb
S Ã¢n
m ore
Ġn iÃªm
Ġb Æ°Æ¡
Ġs á»¥c
ÄĲ Ãłi
Nh a
ĠT áº¡o
ĠB á»ĳn
Tr á»©ng
ĠJ ust
âĻª âĻª
ĠP am
ow a
ur n
ry n
ich i
Ãģ i
Ġsh it
yn thia
ĠFl etcher
ĠSky e
Ġre ally
Jul ie
Ã¥ i
ĠRu th
ĠColl ins
$ .
D S
L Y
Ġ 000
Ġl áº£
Ġm áº¡t
Ġta l
ĠL áº¡c
ĠA ug
is cher
av i
Ġ6 22
Ġ7 7
ut t
ut ter
ĠAr m
ass us
ĠJu an
0000 00
ĠGall agher
G Ã¢y
N D
f ore
Ġ Æłn
Ġl ive
Ġth ing
Ġch ang
Ġs un
Ġh ero
Ġtr á»Ļi
ÄĲ M
ĠÄĲ áº·t
ĠL ar
ĠR aven
ĠN orm
Ġtá»± u
Ġ7 00
all ey
ach er
ĠAr t
ĠEl ena
ÃĤ n
Don ald
ipp i
ĠLeon ard
ĠHall oween
ĠRuss o
J ar
b Ã¬nh
d ington
r ett
t á»±
Ġch áºŃu
Ġm áº£ng
Ġb áº¡t
Ġkh Ã©t
Ġs Ã²
Ġnh Ãµm
Ch ÃŃ
Ġqu Ã´
in y
ĠM am
ĠS Ãºng
ĠTh áº¡ch
el ie
Æ¯ Æł
Wh ere
way s
ĠThor in
ĠMont gomery
ats by
cHF AE
ĠClar ke
cHFAE BB
B iá»ĥn
C IA
L arry
R om
g ia
p in
p ort
Ã ĭ
Ġ Æ°Æ¡
Ġl Ã¬
Ġn áº·c
Ġn ew
Ġchá» «a
Kh áº©n
Th Æ¡
Ġgiá» ¥
ĠC orn
ĠB ÃŃ
ĠB as
ĠL ind
Tr ans
ĠTh ung
ĠV o
ĠV el
Ġmáº¹ o
ĠF lynn
Ġtu Ã¢
ĠPh á»§
ĠY es
ab i
ap e
ĠÄĳu Ã´
ĠÃĤ m
Jon es
ĠMich elle
) ,
B S
B iá»ĥu
H appy
T Ã©
T á»ĳc
W ho
h Ãłng
Ġt wo
Ġth Ãºi
Ġk á»ĭ
Ġv odka
Ġh uyá»ĩt
Ġr áº©y
Ġx Ã¡o
Ġq uyá»ĩt
Ġqu áºŃt
Ġqu áº¹o
Nh á»ĭp
ĠÄĲ áº¥y
ĠÄĲ á»©a
Tr Ãł
ĠV ince
ĠP ak
ĠP ink
Ġchu Ã¢
and ra
av an
Ġ8 5
ĠBer nie
C ast
K ara
j oy
Ġ uá»ĳn
Ġt áº¿t
Ġch Ã©o
Ġb it
Ġs Ãºt
Ġnh á»¡
Ġcá» £t
Ġx ay
ai g
ĠM Ãª
Ph Ã³
ĠA ur
ĠK arl
kh am
ap i
ĠFrank enstein
ĠCarol ine
Quy á»ĥn
ĠDiv ision
N eil
T U
T Ãło
p en
Â ¹
á» Ĥ
ĠÄĳ á»Ľi
Ġth uyÃª
Ġb Ã¹m
ÄĲ Ã¢
ĠB all
ĠÄĲ Ãłn
Ġho Äĥ
ĠK ick
th ony
ĠI ron
Ġw ait
ut o
ĠSim mons
Iáº¾ N
ĠJosh ua
Ġkáº½ m
ĠLyn ch
Ġlap top
B eth
H otch
d am
t Ã´
t Ã¬nh
ÄĲ á»Ļ
ĠC y
ĠT áº§m
ĠM á»Ľi
or ado
ĠR an
ĠF re
ĠE ast
ĠI van
ir l
ĠÃ Ħ
ĠbiÃª t
lo v
Ġsh ould
ĠDe ad
pp ie
âĢ ĭ
Har old
Ell is
ĠOsc ar
A a
N S
T A
m ers
r Ãºt
w ald
Ġ áºŃp
Ġt áº¡t
Ġb log
Ġkh Äĥ
ĠH Æ°Æ¡ng
eo ple
ĠN y
ĠW endy
ĠE le
se us
ĠZ ach
ere z
ĠAr nold
ĠTy rell
ĠAt lant
C á»Ľm
I V
K l
P et
m ie
t ra
ĠÄĳ áº£n
Ġch Æ°á»Ľng
Ġv iá»ĩt
Ġb etter
Ġh Ã³t
Ġtr áº§y
ph ine
Ġph áº«n
an tha
ĠC raw
ĠM em
ĠM á»ħ
á»£ c
ĠA w
ĠG or
ĠG áº¥u
Ġdo ll
ĠI I
ĠI v
ĠI ll
ĠO w
Ġsai d
Ġchi Ãªm
Ġse xy
ĠBro ad
ĠVi enna
ĠStorm born
ĠPier ce
ĠWester os
* .
B Æ¡i
D á»¯
D am
M ir
N emo
V D
V á»©t
Ġ Ãºp
áº ¶
Ġch áº§u
Ġv Ã²
Ġs al
Ġng á»«
á»ĳ p
Ġd iá»ģu
Nh áº·t
ĠT Ã¢n
ĠM ass
ar ch
ĠS AU
ĠH D
ĠH av
ĠH old
es is
ĠK ir
ĠK enny
ĠP enny
ĠF er
ĠF ury
Ġgh im
ack s
ul t
se x
ĠAm en
ĠRob bie
ib b
ĠÃģ c
Car ter
El sa
Har vey
G al
G AS
H á»ĵng
I E
J in
K elly
S ch
Ġ eo
Ġh Äĥm
Ġnh áº¹n
Ġr Æ°á»£t
in ic
ĠC re
Ġlá» Ń
Ì£ ?
ĠB Ãłng
ĠS áº¯p
ĠL in
ĠL eg
ĠV Ä©
ĠV á»ĭ
ĠN emo
ic t
ad i
ĠSh h
ĠAl d
Ãģ C
ON E
eil a
etro it
ĠSat an
Ġguy s
ĠVen ice
E h
G Ã¡i
b all
c r
c u
d u
p ar
s ay
Ã °
Ġt em
Ġb Ã¡i
Ġs orry
ĠL Ã´i
ĠV lad
it i
ol ph
ĠNg á»¥c
ĠSt annis
um ba
qu ay
ĠCarl os
ĠLo an
G ordon
H á»Ļp
L or
O a
T Iáº¾NG
f rey
o ol
Ġm ade
Ġd á»«a
ÄĲ Ã¢m
áº½ n
ch iáº¿n
ch áº¡y
ĠC and
ĠM ig
ĠM end
ĠCh er
ĠL á»Ľn
ĠTh i
ĠN SA
ĠK áº¿
ĠTr i
th á»Ŀi
ill ian
ig ail
ĠSt uart
ĠGi ai
az el
Ġj azz
yd e
ĠÃĩ Ãľ
ĠDel aney
ĠDun bar
ĠScot ty
ĠSar uman
Jan et
ĠVat ican
9 4
B or
H iá»ĥn
H ans
J ordan
L Æ°Æ¡ng
L isa
V Ã©
X anh
t inh
Ġl á»¥y
Ġch Ã¡o
Ġm áº§m
ĠT au
ĠT odd
ĠM áº·c
ĠM as
ĠB is
Tr eo
ĠG ai
Ta xi
ow al
Ġw r
ĠMar garet
ac o
ĠKh ÃŃ
agg er
ĠBro ck
igg y
El izabeth
ĠGreg ory
Victor ia
Beck y
ĠHyd ra
C om
I ÃĬN
b oy
Ġ /
Ġl Ã³
Ġkh iáº¿m
Ġqu Ã¡t
ĠM and
ĠB ri
ĠD á»±
ĠD Ã¹ng
ĠTh Ãªm
ĠV as
ĠPh o
tor m
AN S
á»Ĳ I
IN E
bur gh
áºł N
ĠBut ler
ĠÄĲo Ãłn
akes pe
M A
N á»ĳi
O liv
X Æ°Æ¡ng
X áº£y
h y
r r
Ġt Ã¨o
Ġm Ãºt
Kh á»§ng
ĠC indy
Ng Æ°ng
ĠÄĲ Ã´i
ĠÄĲ Æ¡n
ĠÄĲ iá»ĥn
ĠL im
ĠL AUGH
ia h
ĠK ara
ĠF og
re en
Ġxu á»ĵng
ĠQu áº£n
qu Ã¡
ish a
ĠAb raham
G RUN
H all
R Ã¡ng
T an
W all
n ing
Ġk Ã©n
Ġng Ã¡y
ĠH ung
en berg
ĠD ong
ĠTh orn
Kho a
sh aw
ĠLa ke
ĠAb by
Br ad
hh hh
Je ff
ĠChapp ie
arao h
Y á»ĥm
g n
Ġth ough
Ġn anh
Ġb r
Ġs áº¡c
Th á»ķi
Nh áº¥n
ĠT á»ĩ
ĠCh Æ°Æ¡ng
ĠL ip
ĠD er
ĠD ia
ĠD re
ÄĲÃ³ i
ĠTr acy
ĠNh Ä©
Ġw al
ry a
ri es
ĠGi áº£
ud d
Ãģ I
He h
ĠEll iot
ĠLiz zy
B Ã£i
C isco
I ris
c m
l áº¥y
áº ©ng
Ġl á»¥i
Ġv Å©ng
Ġv áº±n
Ġg anh
Ġx Ã£y
Ġx áº¡o
Ġgi Ãłn
ĠS en
ĠS andy
ĠK ev
ic us
ĠO l
Ġf uck
ĠX uá»ĳng
ĠSh ane
iv er
ĠAr cher
ug ar
AR K
Sc ot
ĠRos ie
ĠDol ores
L Ãª
T áº·ng
b áº£o
Ġch áº¡p
Ġr Ã¨m
Ġph á»Ļng
Ġa xit
ĠC Ãºt
ĠC ec
ĠC ome
ĠM á»Ļc
ĠM un
ar row
ĠÄĲ au
ĠCh Ã©n
ĠD C
ĠD eep
ĠR ac
ĠK ira
ck y
ĠQu ang
ond er
CK ING
áº¬ P
ct ion
raz y
Sky ler
ĠThomp son
5 3
E v
J ai
K NO
L incoln
T uá»ķi
h art
u ka
y eah
Ġc áº©m
Ġs en
Ġr ong
ÄĲ á»Ļc
ĠS Ã¡ch
ĠL ÃĢ
ĠN ar
at on
ĠP eeta
om er
Ngh iÃªn
ff man
ĠGi ao
ĠBr id
sh ire
ÃĤ Y
ĠLoth bro
akespe are
B iá»ĩt
E rik
G a
H á»Ń
M á»©c
æ Ī
nh iá»ģu
Ġnh á»Ļn
Ġtr Ä©
Ġph ao
Nh áº§m
ĠB ryan
ĠH YDRA
Ġy es
Ġho i
ĠD anh
ĠD etroit
ĠTh á»£
us ter
Ġchu Ã´
ĠNg uy
le e
Ġ6 18
Ġkhu áº¥y
eg er
ĠGr u
Ġsh ot
ĠGab riel
ĠLab s
Ġgiá»¥ c
G od
G ary
H á»Ļ
P aris
S ay
r at
z ona
Â ĳ
Ġ áº©u
Ġm á»©t
Ġb á»«ng
Ġnh am
in ess
ĠM icky
ĠÄĲ á»ĭnh
ĠD á»ħ
00 3
re at
ĠX a
ĠGi Ã¡
ĠU r
25 3
FF B
Al an
red der
ĠTu co
ĠPark man
ĠSu á»µt
ĠCas ey
amb ers
ĠLothbro k
G u
K Ãª
X Ã´ng
w orth
Ã Ī
á» Ī
Ġth Ã¬nh
Ġv áº¹t
Ġn á»ĭnh
Ġa f
em a
Æ°á»Ľ n
Ġlá» §
ĠCh áº£
ĠD es
ĠD ent
ĠD allas
Ġlo anh
om ir
ĠQ uy
tr Ã´ng
ub e
inch ester
ĠDel ta
ÃĻ t
ĠLang ley
ĠRog ers
qui la
Cam eron
A v
F ran
M Ã¡
M iss
M erry
R eed
T á»ĳng
s á»ĳng
Â ´
ĠÄĳ áº¡m
Ġm eta
Ġng á»Ĺng
Ġng áº«m
Ġph Ã¡c
Ġngh áº¹t
em is
Th uá»Ļc
ĠH art
ĠCh Ãłng
ĠV ol
ĠN atalie
el u
Äĳ áº¡i
ed es
ig t
ag an
ĠGi ang
Ãģ N
ĠLu Ã´n
ĠMon roe
Ġst art
PH UDEVIET
Æ¯á»¢ C
D áº§u
J erry
W ard
b ao
g iáº¿t
p i
ī a
Ġth áº±n
Ġtr Ã¡o
ĠL ord
ĠL ola
as k
th or
ĠNh Ã³c
ent s
ÃĬ U
end ell
ĠCar son
Ġtrá»¥ y
AN N
ĠRob b
ĠÃĩ i
ĠtÃ© i
786 5
ĠOliv ia
HI ELD
6 6
9 3
B oo
H Ãºt
P lease
S usan
Ġ á»§
Ġa in
Ġx Ã©o
em ma
ch ez
ĠT á»Ļi
Ng áºŃm
ĠM Ã¡u
ĠH Ã¢n
ĠA le
ĠV on
ĠJ ang
ĠN Ãłng
ĠTr iá»ĩu
re z
ĠO ng
ĠphÃŃ m
and al
ĠEl sa
ĠLor en
Tho Ã¡t
Ted dy
ĠKe ith
ĠSon ny
Wil son
B ur
P in
R ight
S tr
T erry
b ell
u f
v ia
z an
Ġ 79
ĠÄĳ iá»ĥu
Ġch áº£o
Ġch Ã¹a
Ġv ung
Ġh igh
Ġng uyá»ĩt
Ġng á»Ńa
Ġr Ã¹ng
Ġr áº¯m
Ġtr Ã²ng
Ã© s
Ng áº¯m
ĠB á»ī
am an
ĠD VD
ĠG il
ĠF Bl
os ev
ur s
ag ne
ĠQu entin
ĠAb u
ĠMur dock
ĠkhiÃª ng
ĠPenn sylvania
C U
J oseph
N á»¥
S Ã¢u
i en
y er
Â ¢
Â ª
Ġch Ã¨
Ġh á»Ŀi
Ġnh áº¥m
... ,
ĠC oh
ĠC á»ķng
ĠC obb
ĠT en
ĠT ess
ĠM áº¡ch
ĠS ydney
Ġho ld
Ph udeviet
Tr á»£
ĠÄĳá»ĭ t
ĠP as
ur f
ick s
Ġp lace
um a
cÃ´ la
ĠcÃº m
á»Ĳ NG
ĠCol orado
ÃĴ i
Ġal bum
ĠNG Æ¯á»ľI
Kar en
uit ar
F C
G en
K ÃŃ
M Æ°a
W AT
a f
m et
Ġ Ã¡t
Ġl m
Ġl áº£m
Ġl Ã²i
Ġm á»§
Ġm ind
.. ?
Ġd Ã¬m
ÄĲ áº¥m
Th Ãł
ĠC ost
Ng Ã³n
ĠS ang
ĠCh ÃŃ
ĠR emy
th azar
Ġtu rn
Ġf ace
ĠMar cel
ers h
end er
ok er
áº¢ I
Cl ane
ĠPat ty
Deb bie
B áº¯c
H H
K Ã¬
N ancy
r il
Ġ eyes
Ġl áº³ng
Ġm á»ĳt
ÃŃ u
Ġgi áº»
ĠT ir
ĠB lo
ĠB ella
ĠR alph
ĠJ ennifer
it amin
ĠE ugene
Ġso Ã¡i
ac t
ale esi
ĠHe ather
Don nie
uch i
PH á»¤
ĠDoug las
ĠSand ers
D aisy
M Å©
c á»ĳ
v ed
Ġc Ãły
Ġv áº¥y
Ġn á»ĳc
Ġs áº§u
Ġr Ã¡o
Ġph á»Ľt
Ng á»įc
Ġ1 12
ĠB iá»ĩt
ĠS P
ĠS Ã´
ĠS Ãłi
ĠÄĲ an
ĠL ot
ia tus
ĠG ust
el ot
ĠI l
Ho áº¡t
Ho lly
Ġso da
um mer
ab ama
ĠU y
ĠCar m
Ġhe ad
ĠPr ince
bo dy
Bar ney
ĠSn art
Angel a
ĠFal cone
B ia
C or
G race
M ik
N at
R ich
S Ã´
c uá»Ļc
y Ãªu
Ġkh Ã¢
ph ne
Ġa d
ĠC Ãĵ
Ì£ !
ĠB ee
ĠB ecca
ĠS U
ĠV á»«a
ĠK ra
ĠNg á»¥y
Ġf all
Ġst ay
Ġrad ar
cel ot
EV E
ĠNaz ir
Ash ley
ĠMcG ill
ĠDaw son
ĠPak istan
osev elt
J enny
O NG
b anh
g w
Ġ á»ĩn
Ġc Ãºc
ĠÄĳ uá»ĳc
Ġm Ä©
Ġr Æ°
ĠC urtis
ĠT á»ĳ
ĠT ul
ĠT ak
ĠB elle
th Ãłnh
Ġ3 000
Ġtu á»Ļc
ow ski
ĠNh áº£y
av in
oi ra
ab ody
Ġcá»¥ m
ĠOh io
ÃĤ y
ĠÃ° i
ĠJeff erson
nold s
ĠKho a
Æ¯á»ļ C
7 6
A z
B ell
G áº¥u
U n
b ott
Ġt Ã¬
Ġt á»£n
Ġh Ã³i
Ġg Æ°
Ġph á»ī
Ch ung
Ġd ie
ch á»©
ĠT áº§n
ĠB Ã©
ĠCh urch
am o
ĠA ustin
ĠTh o
ĠR idd
ĠV Ã¹ng
ĠP in
it ri
ĠW ally
ĠTr áºŃn
ol eon
ĠI D
ĠPh iáº¿n
le d
)} âĻª
ĠchÃŃ p
Ġf l
ine z
ĠSc ar
ĠDon na
RI O
á»ĺ I
ĠVan essa
ĠStr ange
ĠMiss ouri
Ġcá»į p
BO TH
Ġcoca ine
C á»ķng
G Ã³c
H or
K em
L ogan
M áº£nh
g s
i os
l ah
u ff
Ġv Æ°á»£ng
Ġm á»ĭ
Ġb Ã³i
Ġb áº©y
Ġh app
Ġg áºŃp
Ch iáº¿u
ĠC Æ°
ĠM á»Ĺi
ĠH á»ĵn
en ix
Ph iÃªn
ĠL á»Ŀi
ĠG in
ĠTr áº¡i
th ra
ĠCon rad
Ġ7 3
ul can
ov an
Ġbo x
Ġbe fore
ve ng
ĠTim e
ĠRon an
IL L
ote in
ĠRho des
B uá»Ļc
B aby
U NG
l h
v eland
Ġl áº¿t
Ġv áº¥p
Ġv Ã²m
Ġn Ãºm
Ġgi un
Ng á»Ļ
ĠM ul
ĠB uá»ķi
ĠB ean
ĠA c
ĠG ard
ĠG atsby
ĠV eronica
ĠN ate
th á»ĥ
ic c
ĠO llie
ow ay
av es
ann on
Ra p
ĠBr on
785 7
ĠDar yl
yr ia
ĠMil an
Hel en
ĠMississ ippi
Ġlá»Ń ng
H erm
H ouston
L á»«a
h Ã´m
n ik
nh e
nh á»Ľ
Ġn Ã´i
Ġn á»ĩ
Ġb á»ĳt
Ġnh Ãºt
Ġph Ã©t
Ch Ã¨o
Ġthá» įc
ĠT ar
au nt
ĠÄĲ Æ°Æ¡ng
en ko
ĠL en
ĠD ark
ĠV u
ĠF ischer
ĠW inchester
Äĳ Ã¢u
ĠE arl
Gi áº£m
Ġp eople
od a
to pher
ĠDan a
ĠAll ah
ĠIs land
Ġhack er
ĠPhim HD
ĠPhill ips
C á»±u
M Ã¢
T á»Ŀ
c Ã¡ch
f us
h iá»ĥu
p a
x a
Ġt Ãłnh
Ġh áº±n
Ġg ar
Ġng Ã¡n
Ġr Ã¢m
Ch áº¿
ĠH as
ĠL á»ĩnh
ĠL ud
ĠL ex
ĠG as
Ġdo es
ĠP LAY
ĠTr á»Ł
Ġco ck
Äĳ Ãª
ĠO ptimus
Ġ4 4
ĠY uri
Cha ppie
Ġthe ir
ĠX Ã£
Ġtruy Ãª
ĠÂ °
ĠBe ach
igg le
ĠSky ler
Cam era
Sm Ã©agol
ĠGro ot
Cas ey
ĠAri zona
D Å©ng
H áºŃu
P ad
Y oung
c áº§n
c roft
r ent
Ġv áº¯c
Ġv á»įt
Ġm t
Ġm á»įn
Ġn ang
Ġr em
Ġph iÃª
Ch áº·t
Ġx Æ°á»Ľng
ĠM iá»ģn
Ġy Ãª
Tr Ã³i
ĠG wen
ĠTh uá»ĳc
ĠR ip
ĠJ et
ĠK eller
Äĳ á»ĵng
Ġ6 1
ĠSt ifler
ir ut
Ġ10 1
ag ue
Ġo ther
ab a
ĠX Ã¡c
lo ad
ĠKh an
ĠCl yde
ĠEd it
ĠBar n
uck y
ĠBe at
are z
ÄĲÆ°Æ¡ c
bur y
ern ando
ĠCap tain
rel and
Lau ra
Ġbl ah
let on
etch en
A V
A ragorn
C E
C Ã¡o
K yle
V irus
k á»ĥ
l en
l ass
t ail
Ã ¶
Ġs Ã«
Ġh Ä©nh
Ġnh áº£
Ġng Ã¡ch
Ġngh Ãª
ĠC ro
ĠC EO
ĠM áº¡nh
ĠB ran
ĠÄĲ Ã³ng
ĠH uyáº¿t
ĠJ ude
ĠK an
ĠF rey
Ġan H
Äĳ Ã¡nh
ter oid
Ġp lease
um ber
ĠAl abama
og way
Al vin
ĠSp encer
Ġ18 0
ĠBer k
AR D
May a
Ãĵ i
EN N
ors ch
Ã¤ i
ĠPe abody
ĠBrad ley
. )
C REA
L ING
v ui
z er
Ġch áº§n
Ġs Ãłnh
ĠT on
ĠH Æ¡n
Ġy áº¿n
Ġlo gic
ĠP oseidon
Ngh á»ĭ
Ġco py
ĠI ng
Ġ6 3
un der
ry s
ĠSt d
ĠlÅ© y
igh ty
ĠKh Ã¡ch
785 1
Ġ0 4
ĠMor ris
ep t
ĠNgh iÃªm
ĠTe ch
Ġevery thing
ĠStev ens
ĠDecept icon
ĠCraw ford
H obo
M ick
Q U
R en
c oi
c ome
j orn
x e
Ġt Ãºm
Ġc á»Ļ
Ġl s
Ġch Ã¡nh
Ġb á»£m
Ġg Ãłng
Ġnh ung
ĠnÃł i
Ġqu áº¿
Nh á»ĭ
ĠM ao
ĠM en
ĠH á»ĩ
am ir
or ah
ĠA ss
ĠR á»«ng
ĠP ri
ĠTr avis
á»ª a
ĠE c
Ġ6 5
Ġ6 8
Ġmu á»Ĺi
Chu á»Ļt
ĠKh Ã¡
ĠKh áº£
ers t
ĠGiá» ıi
ĠCr oss
ĠEr in
ĠDaniel s
Ġxáº» ng
ĠPier re
pr ess
lu Ã´n
mus ic
fn Hobo
B uddy
H Ãłn
J ae
S yl
T Ã¡i
T Ã¢y
Y ep
n ight
p sy
s á»ĳ
Ġ Ãºt
Ġt ÃŃt
Ġl Ã¬nh
Ġl á»¥t
Ġth ings
Ġn á»įc
Ġb Æ°á»Ľng
Ġb á»±a
Ġph Ã¡ch
ch Æ¡i
ĠC aitlin
er esa
ĠS aw
ĠCh loe
ĠD Æ¡i
ĠTh ÃŃch
ĠN GH
ĠP y
ĠF il
ĠTr ans
Ġ6 19
ott s
ĠMo on
Bar b
inder man
B on
I R
L á»Ĺ
L aw
M inh
N áº·ng
R agnar
T ur
U ng
p per
v ing
ä ½
Ġl á»«ng
Ġk ill
Ġh á»£m
Ġr ao
Ġr áº«y
Ġx Æ°á»£c
ĠT á»ģ
ar io
ĠÄĲ Ãª
ĠÄĲ Æ¯á»¢C
ĠL oki
am y
ĠG ol
ĠV Ã¢
Ġdo ing
ĠP izza
ĠTr Ã¹m
th ers
Ġba ll
ĠI nh
ur u
Ġf ile
Ġp anh
ord o
Ġsu re
ĠJo an
qu an
ĠMa e
ĠHay es
ĠIn terpol
rag a
su ko
ĠDu ke
Cu Ã´
ĠBu Ã´ng
enness ee
A O
N á»ķi
X ung
b an
r os
s ull
w h
Ġc áº±m
Ġc Ã¹i
Ġth Ã³c
Ġb ai
Ġh á»Ŀ
Ġph ai
Ġd c
ÄĲ en
Th áº¯t
ĠC ad
ĠM Ã¹a
Ã½ c
ĠL ight
Tr á»įng
ĠD amien
Ġw ater
ĠNg u
Gi áº¥u
ĠSh akespeare
Ġ9 00
oy le
ĠAn t
ain es
ct av
ĠDun can
ĠJan et
ĠNic ole
Jess ica
ĠKl aus
Ind y
' ,
C ause
c om
l Ãª
m el
r ina
» a
Ġc Ãłn
nh Ã¢n
Ġk á»ģn
Ġn á»Ľi
Ġb ÃŃch
Ġg Ã²
Ġnh á»ĥ
Ch Æ°
Ch Ãª
Ch Æ¡
Ġd iáº¿m
Th áº¥p
ĠT usk
ĠS ync
ĠCh ar
ĠL áº§u
am per
Ġto Ã¡i
ĠK iáº¿n
á»ª NG
ol s
Ġp áº£i
ard s
Ġhe ar
ĠWil kes
ĠCal vin
ĠPet rov
ĠcÃ »a
Ġngá»¥ m
ĠRh ett
ĠChap man
, ..
2 000
J une
K iÃªn
L Æ°á»¡i
M Ã´ng
T iáº¿t
V ai
d ale
g u
m as
t u
Ġch áºŃp
Ġm á»ģn
Ġm á»Ńa
Ġh á»§
Ġtr Æ°á»Ľng
ÄĲ á»¥
ÄĲ á»ĳng
ao mi
Th Æ°á»Łng
ĠC ab
ĠT Æ°Æ¡ng
ĠT iÃªu
ĠB Ãłi
ĠB ry
ĠB ael
ĠG oku
ĠTh Ã¡ng
im er
ic i
ill es
ff e
Ġu áº¿
ĠAn a
ĠDo thra
Jack son
ist en
yr us
IC AP
Christ ian
tim ore
GAS PS
C os
D ra
G áº¥p
G ro
d een
Ã Ľ
Ġl Ã¹a
Ġn áº¥ng
Ġh Ã¡m
Ġnh Äĥng
Ġng áº£
Ġqu áº©y
Kh á»ĳi
in al
ĠT s
Ġto áº£
ĠV iet
ob by
ag a
Ġ9 7
Æ¯ u
ĠZ e
Do c
ĠSan chez
ĠCam elot
áº¬ N
Ġal ways
ĠFred dy
ĠLor raine
ĠAndrew s
ĠDor ne
ĠGrey joy
Ste phen
ĠRich ie
asm ine
ĠColumb ia
L enny
L ydia
O ne
S okka
X Ã³a
b áº¯n
f u
f ul
g á»įi
s in
Ġt eo
Ġt áº¡c
Ġc are
Ġng Ã³ng
Ġd áº»
Th áº£o
ĠM á»«ng
ĠM áºŃp
ĠS ebastian
Ġtho se
Ġ... ?
ĠPh ÃŃa
ĠNg á»įn
ill s
id o
Ġf ax
ent iss
ĠKh al
land o
ĠHam ilton
ĠJul es
Ġgot ta
ĠRey nolds
ĠAnton io
Jam ie
ĠMori arty
Scot ty
æĪ ĳ
R oman
T á»Ļc
T Ã¡n
W ALL
m au
s te
Ġt áº©m
Ġk ung
Ġb on
Ã¡ Âº
Ġd ing
ÄĲ á»ı
ĠM Ã´ng
ĠM Å©
ĠS ec
ĠS ull
Ġy áº¿m
ĠL et
Tr Ã¡ch
ĠN elson
om ar
Ġkáº» o
Ġan other
Äĳ á»©ng
ĠE ng
Ġca bin
ĠQu Ã¡n
ann ing
ab b
ĠGi Æ¡
ĠGi un
ĠZ h
Ãģ c
Ġwh y
ĠTH ÃģNG
Br and
ĠLang don
ĠFr ost
ĠGro dd
Ġ67 2
sull ied
G yeon
S n
V á»ı
m ay
r es
t own
Ġt Æ°á»Ľi
Ġt ennis
ĠÄ ©
Ġl Ãºn
Ġm ust
Ġb áº§n
Ġb áº¹p
Ġh Ã¹m
Ġh appy
Ch loe
Ġthá» ıi
Ġd Ã¨
ÄĲ c
Ġx á»Ł
ĠT Ã¡m
ĠM ot
ĠÄĲ á»ģ
ĠH Ã´n
ĠG loria
ĠV Ãłi
ĠK Ã½
ĠK ane
ĠP itt
ĠTr is
Ngh á»ĩ
ra in
Ġ- --
Ġ8 7
co ck
ĠEl ias
ĠAd rian
pp s
Ben jamin
ĠNgh i
ek ov
IS T
ĠHer cules
How ard
ĠCle veland
col ate
ÃľÃĸ i
C ooper
E very
M iller
R aven
W yatt
f le
s er
w i
ã Ģ
Ġth Ã²
Ġm orn
Ġm Æ°á»Ľn
Ġb Ãłnh
Ġg Ã£i
Ġd Ã©p
Ġx Ã³
Kh a
Th á»ķ
ĠB á»±
or row
Tr Æ¡
ĠD ub
ĠR ex
ĠJ une
ou x
al es
as ka
us co
ĠE nd
Sau l
tr á»«
ec ause
ĠRob ot
rie d
eel er
erg us
ĠNap les
ĠAth ens
ĠPor ter
ĠVIá»Ĩ T
risto ff
4 00
A ur
H Ã¨n
P ier
R ad
S O
U M
b u
s i
v ers
Ġ á»īa
Ġt on
nh Ã³c
Ġv itamin
Ġm áº«n
Ġx iÃªn
Ġx Ã¡t
ÃŃ p
au de
ĠÄĲ á»ĭch
ĠL iá»ĩu
ĠA veng
ĠR ow
es te
ĠV ern
ĠV ulcan
Ġchá»ĭ ch
ĠTr á»«
Ġf ree
Ġnguy Ãª
ĠbÃŃ p
ĠSh redder
enn er
sh in
Ġbo a
Ah hh
ĠGr ady
ook ie
ull er
ĠBeck ett
kho an
ĠGen esis
Per cy
ele ine
ĠKai ju
ĠSun ny
ĠVI P
B at
B ilbo
G uy
I P
L IN
V iá»ĩn
Z oe
j an
t iáº¿p
Ġc áº¡p
Ġch á»Ļp
Ġm ar
Ġm Äĥng
Ġm et
ĠC á»Ń
ĠM us
ĠM oh
ĠL ove
Tr Æ°Æ¡ng
Tr anslator
ĠD ylan
Ġba d
ĠNg Å©
id as
ig el
ĠKh á»§ng
Ãģ O
end an
ĠJul ian
ĠSte fan
ĠRom eo
ĠNev ada
Ġhel p
ĠTir ith
orsch ach
b Ãªn
s ie
Å ¨
Ġ NghÄ©
Ġc omp
Ġth Ã¢u
Ġth ese
Ġk Ã¨
Ġv áº£ng
Ġg uitar
Ġgi en
au ss
ĠS á»ĳng
ĠCh uyá»ĥn
ĠP la
ig o
ev a
Ġ8 2
se a
lo ki
Al bert
ib le
ĠMc K
ĠJon athan
ation al
ĠEv il
Ġsam urai
acqu es
ĠCai ro
Ġdoll ar
owal ski
gw arts
7 4
; ...
H Ã´
H áº¡nh
H áº¡t
M á»ĩt
N icky
R od
T Ã¡ch
Ã §
Ġ Ã³
Ġ und
ng á»ĵi
Ġt á»ıi
Ġl Ãºng
Ġch Ã¡c
Ġb ig
Ġb elie
Ġkh Ã¡nh
Ġr Ã©t
Ġd áº¡t
Kh Ã³c
Th Äĥ
Th ua
Th Ã¡p
ĠT Æ°á»Ľc
Ng á»±c
ĠH oo
ĠD ex
ĠR ita
ĠR ox
ĠP erez
re k
ĠO d
ĠPh araoh
ĠNh Ã³m
ĠNh Ã£n
ee z
ĠAr kham
Sh it
per a
qu er
ld er
ĠWh oo
St ark
op ez
ĠÃģ nh
Frank ie
ĠTy rion
ngh Ä©
ĠMo ore
ĠGl enn
ĠChrist ina
ĠHill s
ĠJam al
ĠCass ie
ys sa
Josh ua
Mos es
B al
B ecca
B onnie
C á»Ĺ
H Ã²n
L yn
M itch
P ippin
Y ah
Ã Ľi
ä º
Ġ es
Ġl Ãµa
Ġm Ã¨
Ġm Ã©o
Ġs á»ıi
Ġd el
ch ester
ĠC ON
ĠC ynthia
ai ge
ĠB i
ĠS T
ĠS HIELD
ĠH á»ıi
ĠH im
ĠH um
ĠH ass
ĠD al
ĠR ING
ÄĲÃ³ n
ĠV Ã²ng
at ed
ĠK urt
ĠK ling
as per
ĠTr Ã²
ĠE ve
ĠE ggsy
ĠPh áº¡m
oo by
ĠY am
Ġ6 9
Ġso a
ĠCon way
ĠQu inn
ĠQ uill
ĠBr ick
Ġsu Ã´
by e
Ãľ ng
Mer lin
Boy ka
B áº¡ch
N icholas
P ep
T á»ī
U i
s ite
w ick
Ġ om
Ġ even
Ġk áº¿p
Ġv Æ°Æ¡
Ġn á»ĩn
Ġb ro
Ġs áº¥y
Ġng Ã½
Ġr oll
Ġd áº¥n
Tr anh
ĠP ol
ĠF our
ĠF ree
ĠF isk
it ty
ĠI reland
ĠNg Ã´
av a
tr om
ĠEd gar
Wh en
ast an
Ar gh
Ġchá»£ p
ĠEll ie
ĠSe attle
Ã± i
Ray mond
Iá»Ĩ N
ÃĨ t
Pat rick
ĠWar ren
áº¨ n
ĠJen kins
ĠLoren zo
C Äĥng
C at
D en
G eorg
M Ã¡i
R ebecca
n ell
w on
~ )
nh am
Ġch ao
Ġv on
Ġb ow
Ġh áº¯t
Ġph Ã¬
Ġd is
ĠC ot
ĠT ang
ĠT Ã³c
Ng á»ĳc
ĠS asha
ĠD ai
ĠD Æ°á»Ľi
ĠD ew
ĠK ay
ĠK ÃŃnh
et o
ĠP au
ĠO ogway
ad en
ell us
le ep
Ġno thing
ĠX Ãł
ul k
ul in
ĠWill y
Ġnho Ã¡ng
iff any
Re ese
Dá»± ng
cá»© u
ĠSl ade
ĠClay ton
Her cules
ĠOlymp ic
icc up
ĠDothra ki
ICAP RIO
G Æ°Æ¡ng
H uy
S asha
T uyáº¿t
Y our
h Æ¡n
m ann
Â ¯
Ġc Ãį
Ġl á»ıi
Ġth á»ĳt
Ġth iá»ģn
Ġk ind
Ġm Ã³
Ġm eth
Ġb reak
Ġh un
Ġr ÃŃch
ch Ãºa
ĠS E
ĠH áº¡nh
ll e
or o
ĠR icky
ĠN inh
ah an
ĠO re
ĠO ver
Ġp ut
ud i
co on
our g
ĠCr aig
ĠÃĩ Ã¢y
Ãĵ ng
Alex ander
Bl u
ĠUn sullied
ĠAs gard
ĠDam on
asc al
ĠVik ing
Andre a
KNO CKING
D ao
E ve
E ugene
H itler
I van
S á»¯a
T T
T ia
g un
r igan
t Æ¡
v o
áº º
Ġn it
Ġs ushi
Ġh Ã³c
Ġg á»Ļi
Ġnh áº£i
Ġr Ã²ng
Ġph á»ĭch
áº½ m
Ġx Ãª
on z
Ġchá» «
ĠC ersei
ĠB re
ĠB anks
ĠL ow
ĠL iam
am ura
ĠG ul
ĠG eller
ĠR V
ĠR Æ°á»£u
Ìĥ !
ĠN Y
ĠkhÃ³ e
Äĳ o
ter n
Ġ10 8
ev y
te en
aw ay
sh i
St ar
Tuy Ãª
á»Ĳ C
Ġmá»¥ n
ĠdÃ² m
ĠRo osevelt
ric ia
Ġ** *
ĠrÆ¡ m
ĠAndre a
ĠDO OR
P eeta
R eg
S id
W O
c Ã¢u
c re
f l
l ar
m in
p us
s áº¿p
Ġ ow
Ġc n
Ġl á»įi
Ġl Ãĥ
Ġth á»ĳn
Ġn áº¿p
Ġnh áº¥p
Ġph iáº¿m
ÄĲ á»ĭch
on el
on ne
Ġgi áº«m
ĠmÃł o
ĠT ia
ĠT Æ°á»Łng
ĠT ina
ĠM ountain
Ġlá» ©
ĠB ak
ĠH Æ¡i
ĠL ov
ĠD im
ĠD iana
ĠR oll
ĠK á»ĩ
ĠTr anslated
Äĳ áº¥y
Ġp ro
NG ÃĢY
Sau ron
ĠSh aron
ank o
az on
Ġ11 5
Cl ark
ron os
Ġthá»¥ c
Ġde ad
ĠTheo dore
Jul ia
ĠNap oleon
ĠHerm ione
ĠPow ers
Ġná»ĩ m
B áº§u
B etty
D ICAPRIO
H ah
L an
L ester
M ed
S i
V ince
m ent
u ardo
Ġng Ã¡ng
Ġx Ã¹
ĠT op
ĠM ob
ĠB ert
ĠS in
ĠH ad
ĠH uynh
ĠD uy
Giá» ¡n
om bie
Ġ3 57
ĠPh illy
ÃĢ i
ÃĢ NG
Gi ai
Ġngu á»Ŀi
ath cliff
ond u
ĠAn thony
ĠCar ver
Ġru á»ĵng
Sc arlet
Iá» Ģ
amp agne
ĠFr ing
Hu áº¥n
........ ........
nt ze
SI GHS
ĠHotch ner
Ãĺ ng
Son ny
elu jah
- "
D ennis
F inn
H obb
M ason
S á»©
Ã Ĺ
á» İ
Ġl uyÃª
Ġm ad
Ġb Ã³n
Ch iÃª
ch Ãłng
ch ie
ĠC áº¥p
ĠT iÃª
ĠM iÃª
ĠB uch
ĠH ir
ĠL Å©
ĠL iv
eo k
ĠW it
ol ai
ĠE M
ĠI owa
and ora
ill on
id an
Ġ6 56
ir es
ĠMar c
ĠQu áº§n
Ġ9 5
Ġdu á»ĩ
ĠsÃ´ cÃ´la
ĠCarl o
ĠCr assus
ĠIs abelle
EA KING
á»¨ C
ĠAp ollo
ĠRuss ell
ĠCrow ley
ĠJed i
Æ¯Æł NG
ĠPLAY ING
C atherine
G RO
H ANN
L am
S Ã³ng
Y uri
b Ã´ng
o or
w ulf
Í Ģ
ĠÄĳ áº·n
Ġg iáº¿m
Ch Ã©m
au er
ĠM I
ĠB Ã¡m
ĠCh oi
ĠL ÃŃnh
ĠD em
ĠG Ã²n
ĠP apa
ĠW ay
ĠTr istan
ic ate
ĠAl vin
ĠZ ero
ĠAr ryn
Ġnam e
ĠBen ji
st ant
ĠCal eb
Mu Ã´
ĠMad ison
ĠJan ice
Ġany thing
Ġen ough
Meg an
ĠFish er
Ġhero in
Ġwr ong
ĠMand arin
D ON
G us
J ustin
O llie
S ir
b ot
m Ã¡y
s om
á» ĸ
Ġt Ã¡nh
Ġl aser
Ġm ui
Ġs l
Ġs n
Ġh ÃŃ
Ġh en
Ġa ss
Th áº£m
ĠC Æ°ng
ĠM ug
ar itan
ĠB Ã´
ĠS S
ĠS et
ĠÄĲ ao
ĠH orn
ĠD Å©ng
ĠD ung
ĠD ec
ĠG Ã³c
is ky
ĠK ia
ĠF oster
ĠW ho
ĠPh eebs
ĠEm il
ber ty
ere en
qu ez
iz a
St uart
Ãĥ t
ĠAll ison
Ġle ave
Ġpr otein
ĠHu gh
ĠBoy d
Ju dy
CREA M
quer que
6 5
K iáº¿n
L Æ°á»£ng
V o
d al
Ġt á»Ļt
Ġt uá»ĳt
Ġl n
Ġl Ã¡c
Ġm in
Ġr á»įi
ÄĲ Äĥ
ĠB ye
ĠH Ã´
ĠH annibal
ĠCh en
ĠL ionel
Tr á»Ļm
ĠD Ã²ng
el ope
ĠW ol
th day
Ġw ind
oo th
ĠSt ella
ran ce
Ġp ass
ĠX ÃŃch
Ġ9 8
ap er
enn ie
ĠU k
ĠAm elia
Sam my
Ġláº» o
bur ger
So phie
ĠRichard s
á»Ģ N
ĠSuper man
Robb ie
ä½ ł
B ing
C ole
C oulson
L ÃŃ
T áº£n
T iá»ĩm
e i
g áº§n
g ether
h uman
i anne
m á»Ł
n ia
o ch
Ġ Æ¯á»Ľc
Ġl áº£i
Ġl ight
Ġv s
Ġh áº»o
Ch un
ay s
Ġngh áº½n
ch á»Ĺ
Ġ1 10
ĠS ir
ĠCh el
Tr ao
Tr acy
ĠA L
Ġlu á»ĵn
Ìĥ ...
el d
Qu áºŃn
ĠO f
ĠO laf
ĠNg Ã´n
ĠHo ffman
tr Ã¡nh
se ng
ov ich
st al
ull en
ĠRa ph
Gh áº¿
ree k
Rob in
á»ĺ C
ĠBu ff
ĠBal timore
Fel ix
Dar yl
Cast le
Ġcock tail
D ick
H oney
R an
e ars
h k
m ett
s oo
v y
w ig
w icky
Ġ ^
Ġt Ã¢ng
Ġth Ã³p
Ġch Ã²m
Ġm oney
Ġb est
Ġs weet
Ġnh á»«
Ġd one
ĠC áº¢
ĠB Ãłn
ĠH iá»ĩu
ĠH áº¡ng
ĠL on
ĠL á»Ńa
Tr Ã¬nh
ĠD iá»ĩn
ĠJ ung
as im
ot ta
ĠPh Ãºc
arl y
ĠHo an
ĠMar vin
ann i
ac ey
ĠSp arrow
ĠÃĩ Ã£
ĠMin as
ĠHam mond
ÃĴ NG
ster dam
ĠThu áºŃt
Ġchá»Ń ng
ĠDra ke
á»® NG
ĠGiÃª su
ĠPho enix
Rap unzel
B lake
P e
R á»Ńa
T Ãłn
c áº£nh
i ott
m u
Ġk u
Ġh ao
Ġr ang
Ġtr Äĥn
Nh Ã©
ĠC ur
ĠC rixus
ĠT uyÃªn
au n
ĠH áº¡m
ĠCh á»«ng
ĠCh á»Ľp
ĠL ui
ĠD og
ĠD own
ĠV áº»
ĠK athy
ĠF rances
ĠW ang
ĠTr inh
ĠTr áº¡m
ĠTr ead
ĠNh Ã¢
ran e
784 9
ian s
eg gy
LE Y
ĠSim ba
igg ins
ĠSky net
ga ery
ĠDur ant
ĠSai yan
6 1
A gh
B AL
B ourne
C rixus
D A
D ana
F O
F T
H Ãª
L uyá»ĩn
P E
R h
R á»ĵng
S y
T áº¯m
Z ach
r and
Ġt en
Ġm or
Ġng Ã¢
Æ¡ ng
Nh Ã¢
er ta
ĠS ully
ĠÄĲ I
ĠH iá»ĩn
ĠH Ã³a
ĠCh ambers
Ġto gether
ĠV ale
ĠP erry
ĠE uro
ĠHo ang
Ġp ao
ro g
ĠthÃ¹ y
ion s
ĠZ ack
ĠSp ark
ĠvÃµ ng
ER ING
ĠCr uchot
ĠCH O
á»¦ a
ĠQueen s
Bo om
amp ire
Ġweb site
Christ ine
Fl ash
lah oma
Law rence
G á»Łi
I l
M E
M iles
N á»ģn
R Y
S orry
h áº£
s Æ°
Ã ·
Ġl á»¯
Ġn ung
Ġs top
Ġh Ãªn
Ġh Ã©o
Ch áº¡m
ĠM icah
ĠB O
ĠB ul
ĠB aby
ĠS ugar
ĠL inc
Tr is
ĠG au
Con nor
ĠR oland
ĠV ar
el o
Äĳ á»ģu
ĠI P
ig s
igh ton
Ġ19 44
ex t
ĠCar r
ook a
ren aline
ĠPeter son
ĠPl ay
Clar ke
ĠBael ish
C all
G iÃª
J ennifer
S H
V áº»
X i
d el
e as
g Ãł
m und
p lor
r Ã´
u ki
Â ³
Ġs Ãªn
Ġs á»įc
Ġh ard
ĠT ob
ĠT oby
ĠM á»ĩnh
ĠB á»Ĭ
Tr iá»ĥn
as se
ĠF air
ĠTr ai
ĠE h
ĠY ale
Gi Ãł
ry stal
Ġf irst
ĠQu á»³
ff er
iv al
Ãį CH
áº¢ o
ĠDan te
pp a
Khu Ã´n
ĠLo áº¡i
aa a
ĠJer emy
ĠEv elyn
For eman
ĠKling on
# #
H á»ķ
N áº¥p
N Ãºi
O wen
p ere
w all
y on
Ġs á»ĵi
Ġg Ã¡n
Ġnh Ã¡p
Ġph ung
Ġx iá»ģng
em s
ĠM Ã¹i
ĠCh ip
ĠL em
am el
ĠTh Æ°Æ¡ng
Ġto an
ĠN Ã´
ĠN ova
et on
Qu Ã©t
ĠW u
Ġp er
tr á»Ł
ĠAl aska
ĠBr andy
ip e
ĠKh á»ĳi
á»ľ I
Ġ00 7
Hy ah
yl and
ĠGod frey
ĠCarol ina
ĠAp ril
ĠPo int
ĠInd y
ild ur
Ros ie
Del ta
ĠYan kee
ĠDis ney
aunt less
8 00
B Ã²
B Ã£o
C L
L es
g or
i que
m ang
Ġ áº¯t
Ġl áº·t
Ġn ÃŃu
Ġb ung
Ġkh uynh
Ã¬ i
Ġng á»ı
Ġtr áº«m
Ġd r
Ġd es
Ġx á»Ńa
Ġx Ãºi
ĠT ennessee
ĠM yr
ĠCh ÃŃn
ĠCh aney
ĠR i
ĠR in
ĠR Äĥng
ĠR av
ĠV á»Ľ
ĠV ampire
ĠP ike
ĠP ope
ĠF err
ĠW ith
Äĳ áº·c
ĠPh Ã¡
le g
Ġf ight
ĠHo gwarts
ri ve
tr ung
ĠKh á»ķng
ĠAr c
Mar garet
Al fred
ren e
ĠAb e
ĠÃĩ Ã³
He ather
ĠTy win
Ben ji
ĠHam mer
ĠEn c
ĠMe ereen
ĠOm ega
ĠMich igan
ĠSer ge
Ãĳ n
entin el
AC E
ĠCamp bell
Mich elle
ĠBroad way
ĠSull ivan
E ggsy
K arl
L ewis
M áº¯c
O ptimus
R áº¯n
v Ãłi
Ġ own
Ġk Ã©p
Ġv Ã¡ng
Ġm áº·n
Ġb á»£
Ġh á»ĳc
Ġg one
Ġg iá»ģng
Ġnh Ä©
Ġng á»ĳ
Ġtr c
Ġta nh
Ch iÃªu
on n
Ġgi Ã²
ĠC Äĥn
Ġ1 60
ĠÄĲ iá»ĥm
ĠH uyá»ģn
Em il
Tr áº¡i
Tr á»¥
ĠD á»ĭ
ĠD icky
Ġto p
ĠJ ae
Ġdo g
it ed
78 67
Ġ6 39
ag le
ĠMar ion
ĠÃ ĥ
ĠSh eila
eg an
Mar ion
qu in
ĠMin nes
ĠLou ise
ĠWe aver
ĠChrist ine
sp ir
ĠHobb s
ĠNik ita
Ġfeel ing
ĠMir anda
Ã©s ar
Ġgar age
ĠMinnes ota
, //
A Nh
B ern
B ryan
C athy
D á»ĳi
D av
G ollum
I Z
P apa
R á»«ng
W in
c es
d an
ç ļ
Ġ et
Ġth uy
Ġn iÃª
Ġs Ã¡m
Ġh áº¥n
Ġr áº¡n
Ġtr Ãª
ĠC Æ°Æ¡ng
ĠC áº£ng
ĠthÃ¬ a
Ġ1 30
á»Ń ng
ĠA ragorn
ĠG ui
ĠR y
ĠN ov
ĠF ab
ĠW ars
Chá»ī nh
Ġvá»ĩ t
ĠPh áº£n
ur an
Ho áº¯c
ĠAl f
ĠU p
ĠSc y
An ne
yl on
Ġhe h
ĠDon ovan
Ar t
ĠHe ights
Ġby e
ĠMark s
ĠHel ena
ĠÄĲo Ã¡n
ĠGh ul
Ġcom ing
ĠBrand t
Gab riel
ourt ney
ĠDw ar
Park er
A ye
C aitlin
D uy
E va
I saac
P l
R onnie
S oo
S av
V Ãª
W at
b ack
b ird
s burgh
Ġt á»ģ
Ġng Ã³c
Ġr Äĥn
Ġd ance
Nh áºŃp
Äĥ c
ĠT ook
ĠM agn
ĠÄĲ em
ĠH ello
Ġy oga
ĠL Ãª
im ir
Ġlu á»Ļc
ĠR un
ĠV inh
ĠV augh
ĠJ ensen
is ta
ĠK am
Qu áº£ng
av ers
all on
tr á»Ŀi
ĠBr uno
ĠTa ke
Al pha
aul t
ĠÂ ¿
ĠxÃŃ a
rick s
ĠNgh á»ĩ
Kat ara
ĠChris topher
All en
aus er
ĠPro ctor
ĠRen ly
ĠSum mer
Van essa
ĠMart inez
ĠBlo om
ĠLot so
C á»¡
D Æ°Æ¡ng
E w
H ere
K n
K ing
L Ã´
N ot
R ox
Y áº¿n
c ine
m ed
n Äĥm
r ah
Ġ ooh
Ġl Ã¡u
Ġth Ãªu
Ġv á»ĵng
Ġkh á»ĳ
Ġs áº£y
Ġs á»¥t
Ġr es
á»ĩ p
Th ang
ĠC reek
ĠT á»ĳng
ĠT ÃĶI
ĠM ong
ĠM all
ĠM ama
ĠM elly
ĠB art
ĠCh á»ĳng
Ph áº¡m
ĠL Æ°Æ¡ng
ĠJ r
ui r
ĠP iper
ĠW is
Ġ4 1
un n
ĠSt acy
ĠdÃ¹ i
Ġf ine
ĠMar co
nd icate
ĠÃ ±
ĠGi Ãł
ĠKh Ã³
old em
ĠWh eeler
ĠMa in
yd er
á»ļ I
ĠStan ley
Sm ith
áº¦ U
ĠAng ie
Carol ine
ĠMerc edes
ĠMorg ana
Barb ara
çļ Ħ
A p
C T
I CK
L áº¹
M Ã³c
N N
S Äĥn
S ad
S ant
S andy
X inh
X Ãºc
k áº¿t
k ie
l iá»ĩu
l BAL
o f
s ub
Ġ áº»o
Ġl á»įng
Ġch ÃĴng
Ġv ery
Ġs Ã¡p
Ġg áº¡c
Ġtr á»Ľn
ĠÄĳÃ³ a
Ġgi Ã²n
ĠÄĲ á»ĺ
ĠH ell
ĠCh ester
am er
ĠG eo
ĠG oogle
Ta ke
ĠR andy
at ur
ĠF le
th el
ĠY emen
á»· u
Ġ8 1
Ġe arth
St u
Sam uel
Ġst and
Bay max
ĠOk lahoma
Ã± a
Ab by
ĠAdam s
á»¨ ng
ĠBoy ka
ĠIt aly
LAUGH S
ĠBis hop
Ġbow ling
Ġlá»© a
HANN lBAL
B uck
C ai
D á»ĭ
H áº¯c
N ed
N ak
P ING
Q ui
S il
n Æ°á»Ľc
u gh
Ġt áº¥c
Ġc uá»ĳng
Ġch at
Ġm atter
Ġb Äĥm
Ġb á»ĵng
ÄĲ Æ¡
Ġchá» ĩ
ĠM erry
ĠS O
ĠL O
ĠD iane
ĠTh is
ĠR ic
ĠJ ong
ĠF lint
ie v
Ġmu á»Ĺng
Ġf ar
ev ie
ap ore
ĠAl icia
Ġu á»·
ĠBr enda
ĠKh a
ĠSc arlet
Mar sh
ins ki
St even
ish io
ren ch
Ãĵ n
ĠTim es
ĠSch midt
ĠCas ter
ĠCas tor
Ell en
qui ao
ĠNgo Ãłi
UY á»ĢN
Christ ina
ĠRobin son
ĠSol omon
ĠJar vis
ĠÄĳá»į a
ĠOut is
ĠOre gon
oldem ort
A na
B á»ĵi
D áº«u
E W
F uck
H Æ°
J U
M om
N Ã´
P A
R ip
S now
V iÃª
c ar
d ra
z en
ĠÄĳ ay
Ġl áº¡ng
Ġkh Æ°
Ġkh áº¯t
Ġg am
ÄĲ e
ĠT O
Ng á»įt
ĠS á»£
ĠS ÃģT
ĠH ee
ĠCh ung
ĠL á»ĭch
ĠD utch
ĠTh an
es ta
ĠW right
us a
us oe
Ġ5 67
ran s
ag rid
ab e
ee ch
Ġ20 16
ian i
if u
ett ing
ĠAm sterdam
ĠMc Clane
Ġnhu á»ĩ
ĠWat er
ĠEver deen
ĠAlb u
gr im
ĠWins ton
ĠAT M
ĠCá»Ń u
B iÃª
H á»Ł
Q uill
R iÃªng
S k
X Ã¢y
c ola
s inh
v Ã´
y y
Ġm Ã¡ng
Ġm á»ģ
Ġkh ay
Ġg áº£
Ġg á»ī
Ġnh oi
ph is
Ġph Ã¤i
Ġcáº£ u
ĠB Ã¡u
ĠS Äĥn
ĠS ig
ĠH om
ĠH aku
ĠH ades
Tr Æ°á»£t
ĠD ream
ĠG eeta
Ġto áº¡c
ĠF ergus
Ġ10 5
ĠGi Ã¡c
ĠCl iff
Ġ19 45
ĠLu is
ĠthÃŃ m
ĠAm azon
Ġuh m
áº¾ N
ĠRoss i
ĠJul iet
Sim ba
á»¤ C
kho áº£ng
ĠBing ley
Ġchá»ĩ ch
A k
B Ã´ng
B áº£ng
C Ãłi
C RI
D R
E o
H áº¥p
M iá»ĩng
R AN
V áº½
h Ã¬nh
t le
Ġ á»Ĳi
Ġt Ã²ng
Ġv Æ¡i
Ġb á»¥c
Ġb á»īnh
Ġs pe
Ġh Ã¢u
Ġh áº½m
Ġd á»ım
ĠC áº¯t
ĠC op
ĠT es
Ng Æ°
er al
ĠCh á»ĵng
ĠCh uyáº¿n
Ph o
Ph ÃŃ
ĠL Ã¡i
ĠL ev
ĠD áºŃy
ĠTh iá»ĩt
ĠR ahl
el in
Ġgh áº¹o
Kho áº»
ĠJo ker
Sh in
ĠÃģ i
ĠCam bridge
56 7
El ena
Ġre al
cl ip
Bro dy
ĠLes lie
Ġbox ing
ĠAlbu querque
B y
B ri
C áº¯n
E un
F ly
H ector
M á»Ļc
T á»ĳ
T iÃªm
m Ã´n
p olis
s tein
Ġc ent
Ġm Ãµm
Ġb ir
Ġg áº«y
Ġng á»£m
Ġr Æ°á»Ľc
Ch ai
Ġx Ã©m
Th iÃªu
ĠT áº§ng
er ner
Ġ1 32
ĠB enny
ĠÄĲ Ã¹a
ĠH ind
ĠH ugo
ĠCh á»©ng
ĠL á»ĩ
ĠL Æ°á»£ng
ĠTh Ãª
ĠTh áº¯ng
ĠN ag
ĠK ap
Ġ" .
el come
ĠP oe
ĠP andora
ĠTr anh
Ngh á»ģ
ill in
ĠÄĳa g
ĠMar oni
ro y
ĠÃ Ĳ
Kho ang
eb a
ess ler
la ine
to Ãłn
end ra
end elle
ĠSam antha
Ġe uro
ĠGr aham
Ġcam e
ĠÂ ¡
der man
Ãĵ NG
ĠSte ph
Carl os
ĠMont ana
ĠMitch ell
Ġtal k
Herm ione
6 2
F our
L áºŃt
S á»£i
S cofield
W ade
c Æ°ng
g es
l ate
l ish
Ġ old
ħ u
Ġch Ã©t
Ġk id
Ġn inja
Ġs á»ĩt
Ġs teroid
Ġh ell
Ġh mm
Ġtr ue
Ġgi Äĥng
Nh iÃª
ĠC Æ°á»Ŀi
ĠC uá»ĳn
ĠH ado
ĠL Ã¡
ĠL ady
ĠL inderman
im b
ĠP u
Ġkho anh
ĠPh Ãº
ÃĢ O
ke eter
Ġ10 3
ta e
ĠX uyÃªn
ĠGi b
ut ure
ĠAr g
ub en
ĠTu Ã¢n
ĠSm urf
ĠRam on
ĠMau rice
nes to
raz en
ĠBenn ett
ĠSy ndicate
ĠRand all
Ġnháº½ o
ĠEli jah
ĠMet atron
ĠPink man
ĠRidd ick
3 57
B á»Ľt
D Y
D ol
G G
H un
L áº¯c
P am
R á»ĳi
S w
Y ay
b ul
d og
f i
j in
m áº·c
z io
Ġ áº¤
Ġt een
Ġv Æ°á»£n
Ġh Ã¡n
Ġnh Ãºn
Ġng áº¥m
Kh Äĥn
Ġvá» īa
ch Ãºc
ar ia
ĠH áº³n
ĠL una
ĠA ah
ĠA rya
ĠG a
ĠG amb
ĠR ico
ĠN eb
ĠW y
th Ã´ng
re ct
ĠI ves
os au
and ar
ĠMar gaery
Ġp arty
ĠX i
ent o
Uh h
to k
áº¢ N
ĠCharl ey
ĠÃģ p
ald i
ĠPr inc
ĠChrist mas
ĠBut ch
ĠPan ama
ĠtH áº¿
Ġsome one
Ġlá»§ ng
fle et
ĠPla za
% ,
1 50
B áº¡o
D á»ĬCH
E li
K á»µ
L Ã£ng
N atalie
S áº£n
c uá»ĳi
e a
i h
Ġ áº£m
Ġt ong
Ġl ast
Ġs ync
Ġng Ãľ
ÄĲ Ã¡p
Ġx Ãło
ĠC U
er ick
Ì£ ...
ĠB om
ĠB ark
ĠB ub
ĠB anner
ĠS ulu
ĠCh á»©
ĠV it
ĠV og
at su
al do
Ġgh áº»
ĠE ur
il een
oo f
le ar
ĠSt alin
ĠKh á»ıi
ord s
á»³ nh
ass ili
ĠCap ua
lan et
ĠRos en
Quy n
ĠNik i
ĠMatthew s
ĠRod rig
tit les
á»¬ A
ĠAug ust
Jar vis
Ġthough t
ĠSE AL
seng ard
C orp
D utch
F r
H Ã£ng
L Ã²
M Ã´n
O m
S ol
S eth
V lad
W ait
g Ã£
l eman
o kay
t ay
Ġl iáº¿c
Ġm iá»ĩt
Ġs ur
Ġh Å©
Ġr áºŃn
Ġr um
Ġph áº£
in son
ĠC TU
ĠT Äĥng
ĠM Ãłu
ĠM ann
ĠM á»ĺT
Æ°á»Ŀ m
ĠL áº½
ĠL amb
ĠL loyd
ĠD auntless
ĠG y
ĠG og
Ta k
Ġto ur
ĠR em
Ġlo t
Ġthu á»Ł
ĠK re
as ia
Qu áº¹o
ĠW on
Äĳ Æ°á»Ŀng
il ing
ĠPh Ã¡i
ĠPh Ã¡o
Ġ5 3
ĠNg Æ°Æ¡
Gi Ã´
Ġf oot
od er
az u
Wh it
785 9
ĠSp r
ĠHar per
ĠHar mon
ib o
Ġyour self
ĠCarl y
ĠEll iott
ct ic
Wal ker
ĠMed ici
ĠUS S
rad er
po ol
ĠFe ng
ĠTitan ic
GRUN TS
' ?
C S
D aw
D erek
F lor
G B
H olmes
L áº·p
M Ã´i
p son
v et
z ooka
Â ļ
Ġc or
ĠÄĳ un
Ġn ero
Ġnh á»į
Ġnh áºŃm
Ġng áº¥y
Ġng Ã²
Ġng á»¡
Ġng á»ım
Ġr Ã¹i
Ġqu Ãłng
ay e
Ġgi Ã£
Kh Ã´
ĠC á»±u
ĠC yrus
ĠT Ãºi
ĠM Å©i
ĠB Ã¡n
ĠB jorn
ĠS ven
ĠÄĲ áºŃu
ĠÄĲ Ãĥ
ĠH ale
Tr ai
ĠA I
ĠG avin
ĠTh ere
ĠN Äĥng
ĠN av
ĠK iá»ĥu
ĠK een
Äĳ Ã´i
ĠI N
ob i
Gi Æ°
ev ille
ĠGi Ã³
ĠcÅ© i
ĠU t
Ġtrá»£ n
ber ius
Ãģ P
Ġon ce
Ah em
ĠSp eed
CH Ãºng
ib an
Ġ13 6
ĠAb igail
ier ra
ĠÃ° Ã½c
Don na
AS E
ĠDar hk
Iáº¾ T
ĠRos a
ĠShaw n
Ãļ NG
ĠThor ne
Lou ise
DO OR
ĠBoo th
ĠWins tone
ĠApp a
ĠLAUGH ING
ĠInh uman
Ġbelie ve
C á»Ļt
C ec
F K
G Ã³i
H A
L Æ°á»£n
M á»ĩnh
M ON
P ro
g áº·p
m Ã¡t
t á»ĳi
v á»¥
Ġ á»ĳi
Ġc uá»ĳc
Ġc red
Ġch iáº¿t
Ġm ight
Ġg ang
Ġng Ãł
Ġr ÃŃt
Ġtr á»ĳi
Ġd áº§m
on ia
Nh á»ĳt
ĠM oira
ĠB un
ĠH ol
Ġho Ã¡n
ĠD rey
ĠD addy
ĠTh iáº¿n
ĠTh eresa
ĠV Ä©nh
ĠÄĥ ng
ĠP ad
ĠP eck
ĠW ong
Ġnhá»Ľ t
th ÃŃch
ÃĢ h
ĠSt ock
Ġf un
ĠX Æ°Æ¡ng
ĠCl em
Sh ane
ish i
ino is
ĠPat ricia
ĠMo z
ĠMill s
ĠMur ph
ĠBlack wood
ĠNG ÃĢY
ĠBu á»ĵn
ĠSw eet
KH Ã´ng
Per seus
ĠSing apore
Mur phy
ĠMaster s
ĠSur esh
Ġdz áºŃy
ema ine
ĠChurch ill
ĠFree za
plor er
, .
E X
G an
H en
L áº¯ng
M en
S el
S áº¡ch
T ua
c rys
n ic
x uá»ĳng
± t
Ã ĳng
Ġ Ãº
Ġth iáº¿n
Ġch áºŃn
Ġn á»¡
Ġb á»Ł
Ġh áºµng
Ġg áº·t
Ġph one
Ġcá» Ĺi
er ie
ĠS uy
ĠS us
ĠS Ã³i
ĠÄĲ á»ĳi
Tr Ã¹ng
ĠD j
ĠD astan
ĠR áº±ng
is enberg
ĠK a
ĠK u
el ey
Ġla ÃĮ
av ing
Ġ10 9
Ġmai l
ine a
tr áº£
ap olis
ĠBr ighton
787 7
sh on
tor y
Jo ffrey
ĠPr ice
Br enda
ĠWil der
ĠGre ene
Am ber
Su per
ĠEll crys
Ġxá»ī a
up iter
rac ian
ĠNaz ca
ĠDen ver
Ġgr ound
ĠKend ra
Rich ie
Ġhapp en
" )
B ig
H áº¡m
H ee
J en
L eg
M áº¡ch
M ag
M ul
O T
O ops
R obot
W o
h áº¿t
n ut
t áº¡m
å ¤
Ġc Ã¡ng
Ġl Ã¥i
Ġth ong
Ġch Ã¨n
Ġk á»īnh
Ġm Ã¡c
Ġn áº§n
Ġs w
Ġh á»ķi
Ġg Ãłn
Ġd Ã¡i
Ġd Ã³c
on zo
Kh iÃªu
á»« u
Nh Ãło
ĠC av
ĠB áº§u
ĠS ay
ĠN ash
ing le
ĠSt u
ĠSt ig
ĠSt amper
79 27
ĠMar se
ĠGi Ã¡p
á»Ķ I
ĠAl ison
Ġu á»ķng
ĠTa e
Ġhu Ã½t
ĠCl aud
Ġme et
Ãģ CH
ĠGr etchen
CH EL
ÃĤ M
ĠOr lando
AT O
CO M
umble bee
chu áº©n
Nik ita
ĠJud ith
ĠCost ello
Ġmorn ing
ĠScy lla
6 00
F ace
H N
H oo
K áº¹t
K irk
L Ã´ng
L iá»ģu
M á»ĭa
O sc
T ob
T ara
U l
V eronica
m áº¥t
Ġl iÃªu
Ġv en
Ġv Ã£ng
Ġm ov
Ġkh Äĥm
Ġg l
Ġg reat
ÄĲ Ã¨
ÄĲ á»īnh
Ġgi Ã´ng
Ġngh áº¹n
an ia
ĠC og
ai s
ĠM om
ĠB Æ°á»Ľc
ĠB ates
Tr avis
ĠD ro
ĠA NH
ĠG em
ĠG ina
ĠTh am
Ġto day
ĠR A
ĠR Ãºt
ĠR orschach
ĠV ill
ĠJ oh
Ġthu n
ĠF loyd
ĠTr u
th u
th áºŃm
Ġtu Ã´ng
Ġtu áº¿ch
ed o
Ġ6 21
Ġf u
Ġf ound
ro ll
ab er
ab le
ĠX áº¥u
ut ner
ub o
ĠAlex and
NH ÃĢ
ÃĤ U
ary s
PH ONE
ĠPe ach
ĠDen ise
ĠKit Ã´
ĠMach ete
ĠSeo ul
Ġmic ro
Dor othy
ĠPres ton
ĠDia z
ĠWit wicky
9 11
B áº§y
B á»¥ng
B Ã³p
C á»ĳc
D ale
F ish
H ara
N ay
R andy
V Ã¢y
V ER
W H
x ÃŃt
Ä ¨
ng uy
Ġt áº¥u
Ġl áº±ng
Ġth Ã²ng
Ġm om
Ġkh Æ°á»Ľc
Ġph Ã¬nh
Ġph ÃŃch
Æ¡ c
on to
ang a
in er
Th áºŃp
Ġgiá» ħu
ĠC á»ĳt
ĠC utter
au lder
ĠM áº«u
ĠS WAT
ĠL opez
ĠD iá»ĩt
ĠN ora
ĠNh áº¡i
ur d
ĠNg Æ°u
ĠY áº¿n
ke es
ĠCon nie
Æ¯ i
Ãģ n
ĠNew ton
per t
ĠSc otch
Ġru á»Ļng
ĠPr im
cus e
ĠMal ik
ĠDa e
ĠVi olet
ĠInd ian
ĠBau del
Ġcar bon
Ġsho ot
Ã® i
ĠSU V
nhe im
ĠPitt sburgh
spir in
ĠVaugh n
B Ã¢
B ee
D ylan
J J
K á»·
L oren
M T
O f
V iÃªm
e h
k ok
áº ¸
Ġt Ã³
ĠÄĳ áº¿u
ĠÄĳ Ã¨o
Ã´ c
Ġl uyáº¿n
Ġn ua
Ġn ÃĢy
Ġh Ã³
Ġnh Ã¡c
Ġng áº©ng
Ch ang
Ġd ark
ĠC ong
ĠT NS
ĠH á»§y
Ġto ld
ĠR oth
ĠK el
ĠP av
it us
ĠI M
ĠPh Ã¢n
ur g
ell ÃŃn
le h
ed ro
ĠHo pe
ich o
ĠJo dy
ĠLu cky
ĠCar n
ÄĤ N
ĠRob erto
ĠEl f
ĠMon te
ĠviÃª c
ER O
hh h
ĠMin dy
ĠNH ÃĢ
ĠJess up
Jul es
ĠLor as
ĠBat iatus
ĠAnton y
pr il
ĠVer de
Ġel derman
ĠAmer ica
ĠJos Ã©
Iá»Ĥ M
Ġwal k
Pier re
B áºŃn
B ull
B á»Ĺng
C á»©ng
H ong
N Y
N ob
U p
X uyÃªn
c eman
h er
m á»Ĺi
n n
p ect
Ã ķ
Ġ áº¯ng
Ġc Ã¹
Ġc au
ĠÄĳ ong
Ġm ÃĻt
Ġs á»¡
Ġs ide
Ġnh Ãłn
Ġtr á»ĩ
Ġtr Ã¹
Ġtr á»įt
ph Ã²ng
Ġph áº¯n
Ġd áºŃt
Ġd iá»ĩp
Kh Ã¡m
Kh áº¯p
ĠC Ãºi
ĠC oun
ĠT iffany
ĠS ov
ĠH ark
ĠCh ad
ĠD J
ĠTh ay
Ġto Ã¡t
ĠR ollo
ĠV áº¿t
Äĳ á»Ļi
ĠO din
ĠNh á»ĭ
ill ac
ĠSt on
Ġse c
Ġp a
Ġo pera
ĠX avier
ent ina
ĠCl ara
ĠZ o
la in
our ke
ĠLan celot
li u
itch en
EN S
ĠAv en
ĠMad rid
ĠBal thazar
ĠSand ra
ĠHer bie
ĠBor omir
ĠEver y
ĠBrand on
Ã¼ ntze
ĠMig uel
Oliv ia
ighty ear
Loren zo
A pril
G á»¡
K E
L áº¡c
M iáº¿ng
M ama
S á»ĳt
S Ã³i
T Æ°á»£ng
V ik
l oo
p anh
t iáº¿n
y ah
Ġl es
Ġl Ã©t
Ġk ar
Ġk iÃªm
Ġm ÃŃt
Ġg á»Ŀ
Ġg á»ĳm
Ch Ã´n
Ġd áº¥y
Ġd áº¡n
Ġgiá» ±t
ai se
ĠT Iáº¾NG
ÃĶ a
ĠCh in
Ph á»©c
ĠL etty
ĠL azar
Tr Ã¨o
ĠD Ã¢y
ĠTh iá»ĩu
ĠTh ey
ĠK iÃªn
Ġdo or
ĠP olly
ĠF in
Ġgh iáº¿c
ic al
ĠE sp
Ġbu r
ad in
ĠNh iá»ĩm
ew art
ĠQ uyáº¿t
ĠBr ooke
ĠKh aleesi
ond a
red i
ĠTH E
ĠBl ood
ib by
ink le
ĠCr uz
ngh Ä©a
Gh Ã©t
ĠHam pton
ors che
uel a
ĠLy le
ĠJess ie
ĠMy croft
Jon athan
ĠSil ver
ĠSing h
Leon ard
ĠGer ald
ĠWick ham
ĠLock wood
Ang us
ä¸ į
ĠFall s
Jer emy
rez ia
ĠGust ave
C uddy
C ersei
F lint
G un
L ip
L á»±u
M á»ĺT
R S
S ta
S top
S ven
S ync
U nh
Y áº¿u
h el
r Ã©
t iá»ģn
x u
ä »
ĠÄĳ Ãªn
Ġl imo
Ġk Ã¬nh
Ġk á»ģm
Ġm áº£i
Ġg áº«u
Ġnh eo
Ġr ÃĴi
Ch á»¯a
ĠÄĳÃ³ m
Ġgi Å©
ĠC omp
ĠT á»«ng
ĠT ah
Ng Ã´
Ġ1 23
ĠM oss
ĠB ank
ĠS Ã´ng
ĠL illy
ĠL ink
ĠL á»°C
or an
Tr evor
ĠD ak
ĠTh Æ°á»Ŀng
ĠTh á»ĭt
ĠV y
ĠV á»įng
ĠP otts
Ã¨ re
as ley
Qu Ãª
it al
ot on
id ent
ra p
Ġp o
ff y
ĠGi an
tr id
ĠZ uko
Sh aron
ĠSc orp
iz e
az a
ĠDo e
ĠBl an
Ġwith out
ĠNik ki
ĠBay max
anc ey
ĠcH Ãºng
ĠOliv e
ĠStev ie
ĠPac quiao
ĠRap unzel
Ġfriend s
ĠAtlant ic
Marsh all
A le
B ella
G wen
L inc
L ondon
T Æ°Æ¡
V áº¡n
b ach
c ao
y t
æ ĺ
Ġl á»Łm
Ġth ÄĤ
Ġm Ã¢m
Ġn Ä©a
Ġh Ã£
Ġg á»Ł
Ġr Ã¡t
Ch iáº¿m
Ġqu áº¹t
Kh Ã¡ng
Kh Ã´n
ĠM is
ĠH m
ĠCh á»¥p
Tr Æ°Æ¡
ĠD razen
ĠR áº¯n
ĠF ernando
th am
le in
Ġkhu á»·u
ĠSt ate
kh á»ĳn
ĠMar s
Ġo anh
Ġ7 4
ĠSh adow
Ġ9 4
ut ler
ov sky
ok en
Mar co
est ro
ĠSp ider
our se
ĠMor ia
st ro
ĠBl ade
ĠAlex is
ĠPr entiss
ĠWil d
Ġle ft
ĠNgh á»ī
ĠRam al
Ã¤ t
IC A
Ġday s
US IC
ĠRac coon
Ġbir thday
7 1
B el
L V
N ÃŃn
O ver
R E
S ue
W es
m áº·t
s ol
v arez
á» ¸
Ġch Å©i
Ġm áº§u
Ġh Ã¡ng
Ġh oney
Ġnh Ã´
Ġnh Ã¡i
ph o
ph im
Ġa c
Ġd Ã¡y
ÄĲ áº¡p
ĠT Æ¡
ĠT essa
au m
ĠB ed
ĠH azel
ĠL áºłI
Tr inh
Ġto m
ĠJ ob
ui ld
th ay
ad eo
ĠNh áº¡c
Ġma fia
ĠY our
ed ict
Ġso cola
ĠCon ne
Kho ai
ew el
á»ľ m
St annis
Br avo
ene z
Ġal one
Ãļ C
ĠJeff rey
ĠXu áº¥t
Le h
ĠEy es
Ġstr ess
edd is
ĠNak amura
ĠMend ez
Nat asha
ĠngÃ² ai
D iana
F lynn
K enny
N Ã´ng
N ASA
P op
c Ã¢
m á»Ľi
t á»¥i
v ath
Ġt áº©n
Ġk iáº¿ng
Ġv áº¹o
Ġm m
Ġnh an
Ġd ong
Ġd á»ĩt
ÄĲ iá»ĩp
Ġngh iáº¿n
ĠC C
ĠC áº©m
ĠC ron
ĠC OL
ĠÄĲ Ã¡m
ĠH iáº¿n
ĠH áº¡t
ĠH ur
ĠD ora
ĠD iggle
ĠA va
ĠG ob
ĠG ra
ĠG aines
ĠR as
ĠJ asmine
ĠN i
is le
ĠK ey
ĠK ath
Ġla ze
th i
th áº§n
ĠNh áºŃn
Ġkhu áº¿ch
um m
ĠX andar
ri ke
Ġhy d
ap est
ut s
ĠKh Ã³a
ud io
Ãģ m
ĠAr ms
ec a
ec ial
ĠÃģ n
ĠJon ah
Tay lor
ĠÃ° Ã³
TH E
ĠSte ele
ĠRed dington
ĠSky l
ĠMeg atron
ĠLeon idas
ĠSw agger
ĠWhit ney
ĠMir iam
Jam al
ĠVik tor
ĠIsaac s
ĠBorg ia
ĠKings man
Nic ole
sha an
ĠCad illac
ĠFergus on
8 2
B áº©m
D ÃŃnh
F ox
H Ã¡
J a
M as
S Æ°á»Ľng
V er
b á»Ļ
b á»ĳt
s el
x es
æ ľ
Ġc ÃĶa
ĠÄĳ Ã²
Ġl áº©m
Ġl áº«m
Ġl Ãµng
Ġth iá»ĥn
Ġkh áº£i
Ġnh á»įt
Ġng Ã¹ng
Ġr Ã¡m
Ġr Ã¨
Ġph Ãło
ÄĲ áº¿
Nh iá»ħm
ĠC er
ĠC el
ĠC age
ĠT áºŃn
ĠH ann
ĠH ub
en zie
ĠL ino
Tr uyá»ĩn
ĠD ane
ĠA eg
ĠG ran
ĠTh Ã¢n
ĠV era
ĠJ enn
ĠK atherine
ĠP on
ĠP lanet
om s
Äĳ á»ĳi
Äĳ Ã¡ng
Ġw ar
ĠHo áº¯c
ro d
Ġsu Ã´ng
ond ie
Ġon line
qu Ã½
** *
ron t
ĠCol t
ĠCal i
19 2
Bl ue
ĠMur ray
ĠSub titles
Ã¤ n
Ab raham
Ell ie
ĠLouis iana
ĠMel anie
Cal eb
Ġun der
ĠSum mers
Ġel se
ĠBud apest
ĠHoll is
ager tha
Ġkn ock
LAUGH ING
ENN IS
erst and
C row
C indy
D un
G eeta
H Ãł
J ill
L ang
L ud
L ER
R icky
S et
S ansa
b iáº¿n
e at
k u
r ol
r ess
v á»ĭ
Í ģ
Ġ uyÃªn
Ġc ÃĢ
Ġch áº±ng
Ġv Ã³c
Ġm on
Ġm un
Ġm ine
Ġm Ãºn
Ġm ove
Ġm other
Ġkh uy
Ġkh an
Ġh an
Ġng Äĥ
ph áº§n
ÄĲ áº¥ng
Ġx Ã¢u
Kh á»ķng
Nh áº¯n
er i
ĠB in
ĠB us
ĠS á»¹
ĠS entinel
ĠH oney
ĠCh Äĥ
ĠL il
ĠL eb
ĠD rag
ĠG onz
ĠTh under
im li
ĠR es
ĠN Ã¢ng
ou p
Qu Ãło
ĠF en
ĠTr Ã¢n
ĠTr á»įng
ed s
ro id
ce an
ĠQu ant
Kho áº£nh
ĠSh arp
ĠSh ifu
ĠBr endan
ĠCl ub
sh ip
ĠSc ully
ett s
Ġ11 1
ĠMor rison
rist ina
Ġvu á»Ļt
Ġ14 0
ĠCH áº¾T
He idi
ĠEr shon
ĠtÃ² an
ĠWat ch
Thu Ãª
ĠDun ne
ĠHaw k
ĠEv ans
Dom inic
ĠWes ley
á»Ĩ N
ĠYu ki
Ju an
ĠLes tr
ĠShel don
Ġkn ew
Ġair bender
for za
ĠAur ora
âĢĭ âĢĭ
ĠCaster ly
eech um
H á»«
H Ã¢y
H á»ıng
I r
K oba
M ak
O M
R Æ¡i
T á»Łm
V as
W endy
b uck
j or
l Å©
Ã ħ
Ġm Ã³i
Ġn áº¯n
Ġb ass
Ġkh ong
Ġs Æ°a
Ġs il
Ġr á»ĩp
Ġtr Äĥ
ÄĲ Ã¹
Ġx áº¯c
Kh Ã¡n
an or
Th á»ı
ĠB yr
ĠÄĲ á»įc
ĠÄĲ á»¡
Ph Ã¡n
ĠL ightyear
ĠD oyle
ĠG ollum
ĠR id
at us
at cher
ĠP eggy
ĠP orsche
re al
re bor
Äĳ á»§
ĠE va
Ġw a
ĠNg á»«ng
Gi áºŃn
kh Ã¡c
son s
Chu á»ĵn
od in
ĠLu ther
our bon
Ġmy self
ĠTH RO
Ġfor ever
ĠDa phne
ĠSo phia
ĠMartin i
RA CHEL
Cu á»Ļn
ĠMed ellÃŃn
Is abelle
ĠWhit aker
ĠPil grim
ngo Ãłi
ĠTal bot
Sar uman
Anton io
Ġaf ter
B ond
C A
C Ã¡t
H iÃª
N áº¥u
S en
S and
V E
V Ã¢n
b ay
c le
f oot
n st
s eok
t ai
w al
å Ģ
Ġc áºŃt
Ġth Ã³
Ġn ao
Ġh it
Ġg Æ¡
Ġnh Ã£ng
Ġph ÃĢi
Ch uyá»ģn
Ġd ee
Ġgi n
ĠM ister
ĠS I
ĠS yria
Ġchá»ī a
ĠÄĲ O
ĠH ang
ĠL is
ĠG Ã¡i
ĠG erry
ĠTh á»ı
ĠR ory
ĠJ av
ĠJ FK
ĠK ung
ĠK rist
ĠK rag
us uf
th uá»ĳc
ad er
ĠPh Ã³ng
Ġw atch
á»Ĵ n
ig u
Ġp ar
um in
ĠSh en
ber ia
Ãģ Y
Ġ12 6
sh ot
ĠAr endelle
art an
Mar c
Mar cel
est iny
ĠSp ring
ĠWh ere
ue z
Mi ra
ĠDe ath
ĠAll ie
ĠTor rance
ym ore
ĠLi berty
Iá»Ĩ U
Ãī p
ÃĨ y
ump y
ĠEdward s
ĠPep es
ĠEnterpris es
ĠOsc orp
ĠBab ylon
ĠTan ya
Shaw n
Há»Ĺ n
Ġton ight
WO MAN
B á»¥i
E ep
H annibal
K ay
K athy
K ristoff
L ola
N olan
S U
S Äĥ
S ally
T oby
V á»Ĺ
Y oko
h ua
l á»Ŀi
p art
t ÃŃnh
v áº¥n
x cÆ¡
Ġ @
Ġc razy
Ġth áº©n
Ġn ong
Ġs ÃĨ
Ġh Ã£o
Ġg Æ°á»£ng
Ġnh ang
Ġng á»Ŀi
Ġr á»©t
ph Ã¡t
Ch Ã¢m
Ġd á»Ĺi
Ġx Ã³c
em lin
ĠC á»ĳc
ĠT Ã³m
ĠT own
ĠM A
ĠM U
ĠÄĲ Ãł
ĠH Ãºng
ĠH á»¯u
ia k
ĠTh á»Ł
ĠN ow
ĠN ur
ĠK ov
ĠK owalski
ĠK itchen
ĠP api
ĠP aige
ĠP ascal
ĠTr uyá»ģn
ĠI II
Ġ5 6
ĠNg Æ°
ĠNg á»Ļ
ob al
Ho ll
ĠHo d
Ġp at
ro c
Ġ9 1
aw k
Ġ12 1
Ġxo Äĥn
ĠEd dy
Ġ11 4
ĠWal es
land s
ĠHay ley
itch ie
ĠRam ona
ĠMe i
ĠSal t
Ġpr ob
ĠSn ape
ĠbÆ°á»Ľ u
uc c
áº® N
áº® NG
ĠCos ette
ĠYan kees
Ġtry ing
ĠMam my
ĠRan cho
ĠIv ar
ĠIll inois
Ġsal ad
ĠGas ton
Syl ar
ĠAveng ers
uir field
rect ed
ĠTHRO AT
D amien
K r
M icah
P al
S áº¯c
T au
V á»Ł
X Ã©o
Z oom
b Ã©
b at
c am
d Ã¹ng
j ack
n elly
s áºµn
t is
u le
v al
Ġl á»±
Ġm at
Ġm Ãºi
Ġm Æ°á»£t
Ġn ick
Ġn Ãį
Ġtr á»Ľ
Ġtr á»Ŀ
ph in
Ġph Ã´ng
Ch ui
ÄĲ inh
ÄĲ á»£t
Ġx á»ĳp
on ius
an u
in em
in ton
Æ°á»Ľ m
Ng Ã´n
ĠM od
ĠS á»©
ĠH iá»ģn
ĠH ÃĴ
ĠCh Ã¬a
Ph e
Ph áºŃt
Tr áº£i
ĠTh ao
Ġlo Ã£ng
ĠV icky
Ġngo Ã¡y
ĠK ol
Ġdo o
Qu anh
ĠF usco
ĠI áº¡i
oo b
Ġ6 24
Ã©o den
ĠMar yland
Ġ7 50
ĠSh ar
ik i
Ġthá»ģ m
oll ow
ĠDo ctor
Ġgo es
Æł I
ever us
ever ly
ĠCol onel
ĠMichael s
ĠAd ler
LE ARS
ĠMal ick
ĠIs ildur
ĠLuc ius
ĠDar ius
gg y
ES T
ĠPer u
be ard
ĠBell ick
Aw w
ĠTer esa
ĠBoo v
Leon ardo
Liz zy
ĠAmer ican
ĠHend ricks
TÃ© i
Mir anda
ibb iani
ĠHas an
ĠFil ip
Ġund erstand
ĠDex ter
GRO ANS
Ġmor phine
hel m
æĺ ¯
6 3
A aa
C á»Ŀ
H aha
J ud
M IN
O mar
P ort
V á»ĳn
b en
h Ãłnh
t an
å °
Ġ Ã¡y
Ġv ÃŃt
Ġm iss
Ġm á»ĭa
Ġs it
Ġnh Ã¨
Ġnh áº§y
ph i
Ġph udeviet
Ch á»Ľ
Ġd á»ĥ
ÄĲ Äĥng
... '
Nh Ãľng
ĠM áº¡ng
ĠB áºŃc
ĠS H
ĠH ive
ĠL áº¡nh
Tr iá»ģu
ĠD áº«n
ĠA K
ĠA us
ĠG ao
ĠG Iá»
ĠTh áºŃm
ĠR aul
Ġlo w
ĠN O
ĠN ational
Ġthu i
ey er
ĠF loki
ĠTr áº»
ĠI Ãłm
oo o
ĠNg Ã³n
ĠY oko
Ġmu Ãĵn
ran o
Ġso fa
ĠMar io
ev il
ĠQu Ã´
Chu Ã´ng
ap u
Ba in
to ine
789 0
ĠCar men
ĠMor mont
way ne
ĠChu á»Ļt
Charl ey
ĠIs abella
ĠSe ason
Ġvo ice
Gr ay
ĠDom inic
ÃĻ NG
Ġz áºŃy
Ġas k
ĠStar fleet
Ser ge
Ã¯ ng
hall a
Brand on
ĠTes la
; /
B ud
F ACE
G á»Ľm
H unt
L os
M Ãª
M Äĥ
M iÃªu
M ack
N Ãºp
R un
S om
T s
T odd
Z o
c ov
h ere
k now
m un
t áºŃp
t il
Ġ âĢĭâĢĭ
Ġth ree
Ġn uá»ĳi
Ġb ÃĤn
Ġs áº©y
Ġs leep
Ġh uyÃªn
Ġh á»Ľp
Ġg Ã¹
Ġnh áº±ng
Ġr Ã¡i
ph one
Ġph áº¥t
ÄĲ ua
Ġqu Ãły
Ġra in
Nh á»ķ
ĠC Ã¡o
ĠT Ã¡
ĠT Ä©nh
ĠT ango
Ng á»Ńi
er xes
ĠB áºŃt
ĠS áº¯c
Ph á»ĳ
ĠL ie
ĠL eed
is er
Ġvá»¥ t
ou ble
ĠF oot
ĠF uller
ĠTr ibbiani
us ic
th á»Ń
and ro
ĠSt ewart
Ġp op
Ġo pen
Ġ8 9
ut z
Ġin s
Ãģ NH
ĠSam aritan
ĠGr aves
ĠBar bie
Ġ0 2
ĠTH á»¨
yl ie
ON T
ĠDe acon
ĠLau rie
ĠMr s
Tá»ķ n
IC E
Ġz Ã¬
ĠUn ion
Ġcl ub
ĠSw an
ĠCast iel
ĠGh i
ĠVirg il
ĠIris h
ĠCos ta
Sub title
Rock et
ĠLand ing
SP EAKING
Kl aus
ĠAle c
Mik ey
abb it
Pep per
ĠFerr ari
ĠPrinc eton
A y
A ug
B á»ģ
B áº¥m
H uyá»ģn
L Ã¢m
L ove
M á»Ļ
M icky
O x
P an
P en
R Ã³t
S Æ¡n
S ur
S ON
T ess
X Ã¬
c áº©n
n áº±m
p os
r er
s burg
w ang
Ġt áº£o
Ġc Ãµng
Ġv áº¿u
Ġv áº©y
Ġn oi
Ġs áº³n
Ġs oul
Ġnh Ã³i
Ġr eg
Ch Ã´
Ġx áº¥c
... âĻª
Th ung
ĠT A
ĠT err
ĠM Ã¡t
ĠM Ã£n
ĠM IN
ĠL Ã´ng
ĠD ow
ĠD ixon
ĠG ry
ĠTh urs
Ġto uch
ĠN ich
ĠN olan
ĠK á»¹
ĠK ree
as ma
Qu Äĥng
ĠF ur
ĠF ield
Ġan ymore
ĠI S
ĠI p
Ġ5 9
id en
Ho dor
Ġp en
ĠX á»©
eg o
eg rin
qu áº£
uh m
ĠMor e
Ġnháº¹ t
áº¤ U
ib i
ix ie
ĠvÃŃ u
ĠTR Æ¯á»ļC
AT T
ĠRo ch
ĠLannister s
Ġham burger
ĠJean ine
Ġsá»ī n
ĠDra go
Phil ip
ĠDav os
ĠNob el
ĠHop kins
Ã° i
äº Ĩ
ĠChel sea
esta po
Ġkar ate
. -
8 5
E le
H ang
J et
J os
K ev
M alley
N ar
R emy
W ar
d ong
f ly
h ee
k iá»ĥm
k ill
m and
r Ãµ
v id
Ã Ħ
Ġ á»Ľn
áº ¼
Ġn Ã¡
Ġb ring
Ġkh Ãªu
Ġs á»©a
Ġnh á»Ļng
ĠÄĳá» ħ
ÄĲ ÃŃch
Ġqu ai
uá»ĳ m
Kh Ã³i
Ã² e
á»± ng
Nh u
ĠC Æ¡n
ĠC á»Łi
ĠC ora
ĠM Æ°u
ĠB ach
ĠH olt
Ġy a
ĠCh áº¥p
Ph eebs
ĠL Å©ng
ĠL ara
eo wulf
or in
ĠD Ãłi
ĠD áº¥u
ĠD od
Ġto áº¡i
im i
Ġlu m
ĠR yu
Ġlo st
ĠV oldemort
ĠN ico
ĠN ile
ĠP ont
ĠP ippin
ĠTr á»¥
ĠTr áº¥n
ĠTr ip
th y
Ġ3 50
Ġ... "
ĠO ctav
ad s
Ġp ower
iv a
ĠthÃ¢ t
ĠmÃ£ ng
Tin a
Ġj ean
To a
Ġmo on
Tu á»³
ĠÃĤ n
Ġi Pad
ĠUh m
ĠSch rader
ĠRon ald
ĠNor ton
ĠAt t
ĠPH IM
Re ally
Du ke
arg as
Ġte quila
áº® T
ĠSk ipper
ĠtuÃ½ p
Av atar
ĠLon ely
ĠCog burn
B C
C Æ°á»Ľi
F al
L ao
M arl
N y
P au
R ome
T á»ĵi
T essa
W ith
c in
d Æ°á»Ľi
f asa
g ee
h Æ¡i
j ean
n s
o ke
Ġc ry
ĠÄĳ Ãºp
Ġn áº¥c
Ġb re
Ġkh Æ¡
Ġg uá»ĳc
Ġg Ãī
Ġng ÃľÃĸi
ph eus
Ġqu Ã¨n
Nh Æ¡
Nh Ã©t
ĠC Ãº
ĠC art
ĠC ÃĶNG
ĠT áº«n
ĠM Æ¡
ĠB att
ĠS keeter
ĠH ot
ĠH agrid
ia d
ĠA P
ĠG ale
im es
ĠR ik
ĠR ug
ĠR usty
ĠJ acques
ĠN áº¯m
ĠN EW
ĠK oba
ĠK GB
ĠW ind
ĠTr o
ĠTr ÃŃ
ĠTr á»£
ĠE ner
Ġtu Ã´n
ad re
Ġw Ã¡
ĠY ang
un ch
ter son
ĠCon stant
Ġo áº¯t
ĠAl am
Ġ20 14
ĠKh á»Łi
na ke
ĠSc ooby
ĠTH áº¾
ĠRa in
ĠMa fia
ĠHai ti
Ġlá»£ m
ĠEll e
ation s
Bar nes
ĠFor ce
Ãļ i
Ell e
ĠMack enzie
Gl enn
ĠPen elope
ĠPoll ock
Russ ell
ĠBri ar
ĠCoh en
ĠHass an
ires torm
ĠEnc ode
A re
B re
C AR
G rant
O uch
T á»©
U T
d ad
f y
l ia
v el
Ġ Ã£n
Ġ áº»m
Ġt Ã¢u
nh áº¥t
Ġk Ã©
Ġm ass
Ġkh anh
Ġkh áº¡o
Ġs te
Ġg ram
Ġnh uá»ĳm
Ġtr á»ķ
ĠÄĳá» įng
Ġd en
ay nor
an an
ĠC áº¡n
ĠT emp
ĠM Ã¢y
ĠM IT
ĠB á»¯a
ĠB ard
ĠB ald
ĠS ide
ĠS Ãºn
ĠH ess
Ph Ãª
ĠL ike
ĠG aul
ĠG CPD
ĠG irl
Con rad
ĠR Ã´
ui e
ĠP i
ĠP ot
Giá» Ŀi
th o
ĠI T
ĠY O
Ġ6 28
Ġvá»£ t
Ġp art
Ġp oker
ĠX á»Ń
ho Ãłn
ris h
ĠAl o
ent al
ĠCl A
to ck
chÃºng ta
Sh el
Mar vin
Ġbe h
ĠAnd ie
con sin
Wh ip
ĠBen edict
Well s
ale igh
Ġ14 8
Ġ13 5
ĠAb bott
Ġknow s
osh iro
ĠSm Ã©agol
ĠDar ren
ĠlÆ° Æ¡n
ĠTor onto
Ã¥ ch
ĠHu Ã¢n
Jon ah
ĠGreg or
ĠMel issa
Ġpl asma
ĠTer rence
Cr uchot
ĠNic olas
Sky e
amm ad
ĠKit ty
ĠChe ch
ĠAmber le
ĠNat asha
ĠWeb b
ĠConn ors
ĠSad ness
ĠVlad imir
Bor is
ĠRING S
ĠTread stone
Bern ard
ctic ut
Osc ar
C áº¯m
G E
G ri
N az
O b
P erry
S me
T ang
T ON
V ic
X Æ°a
f ort
h ey
l em
l Ã¢u
t á»«ng
w ise
Ã §a
Ġ Ã¹
Ġ áº¹
Ġ á»ıi
Ġc at
Ġc ourse
Ġv áº¿
Ġm Ã²ng
Ġm áº©n
Ġn Ã¢
Ġb in
Ġb al
Ġs ky
Ġnh Ã²m
Ã¬ t
Ch á»įc
Ġcho colate
ĠT ad
ĠB ush
ĠS ex
ĠS forza
ĠH appy
ĠH iggins
en o
ĠL áº¡
am ily
ĠA y
ĠG IA
es u
ĠV erm
ĠV andal
ĠN ixon
ĠK ah
ĠP ry
ey t
Äĳ Ã¡
ed ith
Ġf in
Ġf ly
ĠMar go
ĠMar don
ĠSh a
Ġin side
Ġ12 9
Ġ11 7
Ġcá»± a
Ġ14 2
Frank enstein
ĠMer cia
ĠPet ers
All ison
ĠSal v
ĠBang kok
ĠGal avan
ĠBol t
Cal vin
ĠDor othy
Mc C
San ta
ĠCall ahan
ĠPau la
Ġ^ ^
Ġcred it
ĠIM F
B ag
C á»¥ng
D Ã¢
D og
H ood
K ira
K endra
L Ãłng
M I
M O
N Ãºt
P ar
S ulu
T ung
T oi
W ayne
W oa
_ _
b ow
d Ã¢y
f ar
v á»£
ng u
Ġc áº³ng
Ġn Ã²i
Ġs áº·c
Ġs ame
Ġg un
Ġg etting
Ġa pp
Ġx Ãłm
Ġx á»ķng
Th uyáº¿t
ch iáº¿c
ĠC Ã´n
ĠT Ã¢
ĠT Ã¡n
ĠT us
ĠT Ã¹y
Ng á»¥y
ĠB áº£
ĠB et
Ã½ ng
ĠH Ã¡t
ĠH IV
ĠCh ekov
Ġho r
ĠD ad
ĠTh á»ıa
ĠR O
ĠJ ose
ĠP ost
ĠTr á»«ng
ĠTr ee
Äĳ Æ°
ĠE g
Ġ4 000
Ġ4 50
Ġ6 25
Gi Æ°á»Ŀng
Gi am
Ġngu Ã´i
á»Ĵ NG
ra ck
arl ey
Ġf ool
ĠtÃ¹ m
ĠSh ishio
iv ing
mm m
áº¢ O
Al t
ust ang
do ch
Jack ie
ĠMc Queen
ĠCol in
ĠCH UCKLES
Am elia
ĠMax im
Car men
ĠSim pson
Gr ond
ĠSch w
ĠMad eleine
ĠFred die
agh an
ĠRiv endell
rac ula
ĠBrook s
ĠAth el
ID S
ĠTi berius
Ġpound s
Ke ith
ĠPhill ip
ä¸ Ģ
ĠVÃĢ O
Cass ie
ĠApp le
ĠPhilip pe
ĠGri ff
ĠMul der
Mick ey
ĠMister T
eyt iri
B Ãª
B ir
C oll
G in
K Ãªnh
L S
L ike
M á»ħ
O s
T áº¥p
U I
b Ã¡o
d ard
h old
k áº¿
k iá»ĥu
k tra
n on
p ot
r ond
ã Ĥ
Ġch ampagne
Ġm á»ĭn
Ġn á»ĭt
Ġn ext
Ġkh ÃŃt
Ġh áº¥t
Ġr Ä©
Ġr est
Ġa ng
ĠÄĳá» Ŀ
Ġx iáº¿t
Ġgi áº·c
em ent
Th Ã¹ng
ch áº·n
ĠC oman
Ġ1 27
ar ine
ĠS ah
ĠS ak
ĠH Äĥ
am ander
ĠA hh
ĠTh iÃª
ĠTh eon
ĠN Ã©m
ĠN igel
Qu á»¹
ĠTr Ã¢
ĠTr avers
th Ãªm
ic illin
Äĳ áº¹p
Äĳ á»ĭnh
ĠNh Ã¬
Ġw orry
and all
Ġ10 6
Ġf ix
Ġ9 3
-- ?
Theo dore
eg eta
ĠCl an
ber to
ĠvÃª nh
Wh iskey
ĠWh ip
ĠEl vis
ĠBe et
Ed it
Ġst ars
ĠTu áº¥n
ĠIs abel
ĠMan ce
ĠTR ONG
Vi olet
ĠMe ade
ES E
Ġre ady
RO SS
ĠRock y
ÃĲ á»«ng
Pr im
ĠÆ¯ ng
ĠGood win
augh t
ĠGeorg es
ĠEy wa
Sl ade
bb ons
umba a
Lor raine
ĠCher evin
Ġdoes n
ĠSpr ings
ĠtÃ³ e
ĠSov iet
ĠKrag le
B á»į
B og
B áºŃc
D E
D ong
K rist
N inh
N et
N aomi
P oll
R ourke
S ome
Y u
b Ã¡nh
c at
h and
j e
k uru
n ames
p ine
z i
Ġ áº¿m
Ġt Ä©
Ġc Ã¹n
Ġch ange
Ġb Ã¨o
Ġh Ã³ng
Ġg á»Ļt
Ġnh á»Ļt
ph yr
Ġchá» ı
Th an
Th áºŃn
ĠC á»¨
ĠT U
Ng áº¯t
ĠM ell
ĠM ess
ar ma
ĠB á»Ŀ
ĠB áº¡c
ĠB raga
ĠÄĲ áº¿m
ĠH ÃĢNH
ĠCh á»§ng
ĠTh á»©c
ĠR yder
ĠV arys
at ic
ĠK ur
el ius
ĠP ap
ĠF ire
ĠTr y
ĠI sengard
id ay
ĠEm p
ich ita
ĠSh erry
Ra ph
ĠQ UYá»ĢN
tr Ã¡i
lo áº¡i
ĠBr ent
ber ry
ec ter
ĠSc amander
ett ie
est ine
Cl ara
ull ah
row n
Bu Ã´n
rew e
ons o
ĠWe i
ĠBur ke
ĠRam sey
ĠLe ague
ĠHel m
ĠLy la
Ab igail
ĠKr emlin
Tho áº£
ĠHor us
ĠRu by
UY á»ĨN
ĠGood man
ĠAth ena
Ġlook ing
á»Į C
ĠOlymp us
Cap tain
ĠPow ell
ĠBir ch
ĠJa eger
ouch eb
ĠEc bert
Hun ter
ĠSkyl ark
ĠMIN DS
7 00
C á»ı
C áº¥u
D iv
G old
L ai
L Æ°á»£t
N ate
R Ã¢u
S CO
V Ã¡y
W ashington
X ui
c les
l ic
m it
p at
v iet
Ġ á»ĳ
Ġt á»ĭt
Ġl isten
Ġch áº»
Ġch áº£nh
Ġch Ã²i
Ġk iá»ģu
Ġkh áº½
Ġs á»¥
Ġs Ãło
Ġg á»«ng
Ġtr á»ĩt
Ġa spirin
Ch á»©c
Ġd Ãło
Ġx áº¥p
Ġqu Ã¡ch
ay ton
ĠC áº¥m
ĠC ir
ĠC ent
ĠC ale
ĠT em
Ġ1 24
ĠÄĲ Ã¨n
ĠH á»Ĺ
Ġho use
Ph áº«u
ĠL iá»ĩt
ĠG ot
ĠG estapo
im ura
ĠR ever
ĠJ J
ĠN ATO
ĠK ao
ĠF rom
it su
ĠW ex
ie f
ah ub
ĠE st
Ġca p
á»ŀ NG
ĠY ondu
ir teen
Ġf ull
ĠCon or
Ġo ai
ab ad
ap s
ĠBr enn
Ġhu á»ģ
Ġsu á»µt
cH C
Æ¯ á»ŀNG
ach us
ÄĤ NG
uh a
ĠBar ton
ny a
áº¤ N
Sam antha
ĠWill ie
ĠCH Iáº¾N
ĠlÃª nh
âĢ Ń
ĠGl ades
Ġal ong
ï¼ ģ
cel ona
Ell iot
Ġbl ue
ĠHaw kins
rac ie
ĠOs born
he imer
ĠWes sex
ĠEs sex
ThÆ¡ m
ĠCy ber
ĠFog g
ĠTar zan
ĠÃĥ y
Tob ias
Ġtom orrow
C Ãºp
D I
D ora
D ude
H ugo
K urt
L Ãłn
L ov
N ERO
O i
P od
P enny
S á»ķ
S ebastian
T ar
U ngh
Z eus
b áº£n
b ard
l am
n eg
u te
x o
x ong
å ķ
Ġ á»ī
Ġc Ã¡y
Ġth Ã©
Ġch y
Ġv isa
Ġm od
Ġn Ã¡ch
Ġb eg
Ġs y
Ġg ao
Ġng Ã´ng
Ġr áº§u
Ġr ec
Ġqu Ã¢y
Ã¡i n
an on
ĠC up
ĠT ÃŃnh
ĠT uck
ĠT á»ĭnh
ĠT ÃŃn
Ng Ã£
ĠB la
ĠS ony
ĠS und
ĠH á»Ń
ĠCh iÃªu
ĠL ing
or f
Tr á»¥c
ĠD ata
ĠA R
ĠA ch
ĠA ce
ĠG áº¡ch
ĠG ill
ĠG á»Ńi
ĠG ene
Ġlo Ã©t
es are
ĠV iá»ħn
ĠJ or
as aki
re ady
ot s
Ġw ish
ĠY ellow
av ir
Ġ6 40
ĠEm mett
eb anks
ud rey
ĠCl aude
Ġ19 80
ĠAn ita
ĠLu thor
ith rand
ant s
Mar tha
qu Ãªn
ĠAnd o
Ġj ob
ist ler
gi áº£i
ĠMo oney
ipp y
EN T
ĠCas pere
ĠKy oto
Ab u
ĠPan em
ĠUS B
ĠOs wald
ĠDeb s
Sher man
ĠInd iana
aku za
idd le
ĠReg gie
ĠHans en
Ġ78 1
ĠKent ucky
ĠAtlant is
ĠKra ken
lh lh
ĠDai ly
ĠBuch anan
RAN Z
osau rus
Ġcor rected
ĠArms trong
ahub ali
ithrand ir
8 6
? ".
B áº¿n
C D
D es
D id
K y
K á»ĭch
L áº·n
N ora
N orm
P O
T w
U r
U nder
W ally
a eda
d own
f ire
l ay
l áº¡y
l ight
s m
Ã ı
Ġc áº·c
Ġl Ã³ng
Ġth áº¯m
Ġch Æ°Æ¡
Ġv Ã¡t
Ġm il
Ġm ill
Ġm ÃŃa
Ġn Ã¡y
Ġs áº£i
Ġs áº£o
Ġh á»ī
Ġr á»ĳn
Ġr áº·ng
Ġr ound
Ġph oto
á»į e
ĠvÃł n
... )
em e
ch Ã³
ch Ã¢n
ĠC ourtney
ĠT Ã¹
ĠM á»Ļ
ĠM Ã³n
ĠM Ã¼ntze
ĠB A
ĠB U
ĠB ird
ĠB ones
ĠS á»©c
ĠS áº£n
ĠS ept
Ph á»ķi
ĠL á»«a
ĠL ina
ĠD ude
ĠTh Æ°Æ¡
im an
ĠR anger
ĠV in
ĠJ asper
ĠK em
ĠK iá»ģu
al ing
Qu en
om i
th á»§
ol og
ol ini
Äĳ Ã´
ĠI b
ĠO P
ĠNh áº£m
Ġ6 43
ev el
Ġo áº£i
ĠQu á»¹
iv ers
ĠJohn s
ov ic
790 5
Ġbo om
red ence
ĠEl rond
ĠÂ £
ĠBe irut
ĠMax well
Gh en
ĠCo ca
ĠWe asley
Ġrun ning
ĠKar o
omp ey
ĠWall er
zz y
ĠGreen land
Er in
Cr usoe
ĠQU á»ĲC
ĠEx plorer
Te am
ĠPas o
led ge
Ġhá»Ŀ n
ĠDew ey
ĠÄĲá»ĺ NG
ĠUt ah
ĠMoz art
Vik tor
ĠCOL OR
A ppa
C áº£i
D ad
G áº¯n
G á»Ĺ
K am
K RANZ
M B
T áº¿
T ube
W ins
X Ã£
Y un
g ate
g ren
h ouse
r obot
s Ãª
s ty
~ ~
Ã «ng
Ġ iv
Ġch Ãłi
Ġv iá»ģn
Ġb itch
Ġs áº¥t
Ġs áº¥p
Ġh n
Ġh á»Ļt
Ġh á»©
Ġnh áº·n
Ġtr á»ĵi
ph á»¥
Ġph Æ°á»Ŀng
Ġcá» įng
ĠnÃł nh
Ġchá» Ńa
ch ia
ch im
ĠC T
ĠC ow
ĠC á»Ĺ
ĠC ase
ĠC rystal
ĠT ill
ĠM ua
ĠB Ã¡t
ĠB and
ĠS all
ĠÄĲ uá»ķi
ĠÄĲ áº¾N
ĠH Ãłi
ĠH ern
ĠL ung
á»ĥ u
ĠD áº¡o
ĠD um
ĠV os
ĠJ ing
ĠP ull
ĠF irestorm
ĠTr Ã¬nh
ah ad
ol in
Äĳ Ã³ng
Ġtu á»ĵn
Ġngá»§ m
ĠY oon
Gi ang
Ġkhu Ã¢y
kh u
kh iáº¿n
ĠMar ta
ĠQu int
te au
aw i
ĠZ iggy
ant is
Ġhá»ķ n
ĠÄĳu á»£c
Ar nold
ĠPhil ipp
ĠMat ty
ĠLo is
ĠLe Ann
ĠLeon ardo
Ġcl ip
uc ci
IT T
ĠFran co
ĠMik ael
ĠKn ox
ĠGall oway
ĠÄĲá»ĩ ch
Jess ie
Mur dock
ĠSyl via
Beck ett
Ġ198 5
ĠTw itter
ĠSuz y
Far amir
Dam on
Ġkung fu
Sav age
ĠCoun ty
ĠAven ue
ĠConne cticut
ĠGry ff
Ġmass age
ĠComan che
) ?
B ad
C áºŃn
G loria
G ordo
K ir
K ER
K ibo
K aulder
L á»Ļt
L Æ°ng
M ach
P otter
T en
b ad
b olt
h en
l iÃªn
m Ã´
o ak
p es
r aid
Ġ Ã¡ch
Ġth Ã¡n
Ġth iáº¿c
Ġn á»Ļm
Ġb ird
Ġh Ãłu
Ġnh en
Ġnh Å©
Ġnh Ã´m
Ġtr áº£m
ph on
Ch ao
Ch áº£y
Ġd á»ĵi
ÃŃ li
Ġgi Æ°Æ¡
Ġra p
ch el
au g
ĠB ÃŃch
ĠB ot
ĠB rew
ĠB agh
ĠS ic
ĠS lat
ĠÄĲ á»īnh
ĠH il
Ġy ards
ĠCh uyÃª
Ph áº¯n
Tr anslated
Ta d
ĠTh racian
ĠV Æ°á»Ŀn
ĠJ aff
ĠN u
ĠN eo
is se
is elle
ĠK ab
et el
ĠP os
Qu ang
ĠW H
ĠTr Ãł
us te
Äĳ áº·t
Ġ6 2
Ġ6 37
Ġf r
um ans
NG Æ¯á»ľI
sh ee
Ãį NH
tor rent
ome z
qu Ã¢n
ĠAnd ers
Al ison
ĠSp in
áº¤ m
Ġwh ole
Ġ13 3
Ãĥ Y
bo x
ĠHe isenberg
OR K
ĠBro thers
uch ia
ĠCharles ton
ĠSub title
ĠHel ga
ĠFred er
ĠFred rick
Thu áºŃt
Ġbl ack
ĠStr auss
ĠStan ton
ĠJacob s
ĠTer i
anc redi
Ġsho ck
ĠBow man
Ã® t
Ber nie
ngo áº¡i
Tor etto
avan augh
Aa ah
ĠMem phis
ĠTau b
ĠlÃ³ e
ĠDer by
ĠBrid get
CREAM ING
CRI MIN
ĠPu erto
ĠDro go
ĠGem ini
ĠBaudel aire
Ġpo int
ĠEner gon
CRIMIN AL
B á»ĳc
B áº«y
C Æ°á»£c
C áº¡o
D Ãłn
D áºŃp
D own
F rances
G Ãµ
H áº¡ng
K id
M il
M ako
N á»Ĺ
R Ã¡c
R ita
T Ã¢u
T Ä©nh
b á»ĩnh
b aum
o is
p or
s um
v áºŃt
z u
Â ·
Ġ áº£i
Ġ á»¨
ng on
Ġk Æ°ng
Ġm ess
Ġb ot
Ġs Ãłi
Ġs at
Ġg á»«
Ġnh Ãľ
ph Ã¡
Ġd Ãł
Ġd áº§y
ai ca
au r
Ġ1 25
ĠM Ãªn
ĠM Ã¨o
ĠB ou
ĠB ox
ĠS ierra
ĠÄĲ Äĥng
ĠH eo
ĠH ed
ĠH ulk
ĠH iccup
ĠCh áº¥t
Ph Ã´
ĠL ao
ĠL Ãłnh
ĠL enn
ĠG oeb
ĠR ou
ĠR eb
Ġlo Ã¡ng
ĠV á»Ģ
ĠV alley
ĠN á»®
al an
ĠF rench
Ġkho Ã©t
ĠW ichita
Ġco ol
Ġco de
Äĳ iá»ĥm
ĠNh á»Ŀ
á»Ĺ m
kh ov
Kho áº£n
ĠAl t
ath on
ov ern
ĠmÃª nh
if t
az e
ast asia
Ġj eep
Ġ18 1
row d
ÃĤ i
ĠMa ine
ĠAb d
Ġ200 9
ĠDe cker
Ãĵ I
Ġle arn
uz o
ĠGl en
ĠTur a
ĠMur doch
aa aa
ĠBut ter
ĠHobb es
Ãļ p
ĠThu áº§n
ĠJan ine
ÃĲ Ã³
Sim mons
ĠHor ton
he im
En c
Ġte am
ĠKn ives
ĠRod ney
Sub team
imo ff
ĠJar ed
ĠMach ine
ĠOb ama
ĠMetro polis
ĠIll umin
Oliv e
ĠHung ary
Gu ard
ĠViet nam
Rad io
Wat son
Dol ores
ĠIllumin ati
B á»Ŀ
C áº¢
D uk
D iego
G Ã£y
G am
H M
L á»Ļ
L ex
L ittle
M ah
M UR
N u
N á»£
P ET
S at
T uyÃªn
T á»įa
b its
f ic
h u
h Ã¡
h áº¡
p ers
u es
z in
Ġc ard
Ġc Ã¤
nh áºŃn
Ġl Ã¨
Ġl iÃªm
Ġch áº¥u
Ġch Ãİ
Ġk iá»ĩu
Ġb á»©t
Ġh á»Ľt
Ġg ym
Ġr á»¥t
.. !
Nh iÃªu
ĠC Ã©sar
er k
ĠM iá»ħn
ĠM esa
ĠB Ã£o
ĠB oss
Ġy ears
ĠCh ia
ĠCh áºŃm
Ph Ãºc
ĠL á»Ļ
ĠL á»Ĺi
am n
ĠD ig
ĠTh r
ĠTh á»ĥ
ĠTh á»«a
ĠTh Ã©oden
es on
ĠJ upiter
ĠN aomi
ĠP ia
ĠP ine
ĠF ant
Ġgh Ã©m
Äĳ iá»ĩn
Äĳ Ãªm
ĠE un
ĠI d
ĠO ber
ad ette
ow itz
ĠNh Æ°á»£c
Ġw onder
ur es
ed ian
á»Ĵ I
ra ft
kh Ã¡
Ġ10 2
Ġf uture
Ġse en
ĠMar ianne
ack er
ĠÃ ĵ
Kho Ã¡
ho ven
iv h
ĠFrank en
ĠMor se
Ġ.. ...
iam ond
ĠWill is
Ãĥ y
Ġthá»¥ t
ĠHe idi
ger ald
ĠBur t
Rob erto
Lau gh
tain er
ĠRog ue
ĠHu bert
ĠHaw king
ĠWhite hall
ĠJer ome
ĠJer icho
ĠNgo an
ĠSl im
ĠNaz ar
ĠStan ford
ĠRom ul
Jan ice
ĠRand olph
ĠGrim m
Ang ie
ĠVic odin
Stan ley
Wall ace
ĠEdit or
ĠBry ce
ĠNY PD
ĠWis consin
Sad ness
ĠCong o
achus etts
A rya
B os
B enny
F ONT
H áº§m
L áº¯p
L Ã©n
M iá»ģn
M AR
M exico
O z
P izza
V irg
b ia
d Ä©
h iá»ĩn
l á»Ľn
m iss
p iper
v iÃªn
Ġt Ã¡p
Ġt á»ĭnh
Ġch Æ°ng
Ġm Ã¹ng
Ġm á»ĳng
Ġm ini
Ġb n
Ġb Ãºng
Ġng á»£p
Ġr Ãºc
á»ĩ ch
ĠC ÃĶ
ĠC rane
ĠM áº¡n
ĠM its
Ġbá»ĭ u
ĠB á»Ļi
ĠS á»Ľm
ĠÄĲ áºŃp
ĠH it
ĠH ec
ĠCh á»¯
ĠCh am
ĠL agertha
Tr Æ°a
ĠD ud
ĠD ragon
Ġlu ck
ĠR at
ĠR ee
ĠR over
Ġlo an
ĠV áº¡n
ĠK ern
th Ãº
ill ing
ÃĿ y
ob e
Gi áºŃt
ter s
Ho Ã¡
Ġse a
ian t
Ġdu á»Ĺi
Ġsu pp
ĠCl inton
ik es
ĠNew man
ĠLu ca
ĠAr ch
ĠSam urai
if ic
Ġ18 7
ĠTH á»¦
ert igo
ĠchÃª nh
ĠRe uben
ĠMer le
ĠOr ig
ĠHe athcliff
are au
app a
itz er
Ġde ar
ĠTo Ãł
ĠMil o
ĠCas par
ĠSal em
ĠNH ÃĤN
Ab e
ga ard
ĠThu áºŃn
Ġbl ood
ĠBoy le
Ġ= "
ĠSant ino
Ġevery body
Rock y
ĠBull ock
arn ia
JO EY
ĠJun ior
ĠFeder ov
stan bul
Aa Aa
GRUN TING
Jai me
Ġad renaline
Cos ette
ĠDal ey
Iá»Ģ U
Hobb s
Rox anne
Ġbur ger
ĠScorp ion
ĠWex ler
" "
B á»ķn
D ENNIS
L iÃª
M ath
S Ã¢m
S á»ĳc
S ho
S ydney
T Ã¢n
T áº¡p
X Ãł
X Ã©
X Ã¢m
l Ã¹i
n á»¯
p pe
s es
z b
Ġch á»Ľn
Ġm ark
Ġs ave
Ġg Ãºt
Ġnh á»£t
Ġa w
uy asha
Ġqu áº¡o
ĠC ard
ĠC old
ĠM umb
ar u
ĠB Ã²
ĠB ord
ĠB usan
ĠB ÃģO
ĠS lo
ĠS olo
ĠS INH
ĠH wi
ĠL eland
ĠD y
ĠA ber
ĠA IDS
es ki
ĠJ ab
ĠF an
ĠTr á»ĳng
ĠTr ey
Ġ3 60
ĠI g
ĠI ke
il en
Ġbu á»ĵi
ad man
ow g
ĠY un
Gi Ãłu
un de
Ġngu Ã´
Ġmay be
ĠGi ul
ĠSh rek
ris co
ĠAl z
ĠAl varez
Ġ20 11
eb ody
á»¡ n
ber ly
ood les
Ġsay s
Ġe h
ind or
Al d
ass o
ĠGiá» įng
ĠMor ton
inc y
ĠMon a
ĠPar sons
ĠCarl isle
ĠvÃŃ a
ĠEr nie
ĠSm oak
ĠÃ° Ã¢y
ÃĮ M
ĠChá»ĭ u
ĠGar ner
su k
Gr u
Carl y
ĠMau i
ĠHan cock
ĠRoy al
Ġpr etty
ĠJam aica
ĠHor vath
ĠMont real
ĠDor is
Ãĸ i
ĠDra co
ĠSel ma
ĠSi beria
AI JU
col at
Hal ey
ĠOld man
ĠLind sey
Aur ora
ĠOver kill
Les lie
ĠGib son
ĠQuant ico
Ġbeh ind
Alt air
8 1
A f
B Ã³
B á»Ļt
C re
D w
D Ãłi
D áº¡ng
D ark
D avis
G O
K Ä©
K iÃª
L ind
L oki
N ET
O Ã¡i
S Ã´ng
S oren
T á»§
c ott
g ood
h á»įc
l ich
p shire
t t
Ġ ÃŃ
Ġ ed
Ľ ng
Ġl á»ĵn
Ġth áº¹o
Ġch Ãµ
Ġch Ã¹n
Ġm art
Ġn ob
Ġn ice
Ġs áº§m
Ġh Ãºc
Ġg od
Ġnh áº¯t
Ġng áº¥u
Ch uá»ĳi
Ġx á»©c
Nh ung
ĠC ullen
ai th
ĠT el
ĠT ancredi
ĠM iÃªu
ĠM ing
ĠM áº¤T
ar te
ĠB ug
ĠS C
ĠS Ã¢m
ĠS ax
ĠS á»°
ĠS oren
ĠS okka
ĠH on
ĠH Ã²n
ĠH auser
ĠCh ern
ĠL ark
ĠL ars
Tr Æ°
ĠD EO
ĠG an
ĠG ris
ĠG AS
ĠG VN
ĠTh Æ¡
ĠTh race
Ġto ok
ĠR Ã¢u
Ġlo se
ĠV or
ĠJ eep
ĠN á»ķi
at ing
Ġngo áº·t
ĠK illian
ĠP edro
ĠF un
th áº£
ol es
Ġbu rn
ĠPh Ã¡n
ell ey
ab ra
ĠU g
ĠU ng
Ġ20 12
eg en
aw are
Æ¯ U
Ġbo dy
Ah a
Ġche ck
Ġ100 00
ĠBar celona
Ġsh ake
ĠÂ ¥
ĠBe ar
Ġ200 3
Ed uardo
ĠHam pshire
Ġro om
Ġke ng
Ġlau gh
ĠMad eline
Lau ren
ĠAh m
err un
ĠKen ya
Hu gh
Hel ena
ĠBeau mont
Ġcoca in
ĠDw ight
ĠHarl ey
Ġrem ember
Bal thazar
ĠngÃ½ i
ourg lass
ĠWater loo
Ġspe ak
Mul der
ĠVill age
uild ing
ĠEmp ire
A ri
B áº»
C Ã¢n
D z
D iá»ĩt
D ec
G e
J ed
K a
L á»Ļn
N á»ĵng
O ctav
T I
X ÃŃch
b lo
c áº§m
g ra
g irl
m á»Ŀi
r al
t áº¿t
y ou
nh áº£y
Ġth á»Ļn
Ġth ank
Ġch iá»ĩn
Ġch ild
Ġm á»įng
Ġn Ã¡n
Ġs á»ı
Ġs aw
Ġnh Ã½
Ġr ep
Ġph á»īnh
Ch ul
ÄĲ I
Ġx á»Ľi
ĠC ob
ĠC Æ°á»Ľp
ĠC lo
ĠT uy
ĠT oy
ĠM uirfield
ar ian
ĠB iff
ĠB reak
ĠS áº¹o
ĠÄĲ iá»ĩp
Ġy et
ĠCh áº¿
ĠL ook
Tr istan
ĠD Æ°
ĠA re
ĠTh áº£o
Ġto Ã©t
ĠR ai
ĠR idge
ĠR ingo
es lin
ĠJ areau
ĠN áº¡p
ĠN yssa
ĠK on
ĠK á»·
ĠK ean
ĠK utner
ĠP od
ĠP ym
ĠW orth
ĠW onder
ĠTr ub
ĠE cho
ĠE rebor
ĠO a
ot an
Ġw oman
id es
le en
Ġ6 30
Gi rl
ab lan
ri et
ak in
ĠTom as
een a
ĠTH ÃĢNH
Ġdá»¥ m
ĠÂ ª
ĠMc Fly
Jo an
ĠDon nelly
ĠAb el
Ar row
Ġ17 5
Ġman y
ĠIn s
ĠÃ° ang
ĠMat th
ĠBur ton
ĠRam say
ĠSau di
ĠYou Tube
ii ii
Me i
ĠGu ard
Mat ty
Be at
aff er
á»Į I
ĠHend erson
ĠHard y
ĠConn ers
Ġair bending
ĠGri ffin
âĻªâĻª âĻª
ĠNorm andy
ĠNguy á»ħn
aman ca
ĠKan iel
Rh ett
ĠEh r
ĠCliff ord
ĠAlexand ria
oucheb ou
owg li
) :
- (
6 4
A th
B Ã¡i
B á»Ŀi
B aggins
C áºŃp
D U
D ev
F L
F Bl
G áºŃy
H á»ĳi
H as
L áº§u
L etty
S á»Ŀ
S ig
T á»ĳn
T okyo
V era
b ourne
c áº§u
c as
f ad
r oo
t á»ĩ
Ġ á»£
Ġt w
Ġl á»Ľi
Ġl Ã¨o
Ġch Ãłm
Ġk il
Ġv áº£y
Ġm usic
Ġb right
Ġkh áº¡c
Ġkh Æ°á»Ľt
Ġnh áºµn
Ġr á»įc
ĠÄĳá» Ĺi
ÄĲ m
ÄĲ Ãłnh
ÄĲ ANG
uy á»ħn
Kh ung
Th en
ĠT Ã´ng
Ng áº©ng
ar us
ĠB á»į
ĠB AU
ĠB eta
ĠS acks
ĠÄĲ Ãĵ
ĠÄĲ á»Ĭ
ĠH em
ĠL uyá»ĩn
ĠL andy
á»ģ nh
Tr Ã¹m
ĠD ao
ĠA st
Ġlu n
ĠV odka
ĠK á»ģn
ĠK lein
ĠP ick
Ãµ Ã´c
ck ey
as cus
Qu entin
om is
th anh
Äĳ á»Ļng
ad h
ĠNg á»¯
ĠY ORK
oi r
Ġf ollow
ĠHo pps
ĠÃ ī
ac a
ut en
ov ia
ĠZ ur
Ġ12 00
ork s
eth or
uh ammad
ĠEd mund
AN ING
Ġwh isky
Lo a
Lo áº¡n
ĠMc Donald
NH á»®NG
Bu á»ĵng
Do ctor
ĠAb agn
ĠÃĩ Ã¢u
ĠLuc ille
ĠCap e
igg les
ĠMo ose
ors ky
ĠHa e
san o
Ġre ach
ĠPal m
ĠHel ms
ĠHank a
ĠAh n
ĠStr ucker
BÃŃ p
ĠLiz zie
ĠGen eva
ĠRoman off
ĠJoy ner
ĠcÃ Ľng
ĠDur in
ni Ã¨re
ĠLock hart
ĠDaw n
ĠVI ÃĬN
Rom eo
ĠMass achusetts
Hans el
ĠMun ich
Ev elyn
ĠBron x
ĠMug gle
neg ation
Ġiv y
B ran
B ingo
C ly
G om
H Æ°Æ¡ng
H ec
J un
K ong
L and
L ori
M N
S ully
T ango
W ILL
Y a
Y oo
Z Z
Z ed
Z uko
c Ã¡
c á»ķ
c Ã¢y
i ous
k ar
l ot
l Ã£o
n á»¯a
s Ãºng
s ch
s ik
Ġ áº¯c
ļ I
Ġc á»Ļc
Ġth Ã¡
Ġth á»Ľt
Ġv áº¡i
Ġv Ãĥ
Ġm nh
Ġm Ãºc
Ġm eo
Ġm á»ĭt
Ġn á»ı
Ġkh am
Ġr Ãº
ph et
ph rey
ph rine
Ġph en
Ch er
Ch ekov
ÄĲ áº£ng
áº½ o
Ġx Ã©n
Ġgi Æ°Æ¡ng
ch t
ĠC it
ĠT á»¥
ĠT Ãłn
ĠT ap
ĠM Ã£i
ĠM á»¸
ĠM eechum
ar ing
ĠB ia
ĠS ud
anh a
ĠÄĲ Ã¢
ĠÄĲ áº¡n
ĠÄĲ áº¦U
ĠH á»ĺI
ĠH LV
ĠL ena
Ġcu á»Ĺm
ĠD á»Ľt
ĠD ug
ĠD olly
ĠTh á»ĭnh
im mer
es c
ĠV ick
at te
ĠK in
ĠK Ãªu
ui l
Há»į p
Qu inn
it as
it te
it ion
Ġkho áº£
ĠTr Æ°
th á»©c
il yn
Ġbu ll
áºµ m
ĠNg ai
ĠY usuf
ed e
Gi u
Ġf ast
Ġp ic
ĠtÃŃ a
ĠX Ã©t
Ġly m
ĠU FO
Ġu áº¥t
ĠBr enner
ud o
ĠZ ucker
ĠAn at
Al i
Al icia
Ġ11 8
ĠBar r
ast ic
ott ingham
St ella
ĠMc Car
ĠLan a
ĠÃģ m
ĠRe aper
Br id
Su re
ĠRobert s
Har rison
ĠPer seus
Ã¤ o
ĠKH I
ĠKr amer
ĠFar amir
ĠRu dy
Cal ifornia
ĠDen is
ĠMu á»Ļi
Pat ty
DO CK
Ste ph
ĠPort land
ĠMira kuru
ĠQui ca
ĠMarl in
JO HN
ĠTul sa
ĠGin ny
Lan celot
ĠVerm ont
ĠAlz heimer
ĠHelms ley
A G
B ron
D re
D obby
I ron
L Æ¡
L Äĥn
L ot
M Ã¡t
M us
M ont
N ap
N ight
O laf
P oseidon
S B
S ing
U y
V ern
W est
b Æ°á»Ľc
b us
b Ã³ng
b eth
f orm
g at
g ma
h n
h omar
i pher
k inh
l aw
o za
Ġ er
Ġc ount
Ġl á»ķ
Ġv Ã©n
Ġm áºŃn
Ġm Æ°á»Ľt
Ġb et
Ġb iáº¿m
Ġb ecause
Ġs anh
Ġs ol
Ġs á»įt
Ġh Ã¡ch
Ġh Ãĳ
Ġnh áº¿ch
Ġnh Ãºm
Ġng Æ°á»Ľi
Ch icago
Ġqu áº¡nh
Th Ã³i
ĠC ed
ĠC NN
ĠT Ãº
ĠT anner
Ng Å©
ĠM Ã¡
ĠB ac
ĠB ÃĢI
ĠB áºłN
ĠB Ã¥ch
ĠS á»Ń
ĠS áº£nh
ĠS elf
en sh
or ay
ĠD áº¹p
ĠD á»ĬCH
ĠG org
ĠTh irteen
ĠN ass
ĠP ur
ey n
ĠW aver
ĠTr emaine
ah o
th Ã¢n
th áº§y
Ġchu á»Ļng
Äĳ Æ°Æ¡
Äĳ á»©a
os ito
ĠPh á»ķ
ĠNh iáº¿p
ĠNg á»±a
Ġ4 15
ag ena
Ġso on
Ġp e
Ġ8 3
ĠX U
all oor
Ġá»ª a
iv ia
te c
ĠBr it
ess homar
Ġhu á»³nh
Ġ19 43
Ġ19 41
ĠAn s
end i
Sh a
Ġ15 00
áº¤ Y
ĠDan ton
Ġ: ))
ĠGre at
agg y
ĠCH UCK
Ãľ a
pp ing
Sp encer
uss en
ĠGar g
gg s
ush ing
Bar bie
Har per
ĠBut ton
ĠSal amanca
Ġz ombie
ĠLor i
ĠMeg han
ÃĨ n
ĠÄĤ ng
Gre en
ĠClar ence
Ken zie
Ken shin
ĠEver est
ĠEx press
Ġgu ess
ĠOlymp ia
ĠCamp uchia
Bro ck
adia tor
ras ka
Ġdream s
ĠCD C
Trans late
Hall elujah
ĠOl sen
ĠBerk eley
ĠMao ri
ĠSaw yer
ĠRox anne
Ġmeth yl
Ġgam ma
ĠBus iness
Ir oh
ĠAthel stan
Ġá»¨ c
MUR DOCK
Cly de
esshomar u
A ustin
C y
C amp
C urtis
D ia
F cine
G U
J ie
L ar
N yssa
R ex
R oland
S ee
T ul
T á»ĭnh
V Æ°
a agen
b be
d om
f in
g Æ¡
l Ã´ng
m Ã³n
o z
p ia
v á»«a
x Ã¡c
ng á»§
Ġt Ã©p
Ġt á»įc
Ġl áº¡ch
Ġv Ã´i
Ġv Ã¡o
Ġm mm
Ġb áº·m
Ġs iÃªng
Ġh áº¥u
Ġr á»ĩt
Ġtr á»ı
ph Ãºt
Ġa ct
ÄĲ á»ĵn
Ġqu áº«n
Nh Æ°á»Ŀng
ch io
ĠC áº¤
ĠC ÃģC
ĠT all
ĠM O
ĠM áº¡c
ĠM ina
ĠM USIC
ĠB il
ĠB eowulf
ĠS kin
Ġho oc
or as
ĠD in
ĠA N
ĠG az
Con nie
ĠR abbit
ĠJ ak
Ġ2 20
ĠK ÃŃch
ĠK il
ĠF at
ĠTr anslator
ĠTr ask
ol k
ol ey
ĠE ise
ĠY ates
av os
ob rist
Gi Æ°Æ¡ng
kh Ã³
ag ome
Ġsá»Ń ng
Ġtim er
ann es
ĠX o
ĠGi bbons
ĠNÃ³ ng
ĠKh Ã¡ng
ĠZ ar
Ãį n
Ġtung unde
uh rer
ĠEd uardo
To Ãł
Cl aude
St ifler
ranc ine
cho ol
He athcliff
ĠKat ara
uss olini
ĠGar rett
orm amm
ĠVal halla
Will ie
ĠDel hi
ĠAt om
ĠAt las
Tim e
ĠPH ÃģP
Da phne
Ãļ T
Ã¥ c
II I
ĠMich el
ĠSar ang
aver ick
Ron an
ĠCall aghan
Fred dy
Ãŀ t
giá»¯ a
Ġhand s
ĠBag well
Ġlá»Ł n
ĠEng lish
ĠUk raine
ĠRaph ael
ĠArc adia
Sant iago
ĠSteph anie
ĠCC TV
Wins ton
ĠTrub shaw
Ġtungunde ad
ormamm u
. (
7 2
A utobot
B Ã¹a
C ON
D ai
E g
G il
H Ãªn
H iccup
J ob
J ose
L en
L ad
M ill
M Æ°á»£n
N uÃ´i
R anh
R ho
R evy
S D
S weet
S andra
S torm
T Ã¡o
T ÃĶI
c ing
h d
h áº§u
j ay
s Ã¡ng
s oon
v ar
w hoa
å Ĳ
Ġc Ã©
Ġc as
Ġv á»ĳ
Ġm ÃŃ
Ġm Æ°Æ¡
Ġm áº«m
Ġb ell
Ġb Ä©nh
Ġs ound
.. "
Ġtr Æ°á»Ŀn
ÄĲ áº¿ch
Ġqu áº·ng
Ġgi Äĥm
Kh Ãºc
ĠC elia
ĠC elt
ĠT Æ°Æ¡
ĠT á»ĭch
ĠT ag
ĠT áºłI
ĠM P
ĠM áº£nh
ĠM other
ĠÄĲ Ãłng
ĠÄĲ á»ģu
ĠH iÃª
ĠH ook
ĠH achi
Ġy ard
ĠCh Ã¡n
ĠCh uyÃªn
am ani
ĠA ND
ĠG inger
im et
ĠR áº½
Ġ2 14
at ton
ĠK oh
ĠK az
ĠK AIJU
ĠW ool
ĠTr ek
Äĳ au
ĠI Q
ĠI CO
os p
os ai
Ġ6 36
Gi Ã¡n
ra ina
kh Ã¡ch
Ġhuy Ãª
ran ium
ag in
ĠHo Ãłi
Ġp H
ich t
ri ar
tr idge
ĠAl ad
ĠU gh
te x
ov anni
ĠZ amb
ĠNew s
Ġkáº¹ c
if ul
ĠEd ison
ĠBar row
To Ã¡n
Ġdá»¥ t
ĠÂ ¢
ĠWal sh
ĠDan vers
Jo dy
Ġ14 7
Frank lin
ĠAb b
ĠMer r
ĠHe aly
ĠEr nesto
ĠLau da
ĠNgh iÃªn
ĠMo ana
ĠMy ers
ĠNG O
ĠHu á»ĩ
err era
Ġar ms
De Viet
Is sa
ĠFran ny
Dar ren
Ġcom es
ĠGI á»ľ
ĠGab e
Ru th
ĠSel ina
At t
ĠGe in
ĠNev ille
ĠKend rick
ĠAld ous
Bell amy
Rod ney
ĠOd essa
ĠDim itri
Bri en
ĠTah iti
enez uela
ĠBriar cliff
pine phrine
9 00
; !
B ai
B á»±c
B LE
B ones
C Æ°Æ¡
C LA
D ex
G ay
G otham
H iáº¿m
J asper
K atherine
L ock
M á»ı
O O
R ico
S Æ°Æ¡ng
T Ãª
T IN
V n
V u
a quin
b ourg
c á»Ńa
f urt
g les
v Ã¢
v ent
w yn
å Ī
Ġl á»ķi
Ġl iá»ģm
Ġl Ã¹m
Ġch ance
Ġv irut
Ġm Æ°Æ¡ng
Ġb em
Ġb Æ°ng
Ġb Æ°á»Łi
Ġkh ui
Ġs et
Ġs á»§ng
Ġh ip
Ġr uy
Ġph áº©u
Ch á»ĳt
Ġd áº¿
Ġd á»©a
Ġd ec
á»į p
Ġgi áº¥m
in ing
Th Ã´
ch ul
ĠC Ãłng
ĠC á»©t
ĠC ald
ĠT iáº¿t
ĠT ucker
ĠT ÃįCH
ĠM C
ĠM l
ĠS ome
ĠCh á»©c
áº« ng
Ġho e
Ph Ã¡i
ĠL Ã´n
ĠD á»¯
ĠD iá»ħn
ĠA M
ĠA rab
ĠA idan
Ġlu áº©n
ĠK au
ck en
al and
ĠÄĳo áº£n
ĠF ry
Ġchuy n
ĠW E
ĠW el
ĠTr oll
th Ã¡ng
th á»ķi
ic ons
ĠE b
ad ay
ad or
ow ers
Ġw all
ĠY ep
Ġmu Ãĳn
oi x
ĠHo dor
ĠchÃ³ p
ĠMar v
ff ee
ĠX Æ°á»Łng
Chu á»Ĺi
ris e
ne ider
iz uka
AN TING
ĠBar rett
ĠLa eddis
ĠMor ra
To p
liv e
ĠMon ty
ER N
ĠRe agan
ÃĤ t
ist s
IA M
Br uno
AR C
19 88
pe ed
ÃĮ i
ĠLou isa
ĠPat terson
igg er
áºł C
áºł T
Gr im
Gr ug
ĠRo per
ĠRo oster
ĠMil ton
ric io
ĠTor o
ĠFor est
ĠPal estine
ĠNH á»®NG
Ad rian
ĠCarol yn
ĠUn ited
ĠGiá»¯ a
De acon
Mer c
br ight
ĠWar ner
ĠAndre i
ĠGold en
Ã« i
áº¨ N
Æ¯á»¢ NG
Ãĩ n
ĠShel by
iger ia
Ġcmn r
ĠRad io
ĠUl tron
ĠPam ela
Ġtal king
gn ac
Ġshot gun
ĠHart ley
ĠJenn ings
ĠGIá» ļI
ĠLeed s
ĠNich ols
Tad ashi
ablan ca
ouchebou me
C Ã²ng
D á»¥
D is
D á»ĵn
D ING
D ata
E s
G á»£i
G ER
H Ãº
H old
K ang
L ance
M áº¥u
N ell
R au
S tone
V á»ĭnh
b io
b les
d á»ĭch
m itt
n Ãłng
n is
r á»ĳt
r one
t Ãłi
Ġ %
Ġ Î
Ġt t
Ġc lear
Ġl uy
Ġk iss
Ġm áº§y
Ġb im
Ã¡ bio
Ġh áºµn
Ġr ide
ĠÄĳá» īa
Ch áº¥n
Ch ip
ÄĲ uÃ´i
Ġvá» ĥ
ĠC áº¥t
ĠC oop
ĠT B
ĠT Æ°á»£ng
ĠM ustang
ĠB INH
ĠS Ã¢n
ĠS ey
ĠS qu
ĠS áº¼
ĠÄĲ M
ĠH Ãło
ĠH HM
Ġy ellow
Ġho pe
ĠL EE
am ind
Ġcá»© a
Ġcu i
Tr u
ĠD oo
ĠA sano
ĠR Ã¹a
ĠR ub
ĠV áºŃn
ĠV ir
ĠJ ade
ĠN á»Ńa
ĠN ell
ĠN Ã£o
ĠN egan
it za
ĠW endell
ĠE th
ĠI rene
Ġbu m
ĠY e
Ġ6 27
kh á»ıi
ag on
Ġp i
ev es
nd ers
ĠX erxes
ĠGi áº¥y
ĠSh ep
tr Ã²
tr ot
te gat
ĠBr un
aw ne
ach o
qu is
ass im
our n
Co ca
Ġj ack
Ġ50 5
ver t
ook ed
Ġsh ine
ren a
Æł N
Æł i
ib on
ĠFl em
Ġ24 0
Ġ200 4
tin ental
Ãĵ c
Ġ$ .
ĠLuc ifer
ĠSte adman
ĠVal jean
uk k
ĠRam bo
AT TER
ĠLo uie
Ġwant s
ĠnhÃ¬ u
ĠMel man
KH U
De ad
ĠMu fasa
ĠGro ve
ĠAf ter
Ram ona
ĠMag dal
ĠBoo g
Mur ph
ili en
Ste fan
lu áºŃt
Ġgirl s
Mad eleine
Ġ197 3
ĠMah one
enness y
ĠBra avos
ĠPic ard
ĠHen ri
ult z
ĠCec ile
ĠBrid ger
ĠmÄ© m
ĠBarn ett
ĠPri or
ãĢ Į
ãĢ į
ĠHoo ver
Ran cho
ĠDwar ves
ĠRodrig uez
ĠKre i
Leg olas
ĠDak ota
ĠCron auer
ĠIS IL
ĠBald win
Ġmart ini
ĠAbagn ale
: "
A ra
F i
G Äĥ
H eo
H ave
K áº¹p
K ee
L una
M oi
M ale
N E
N SA
O ut
P il
R ic
W on
f oy
h uynh
h iro
k Ãª
k oles
l inh
l á»Ĺi
l ana
m our
p ee
r t
s á»©c
t z
w itz
x x
y oko
Ġt est
Ġc d
Ġc á»Ļi
Ġl Ã³a
Ġch áº§m
Ġch ÃĮ
Ġk ick
Ġm ountain
Ġn áº·n
Ġkh á»©a
Ġa live
Ch Ä©a
Ch ÃĴng
Kh á»ķ
Kh á»Ľp
Ġcon tainer
ch á»§
ĠC ain
ĠT iá»ĩc
ĠT at
ĠT áº¡ng
ĠT iger
ĠT arly
Ng áº¯n
ĠB á»¥i
ĠB everly
ĠH á»ģ
ĠH á»ĮC
Ph ill
ĠL ian
ĠL az
ĠL oeb
ĠD Ã£
ĠG ail
ĠG ould
Ġto ang
ĠR ash
ĠV ig
ĠJ emma
ĠN et
ĠN arnia
ĠN ottingham
ĠK os
ĠK ett
ĠK áº¹o
ĠK áº¾T
ĠnhÃ© p
et urn
et imes
ĠP ul
al ie
ĠF i
ĠTr Ã¹ng
ĠTr eo
ie g
ah m
th á»Ł
ĠE arp
ĠI Ãªn
ad ir
ĠNh áº¯m
Ġw in
le as
)} -
ag ner
um bo
all e
ri er
tr ess
ac r
te z
Ġ20 10
ĠBr iggs
ĠKh Ã´n
Ġsa ke
Ġin ter
Ġxo ang
ett es
st ag
ĠRe za
ens tone
AR T
May be
ĠCr ete
Ġ60 7
ĠEr ica
gi ao
ĠHam lin
uss els
ye ong
Ġvá»Ł n
ĠPH á»¤
ĠPH UDEVIET
aven port
Ãļ A
Mr s
Ġwant ed
ĠFr ou
Ġus e
On line
ĠSand piper
ĠRiv errun
ĠMed usa
ĠMu á»Ļn
Ram on
ets ky
ĠCat elyn
bor o
Ġex p
á»Ĩ NH
ĠLock e
ThÃŃ m
Gab e
ĠMerc ury
ĠColumb us
Bor omir
Ġaf raid
Iá»Ģ N
ĠDwar f
MON ICA
ĠJav ert
ĠAlam ut
Sme agol
åķ Ĭ
Ġ=" #
Ġpic nic
ensh ield
A va
B Ã¡u
B áº¿p
B art
C orn
D á»¥ng
E arl
F ort
G eo
L at
M id
M oh
M oira
N áº¿m
Q uyáº¿n
R áº·n
S us
T áº§n
T á»ı
T ell
m ony
n Ãª
p an
v ÃŃt
x el
æ ī
nh Ã©
Ġl á»ĳn
Ġth Ã¦
Ġkh á»ı
Ġr áº·n
Kh iÃªn
in ity
in awa
ĠC ay
ĠC andy
ĠT ÃĶi
ĠT ate
ĠT ÃĤY
Ng ÃľÃĸi
er oy
ĠM ish
ĠM ade
ĠM ink
ĠM andy
ĠB ott
ĠB BS
ĠB uster
ĠÄĲ á»ģn
ĠH ere
ĠH ourglass
ĠCh Æ°á»Łng
Ġho o
Tr i
Tr o
Tr áº«m
ĠD up
es o
es ome
ĠV ertigo
ĠN on
ĠN igeria
Ġ2 16
ĠP ayne
al ta
Ġhai r
as ton
ey land
ĠF ed
ĠF uck
ĠW inn
ĠTr uy
ĠTr áºŃt
ĠTr á»±c
ĠTr á»ĳn
ie uzo
Äĳ Æ¡n
Äĳ á»ģ
ĠNg uyÃª
id el
ĠY M
av or
ĠEm met
Ġse an
um ar
ri ft
ee b
Ġti p
eb ra
ĠKh Ã¡nh
eg h
Ġhu Ã¢
Sh ow
ĠSc i
Ġbe ing
ĠAnd rÃ©
Ġit s
Wh ite
inc inn
Ġhe ard
And ie
ĠJon ny
Do anh
ĠMer cy
ĠMal foy
ĠHam mers
Ġro ad
ĠJul io
ĠLuc rezia
ough t
Ġtru th
ĠTur ing
Ġdown load
ĠLann ing
Jul iet
Ã¥ n
ĠHer b
Hu á»·
Gre at
ĠLat inh
ĠReg is
sey e
ĠDam ian
ĠYu an
Ġ196 3
gard en
Ex p
ÃľÃĸ m
Iá»Ĥ N
ĠAutobot s
ĠArm ando
Dam n
Bat man
ĠSir ius
ĠThan os
ĠMars ellus
Ġhyd ro
ĠByr de
Shel don
ĠPhilipp ines
ĠBagh dad
Enc oder
Ġcd x
ieuzo zo
' ...
1 60
B á»ķ
B as
B att
C ynthia
D F
D EA
E sc
F ernando
G áº¡t
G ina
H áº±ng
H iáº¿n
J ude
L L
M Ã¢y
M anh
M Ã³ng
M ake
O W
T ex
W ood
X Æ°á»Łng
d anh
d ey
g ro
p ian
t á»Ļi
t Äĥng
t ime
u eger
v ah
Â ±
Ġc áº¥n
Ġch áºµn
Ġm ÃŃch
Ġn Ãĥ
Ġn Ã£m
Ġh á»§i
Ã¬ ng
Ġph Ã³c
Ch ines
Ch urch
Ġd eep
Ġvá» ī
an te
Th Ã¡ch
ĠC anh
ĠC ristina
ai ve
ĠT áº¥n
ĠT ol
ĠT ully
Ng á»©a
ĠM Ã£ng
ĠB lock
ÃĶ N
ĠÄĲ Æ¯á»ľNG
ĠH K
Em met
ĠCh erry
Ph á»§
ĠL ad
ĠL eah
ĠnhÃł u
ĠD anko
ĠD rive
ĠG ÃĮ
Ġtiáº¿ u
ĠR aw
es us
ĠN iÃªn
ĠN if
ĠK eel
ĠP re
ĠF oy
ĠW C
ie u
Äĳ Ã¡m
ĠE X
ĠE laine
Ġw elcome
and hi
oo oo
ĠY ong
ed ragon
Ġkhu Ã¢n
á»Ĵ N
ig ma
Ġf lo
ĠMar ko
Ġp ay
Ġp re
Ġp oster
Ġp Háº£i
ĠCon lon
Ġ7 33
Ġ8 17
ĠSh elly
Chu Ã¢
ip i
ĠKh ai
Lu is
to cles
Mar go
iz am
ĠCar roll
ĠÃ´ tÃ´
ĠhÃ² an
AN A
AN I
ĠWh iskey
St ig
ĠÄĳá»± Æ¡c
yl es
ale z
Ġis n
ĠRa ju
ĠDar win
ĠSo Ã¡i
gg gg
ĠTur n
ĠSu cre
ĠHan son
Mon a
ĠRoy ce
ĠMiss y
ĠHor ik
ĠGh Ã©p
ump et
agh etti
he h
Ly le
Ãĳ t
HD VN
ĠcH uyá»ĩn
ĠJoseph ine
HO ME
ĠMcC oy
bb et
Ter esa
ĠHarl an
ĠUl rich
Jar ed
rat ty
ĠBeat rice
ĠRING ING
ays ia
ĠFrances ca
eas ar
ĠDj ango
Nob ita
Crow ley
Ġbre ath
Ġnob ody
ĠZur ich
incinn ati
Chines edragon
Chinesedragon ls
A c
B á»ĳi
B Ãºt
B AR
B umblebee
C áº£ng
C Ã²i
D J
F ree
H ell
I e
J acques
L ionel
M á»ĵi
M áº¡n
M ES
N uá»ĳt
R idd
S Ãłn
X Ãłi
Y ee
Z h
Z ack
b ani
f eld
l áº½
l NG
m á»¥c
m ua
s Ä©
t Ã´ng
v ig
v atron
z on
Ġt áº¿u
Ġt ill
Ġt itan
Ġc ity
ĠÄĳ Ã¹
ĠÄĳ Ã¡t
Ġl ives
Ġth ÃĨt
Ġch Ã´ng
Ġv Ã°i
Ġm Æ°á»Ŀng
Ġm Ã¨m
Ġm ama
Ġb uá»ĳt
Ġs á»Ļ
Ġh áº¡c
Ġh urt
Ġg ÃŃ
Ġnh Ãµ
Ġnh Ã²a
Ġnh uyá»ħn
Ch Ã©n
Ġd Ãºng
Ġd áº³ng
ÄĲ Ã²n
Ġqu áº¯c
ĠC á»«u
ai us
ĠT áº¿t
ĠT ui
ĠT ÃĻ
ĠT á»¬
Ng áº§u
ĠB ettie
ĠS z
ĠS even
ĠS qui
ĠS IM
ĠÄĲ iÃª
ĠÄĲ ÃĤY
Ġy ear
ĠCh au
Ph á»ıng
ll is
ia c
or ov
Tr á»«ng
ĠD ang
ĠD ega
ĠD iamond
ĠG omez
ĠTh ai
Ġto áº¹t
ĠR ost
es el
ĠV iper
ĠV allon
Ġ2 11
ĠK ip
ĠK alloor
et i
et own
ĠP ena
ĠP ARK
it os
it aka
om ack
ĠW as
ĠTr aynor
ĠO ur
ĠO xy
ĠPh Ã¢
ĠY ay
ĠY as
ĠY ag
ĠY eon
Gi ve
Ġf il
ĠHo áº£
Ġp um
Ġp rom
ard t
all an
ĠGi Ãły
enn ett
ac ci
ĠU ther
ut us
Ġ20 13
ĠZ ed
ĠZ oot
Sh rek
Ġhi u
791 4
Ġbe ng
An thony
ĠBa ahubali
ĠWh istler
ĠBen son
ott ie
Bá»ĭ t
** **
ĠBob bi
á»Ĳ c
ĠBer g
ĠCol ton
ĠCr aster
ĠCam era
IN CT
ĠlÃ² e
ĠTR ÃĬN
Iá» Ħ
ĠCo dy
ĠSe a
Ġi u
ĠBur ger
ĠMe ach
Mon roe
ÃĻ c
cel and
Da enerys
ĠFel ipe
Ġpr es
ĠKr ueger
ĠUn know
Ġbl ow
ami ya
ĠBal in
Er ica
br ook
Ġwould n
ĠAg nes
ĠAlb any
ĠKenn eth
ĠMcG ee
ERS ON
Te j
ĠAT CU
ĠHop per
aut iful
ĠLeg olas
ĠCher yl
ĠCarm ichael
ĠTho áº¡i
ĠAss ass
ĠZe phyr
IST INCT
ĠDub ai
Lyn ch
ĠCot ys
ĠLiv ings
atur al
nguy en
ĠCel este
jor ie
anu jan
ĠCá»¨ U
ĠTem ple
fic ent
B M
C ÃĶ
D oo
D icky
D iane
G imli
I g
J i
J oh
M et
M yr
N Äĥ
P ink
S ING
T E
T ic
V Ã¡n
V it
V ÃģN
V assili
W eb
X áº£
Y ondu
b es
h on
h em
h Æ°á»Ľng
h ill
k ong
k Ã©o
m ark
n ay
s ula
s trom
Ġ 786
Ġt Äĥn
Ġt weet
Ġl Ã¹
Ġl á»ĳt
Ġl iá»ĩm
Ġch Æ°á»Ŀng
Ġv Ã´ng
Ġb end
Ġs um
Ġg Ã¡p
Ġg á»įt
Ġg ÃľÃĸm
Ġr iáº¿t
Ġr Ã¡y
Ġr Ã«i
Ġph á»ĳt
Ġph Æ°á»£ng
Ch ester
ÄĲ á»¥ng
Ġgi Ã²i
Ġra t
ĠC á»¬A
ĠT á»©c
ĠT og
ĠT ink
ĠT uyÃª
ĠT á»°
ĠM im
ĠM it
ĠM RI
Ġlá» ĥ
ĠB ast
ĠÄĲ ÃŃt
ĠÄĲ áº©u
ĠH ÃĢNG
ĠCh Ã¡y
ĠCh ey
Ġho ckey
Ph anh
ĠL iÃªu
Tr á»ĭ
ĠD ob
ĠD ep
ĠD rew
ĠD avenport
ĠTh om
Ġto áº¡
ĠR ut
ĠR eek
ĠV Ã£i
ĠV ega
ĠJ ac
ĠN inja
ĠK now
ĠK ristoff
et su
ĠP ao
ĠP lace
as i
ey e
ĠF ah
ĠF ont
ĠF iti
ĠW anda
ĠW inkle
ĠTr Ãºc
re nh
24 5
ĠI V
ĠI ND
os an
ot ka
Ġw or
Ġw orth
ur st
av ik
Ġ6 54
ir anha
Ho Äĥ
Ġf our
ĠHo ck
ev ich
ri o
tr áº»
ĠAl ma
ac us
ĠKh Ã¢u
ess ie
Ġ19 99
Ġbom b
ere aux
ĠAr es
Sh i
Ġe asy
oss a
ĠGr anger
att s
Ġru pee
ĠCarl a
Ġ200 5
ĠWil helm
Ed ith
ire z
oug ar
ĠHy un
ĠEr et
ĠKat rina
ĠKat tegat
ĠAngel ina
ĠJe fe
ĠGl adiator
ĠCan yon
Max imus
Jul ian
Luc ius
ĠNathan iel
Ġsp a
ĠSw ann
ĠGal il
Ty rion
Pr ince
ĠGen eral
Is abel
ĠSant ana
Ġevery one
Ram bo
terpris e
Doug las
ĠFitz gerald
ĠReg ina
Ru á»Ļt
ĠArk enstone
we ather
ĠHoll oway
ĠSom ers
ĠSom alia
ĠPort man
ĠVen us
ĠBow l
Ter i
ĠKir by
Sch midt
ĠCre asy
cr oss
ĠFog gy
emis tocles
ĠTech n
wh ere
ĠCarr illo
ucc ino
ĠChech nya
Ġáº¹ c
Jun ior
E instein
F loki
G ot
G RA
H Ã¹
H á»ĵn
H aw
H ieuzozo
J or
J eez
K á»ī
K ath
L U
L eah
L ight
M Ã¬
M ig
M OR
N atal
O ng
P ERING
R EE
S N
S un
S unny
T Ã´ng
T á»¥
V Ãº
b Æ¡
b Äĥng
c Æ°á»Ŀi
h áº¹n
m áº¡nh
s et
s áº¯p
t ar
t á»©c
t rans
z ou
å ı
Ġc Ãĥ
Ġc ello
Ġch á»Ļi
Ġb uy
Ġb el
Ġb Ãµ
Ġb la
Ġs áº«m
Ġh á»ĥn
Ġh aving
Ġr áº¡c
Ġph Ã¨o
Ġx Ã©p
em non
Nh o
Nh á»ĩn
ch Äĥm
ch á»©ng
ĠC Æ°á»Ŀng
ĠC ook
ĠT ong
au k
ĠM D
ĠM ap
ĠM oucheboume
ĠB unny
ĠS ell
ĠS my
ĠS ach
ĠS ix
ĠÄĲ ÃĶNG
ĠH iá»ĥn
Ġy oung
ĠCh et
ĠCh áº·n
ĠCh amp
or ty
ĠD ee
ĠG ir
Ta gg
ĠTh áº»
ĠR ig
ĠR ud
ĠR itchie
ĠV ÃŃ
ĠV et
ĠV illa
ĠJ C
ĠJ enna
ĠN ant
ĠN ever
at ore
ĠK áº¹
ĠK ali
ĠK IM
ĠP ut
al on
as ena
ĠF ill
ĠF uhrer
ĠF ibon
ĠW o
ĠTr á»ĭ
ĠTr á»©ng
ua lly
us se
th Æ°
th iÃªn
iá»ħ ng
os ed
ĠNh áº¯c
av y
Gi Ãłnh
ĠSt ory
ag lia
79 29
ĠHo yt
ĠMar ius
ann icus
ĠSh ark
Ġsuy á»ħn
ris s
ap on
ac i
Ġtrá»« u
ath a
ud ha
ov ie
Ġ19 42
Ġ19 75
ĠZ an
Mau rice
chÃºng tÃ´i
ant ium
Ġe Bay
eth e
iz on
An im
ĠEd ith
ĠÃ´ xy
ĠBa in
ĠMor ro
st ark
ĠTom men
Cl air
ĠAm es
Jack y
ĠLan c
á»Ĳ N
rist an
ĠRa f
ĠBan shee
Ġ13 8
Ġvá»Ŀ n
ĠJon as
ĠAb negation
Br ook
Ar m
way i
ous ai
ĠcuÃ´ c
ker man
ĠKat ia
ĠTy son
Ġlá»ģ nh
EA K
ThÃ¢ t
ĠTe j
Ġtru áº¥t
ĠTim othy
Gr etchen
PH O
ĠLo omis
amb i
ĠHu áº¥n
ĠBeck et
ÃĲ i
ÃĲ Ã¢y
Ġus ed
ĠGh ost
ĠSar ge
ĠÆ¯ Æ¡ng
uzz i
ĠTer ra
En terprise
ĠAng us
Ġany one
Ġsom ebody
ĠNe ary
ĠRen o
ĠBuck y
Ġsc andal
ĠDam ascus
ĠEy rie
ELL ING
dor f
Joy ce
ÃŁ n
Ġwait ing
ĠHav ana
ĠCec il
Hor us
Gro ot
ĠMoh inder
Ġes c
ĠVog el
ĠAugust ine
ĠGy psy
Ġgá»Ŀ m
ĠÄĲO ÃĢN
ĠHod g
apu ta
ĠDow ney
Poll ux
atic aya
ĠBrenn an
ĠGryff indor
sum oto
ĠMatth ias
) ...
B is
D NA
E NG
F loyd
H YDRA
K Ã©t
L il
V á»ĭt
X Äĥng
Y O
b ull
c ella
d ette
f ish
h ad
k all
l Ã½
m ing
t áº¯t
t es
w ah
w ing
{ /
Ã īnh
å ¾
Ġ á»Ķ
Ġ âĢŃ
ĠÄĳ Ã´n
Ġl ate
Ġl Ãµm
Ġth Æ¡i
Ġch áº¯p
Ġch Ãĥ
Ġv ic
Ġm Æ¡n
Ġm ost
Ġm Ã®t
Ġn á»Ľt
Ġkh áºŃp
Ġs Äĥm
Ġs ix
Ġh á»«ng
Ġg á»£n
Ġng áº¡nh
Ġtr ouble
Ġcá» ¯
ÄĲ á»Ĺ
ÄĲ Ãĥ
Ġcho colat
Ġngh Ãłnh
em i
em iah
Th á»ĳi
ĠC á»Ľm
ĠT as
er ra
ĠB s
ĠB omb
ĠB EE
ĠS áº»
ĠS ib
ĠÄĲ á»Ŀi
ĠÄĲ áº¡t
ĠH iá»ĥm
ĠH ack
ĠH alf
Ph un
ĠL ila
ĠL aden
am ba
ia t
Tr Ã¢
Tr áº¡ng
ĠD irk
ĠG ordo
ĠV ideo
ĠV assili
ĠJ ump
at r
ĠK appa
ui pers
ĠP ip
ĠW erner
ĠTr ÃŃch
Ġ? "
Ġgh á»ĩ
ĠE z
ow yn
Ġw ake
Ġma kes
ÃĢ U
le z
le one
ĠY akuza
Ġ6 15
Ġ6 13
Gi an
Ho ang
nd y
ee ee
Ġcá»¥ ng
Ġsá»Ł n
ĠBr eth
ĠKh áº£i
ĠKh Ãºc
ud ge
Ġ( *
Ġ19 60
Ġ19 90
Ġ19 97
ĠFrank furt
ĠSam ir
ins ky
op ia
Ġyour s
Ġ200 2
ĠMer edith
osh io
ĠCH á»Ī
ons off
ĠGar zooka
ĠLuc ia
ĠCo ch
áºł M
Ġbá»ģ nh
ĠMat ias
ĠTur k
ĠWat ers
ÄĲu á»£c
iff el
ĠOk ja
ĠKH O
ĠFar aday
Iá»Ĩ P
ĠOm aticaya
ĠHall elujah
aham as
Hel ene
he ad
tral ia
ĠcÃ §a
Cr assus
ĠSol ando
Nik i
Liz zie
Ãĩ t
ĠHigh garden
ĠGam gee
ĠBad ger
ĠGil bert
ersh el
ĠAveng er
ĠHad dock
á»ĸ I
ĠNeb raska
Eli jah
ĠPad dington
ĠLestr ade
Ãħ n
ĠBeet hoven
ĠNazar eth
ĠSax on
ĠUg anda
A K
C Ãĵ
D Ã£y
D im
F ord
F usco
G áº¯ng
G ondor
G oku
H áº£o
H ÃĥY
I shaan
K u
K iá»ĩn
K iáº¿p
K owalski
L ev
M á»±c
M á»ģm
P s
R alph
T wo
V in
V ar
V el
V odka
W ald
X X
b Ã¡n
c Ãłng
d áºŃy
d á»ħ
e ur
g ot
g ers
h á»ıi
h ot
j oon
j ect
l ington
m os
s ton
v onne
w ai
Ġ áº¯p
Ġ Ã²a
Ġ ÃĶNG
á» ²
Ġt ick
Ġt Ãĥ
ĠÄĳ anh
nh ower
Ġl t
Ġl á»ĭ
Ġv y
Ġm ellow
Ġb áº¥n
Ġs Å©ng
Ġs á»ĭp
Ġg á»ıng
Ġnh Ã³
Ġng H
Ġtr á»įi
Ġtr ied
Ġph Ã©
Ch el
Ġd á»ģ
ÄĲ á»ģn
Ġx y
Ġchá» ±c
Kh an
Th Ã¹
Th iÃª
Nh ai
Nh iÃªn
Nh á»¥c
ch et
ch amp
ĠT Ãª
ĠT it
ĠT ig
ĠM R
ĠM á»ªNG
ĠB ack
ĠB ent
ĠB ook
ĠS Ã¢u
ĠÄĲ á»ĳt
ĠÄĲ áº§m
ĠH ex
ĠH ome
ĠCh Æ°
ĠCh Äĥm
Ġho áº¯c
ĠL Ã´
am us
or ra
Tr áº¯ng
ĠD ag
ĠA elle
ĠA very
ĠG et
ĠTh en
ĠTh uá»Ļc
ĠR um
ĠR IP
ĠJ oo
ĠN á»¯a
ĠN EST
Ġ2 23
is ode
ĠK m
ĠP red
ĠP age
ĠTr it
Ġco ld
ah ari
ĠI ceman
il is
ĠÄĳá»§ i
ĠNg áº¡c
Ġma king
le igh
ed om
ĠSt and
ĠSt ill
oi ck
Ho pe
Ġthi u
Ġdi ffer
ĠX ung
ĠX ing
ĠBr idge
ĠBr ussels
aw ley
ĠCl ough
ly the
ĠAr bor
ub bs
Ġbo at
Ġbe at
eth el
An ita
az i
our ney
AN NA
st ad
ĠHar riet
Ġwh ite
Hy dra
Tuy áº¿n
Tuy á»ĥn
ĠBan ir
CÆ¡ m
ĠKim ble
ĠGre er
Ġ17 1
ĠHe in
á»¦ ng
ĠMal aysia
ĠGar rigan
ĠTe quila
ĠCan ter
ĠUh ura
ĠMac allan
gar ita
ĠKar stark
und abad
amp ton
ĠÃĶ m
ĠLi ang
Ġ= ))
ĠPe Ã±a
HÄĥ y
ĠRiv ers
ĠBay lor
ĠtH Æ°a
kho ff
ness y
ĠFran z
ĠSer bia
ĠQU ÃĤN
Ġnu Ã´ng
ĠCos ima
Ġ198 6
Or g
sw orth
Ġser ver
ĠOt to
Viet sub
ĠKend all
ĠOn line
Ter rence
Sar ge
ĠBas il
ĠFre ud
ĠEle ktra
ĠLÃĢ M
Dra go
Georg es
ĠDec lan
ĠRin aldi
ĠCU á»ĺC
ĠBub ba
Ġgang ster
ĠGonz alez
ĠnÃį i
ĠConstant ine
ĠBet sy
ĠFredrick sen
ĠGoeb el
ĠZucker berg
Ġmethyl amine
stag ram
B ow
B ER
D Æ°a
D ing
D iggle
E p
E y
E BE
F I
F rey
G ui
H is
L iam
L ibby
M á»£
M am
M ons
M ove
M indy
N C
P y
P re
R U
R Ãªn
R áº¡p
R oot
S ec
S ex
T Ã²
T itan
U L
W ol
W ick
W ater
X Ã©m
d um
e f
e al
j ee
k iáº¿m
k lin
k ini
s ai
u nh
é Ģ
é Ĥ
ng Ã´i
Ġl em
Ġl ie
Ġl Ã²a
Ġth anks
Ġv áº§ng
Ġn ano
Ġb áº±m
Ġs qu
Ġs á»§i
Ġs ign
Ġh all
Ġh ate
Ġng Æ°á»Ľc
Ġtr Ãµ
Ġtr ans
Ġd áº½
ÄĲ Ä©a
Ġx Æ°Æ¡
Ġx á»ĳt
Ġqu est
Ġcho a
Ġngh ÃĮ
ch áº£
ch uyá»ĥn
ĠC áº£i
ĠC á»©ng
ĠC rewe
ĠC incinnati
ChÃºng tÃ´i
ĠT á»ª
ĠT erm
ĠB Ã´ng
ĠB ahamas
ĠS or
ĠS ans
ĠS ound
ĠS Ã©c
ĠS osa
ĠÄĲ Ã©o
ĠH Ãłm
CÃ´ n
ĠÃł k
Tr Äĥng
ĠD ino
ĠD uk
ĠD usty
ĠA ko
ĠG RO
ĠG etty
Ta j
Ġto anh
Ġto wn
ĠR Ã¢
ĠV irus
ĠN ab
ĠK iller
el an
ĠP end
ĠP ompey
ĠW an
ĠTr an
Ġnhá»Ľ p
ah ar
re x
ic ero
ĠE p
ĠE iffel
ĠO da
ĠPh Æ°á»£ng
Ġáº¡ h
Ġ5 20
id s
le pot
Ġ6 16
ra k
ig ula
ĠSt ri
ir ty
ĠCon tinental
Ġ8 6
ĠX E
ee ks
FF S
oy a
Ġ19 70
Ġphá»§ i
Ãģ u
end il
art z
ith ium
ĠSam wise
ĠAnd al
No thing
ĠEd en
ĠWh y
ĠJim mie
John son
CH ASE
ĠBl air
ĠPar bat
Ġ13 9
ĠSan Corp
Ġ200 8
ĠÃĩ ang
Ġst ar
Ġ60 9
pp ed
ĠÃ° Ã¢u
Ġup on
ÃĴ N
áºł O
Gr ady
ĠSau nders
ĠKar ate
eck er
Man olo
ĠWard en
Iá»Ĩ T
Ġcl ose
ĠSa e
ĠMed ia
ĠBol sh
55 5
ĠRom a
Mer lyn
Pr entiss
Mc Clane
ĠSol onius
ĠKn ight
dd ball
ĠMak o
ĠAz imoff
oren us
Nik ki
Ind iana
ĠWeb ber
Clar issa
Ġsub title
Mos cow
ĠNy x
Ġlá»§ i
Pin ky
ĠCarm ack
ĠKra ll
ĠGard en
ĠFrey a
som nia
ĠUk raina
igs aw
ĠRav ager
Win ter
ĠWars aw
ĠFle ury
ĠHind u
ĠGog h
ĠClaud ia
Ġmom ent
Ġac id
å° ±
cov ery
Under wood
Mach ete
ĠRomul an
Dw ight
Ġlym pho
ĠMcCar thy
ĠWaver ider
Ġcas ino
gro ve
ĠAssass ins
renh al
B áº¥y
B áº¯p
C On
D K
E ng
E sp
G Ã¢
H it
H OL
K ick
N igel
O l
P or
P iper
Q aeda
R aul
S Ãºp
S ton
S ab
T áº£i
V Ã²i
W illy
Y ork
b Ãłi
g Ã¢y
g oo
h uy
j en
j ia
j andro
k iss
m or
s Ã¡t
u ke
y ps
z h
Ġc al
Ġc arry
Ġc rowd
nh i
Ġv Äĥ
Ġkh iá»ħng
Ġs now
Ġs oup
Ġg old
Ġg á»Ļp
Ġnh ng
Ġnh Ãĥ
Ġtr Ã¢m
ph áº£n
ph ÃŃa
Ġph ay
Ġph Äĥng
Ġd Ã¡nh
Ġd áº·t
Ġd iá»ħm
ÄĲ áº¯t
ÄĲ iá»ĩu
Ġx á»ĭ
Kh iáº¿p
Th áº£y
Ġgiá» Ľ
ch Ãł
ĠC avanaugh
ĠT ab
ĠT IN
ĠM á»ĵi
ar est
ĠS ac
ĠS eb
ĠÄĲ ua
ĠÄĲ á»ĵn
en os
Ġho c
ĠL Ã¢
ĠL Ã£ng
am oto
Ġcu á»Ļi
or ies
Tr Ã¢n
Tr Ãłn
ĠD áº§u
ĠD racula
ĠG om
ĠG lock
ĠG ame
ĠG RUN
ĠTh ree
ĠTh awne
Ìĥ ?
ĠV á»¥ng
ĠV argas
ĠJ AP
ĠJ avi
ĠJ orah
ĠK as
Ġdo m
ĠF y
ĠTr e
th al
Äĳ áº±ng
Äĳ Ãłn
ĠE ly
ĠE iling
ĠI stanbul
ĠO cean
ĠPh Ã¹ng
ĠPh Ã©p
)} "
ig oi
ĠSt acey
Ġf ive
Ġse em
ĠMar ilyn
Ġtim es
ĠX ander
ĠbÃŃ m
ri ot
ri que
ul us
ĠSh ow
tr aut
ap tis
ĠAl by
se an
Ġbi Ã¤t
Ġbi kini
man traut
Ġ19 50
ĠZ ombie
ÃĬ M
ĠJo el
ĠAr wen
ub aba
ant om
AN ESE
ĠWh eat
ott i
Cl iff
Ġsh adow
ĠMon c
ib u
ĠPr aha
ĠdÃ¬ u
Br endan
Ġ200 7
ĠCr u
Ġ60 3
Sc ully
ĠÃ° o
Car m
ĠMal ena
Mu Ã´n
gi Ã¡o
ĠJul ius
ĠJe anne
ĠBro ther
Vi enna
ander son
ini que
ĠWe ather
ĠRam os
ĠSch ultz
ĠRo ad
Ġal ready
ĠCas ablanca
ES S
iff er
Ġat t
ling er
ĠSn atcher
Hu Ã¢n
ats ui
ĠUS R
Lou isa
Ġcould n
ĠFran ck
áº¦ M
Wil kes
ĠNe f
ĠBuck ingham
Ros a
Ġ198 4
Ġboy s
sw er
ĠCom edian
Mel issa
yu ki
ĠTal iban
ĠHarl em
LY N
ĠCorn wall
ult an
ĠGai us
ĠVas il
Jeff erson
Bur rows
Tur ner
ĠNgu á»ĵn
ĠMot ors
ĠTop per
ĠBuff alo
ĠCáº¢ NH
ĠArg entina
atsu ken
Amber le
ĠIndian apolis
ĠEsp osito
ĠComp ton
ĠDod ge
ĠSund ay
ĠSall uste
ĠLark in
Ridd ick
ĠRIP LEY
ĠJAP ANESE
aptis te
4 50
5 000
C Ã£i
C and
C Æ°á»¡i
C Ã©sar
D áº§n
E ggs
H ot
H á»ĩt
H atter
I ch
N ah
N ico
N elson
P ac
P OL
S Æ°á»Ŀn
T á»ĵn
V áº¥t
[ *
b uá»ķi
c Ã§a
d red
f man
f ax
g Ã¡i
h ara
j ama
n ett
p al
r est
s á»£
s ley
t iá»ĥu
t Ã³c
v iáº¿t
v á»ĩ
v ice
áº °
Ġc rack
ĠÄĳ Ã©t
Ġl Ãº
Ġl Ã©p
Ġth Ã²i
Ġch uá»ĳt
Ġm Ã³a
Ġb iáº¿u
Ġs Æ°Æ¡
Ġs Ã¡n
Ġh ar
Ġh at
Ġh Äĥn
Ġg Ãº
Ġg ave
Ġg oogle
Ġr Ãª
Ġa ngel
Ġa cc
Ġd est
ÄĲ iá»ģn
ÄĲ Ã²i
ch midt
ĠC ox
ĠT I
ĠT S
ĠT á»īnh
ĠT ud
ĠT á»ļI
ĠT ÃĮM
Ng á»Ľ
á»¥ m
er ty
ĠM Ã¹
ĠM áº¡o
ar ed
ar ter
ĠB Ã£i
ĠS Æ°Æ¡ng
ĠÄĲ iá»ģn
ĠÄĲ ANG
ĠH ew
ĠH ipp
ĠH AI
en z
en or
ĠL Ä©nh
ĠL ecter
am s
Tr ey
ĠD ing
ĠD id
ĠD eg
ĠA BA
ĠG oon
ĠG uill
ĠR az
ĠR ica
ĠN ot
Ġngo i
ĠK ronos
ui lar
ĠP el
ĠP ent
Ġco p
th Æ°á»Ŀng
Äĳ Ã´ng
Äĳ em
Äĳ iÃªn
ĠE vey
ĠE agle
ĠI áº¯m
ĠI gor
ĠO st
il ts
ow e
ot to
á»ŀ I
ĠY ÃĬU
ob han
oh o
ir t
arl a
Ġf ill
Ġf ew
Ġf ac
ĠHo áº¡t
ĠHo ot
ĠMar ch
Ġp ie
Ġp oly
ro nh
ĠQu in
Hay ley
ff ey
Ra in
tr ol
ap ata
ut es
ĠBr eslin
ĠKh iáº¿n
ian ca
Æ¯ A
Æ¯ m
Ġ19 67
Ġ19 40
Ġ19 87
ĠZ orin
ĠAn i
ĠAn toine
ach es
ĠAr on
Ġ15 1
Ġe ach
eth a
ĠGr eta
ĠSp ike
ĠBar ristan
22 0
Ġwh ile
Cl em
uck et
Ġhe aven
ĠFl ag
And o
Ma j
ĠCr ick
ĠAll nut
ĠGod ric
pp y
ĠMan chester
ĠHam m
ÃĴ n
ĠCo ast
ĠEn t
Carl o
ĠQueen an
ĠScott ie
ĠSch neider
Ġvan i
ĠAv oc
ĠPH ÃĴNG
Ġget s
ĠLy ra
lat ed
ĠJu arez
ĠFr aser
ĠCor leone
ĠFar rell
ĠBol ivia
ĠWinter s
Mer le
Ġ46 2
ĠDol or
Meg atron
Can ada
ĠGer ber
ĠLyn n
ĠEs ther
ĠLam bert
ĠOb el
Ġfire bending
ĠPil ar
acqu eline
ĠPic asso
ĠKal ahari
ĠMorg ul
ĠRap tor
ĠLai la
ĠOak enshield
á»Ĥ N
Mir iam
ĠCand ice
ĠCobb lepot
ĠVern on
Å¨ NG
Ġnit ro
Hah aha
ĠEmil io
CREAM S
ĠBO PE
ĠÃ± ang
ĠLazar us
ĠHub ble
Dun can
ĠTerr ill
Pau la
ĠSlat er
ĠCham ber
ĠAhm adi
ĠGuard ian
ĠWool ey
ĠZoot opia
ĠFibon acci
ĠBreth ren
ĠBent ley
! ".
B elle
B jorn
D á»Ł
D á»Ŀi
D al
D Æ°á»£ng
D á»¡
E ERING
F an
F OR
F let
H ut
H á»¥t
I gor
J enna
L áº»
L ink
L á»£n
L isten
M s
M ina
M EN
N orth
P R
P ol
P api
S HO
T áº¬P
U A
V y
V Ä©
V ÃĢ
V áº·n
W AL
X Æ¡
Y up
b Ãłn
b ut
b ileen
c Äĥn
d áº«n
f Ãª
g Ã´
g ane
g ilia
h Ã³a
h aw
h ood
j ima
k ran
m outh
r um
s ta
v áº¡t
y ama
y oung
Ġ Ã²
Ġ ide
Ġ áºµm
Ġt á»³
Ġt ear
Ġc ng
Ġc áº¯c
Ġc Ho
Ġc ann
nh á»ī
Ġl ink
Ġth y
Ġch Ã¡t
Ġb áº¿t
Ġs Æ°á»Ľt
Ġh id
Ġh alf
Ġr Ã²i
Ġr iver
Ġtr umpet
Ġa go
Ch Ã¢
Ch áº¯n
Ch ad
Ġx uyáº¿n
Th áº¡ch
Th eresa
ĠC ade
ĠM Æ°a
ar oo
ĠB ey
ĠB ash
ĠB oe
ĠB anning
ĠS oy
ĠS Ä¨
ĠS esshomaru
ĠÄĲ Æ¡
ĠCh Ãºt
ĠCh ow
Ph áº¥n
ĠL Æ°
ĠL Ãµi
ĠL INH
am on
ĠD h
ĠD ate
ĠD iÃªm
ĠG iÃªng
ĠG á»ĮI
Ta ta
Ta ki
im my
ĠR ing
ĠR ous
ĠR uman
ĠV á»±c
ĠV egeta
ĠN Ãª
ĠN ether
Ġ2 27
Ġngo áº£nh
ĠK ee
Ġ" ...
ĠP ell
ĠP ower
ĠP ember
ou ra
Ãµ n
al om
Ã¨ s
ey a
Qu áº©y
it ab
ĠW i
ĠW oman
ĠW orf
ĠW eyland
ĠW omack
ĠTr Ã¬
ĠTr á»ĭnh
th Ã¢
Ġ3 87
Ã´m as
ic Ã´
Ġw ent
ĠNg áºŃm
ill ick
ĠY ard
Ġ6 000
ĠSt re
kh ÃŃ
Ġf ranc
Ġf ear
Ġf amily
ick er
ff re
tr Æ°á»Ŀng
ak una
Ġ20 1
ĠKh e
ĠKh ao
ĠZ ulu
Mau i
Lu ther
Ġme ant
ĠNew ark
sh ine
Ãį A
Ġsay ing
Ġbo th
An y
ĠWh is
To pper
Cl aud
St evie
ĠTH á»ĲNG
ĠRa ina
Br ent
Hmm m
Ġcá»ı n
ĠCam ille
oug asse
Su z
ĠHe il
Ġ60 4
Ãĵ C
gi áº£
Ġká»ĩ ch
ĠAngel o
ĠMark ov
AS H
ÃĴ a
net o
net te
ese us
Ġwas n
El ias
AT IE
ĠSu Ã½t
ĠMi y
Lau rie
ĠPer kins
Ã¥ u
ĠHor izon
ump ty
vn bits
ĠRu pert
Je anne
Ly la
ĠKn icks
ĠBern adette
Boy le
ĠCle gane
EM A
ĠSi oux
ĠOt ter
ĠGun ther
ĠPoll ard
ĠIr ving
ĠOak land
ĠZach ary
udd ing
ĠNguy en
thor ne
Aur ens
onn aise
ĠAugust us
vet lana
ĠSus ie
Ġsec ond
Set suko
ĠRid ley
ĠCart agena
adre el
ĠTemp leton
ĠtÄ© u
Div ision
mit ry
Lov in
Ġchy á»ĩn
aling rad
ĠJaff ad
PET ER
ISTINCT LY
ĠHock ley
ĠMonc ada
" '
7 7
B áº¡c
B ert
C Ã¡n
D ega
G Ãłi
G rey
H Ãło
H att
K Y
K iÃªu
L á»į
L im
L as
M ika
N eytiri
N oodles
P ow
R em
R aleigh
S um
S ugar
U Ã¢y
V áº«y
Y as
b Ãª
c ell
d Ã¢n
f Ã©
f ect
f riend
h Ã´n
h orn
h men
i ors
l eo
l und
m áº¯t
m Ãłu
m itch
n atural
s dale
w ind
y i
è ¦
áº ª
ng a
Ġt á»Ŀi
Ġc áº§y
Ġch áº¥y
Ġch áºµng
Ġk Ã´
Ġv Ã¨o
Ġm áº¯m
Ġm Ã¸
Ġn áº¡ng
Ġb orn
Ġb á»¡n
Ġs olo
Ġng áº¯c
Ġr áº¿t
Ġr Ãªu
Ġr ing
Ġr á»Ļp
Ãª t
Ġph Æ°
Ġph Ã´i
Ġph áºŃp
Ch áº©n
ÄĲ áºłI
Kh Ã¡t
Kh aleesi
Th Äĥm
ch á»ĳng
ĠC oss
ai gh
ĠT ank
ĠT itus
ĠM ount
ĠM uhammad
ĠM ussolini
ĠB umblebee
ĠS ly
ĠS eville
ĠS everus
ĠÄĲ áº©y
ĠH ash
ĠCh iá»ģu
ĠCh ild
NÃ³ n
Ph arma
ĠL ed
ĠD á»¥c
ĠD estiny
ĠA C
ĠG lo
ĠG iles
ĠTh á»ģ
ĠR ab
ĠR ene
Ġlo áº¹t
ĠV ista
ĠJ azz
ĠJ ewel
ĠN an
ĠN un
ĠN anda
is ol
ĠK Ãªnh
ĠK omar
ĠK won
ĠK iev
Ġdo ub
et ing
ĠP a
Qu ÃŃ
ĠF ig
ĠW orm
ic es
Äĳ áº§y
ĠE N
ĠE t
ĠE ar
Ġca c
ell ing
le an
ĠY ancey
Gi ul
)} [
ĠSt acks
Cha p
ĠMar quis
Ġp ick
Ġp ain
ro om
Ġ8 47
Ġ8 41
ĠGi ovanni
ĠQ uyá»ĥn
ho Ãłng
ĠU á»·
Ġ20 4
23 2
ĠKh áº©u
ĠCl ive
Ġ19 91
ĠZ obrist
end ish
ave z
ant miss
ĠYork town
ĠHar renhal
ĠEl ster
Lo is
ug g
out ube
ert z
ĠDon ny
ĠCarl yle
Ġ200 6
Ar cher
Ġst re
Am er
ĠEr nst
ĠIn n
giá» Ľi
ÃĮ nh
ĠTy rone
Gh Ã©
ĠHam ish
ĠVal erie
ĠSher idan
ĠDel aware
ĠTim my
Kat ia
ĠTo Ã¡n
ĠSau niÃ¨re
ĠLo Ãłi
ĠMau reen
ĠPH á»Ĳ
ĠPal ace
Thu áºŃn
ĠMy st
ĠCor rigan
ÃĲ Æ°á»£c
Er nesto
ĠBing ham
TS B
cul us
ulu th
Val entine
ĠRich ter
ĠBeau champ
Ãŀ y
ĠGrim es
Ġ66 1
Mel anie
ĠOt t
ĠGun n
ĠMid night
ĠBall ard
ĠLim bani
ĠDer rick
ĠDia blo
ĠRobb ins
Az og
ĠIng rid
ĠZh ang
Den ise
fl ower
Ġwind ow
RY ING
Om b
ĠMarse illes
Ġins ulin
ĠGriff ith
names egh
avir ia
Octav ia
ĠCHUCK LE
ĠTB N
ĠLivings ton
ĠChey enne
ĠRut ledge
ĠIND ISTINCTLY
yps o
ronh ide
namesegh ost
% ?
( "
8 9
A ar
A ce
B áº©n
B et
B ub
B ecause
C á»§
E ver
G or
H á»©
I O
I d
J ewel
K A
L Æ°
L ara
R ai
R yu
S Ãª
S áº¯t
S all
T Ãº
T MT
V on
V ay
V icky
X á»©
Y oshiro
Z ero
b one
c io
d dy
f ie
f ucker
g á»Ńi
h á»ĵi
h aps
l ong
l ife
m Ã£i
m iá»ħn
n Ã´
n ot
n Ã©m
n ak
n ame
p ing
q aba
s im
t Ã¢m
z ar
z ler
z za
} .:
Î ¿
Ġ á»©
ng á»«ng
Ġt á»§i
nh ill
Ġl uyÃªn
Ġl and
Ġl ine
Ġth Ãµa
Ġv n
Ġv Ãºt
Ġn á»©ng
Ġb á»Ńa
Ġkh á»±a
Ġs can
Ġg Ã´ng
Ġg ent
Ġg lad
Ġnh áº¡i
Ġtr á»ĥ
Ch ambers
Ġd Ã´ng
Ġd Ã´i
Ġd áºŃm
Ġx á»ĩ
Ġgi áº±ng
Ġcho i
ch en
ĠC Ãºc
ĠC Ãµi
ĠC utler
ai k
ĠT ower
ĠT AY
ĠM Ã¢
ĠM ex
ĠM ale
ĠM olo
ĠB á»ĵi
ĠB á»ķ
ĠB AY
ĠS it
ĠS ed
ĠS á»ĲNG
ĠÄĲ á»ķi
ĠH áº¹p
ĠH Iá»ĨN
ĠCh á»ĵn
ĠCh ev
ĠCh áº±n
ĠL Ã¢n
ĠL Ã²ng
ĠL ak
ĠL og
ĠL inus
ĠL ibby
Ġcu p
Tr iáº¿t
ĠD Ãª
ĠD áº£i
ĠD ie
ĠD obby
ĠG w
ĠG illian
ĠG racie
ĠÄĳá»ģ m
Con or
ĠR ang
Ġlo i
ĠV ong
ĠV is
ĠV á»ļI
ĠJ O
at ra
Ġngo áº·c
ĠK Ã¬a
ĠK ub
ĠK ilo
ĠP iano
ĠF ul
it es
ĠTr ish
Ġba g
os es
ĠchÃº i
Ġ5 80
ur ian
ĠNg Ã£
ĠY uk
av el
ter y
ag u
Ġp ol
Ġ8 000
ĠAl c
ĠBr ady
ent ion
ord ia
Ġsu per
ĠCl are
Ġ19 69
ĠZ eb
ĠZ amani
Sh hh
Ġnghá»ĩ ch
ins k
An H
az zo
ĠCharl ene
ĠHar i
Ġwh ich
inc aid
ĠEl ise
ĠMon ster
OK ES
ki es
Jo el
ĠRe kall
ĠAd aline
bo at
ĠKat y
ĠLee kie
ĠGar rick
áº¬ U
Ġ45 3
ĠMau ricio
ĠMe jia
ĠRo chester
ĠMad dy
ĠMatt ie
ek ah
ĠKH U
ĠAsh ton
cel yn
IS H
ĠRos ita
Ġz ai
ĠRock et
Ġsp aghetti
ĠHow e
oc co
ĠDen ethor
Hel p
Sm urf
ĠLiz a
Ġthink ing
ĠRoman o
ĠSil va
uill e
ĠDol an
Ġbus iness
Dar cy
ĠSai to
ĠRich mond
ĠVer ne
Ġ47 2
ĠPort ley
Col in
ĠMira e
Ġcr oss
ĠSuz uran
ĠDecept icons
ĠCorn el
ĠRan ch
ĠNy gaard
áº¶ T
ĠCre edy
ĠBri enne
ĠCoh aagen
ĠGard ner
ĠKeller man
Every thing
ĠCot ton
Reg gie
ĠFring e
ĠMug gles
Ap ollo
Sk ipper
ĠClem entine
Sel ina
ĠMarse ille
estro yer
ĠDrag ons
Ġmat ata
mun ks
ĠLenn ox
ĠOber yn
ĠDud ley
ĠAst ra
ĠCit adel
ĠSud an
Lot so
ĠSey mour
ĠKett leman
Iá»Ħ N
ĠLanc aster
PHO EBE
ĠSib ley
ĠGetty sburg
gilia th
. \
A u
B am
B RI
D ur
D addy
G ale
G ene
H Q
H um
H ades
H azel
I ON
J ade
K ao
K ilo
M C
M ister
P G
R EN
S in
T iá»ħn
U mm
V iá»ĩt
V ick
V IP
W olf
c áº¯t
d ur
d ee
d Ã»
h ran
k an
l ÃŃnh
l ash
l ade
r im
s iÃªu
t á»ķng
v ius
v ous
y es
Ã ıi
é º
Ġ áº¿
Ġ ob
Ġ áº¨n
Ġt Ã¬n
nh a
nh agen
Ġl ights
Ġth Ãī
Ġch áº±n
Ġv l
Ġv Ã³i
Ġb ed
Ġb alo
Ġkh Ãµi
Ġs Ã¢
Ġh ÃŃch
Ġh ab
Ġh ello
Ġnh áº¹p
Ġng á»ĳn
Ġr áº§m
Ġtr á»©
Ġtr Ã³c
Ġph ui
Ġph á»ĵn
Ch á»Ł
Ġd er
Ġd amn
ÄĲ an
ao ul
Ġx áº¹p
Ġgi Ã£y
an amo
Th eon
Nh áº£
ĠC ash
ai m
ĠT Ãłng
ĠT aco
ĠT ÃĤM
ĠM es
ĠM ans
ĠM ÃģY
Ġlá» ³
ar agi
ĠB Ã¡ch
ĠB á»ĺ
ĠB elf
ĠB ANG
ĠB lythe
ĠS em
ĠS ook
ĠS ox
ĠÄĲ á»Ļt
ĠÄĲ áºłI
ĠH ous
ĠH Ã²m
ĠCh áº¥n
ĠCh áº¡m
ĠL it
ĠD eon
ĠD wayne
ĠA A
ĠA ilen
ĠG ang
Ta l
ĠR el
ĠR atch
ĠR ider
ĠV ander
ĠV olt
ĠV enezuela
ĠN Ã´ng
ĠN eg
Ġ2 10
ĠK er
ĠK aw
ĠK INH
ĠK emp
ĠK uipers
ui z
ĠP R
ĠP is
ĠP om
ĠF ay
ĠF aw
ĠF riend
ĠF rancine
it ies
om ax
ah u
re ck
Äĳ u
il in
il ius
ĠPh á»ıng
oo bi
ĠY outube
Ġ6 46
ĠSt ra
ĠSt all
kh á»§ng
ir ley
Ġf el
Ġf avor
Ġp ull
Ġo xi
Ġdi esel
Ġ8 37
ĠX Äĥng
ul i
ĠSh eba
ris p
ĠAl ger
ĠAl ibi
eb op
ĠKh Ã¡c
Ġnhá»Ŀ n
Æ¯ á»Ľt
Ġ19 58
Ġ19 98
co id
ĠLu pin
Sh eila
ok ovia
ĠDo osan
Cl ary
ĠTH á»Ĥ
Ġtá»ĳ p
ĠBl ondie
ade us
ĠRa j
ĠMa ce
ĠCol eman
AR M
Ġah ead
Ġst udio
ĠCH ÃļA
ĠOr lov
ĠHe ad
ĠHam burg
ĠTR á»ŀ
ĠTR Æ¯á»ľNG
ĠGar eth
Bl ondie
rag ue
âĢ Ķ
ĠBill ie
ĠSe ine
ĠSher iff
áºł NG
So phia
ĠGl obal
ĠCan ary
ĠSo on
ĠRam irez
erm o
ĠNor ris
ĠKar p
ĠOk inawa
ÃĻ ng
Ġnhá»Ł n
IC O
ĠThu áº¿
ĠThor wald
ĠAs trid
ĠPo ole
ĠNaz g
ĠKho ai
ĠBing o
HD Online
ĠCos mo
ĠMak to
Boy d
Mad am
ĠngÃµ Ã±i
ĠLam ont
oud ini
Ġsm all
ĠSab ah
Ex cuse
Ã¯ a
ĠOt is
arao ke
ĠDay s
ĠGam ma
Iá»Ĥ U
ĠMath ison
ĠNy gma
ĠEle anor
omer ang
ĠUr sula
ĠDes mond
KÃŃ li
Ġkill ed
Ġmad am
ĠWol ver
ĠDown s
ĠSerge i
ĠFab io
ĠStock man
ĠHampton s
Pal mer
ĠSony a
ĠHern an
Frances ca
Cáº¢ NH
Virg il
ĠOrig inal
Steph anie
ĠEth io
Church ill
Tagg ert
ĠNant ucket
ndy ke
HOL MES
Flet cher
7 3
8 54
A CK
B áº¿
B ong
B á»ĥ
B á»ĵn
C á»«
C ora
C ourtney
C LEARS
D á»įa
D eep
E P
F ine
G Æ°á»£m
H ur
H ard
H end
H ulk
I AN
K ung
L ow
L ars
M á»ĵ
M ic
M á»¡
M ord
M etro
M ori
O leg
R ind
R usty
S iáº¿t
V áº£i
W ay
W as
Z aya
c Æ°
h á»ĩ
l end
l itz
m at
m itri
q uy
r áº¯c
t uy
t áº¥n
t iÃªu
v oss
x ton
z antium
â Ħ
Ġ á»ĳp
Ġc c
Ġc Ã¹a
Ġc lo
Ġc atch
ĠÄĳ ui
Ġk araoke
Ġb oo
Ġs áº¯n
Ġs end
Ġs trong
Ġg á»įng
Ġg reen
Ã¬ c
Ġng Ã¡o
Ġtr Ã¡c
Ch á»ķ
Ch á»Ńi
Ġd an
Ġd anc
Ġx Ã³i
em ont
Th áº¯p
ch Æ°Æ¡ng
ĠC á»¥t
ĠC LEARS
ĠT á»ĳc
ĠT ot
ĠT arth
ĠT etch
ĠT ARS
ĠM ic
ĠM ist
ĠM áº½o
ĠB Æ¡i
ĠB ree
ĠB ible
ĠS áº¥m
ĠS ter
ĠS á»Ĳ
ĠÄĲ á»ĩt
ĠH os
ĠH id
ĠH á»¡i
Em mett
Ph iáº¿n
ĠL ÃŃ
Tr ix
ĠD oss
ĠD ixie
á»§ n
ĠA F
ĠG ay
ĠTh ang
Con n
ĠR evie
ung us
ĠV e
ĠV á»ĭt
ĠJ ol
ĠJ eb
ĠN ao
ĠN ana
ĠP olo
ou lez
al al
Ġla d
Qu áº¡
ĠTr á»ħ
ĠTr ib
ĠTr uman
th es
ol em
Ġan nguyen
Ġtra in
ĠI o
il ian
ad os
ot Ã¡
ot ion
ĠPh Ã´
ĠPh áº¡n
Ġ5 11
and ez
ur ity
id y
le w
ĠY a
av ia
ed ic
Ġ. "
Ġtá»Ń ng
ĠSt ep
ĠSt rick
79 23
Ġf ell
Ġp ost
um my
um per
ich er
Ġvi et
Ġvi Ã£n
Ġláº¡ p
ĠX Æ¡
ew ell
tr ang
ap arte
ac s
ut y
Ġ20 15
ent ino
ud ite
ĠCl ary
ond o
ber ger
gh hh
ans ky
Ca fe
Ġwh oo
iam ma
Sam aritan
CH A
CH U
ĠWal den
Ġ40 5
ĠBl oody
ĠÃģ N
Ġ24 7
Ġ14 4
ĠCarl in
Ġ200 1
ĠWil de
ĠCr im
ĠDe anna
Tu co
pe fy
ĠAll iser
ĠOr ange
ĠIn ter
Tom as
ĠÃ° a
app ella
ĠTR Æ¯á»ŀNG
AS T
ĠCa es
Bl ah
ĠnhÃŃ m
Ġde ath
ĠJe ong
ĠGl ass
Ġ45 1
ady s
ĠTheo koles
Har ris
ĠPer egrin
IS S
ĠCÆ¡ m
Jul io
ĠJackson ville
ĠTin tin
ĠKen sei
ĠPe arl
CO L
UY á»ĤN
ĠRey n
ST OKES
My croft
br ose
ĠKho ang
ĠAg am
Ġun til
Be au
ĠColl een
ĠColl ier
Meg han
ĠHal ey
ĠGold berg
ID A
Or lando
ĠVik ings
ĠDav ina
Fred die
LO W
Ġsm ile
ĠAk ator
Greg ory
bb it
Andre i
Ġcr Ã´m
ĠGam ora
ĠPoll ux
Russ o
Kl udd
ĠGor dy
ĠHav ard
olph in
ĠLAUGH S
Brad ley
ĠNar c
Ġface book
ĠRidd le
Ġfl ash
ĠInh umans
ĠZe aland
ĠSec ret
oux ie
UM B
Ã§ ois
ĠHim al
ĠHum phrey
ĠngÃ½ Ãµi
ĠAlf onso
ĠDrey fus
ĠSton ebanks
Ġprob lem
Serge i
ĠMore au
ĠEhr mantraut
ĠAns atsuken
ATTER ING
ĠRaw l
Mig uel
ĠSell ars
A W
B Y
B ol
B ak
C áº¡nh
C oh
D j
D ig
D á»įc
F rom
G T
G Æ°Æ¡m
G UN
H Ã©t
H arley
L ina
M Æ°u
M ilo
N á»Ļp
P EN
P uma
R ah
S C
T J
T áº§u
T Ã´m
T anner
V A
V en
V á»¡
W ould
c ast
f ur
j us
m ael
n H
r it
r ot
r ate
r ets
u al
v Æ¡
v Å©
å ħ
Ġ est
Ġ uran
Ġt iá»ģu
Ġl á»ĵi
Ġl iving
Ġch áº¯t
Ġk ÃĪ
Ġv áº¡
Ġv Ã¨
Ġv ÃĨy
Ġm g
Ġm Ã²i
Ġkh áº¥n
Ġkh Ãĥ
Ġs á»¯ng
Ġs im
Ġs Æ°á»£t
Ġh á»Ľ
Ġh áº¿n
Ġh Ã£n
Ġh Ã¨m
Ġr á»±a
Ġr ed
Ġtr Ã³t
Ġph á»ĩ
Ġd ua
ÄĲ áº§m
Nh áº±m
ch in
ch es
ĠC N
ĠC atal
ĠC esare
ĠT ic
ĠM s
ĠM Ã´i
ĠM ol
ĠM ant
ĠM AN
ĠM ull
ĠS á»Ńa
ĠÄĲ á»ķ
ĠÄĲ áº¥m
ĠÄĲ á»¨C
ĠCh evy
Ġho ÃĤt
ĠL Äĥng
ĠL aputa
á»ģ r
ĠD E
ĠD uyÃªn
ĠA iden
ĠA udrey
ĠG andhi
ĠTh iá»ĩn
ĠTh á»īnh
ĠTh ank
im al
ĠR ov
ĠR up
Ġlo go
ĠV id
ĠJ iro
ĠJ avier
ĠK assim
ĠK á»²
el ace
ĠP ay
ĠP rew
ĠP oly
ĠP umbaa
Ã¨ ng
ĠÄĳo m
ĠF ly
ĠF irst
om ad
ĠW agner
ĠTr out
á»ª h
th uyá»ģn
ol om
Äĳ Æ°Æ¡ng
ĠO ff
il ante
Ġ5 40
Ġtá»Ń u
Gi o
Ġkhu Ã¢
ra ke
ig en
ĠEm ile
Ho ffman
Ġp an
ro th
ard on
ĠQu áº¡
ĠQu Ãª
ĠQu incy
ĠÃ ¯
Ġtrá»ĭ nh
ta ker
Ġ7 38
ab o
ĠX Ãºc
ĠX áº£y
ri f
Ra ju
ĠQ asim
ĠAl ps
ac tus
ĠU rich
ak en
ut ton
eb e
ĠKh Ã´
ĠKh umba
ath am
ĠJohn y
Ġsu ch
ĠCl oud
ight ly
ĠNew t
end el
sh er
ĠAr nie
art el
ith y
Mar io
if i
Ġbe autiful
iz uki
ins t
ĠGr oss
Ġ0 3
ast ings
ĠRob erta
ĠTH áº¦N
ĠMon ter
ĠRe acher
ĠBer m
ĠCarl otta
Ed gar
ĠCr ush
ĠMer cer
Ġst ick
ous ly
ĠHy ung
ĠNo otka
ĠRay der
ÃĮ ng
Ġde al
ĠCo co
ĠMay flower
me ister
ĠDar row
ĠSo fia
ther in
ĠMur iel
ĠMac au
ĠLy sa
Ã± Ã³
Ġ23 7
Iáº¾ M
ĠWall aby
ĠFar mer
SA V
ps ey
Ġcl b
Cam ille
ĠBoy s
UY ÃĬN
ĠRom mel
Ġfeel s
ĠRoman ia
ĠGu ant
ĠMag neto
amm ed
ĠDur otan
etch am
Ġcall ed
ĠSid ao
ĠWes ker
Ġ198 2
mo or
hm ed
ĠBog otÃ¡
ĠDev on
ĠSom ali
ĠGus teau
As trid
ĠKi owa
Col onel
ouch ard
ĠMississ ipi
Ġ77 1
abi ous
ĠMend oza
ĠtrÄ© u
Str ange
FC INE
ersh aw
act ly
ĠDark en
ĠLud low
Minh o
Every body
ĠRobot ics
ĠRow land
Bat iatus
ĠLow ell
ĠGui do
Ġearth bending
ĠArg os
ĠSmurf ette
ĠStig man
Ġpen icillin
Jos Ã©
ĠPeters burg
ĠSchw artz
ĠTU á»ĶI
sty le
ĠSpin ella
ĠMumb ai
acr oix
ĠRost ov
ĠWinkle voss
ethel wulf
ĠHew itt
Ġide a
éº ¼
Ġuran ium
1 25
B ab
C ut
D á»©t
D DON
D wayne
G ra
G ust
G erry
G ame
H ero
I ori
J emma
J asmine
L ennie
M em
M uá»ĳi
M andy
P i
P enn
P ANTING
T ick
T oy
T ucker
V Ã¡c
V iper
b ÃŃ
b á»ĳn
b ok
b out
c Ãł
c et
d Ãłnh
e ke
h á»£p
h ew
h olm
i era
j un
k el
k á»³
m Ã¡u
p age
p udi
r or
s uy
w ire
w ait
y un
~ !
é ģ
ng uyÃªn
Ġc er
Ġl Ã¡p
Ġth Ãľ
Ġv Ã³
Ġm ur
Ġn áº»o
Ġh Ã¡u
Ġg áº¡
Ġnh á»¯
Ġnh Ã£o
Ġr an
Ġr á»Ŀ
Ġtr ee
ph á»¥c
Ġph áº©y
Ġph Ã¸
ĠÄĳá» Ł
Ġd y
Ġd in
Ġd iáº¿p
ÄĲ áº§n
Ġx Ã´n
Ġx á»īnh
ch uyÃªn
ĠC á»ı
ĠT ito
ĠT INH
er os
er te
Ġ1 78
ĠM uá»ĳi
ar ton
ĠS Ãª
ĠS uá»ĳt
ĠS ee
ĠS nake
ĠÄĲ ÃĶ
ĠH aines
ĠH ennessy
ĠL ass
am is
Tr ÃŃch
ĠD A
ĠD Ãłnh
ĠD á»įn
ĠD Ã¢u
ĠD enny
ĠA D
ĠG oken
ĠR Æ°Æ¡ng
ĠR á»Ńa
es ty
es to
ĠV Æ¡
ĠV ice
ĠN ad
ĠN Æ¯á»ļC
at em
at in
ĠK oi
ĠK ubo
Ġdo obi
et r
ĠP it
ĠP ush
ĠP ear
Ġla b
ĠF ine
ĠF ern
ĠW ing
ĠTr en
Ġco lor
ie ur
ah n
ol ia
ĠE thel
ing ers
ĠI shaan
ĠO leg
os se
il ic
Ġtu Ãª
ĠNh iá»ĩt
Ġ5 55
Ġw ild
ur fs
Ġ4 42
ĠY á»ĥm
Gi Ã¢y
ĠSt aff
Ġ10 7
ĠMar jorie
Ġ8 22
ab an
ri ka
ew here
ĠSh i
ĠSh rike
ĠAl onzo
Ġ19 78
ĠZ od
end o
end s
ĠLu z
ĠSc ordia
Mar ianne
Ah n
qu aid
Ġxo Ãłng
ames es
ĠSp ade
our ce
Ġru Ã´
Ġru pi
Ġj o
ĠÂ ¹
ĠMc Kenzie
ĠtÃ¢ p
yd ell
AR A
ĠCr uc
ko ff
Ġ17 7
ĠIn somnia
IN D
Sp ider
ons ky
ĠGar field
up id
ĠSte el
ĠtÆ°Æ¡ m
ĠMo e
ĠVal ance
ha eg
ĠRam anujan
ĠTur bo
ĠTur ks
ait s
ĠTheo den
ĠPal azzo
Ġ48 3
ĠHel ene
ga inst
ĠKr ingle
ĠBo z
Ġ39 1
ĠLi by
Iá»Ĩ M
ĠHall ie
kin son
ĠMich onne
Ty win
erg io
ĠBell amy
ĠFran s
ĠMag ic
ĠLaw ton
En id
áº® C
ĠRod erick
ĠdÃŃ u
ĠGold stein
gr ade
ĠEy re
ĠDav y
ĠBog a
Ġ196 5
LO V
ĠWeb ster
ĠShel dra
Kit ty
ĠJust ice
Cast iel
MA X
Ġbr ings
Ġfuck ing
CU á»ĺC
lh em
may ar
ĠMcK ay
ĠTob ias
ĠRi ario
ĠOmega Q
Mom o
dog s
ĠPeach es
NY PD
ĠMis ty
Wes ley
ĠAeg on
Ġknock out
ĠLis bon
Ny x
ĠRik er
ĠSalv atore
ĠRever se
Tar zan
ĠOP ENS
Lind sey
ĠXo ay
ĠSqu are
ĠMish ima
Tex as
ANI EL
ĠMeach um
Anim ation
ĠStrick land
ĠBerm uda
ĠSheldra ke
6 80
A ch
B ELL
C ot
D ang
D oyle
E ur
F in
G CPD
H n
H Ãłm
H igh
H ana
I rina
L Ãµi
L ord
L Æ¯U
M Ã¹
M is
M its
N Ãªu
P L
R áº»
R um
R á»§i
S everus
T urn
V ÃĨy
W HO
X ander
b riar
d á»±a
f r
g art
h á»Ļi
l Ã¡t
l Äĥng
r á»Ŀi
s ama
t áº¡o
t re
t Ãłu
t á»īnh
v re
v irus
w ock
Â ²
å ¥
Ġ Ã³ng
Ġ á»Ĳng
Ġt m
Ġt áº¡nh
Ġc Æ°u
ĠÄĳ á»Ľp
nh iá»ĩm
Ġl Æ¡n
Ġl áº¹o
Ġl á»ım
Ġch on
Ġch á»įt
Ġk a
Ġv iá»ĥn
Ġn áº¿t
Ġn ear
Ġb Ã¹i
Ġs áº¿n
Ġs ummer
Ġs tory
Ġh anh
Ġh iá»ħu
Ġg áº¯p
Ġnh Ã´ng
Ġr Ãĵi
.. ,
Ġtr áº½n
Ġthá» ĵ
Ġd Ã¡ch
ÄĲ á»ĳ
on o
Ġqu ick
Ġgi ÃĮ
Kh am
ang elo
Th Ãºc
Th ink
ch á»įn
ch yon
ĠC ort
ĠC ÃģI
ĠT um
ĠT od
ĠT art
ĠT ÃĬN
ĠM á»ı
ĠM AR
ĠB B
ĠB S
ĠB á»ģ
ĠB Ã¹n
ĠB ora
ĠB ender
ĠS CREAMING
ĠÄĲ Ã¢m
ĠÄĲ á»ĭt
ĠÄĲ á»Ĥ
ĠH Ã¢
ĠH ip
ĠH illy
ĠH UY
ĠH utch
ĠH ague
ĠL á»Ńng
or um
Tr emaine
ĠD M
ĠD iÃª
ĠD amm
ĠD ahl
ĠG ua
ĠTh eta
im ento
âĻ ¥
ĠV C
ĠV ries
ĠN Æ°
ĠN ando
ĠN ÃĢY
ĠN adia
ĠN umber
is ab
ĠP ack
as to
Qu int
ĠF ow
ĠF ell
ĠF SB
ĠW im
ĠW ook
ĠW atts
ĠTr es
ĠTr inity
ie k
th á»ĭt
Ġ3 75
Äĳ un
ĠE ld
ĠO ren
ĠO VER
Ġca ve
Ġtu l
Ġw Ã¡i
ur man
ob yl
Gi Ã¡p
kh ai
ran te
Ġf ather
ĠMar u
Ġp si
ev ik
ta fa
all en
ĠSh ashi
ĠQ uyÃªn
tr ai
ĠAl bright
Ġ20 8
ĠBr u
ent i
Ġ19 79
ood s
ash ion
ĠAr den
ant i
ock ing
Mar ch
qu Ã¡i
ĠGr etel
ass in
ass ey
ĠEd dard
att i
Ġnháº¹ m
ott en
Ġ18 00
ĠTH áº¬T
ĠCho colate
ug line
ico ff
ouse au
20 16
Ar g
ĠAd d
Ġst reet
ĠGod olphin
ĠHy uk
ĠIn stagram
Sc ar
ĠMax imus
Ãĵ A
ÃĮ u
ĠLau rent
ngh iÃªm
ĠngÆ° i
Ġout side
yr am
Carl a
Rob erta
ĠJane iro
Ġre ad
ĠNH áº¤T
Da e
Ġab ove
egas us
ĠSav annah
ĠKo ch
Ġpr ot
ĠFar n
ĠFar han
ĠHor se
Ġar ri
II o
Er nst
ĠSant os
uri osa
ĠSon ia
br and
ĠJoy ce
Ãĳ i
Sky net
Cas tor
Val erie
Ru fus
Angel ina
ĠEs te
ĠKl udd
Mad ison
Ġ196 8
Sal im
Ãİ nh
ĠHerm ie
Liz a
Ġbá»ī m
ĠCrow e
AND LER
ĠMerlin ian
Nic olas
Ġplay ing
vie w
ĠTau pe
Bell ick
ĠLov elace
ĠBuch arest
ĠEM P
Ġsn ack
ĠGau lle
ĠVit tor
ĠVog ler
Wo ah
xu áº¥t
ĠGob lin
ĠSI GHS
Port man
Pen elope
ĠThurs day
ĠAch illes
ĠBrew ster
ĠGris som
Beat rice
ĠCay man
Ps st
ĠVasil iev
ĠOtt oman
âĦ ¢
roth gar
ithy ia
ĠCruc es
* ,
@ @
B á»±
C age
C andy
C redence
D Ãª
D Ã¡n
G Ã¡nh
G IA
H áº¡n
H ack
J yn
K al
L illy
M ithrandir
N T
R Äĥ
R á»Ļng
R eyes
R orschach
S E
T Æ°Æ¡i
U áº§y
c á»¥c
c al
c ord
g re
h ow
h ring
i I
i ya
j iro
k ith
l f
l á»ĳi
l Ã¡ch
m Ãºt
m ilien
p et
q uyá»ģn
r ington
s ia
s tr
y rian
z umi
å ľ
Ġ ;
Ġ á»£t
Ġt uyá»ģn
Ġt Ã³t
ĠÄĳ ung
Ġl ll
Ġch t
Ġch á»Ļt
Ġch ar
Ġch Ãľa
Ġk ing
Ġm is
Ġm Ãĥ
Ġb Ãªu
Ġb Ã¤o
Ġs Ã¹i
Ġs low
Ġg áº«m
Ġnh á»¥t
Ġr á»į
Ġr en
Ġr uá»ķi
Ġtr Ã£i
Ġtr áº±n
ph udeviet
Ġph Ã£i
Ġa part
ÄĲ áº¡t
Ġqu áº¡i
Kh Ã´i
Th Äĥng
Th ree
Th under
Nh á»ī
ch witz
ĠC au
ĠC á»¥
ĠC us
ĠC ooke
ĠC annon
ĠC ushing
ĠC easar
ĠC icero
ĠT Q
ĠT Ã¡t
ĠT een
Ġhá»į at
ĠM ouse
ĠM eyer
Ġbá»ĭ nh
ĠB it
ĠB elly
ĠS AT
ĠH ÃŃt
ĠH aven
ĠH ilton
en ia
en ot
ĠCh ai
Ph á»¥ng
ĠL ast
ĠL ula
ĠL issa
ĠL ives
ĠL acey
Ġcu t
Ġcu áº£
or os
ĠD Æ°á»£c
ĠD ock
ĠD ax
ĠD uluth
ĠA B
Ta e
Ġto Ã¡ng
ĠR áº¯c
ĠV ÃĶ
ĠV á»¤
ĠJ anni
ĠN in
at ia
as ta
ĠF ong
ĠF lo
it ar
om y
ĠTr Æ°Æ¡
us sy
th ouse
ic er
Äĳ á»Ŀi
ĠO c
Ġtu áº¥n
Ġ5 16
Ġ4 23
Ġchá»Ŀ n
ĠthÆ° c
ĠSt eyn
ran i
Ġp Ãª
ev ere
ĠCon roy
.... ...
ta ins
ann el
Ġ8 40
ri or
ĠGi psy
ĠSh aun
á»Ķ NG
ĠAl gren
enn et
lo ve
ĠKh á»ķ
ud der
ĠTa xi
Ġin v
Ġ19 92
ĠZ immer
ĠJo anna
Sh erry
Sh ashi
Sh augh
Sh adow
per or
ock et
ind el
eth eus
iz awa
Ngo a
ld style
ĠSp ecial
ĠBar on
ĠLa f
ĠDo om
ĠJim bo
aul k
ĠAm os
ĠTH á»Ĭ
ĠMon et
ĠÂ Ń
ug a
CH uyá»ĩn
ib ald
And erson
Ġli u
Ġli es
ĠAb r
ĠAb ram
ink ley
Ar rr
ĠWil kins
Ġah em
ĠDe nham
He il
ĠMal t
ĠMin nie
ĠTR ÃĮNH
ĠTR UNG
Bl ade
ĠEn igma
ipp s
Gr and
ĠTo oms
Ġ80 7
ĠMac Taggert
ĠSky pe
ĠDoug al
Bar ca
amp inea
ĠSal im
ĠSal adin
RO W
Iáº¾ P
IS E
ĠVinc igu
ĠFel icia
Whoo ps
ĠSav iors
Ã¥ nh
ĠWalter s
ĠHu ang
ĠDun n
ĠDun son
ĠBo ard
Luc rezia
ĠJam ey
ĠStr atton
ĠOm aha
ĠSand s
Xu Ã´
Chris topher
ĠhÆ¡ p
Jan ine
Ly ra
ĠSil etsky
ĠAng ier
New t
Good win
Her b
aff ney
Ġne u
ĠSel vig
á»Į A
á»Į NG
ĠHunt ington
ĠArk ansas
Gl en
Deb s
ĠBull seye
ĠDev asena
ign on
Ġ197 2
ĠGun ner
ĠNob ita
ĠPic c
Min ion
Anton y
BÆ¡ m
ĠAug ie
áº¶ C
ĠHold en
ĠAld rich
ĠVol antis
ĠTho Ã¡t
ĠLud wig
ĠBeat les
Ġ68 2
Ġwater bender
ste ady
ĠEng land
este ad
ĠDem psey
ĠPlay boy
Ġstand ing
Sw agger
ĠZo ey
ä» ĸ
buck s
åĢ ĳ
Jud ith
Aug ie
Ġreg rets
Fal cone
ĠPry ce
ĠEg uchi
ĠRou ge
overn or
egen er
ĠKean u
ĠEise nhower
ĠAbb ey
Merc edes
ĠShep ard
ĠHammers chmidt
Met atron
trans lated
Chel sea
Frey a
ĠNab oo
ĠBolsh evik
ĠABA DDON
Shaugh nessy
ĠVincigu erra
A H
B Ã¡t
B olt
B uster
C en
C áº£n
C era
C obb
C á»«u
D Æ°Æ¡
D ub
F re
G ee
H Ã´i
H ome
I vers
J avi
K ent
K isha
L ena
L IE
N áº¥m
N ever
N IZ
P U
P ascal
R es
S aw
T áº¯c
T á»±a
V iá»ħn
V oid
Y am
b ian
b ath
c lo
f ern
i j
k ia
k or
l á»Ńa
l heim
m ost
n Äĥng
o ji
p as
r ica
s ene
t Ã¹y
w atch
â ĺ
ç Ĳ
Ġt Ãĺ
Ġc Ãłm
nh em
Ġch Æ°á»£c
Ġch ym
Ġv al
Ġm áº£
Ġm á»Ļi
Ġn et
Ġn áº¡o
Ġn áº¹p
Ġb Ã²n
Ġb Ã²ng
Ġr á»ĳng
Ġtr ust
Ġa gainst
Ch an
Ch ar
Ġx á»ĳi
Ġqu ite
ay ing
Kh uyáº¿n
Ġcho ice
Ġvá» ±
Ã² c
Th Ã¢m
ch uyáº¿n
ĠC ipher
ĠT un
ĠT ee
ĠT ÃŃa
ĠT ÃĮNH
au ff
ĠM eth
ĠM uller
ĠM ovie
ĠB ourbon
ĠB ebop
ĠS Ã³c
ĠS á»¯a
ĠS ap
ĠÄĲ Ã³i
ĠH at
ĠH Ã£ng
ĠH eller
Ġy áº¿t
en se
en te
ĠCh ess
ĠL J
ĠL U
ĠD iá»ĩu
ĠD ion
ĠA a
ĠA u
ĠA ryan
ĠG ut
ĠG illy
ĠG affney
ĠTh áº³ng
ĠR igg
ĠV ib
ĠV isa
ĠV á»Ĩ
ĠJ ax
ĠJ AE
ĠN á»ķ
ĠN ess
Ġ2 70
is ys
Å© y
ĠK iss
ĠK owal
ĠK ylie
ĠP oker
ĠF on
ĠF eel
ĠF ried
ĠW ak
ĠW ALL
us ta
Ġan swer
Äĳ c
Ġba zooka
ĠE go
ĠI celand
os i
os ph
ĠPh á»ĩ
ĠPh am
ĠPh áº¥n
Ġw o
id ated
ĠY unk
av al
Ġ6 90
Ġ6 49
ĠSt alingrad
kh ail
ag ed
Ġf ault
ĠHo gan
Ġp eso
ton ium
ro zen
ĠCon sol
nd on
ĠQu Ãł
ĠSh aggy
ac ia
ĠBr et
ĠBr ow
Ġin d
ov itch
Ġ19 0
Lu Ã¢n
ood le
ere za
Ġ12 8
Sh elly
Ġ15 49
Mar ius
ĠAnd roid
Wh ew
ĠSp artan
Ġru pe
To ph
ĠAm abella
do x
ĠWill ow
ug er
ĠBe am
ĠPar ad
ens ky
Bu Ã´
Ma ce
Ãĥ I
ĠWil Pharma
ĠCr usoe
ĠDe k
agg io
ĠMer rin
ĠAd a
ĠÃĩ Ã¥i
ĠTu á»ĩ
Ãĵ t
Ġmá»ı m
gi Ã¡
ĠIs sa
ngh i
ĠNgh iá»ĩp
ĠSim one
ĠRobert son
PH áº¦N
ĠMil ano
ĠHan ley
omb e
Ã± Ãĺng
ĠCor p
ĠCor ey
aus en
ĠBeck er
zz ar
zz ie
Jon ny
ĠRock steady
ĠKen shin
In uyasha
ĠHor ace
ĠHer ald
Ġar t
ĠIt alia
Ġgen er
ĠEv olet
II es
ĠNik olai
ĠÄĳáº½ o
ĠOs kar
ven ko
Is abella
ju ana
chi IIes
Ram al
ĠNic olai
Ãĸ n
ĠAnn abel
pr ah
Leon idas
ĠMarsh al
Her bie
asc imento
ones ia
Ġ57 3
use i
AA AA
ĠBra xin
Viet nam
ĠPac ific
Min as
ĠDis covery
elli ar
Dor is
ĠVIá»Ĩ N
Hall ie
Hall oween
ĠSP EAK
ĠLot us
ĠRip ley
Ġls abel
Gro dd
ĠHad ley
Ġmin utes
eld jus
Ġfight ing
Emil io
Kn ives
Stu pefy
ĠRodrig o
Ul rich
ĠTru dy
WH IS
ĠcÃĢ n
ĠLestr ange
hua hua
ĠAus tralia
ĠTad ashi
ĠBla ze
ĠYellow stone
Ald ous
Autobot s
ĠZamb rano
ĠYag ahl
Ġfil m
SING ING
ĠSmy the
ĠRaf ael
éĢ Ļ
ilts kin
auff enberg
. *
1 30
A F
B anh
B Ãłng
B Ãºp
B oss
B OR
C ab
D C
D Ã²
D ormammu
F ab
H Ã¹ng
K O
L ay
L iv
L ane
L ady
N ova
O ff
P ull
P erez
R ollo
R eek
S M
S áº£nh
T Ãł
T Æ°á»Ľc
T ee
T iffany
b ank
c ore
c over
e aux
f re
g ian
k ÃŃch
l Ã¡i
l im
l av
m ir
m Ã¹i
n Æ¡
n ival
s Ã¡u
s á»Ń
s uh
v ai
v Ã¹ng
v ua
v ix
w y
w ow
w ith
z lo
Ġ \
Ġ á»ķi
Ġ oi
áº ²
Ġt Ã°
Ġl eg
Ġth inh
Ġch an
Ġm á»Ľm
Ġn Ãºng
Ġn áº±ng
Ġb oss
Ġs k
Ġs á»ĵn
Ġs Ãľ
Ġs ince
Ġh aven
Ġg á»ķ
Ġg oi
Ġg ene
Ġg lass
Ġnh om
Ġnh Ã²e
Ã¬ y
Ġtr Æ¡i
Ġtr Ãĥ
Ġa lo
Ch ÃŃch
Ġd Äĥm
Ġd áº«u
Ġd za
ÄĲ iá»ģm
ay us
Kh Ã¹ng
an th
an abe
em b
Th iá»ģn
ch us
ch áºŃm
ĠC S
ĠT ÃŃch
Ng uyá»ģn
er as
ĠM J
ĠM ose
ĠM ets
ĠB Ã¢
ĠB á»ĳi
ĠB áº¡o
ĠB áº£ng
ĠB ec
ĠS áº¢N
ĠS atsui
Ã½ a
Ã½ Ãµ
ĠÄĲ eo
ĠH ull
ĠH atter
Ġy e
ĠCh ronos
ĠCh avez
ĠL á»į
ĠL ÃĬN
ĠL ennie
ĠL eroy
or op
ĠD over
ĠA in
ĠG at
ĠG eck
ĠG emma
ĠG ucci
ĠTh ip
ĠTh ames
Con an
ĠR ol
ĠR ush
ĠR ydell
Ġlo ved
ĠV á»°C
ĠJ igsaw
ĠN ec
Ġ2 32
ĠK un
ĠK áºº
el ik
00 36
ĠP un
ĠF raga
ĠF ront
ĠW adi
ĠTr á»¥c
Ġco Ã¬
Ġco ok
Äĳ á»įc
Äĳ á»ĭa
ĠE ph
ĠI sh
il on
ad im
ĠPh un
ur in
ur ia
Ġma ze
ell en
ĠY oga
ĠY ubaba
Ġ6 10
Ġ6 52
Gi áº§y
ĠEm erson
ĠSt at
Ġmay onnaise
Ġf low
Ġf unny
ĠMar x
ard ine
ĠÄĳÃª nh
all ow
ĠSh ip
ĠSh elley
tr anh
tr á»ĳn
ho ff
ak s
Ġtrá»£ t
ĠKh iÃªn
oy ce
cH DA
ĠZ ion
ĠZ ola
ĠmÅ© m
Ãģ M
gh i
gh ar
ok ey
ĠSc oob
áº¢ Y
An toine
ĠGr un
ate ch
ky rie
AN E
Ġ0 9
22 1
Ġ50 7
ore k
ma ine
CH ANDLER
ĠBl art
ĠMc N
30 4
ort s
ĠÄĳÆ° c
ink ie
ĠWil kinson
ĠDe eds
ĠCH EERING
pe ii
ous and
áº¾ ch
ĠCam illa
Su cre
ĠHe aven
ĠSm urfs
Car ver
ĠMal ibu
ĠGar za
ĠLuc ian
bl ing
ĠPat riot
ĠSe f
de us
ĠTe k
eel a
agn an
ĠMac ao
ĠHa as
ĠPH áº¢I
ĠDu nham
ĠLy on
ĠCor tez
99 8
ĠHaw thorne
ĠMeg gie
ĠJan us
ĠJeff Chang
LA CK
ĠThor ndyke
ĠGal en
ĠGal ahad
ĠGh Ãª
ĠMed ivh
ĠBrown ing
Je ffrey
ĠInd ia
Per egrin
But ch
ĠSy kov
ĠLaw son
ĠNap ster
ĠGeorg etown
ĠAlb ania
ĠAz rael
Ġsho es
ĠFal con
Kan iel
Ġsm art
ĠnH á»¯ng
Ġ197 4
ĠmÃ´t Ã´
AND Y
edd ing
ĠSuz anne
ĠJos ey
Ġwork ing
ĠLind say
Ġdoll ars
Tan ya
ĠThorn ton
ĠNar aku
ĠTen och
Mik ael
ĠBron son
nik ov
ENN Y
ĠZh ao
Ġmar athon
ĠPau lo
ĠLow e
ĠCarr ington
ĠAlf rid
ĠHom estead
Ġspe ed
Pam ela
Sol omon
ĠNav ar
Cec ile
Ġhappen ed
Ġmov ing
aber ius
ĠMoss ad
Ale c
ĠHann assey
ĠGran ada
ĠSpring field
part out
ĠThurs by
ĠPap illon
SCO FFS
ĠCyber tron
Dora emon
ĠSept ime
ĠnhÅ© n
ĠFant Ã´mas
Ġwonder ful
ĠBord en
lich enko
ĠVor tex
ĠKau fman
gnac io
Phill ip
ĠPul itzer
Ġflo or
ĠPao lo
ĠMap le
Bis hop
Ġdiffer ent
itab h
ĠOtter ton
ĠMonter ey
ĠGuant anamo
elliar mus
" ..
) !
- .
B ÃŃch
B ot
B ox
C ard
C áº©m
C ade
D Æ¡
E AR
F G
F er
G em
G Äĥng
H ark
H Ã£m
H achi
J ensen
K enn
K ATIE
L J
L in
L iáº¿m
L inderman
M ot
M á»īa
M ido
M owgli
N Æ°Æ¡
N Ã©t
N avid
P ut
R ung
R áº£nh
R av
S áº¥m
S á»¹
S outh
T Ãºm
V ideo
X Ãª
X á»©ng
^ ^
b á»©c
b ett
b ino
c Ã¡nh
c á»Ļng
c ey
c ause
d áº¥u
d ing
f ra
j our
j uk
l n
m g
m ler
n Ã³ng
n ard
p l
p ai
p ie
s peed
t Æ°
t Æ°á»Łng
t as
x ter
Ã ¾
å Ĥ
Ġ Ã¹a
Ġc Háº¿t
Ġc reat
ĠÄĳ áº«n
nh á»ı
Ġl á»¯a
Ġl ex
Ġl ater
Ġth r
Ġk Hi
Ġv Ã©o
Ġm áº¡p
Ġb am
Ġb áºŃp
Ġb á»ĩn
Ġb Ã©ng
Ġb á»§n
Ġs in
Ġs tor
Ġs Ãĵng
Ġh t
Ġh em
Ġh iá»ģu
Ġg el
Ġg allon
Ġnh Ã¯ng
Ġng Æ°á»Ŀ
Ġng áº¡ch
Ġng á»Ļp
Ġr á»Ļ
.. :
Ġtr á»ģ
Ġtr Âª
Ġph Å©
Ġph Ã»
ÄĲ V
ÄĲ Ã¹ng
Ġx Ãºp
Ġqu Æ¡
Ġqu áº»
Ġqu áº·t
Kh á»Ń
in ius
Th ao
ch áº¥t
ĠC ub
ĠC CPD
ĠT Ã¡o
ĠT iá»ĩp
ĠT áº¡p
ĠT ull
ĠT ata
Ng ai
Ng á»Ńa
er ing
ĠM ind
ĠM old
ar el
ĠB M
ĠB ane
ĠB uz
ĠB eca
ĠS Ã³ng
ĠS ym
ĠS IDA
Ã½ ch
ĠÄĲ á»ĵi
ĠH A
ĠH es
ĠH áº¡o
Em ail
en burg
ĠCh ay
ĠCh Ã¡nh
ĠL iver
eo us
Tr ip
ĠD iet
ĠD igg
ĠA sc
ĠA ethelwulf
ĠG T
ĠG áº¥p
ĠG ate
ĠG aby
ĠG imli
ĠG iselle
ĠTh á»¥
ĠTh anks
ĠR ight
ĠR ust
ĠR ue
ĠR udi
ĠR essler
ĠV N
ĠN á»ĳi
ĠN á»Ĺi
ĠN ÃĢO
Ġ2 13
ĠK incaid
el io
ĠP M
ck s
as u
as co
Qu áº§y
ĠF ang
ĠF raz
ĠF Ã¡bio
ĠF aulk
om ing
ĠTr Ãºng
ĠTr iáº¿t
ĠTr ent
Ngh iÃªng
Ġco ffe
us ha
th in
Ġ3 20
ĠE SP
il ene
ot er
ĠPh udeviet
and i
and ei
oo ey
Ġ4 18
le by
kh arine
ag ar
ag os
ĠquÃ½ t
Ġchi u
um sy
ĠQu ince
Ġ7 48
ĠX uy
ul co
ĠGi áº¥c
ĠSh an
ĠSh ah
ap per
ap ulco
ĠAl den
enn ai
lo is
ĠBr ett
eb ridge
Ba xter
Ġsa xo
ĠCl inch
Æ¯ ng
ĠAn astasia
ber wock
cÃ³ thá»ĥ
sh h
ĠAr men
ec l
ans y
Al f
az ine
ĠSp ace
ĠSp oon
Ġkhá»© u
St and
ĠAm in
ĠEl ves
ĠTH I
ĠTH O
CH O
ep p
Ok ja
Ġfor g
Ġ24 3
Frank en
ĠPr os
May day
ĠAd ele
ĠAll an
itt ing
ĠHy per
ox in
Ġ60 6
ĠÃ° n
AL DR
ĠTy ree
ngh á»ī
ĠMan olo
Gh Ã©p
ĠHam ada
ĠPaul ie
ĠLou vre
rick et
AS ON
ĠCo in
ĠPat el
ĠgiÃª ng
ĠEn vy
ĠMat s
ĠGl aive
ĠDel g
oe hring
ĠLe igh
ĠMad onna
Ġre ason
RA C
omb asa
Ġ23 5
ÃĻ A
Ad aline
omp a
Mo ose
Mo ana
ĠBeck e
Ġcl ick
ĠMiss ion
Ġuy á»ĥn
ĠJer emiah
ĠRiv a
ĠMed ic
Ġmen u
ĠSy ed
br ooke
ĠCass idy
Ġhon or
po int
ĠAng mar
ĠWhit taker
ĠBarb ossa
ĠMir ando
ĠJin x
EE P
ĠGer man
ĠOx ley
Ros ita
ĠLyn ne
At ia
Ġsho pping
Ġinch es
Ġ-** -**
Rog ue
we ik
ĠDev ereaux
unt ing
ĠSab ra
ĠSab bath
Ġsing le
sw ana
ĠHard ing
Ġcr ooked
ĠThomp kins
ĠIr ina
ĠDead pool
ĠIv y
ĠGai a
Ġstart ed
ĠBlo c
ĠChar ter
bu á»ĵn
ĠBak uto
ĠSet suko
ĠSpark y
ĠMagn us
ĠKam ar
ĠGeo ffrey
Ġearth bender
ĠRic ardo
ĠSig urd
Shin ichi
GG LES
ĠGog ol
Flor ence
Wo O
ĠCav endish
ĠBlan che
Ġmon th
åĢ ĭ
ĠKrist en
ĠOctav ia
ĠSah ara
ĠKao ru
ĠthÃ© i
ĠJor ge
chel on
ĠButter field
Guard ia
ĠEun ice
risco ll
MN Trix
WILL IAM
Cher yl
Brid get
ĠAlad een
Dex ter
Moh inder
ANNA H
Ġquest ion
ĠSoy uz
ĠSly therin
ĠKub elik
Kao ru
ĠEthio pia
isab uro
brand t
åľ ¨
ĠConsol idated
Ġrupe es
ĠGeck o
ALDR IN
" Â§
3 60
B il
B ird
D Ã´
D iá»ĩn
D ragon
E t
E cho
F A
G all
G inger
K eller
L Æ°á»£m
M R
M end
M err
M averick
N ao
N áº¿n
N Ã©
N ana
O t
O xy
O sw
O din
P olly
P aige
P umbaa
S eo
S áº¡c
S pe
T ÃŃch
V ig
V Æ°á»Ŀn
W I
W a
b it
b om
c Æ¡n
c á»±c
f o
f ty
f eron
g ly
g reen
h ed
i ao
l Ã²ng
l ett
l ene
l aus
m es
p old
p enny
t v
t Ã¢
t el
x á»Ń
Â Ĳ
Ð °
Ġ áº¥t
Ġ á»¨ng
ng Äĥn
Ġt á»ıng
Ġc mm
ĠÄĳ ÃŃ
ĠÄĳ Ã¹n
nh o
Ġth áº£nh
Ġth Ãĥy
Ġch áº·c
Ġch á»įe
Ġv áº¯n
Ġv Ã´n
Ġv ir
Ġm Ãĥt
Ġm Ãīnh
Ġn á»©c
Ġn iá»ģng
Ġkh Ãº
Ġs us
Ġs etta
Ġh ong
Ġnh Ã¹ng
Ġnh áº©y
Ġng Æ°á»Łi
Ġtr iá»ħn
ph Ã¢n
Ġph á»įt
Ġa dd
Ch Ã¬m
Ġd áº¿n
Ġd á»Łm
ÄĲ iá»ĥn
TÃ´i khÃ´ng
Ġx Ã¨o
on ado
Ġqu áº±n
ÃŃ c
Ġgi i
Ġgi áº§u
in berg
Ġra Äĳa
ch y
ĠC M
ĠC á»Ŀ
ĠC ourt
ĠC ÃĻNG
ĠT T
ĠT wo
er ia
er ald
Ġ1 69
ĠM S
ĠM á»©c
ĠM ald
ĠM ombasa
ĠB Ã£
ĠB Ã©o
ĠS AO
ĠÄĲ á»ĴNG
ĠH is
ĠH ana
ĠH ero
ĠH Iá»ĤM
ĠH astings
Ġy á»ĥu
ĠCh ao
ĠCh inh
ĠCh ick
ĠCh ance
ĠL ib
ĠL evin
or ba
ĠD Y
ĠD oll
ĠD ella
ĠA j
ĠA sp
ĠA qaba
ĠG R
ĠG oody
ĠG oki
ĠG ator
ĠTh Ã¹
es p
ĠV Ãª
ĠV Æ°á»£t
ĠV ass
ĠV iÃªm
ĠV Å¨
ĠV ader
ĠN S
ĠN em
ĠN as
is m
ĠK wan
ĠK oran
el ess
ui re
ĠP I
ĠP K
ĠP ett
ĠP ET
Ãµ ÃĮi
al th
ey penny
ĠF ors
ĠF rog
ua dor
Ġgh iá»ģn
Ġgh á»ģnh
ĠI ch
ad io
ĠPh á»¥ng
ĠPh antom
Ġ5 38
Ġw ords
ĠNg Äĥn
ĠNg á»ĳc
Ġ4 60
id dy
ĠY osh
av ius
ed an
Ġ6 79
ra cuse
ig ram
ĠEm peror
ĠSt op
ĠSt agg
Ġmu Ãªn
Ho Ãł
Ġna ÃĮ
ag na
Ġso áº¡ng
Ġse ems
ĠMar ello
ĠMar quez
Ġp lan
Ġp udding
ab ly
ri en
ĠSh im
tr uyá»ģn
ĠAl amo
ĠU SA
ak ing
ent ÃŃn
ĠKh áº¥u
eg g
eg rine
Ġhu Ãªnh
ĠCl int
ov al
Ġ19 00
ĠZ apata
ĠJo aquin
Sh ado
Sh eba
ec ilius
if red
iz z
ĠGr ug
lin k
ĠWh arton
ĠBen strom
red son
Ġsh all
Ġ40 9
ĠBe ast
Ġ: )
ĠrÃ¢ t
ĠBer tr
ĠKim berly
Ar wen
ĠCal vert
ĠCr ash
ĠAd olf
Ġ17 0
osh ima
Am ico
ĠHe ath
ĠEr so
OR D
ĠSm e
ĠKat sumoto
ÃĮ n
Alex is
Alex and
ĠTR á»¢
rag amo
bert us
ĠMay hew
cher on
ĠVal yrian
ct is
ĠGl aber
ĠTim o
ĠTur key
ĠChris ty
Ġchá»ķ ng
ĠSu ellen
ĠMac Donald
ait en
RI ST
ĠBut cher
Re za
Ġá»Ŀ m
RA M
ĠVan ce
Ã± o
Ġ23 4
Ã¥ y
á»¨ NG
ĠHill ary
LA CE
Leo d
ĠÄĲo áº¡n
ĠMel inda
ĠRiv iera
ĠSl ugh
ĠPo ol
ĠDen ton
Ġ37 6
De ath
Se ki
Se ason
Nguy á»ħn
Ram ses
ĠGood night
Cr aig
ĠKn ights
"Â Ļ
ĠAnn abelle
ĠRen ata
BB ING
gy gia
Ġex actly
Ron ald
aff ee
Ġcall ing
ĠBel grade
ĠBab i
pher d
ELL S
ĠBy zantium
Ġsm ell
adia h
Li berty
ĠCrow n
Ġfire bender
ĠHO áºłT
ĠShin ichi
ĠBra cken
Just ine
ĠConn olly
ĠFall en
ĠHop ewell
Ne al
ĠPres ident
ĠPop p
utt gart
ĠArt ist
ĠAur ens
ĠCand ie
ĠBri ony
ĠVas quez
Wall er
HH HH
Ġmorn in
SO SA
Ġbro ken
Äĳo Ã¡n
ĠBak shi
Ġmin ute
ĠBuff ay
Ġsweet ie
ĠLui z
ĠGau che
ĠJuliet te
ĠKap lan
Cec ilia
æľ ī
Ġnick name
Gray son
Philip pe
ĠBard en
ĠPry or
Raph ael
sm ith
ĠAlt mann
Gam ora
ĠÄĲá»Ĭ A
Ġcount ry
ĠCed ric
Ġpe ace
Camp bell
Dia z
Kee fe
Ġesc ape
ĠEly s
ĠHoot ers
ĠBoe uf
ĠMolo ch
ĠLit venko
cast le
ĠStaff ord
çĲ ĥ
ĠKowal sky
ĠTek ken
weik art
ĠSlugh orn
A mm
A DN
B all
B ark
B od
B eta
B UR
C N
C ale
D uyÃªn
E nd
F E
F ire
F ury
G ill
G AR
G atsby
H áº§y
H ass
I ke
K Ã¨n
K Ã¨m
K IM
K agome
L áº¥p
L iá»ħu
M á»ķ
M ast
M other
N á»ĵi
N á»įc
N ice
O y
P ap
R R
R ow
S Ã²ng
T áº£ng
T un
T ED
V e
X áº¡
Y e
Z A
b á»¯a
b aby
c uá»ĳn
c Äĥng
c ung
d ao
d iá»ħn
f olk
h Ã´
h ah
h áº³n
h ear
k owski
l áº¯m
m Ãª
m ati
p op
r d
r ÃŃp
s or
t Æ°Æ¡ng
u inem
v áº¿t
v its
v ÃĽi
w er
z or
Ġ Æ°Æ¡i
Ġ ent
Ġ áº¹t
Ġ ãĢĮ
ĥ ½
ng Æ°Æ¡
Ġt c
Ġt áº¥y
Ġt á»ĭa
Ġc áº¡y
Ġc Ãłu
Ġc ir
Ġc alo
Ġc lean
Ġl Æ¡i
Ġl ia
Ġl ÃĤi
Ġth áº¡c
Ġch ÃĬ
Ġch Æ°á»Ŀm
Ġk ey
Ġk ne
Ġv Ã¹
Ġv ÃĽi
Ġm am
Ġm ot
Ġm ista
Ġn ec
Ġb ec
Ġb ourbon
Ġkh Ã¡u
Ġs ng
Ġs ui
Ġs ÃŃt
Ġs chool
Ġh iá»ģm
Ġh aul
Ġg ames
ĠlÃł i
Ġr id
Ġr á»Łm
Ġr Ãºm
Ġtr á»ĭch
ph e
ph ir
Ch á»©a
ÄĲ Æ°ng
Ġq Ãºa
Ġqu Ã¡c
Ġqu áº§ng
á»Ł n
Ġgi Ã£i
Kh uyÃªn
in burgh
Th ese
Ġra da
ĠC áºŃn
ĠC áº©u
ĠC ana
ĠC DO
ĠC razy
ĠC ÃģCH
ĠC redence
ĠT eller
au st
au kee
á»¥ n
Ġhá»į ach
er us
ĠM Ãłn
ĠM ut
ĠM insk
ĠB ah
ĠB av
ĠB ass
ĠB áº¢O
ĠH Æ°
ĠH eb
ĠH ild
ĠH oudini
en cy
ĠCh uy
ĠCh áº·t
ĠCh at
ĠCh al
ĠCh áº¥m
Ph one
ĠL á»±a
ĠL ap
ĠL HQ
ia tor
Tr áº¥n
ĠD iá»ģu
ĠA ye
ĠA uto
ĠG Iáº¾T
ĠG aviria
ĠTh uyáº¿t
Ġto e
ĠR Ã¡c
ĠR oh
ĠR ec
ĠR oku
ĠR aleigh
ĠR uiz
ung a
ÄĲÃ³ lÃł
ĠV l
ĠV ers
ĠK ris
ĠK uz
ĠK umar
ĠP addy
ĠP uma
ou k
al h
á»Ŀ ng
as te
ey ond
ĠF ive
ĠF EMA
ĠW HO
ĠTr icia
th á»£
re au
ĠO F
ad ing
ad deus
ĠNh u
Ġw eep
Ġw ife
oo ch
Ġma g
Ġxu Ã´ng
ĠY ah
ĠY ear
av ed
Ġ6 78
Ġ6 12
Ġ6 33
Ġ6 31
ĠSt oick
ir it
Ho p
ĠMar ina
ĠCon klin
Kho e
Ġ7 1
Ġ8 11
ĠX Ã©o
ri p
ĠSh ap
ĠSh ado
ĠlÃ£ n
ak ar
te ch
Ġ20 7
ĠBr itt
Ġin t
Ġ19 96
Uh ura
Lu áºŃn
Lu cky
Ġ12 16
32 0
end l
ĠJo ck
Sh ishio
Ġ15 4
ock er
oll a
An astasia
ĠCar ney
Wh ee
ky u
Ġ0 6
ĠLa Guardia
áº¤ u
ĠHar ald
ĠTom orrow
ver a
ÄĲo áº¡t
Ġsh illing
ma al
ish mati
ĠBe zu
ĠFl ass
ĠFl owers
ĠMc Lovin
Ġ14 5
Mi yuki
Br andy
ĠCal igula
Ed mund
Ġ16 2
Ġ16 6
Ġ25 7
Ġst uff
Chi hiro
ester ol
ĠHe im
LE N
rie ve
ĠMin ny
ĠCa fe
ĠEn ter
me ida
MÃ´ t
ĠTim on
PH ÃĴNG
ĠAv alon
ĠPH I
ĠPer egrine
ĠNH áº¬N
cel et
ĠRoy a
ĠCor v
Ġ28 5
ĠHaw ks
ĠMeg amind
Ġ39 0
Ġcl ark
á»ļ t
ĠGal vatron
ĠCast ro
ĠAs lan
ĠMich eal
ĠSl ick
its yn
De cept
Hel m
Hel ga
UN D
ST E
Daniel s
ĠKho áº»
ĠNap oli
New ton
Ġcar b
Ġor c
Kar o
Ġgu á»ĵng
bor ough
ĠSk ull
gr ave
Ġtell ing
At om
asc ar
ĠBud d
Ger ben
ĠDev il
ĠMcC all
ĠnH Æ°
uu uu
ĠJos ie
ĠBall on
Pet ers
Dam ian
Ġngá»« Æ¡i
ĠFer ragamo
ĠDre x
Ġwal king
KNO CK
emis tok
Âª n
Holly wood
Ġls rael
Ġwater bending
Dra co
Georg ia
ĠTang ier
ĠlÃĥ y
ĠRoll s
Hobb it
ĠDisney land
unn ingham
ĠRem brandt
Daw n
ĠSuy in
Of elia
Gun ner
ĠBed ford
Mas eo
xcÆ¡ va
Tau riel
Ġste p
ĠEst es
ĠMits uha
Ġchild ren
phet amine
VÆ° Æ¡n
Dim itri
ĠHein rich
Lim Ã³n
áºª N
aigh t
Chap man
ĠRatch ed
ĠMalt ese
ĠYunk ai
ĠLiver pool
hed rus
vits erk
emistok les
$ ,
$ ?
3 000
A da
B Æ°
B Ã©o
B la
B lock
B ÃģO
C AM
D D
D eon
D ahl
D Ã¡in
F u
F at
G as
G avin
H Ã¢
H olt
H oly
H á»ĸ
I ceman
J E
J IM
J avier
K I
K re
L Äĥng
L iá»ĩt
L og
L ana
L azar
M Ã¬n
M Ãºa
M áº¡o
M anhattan
M ARK
N Æ°
N á»±c
O ur
P a
P u
P LE
P eggy
R eb
R oll
S ae
S CREAMS
S ouxie
T Y
T á»ģ
T ey
T áº©y
T su
T ito
T usk
V is
W an
W ah
X á»ĭt
X In
Z iggy
b iá»ĩt
c ah
c ant
e er
f ess
f orth
g uk
i ers
l Ãłnh
l á»±c
l ist
m ong
m od
n om
r ith
r ose
t á»ķ
t á»Ń
w ether
x áº£y
z one
ä ¾
å Ĭ
Ġ á»¥
Ġ áº¿u
Ġt Ãły
Ġc ricket
ĠÄĳ n
nh á»Ŀ
Ġl ng
Ġl áº¥m
Ġl iv
Ġl ist
Ġth Ã¨n
Ġch áº¡
Ġch Ã¬nh
Ġch Ã¹ng
Ġv aly
Ġn Ãªm
Ġn os
Ġb áº¯ng
Ġkh áº¿
Ġkh áº¯n
Ġs Ã¡
Ġs old
Ġh á»īnh
Ġh uman
Ġg áº¯m
Æ°á» ±c
Ġnh ac
Ġnh Ã£m
Ġr á»¥c
Ġr el
ph ong
Ch anh
Ch á»ĭch
Ġd Ãĥ
ÄĲ Ã¬nh
ÄĲ Ãłm
Ġx á»«
Ġx xx
... (
Ġqu áº¡c
Ġqu een
Ġgi t
Ġgi Æ¯
in ie
Ġcon c
Nh Ã¡t
ch Ãºt
ch á»ĵng
Ġcáº£ o
ÌĢ ....
ĠC in
ĠC ant
ĠC ate
ĠC SI
ĠC ount
ĠC roft
ĠC unningham
ai son
ĠT ou
ĠT áº¥m
ĠT oh
ĠT ut
au ri
Ng ang
Ng Ã¢y
Ng uyá»ĩt
ĠM ith
ĠM ithrandir
ar ra
ĠB h
ĠB od
ĠB uá»Ļc
ĠB Ãį
ĠB erry
ĠS CPD
ĠÄĲ Ã¡y
ĠH R
ĠH áº±ng
ĠH ob
ĠH ab
ĠH anna
ĠCh ul
Ph iáº¿u
Ph erson
ĠL á»ĵ
ĠL ob
ĠL á»¡
ĠL ion
ĠL ife
Tr Äĥm
ĠD Ã¡m
ĠD mitry
ĠG ong
Ta t
ĠTh ÃŃ
ĠTh á»Ŀ
ĠR ama
ĠV ald
ĠV AL
ĠJ ame
ĠJ acqueline
ĠN Ã©t
ĠN ullah
ĠN TSB
ĠN oyce
is es
at le
ĠK is
ĠK and
ĠK ed
ĠK áº¹t
ĠK ush
ĠK etcham
ĠK affee
Ġ" "
ĠP A
ĠP rix
ĠP ines
Ġla w
Qu áº³ng
om et
om inus
ĠW ah
ĠW aco
ĠW egener
ah r
th is
th uá»Ļc
Ġ3 79
Ġ3 10
ol etti
ic le
ing way
ĠO do
il us
Ġbu á»Ļt
Ġca pp
ad ian
ad ne
ĠNh áº¹
and ers
ĠNg á»įt
ÃĢ M
Ġ4 20
Ġ4 14
Ġ4 36
Ġ4 75
ob ia
ed evil
Gi eo
ĠSt ap
ĠSt uttgart
Ho áº£ng
ag les
Ġf i
Ġso ft
ĠMar g
ĠMar itza
Ġp or
Ġp ot
Ġp ast
ĠCon ey
ĠÃ Ł
ta c
Ġ8 50
Ġ8 44
ĠX Ãª
Ġchá»¯ ng
ĠSh annon
ĠSh iva
ĠSh izuka
Ã¨n a
ris sy
iv ert
ut arch
ĠKh Äĥn
ath ers
ess es
Ġsa fe
ĠCl aus
ov en
Ġ19 18
Ġ19 88
Ġ19 39
ĠZ en
ĠZ ah
ĠZ edd
ĠZ aits
Ġme ans
ber us
ĠLu isa
ec chio
Ġon es
ant ua
ĠAnd r
iz do
ins ter
ane k
ĠEd win
ĠSp ell
our des
Co ol
lin ter
ĠWh isky
ĠMor an
ĠHar v
ĠHar py
ĠAm ar
ĠAm ity
do c
ish ing
Ġ14 1
ĠhÄĥ y
La eddis
ĠStark s
AR PA
ĠDe ak
sy usha
ĠSm itty
á»¦ NG
Don nell
gi Æ¡
ĠMan uel
Sp ot
ĠCo on
ĠCo ke
uch adne
El iza
Dan te
ĠRo c
ĠMinh o
ait lyn
ĠCas ta
All ie
ĠPH ÃļT
und red
ek iel
Ġ48 0
ĠDu que
ĠNH A
Mon ty
ĠKing dom
Mo on
ĠHu á»³nh
ĠUn translated
ĠBos co
ÃĨ p
ĠChi huahua
ĠRom ero
Er et
ĠBell as
Jan ey
ĠKai ser
US S
ĠClar issa
Ġquáº¡ u
chu á»Ļt
ĠMik a
ĠBarb ar
ti enne
San Corp
ĠCat o
ĠGo ose
ĠHong kong
ĠAz iz
Ġsc otch
bor ne
Ġcall s
Ġ198 9
ÄĲiÃª ng
Mor phine
ĠBab b
Ġ196 1
áº¨ M
ĠHerm es
Jean ine
Greg or
Clar ice
edd ar
Ber lin
ĠWester n
ĠMart ell
ĠHen rik
ĠArm and
ĠBall ou
áº¶ c
ĠFer rante
Fran co
ĠCoh le
ĠSP EAKING
ĠUy Ãªn
Ġfall ing
bott om
nhe imer
ĠDark ness
ĠIng stad
ĠMen z
ĠPri us
ĠMcK in
ĠKay la
Finn ick
ĠWang du
ĠBul gar
ĠChip munks
Emil iano
ĠWis trom
ĠGamb relli
Vlad imir
Ġsur v
ĠStock holm
Hen ri
ĠKu wait
Super man
Gun ther
wal ker
ATT AN
Ele anor
ĠBatt osai
Krist en
ĠMell ark
ĠVos tok
ĠQuint ana
ĠMikael a
Kir by
Bos ton
Ġsupp osed
ĠSlo an
Ġed it
ĠGAS PS
ĠMagdal ene
ĠThom son
ĠSomers et
Arm ando
ĠngH Ä©
Cand ice
áº° NG
ĠChamber lain
agu ar
ĠDragons tone
ĠAgam emnon
haeg ar
LOV ELL
Cot ton
å¥ ½
yram id
Ġarri ved
indel wald
ĠFaulk ner
ĠESP N
ĠLevin son
ĠPopp ins
hear st
uchadne zzar
A by
A udrey
B obb
B á»ĺ
B reak
B Æ°á»Ľm
C er
C le
C áº©u
D er
D Ã¡ng
D ung
D ANIEL
G oogle
H Æ¡
H ill
H ir
H rothgar
J upiter
K uz
K ylie
L Æ°á»Ľt
M P
M áº§y
M á»ĵm
M agn
M adel
M USIC
N an
N eo
N eb
N inja
O da
P ick
P ER
R itchie
R andall
S ura
S OL
V I
V argas
W IN
W atch
Y an
b Ã´
b rella
d á»įn
g ay
h á»ĵ
h Ã¡t
j ak
k ai
m Æ¡
q uyáº¿t
r ome
r gen
u ter
u ini
v Ã²ng
w olf
y Ãªn
y ung
} *
Â ¬
Ġ oo
Ġ ir
Ġ 784
Ġ ion
Ġt Ãºt
Ġt Ã²i
Ġc áº¡m
Ġc Ãľ
Ġc artel
ĠÄĳ t
Ġl evel
Ġth row
Ã³ r
Ġk t
Ġk iáº¿t
Ġm iáº¿t
Ġn umber
Ġn aught
Ġb á»Ľ
Ġkh áº¯m
Ġs Ãłm
Ġs Ã²m
Ġh Ãºng
Ġh Ãį
Ġh Ãĸn
Ġg row
Ġnh á»ĳ
Ġnh Ãª
Ġr ev
Ġr oul
Ġtr áº¥u
Ch en
Ch ew
Ġd áº¥m
ĠÄĳÃ£ u
Kh iÃªng
in ette
Th Ã¢y
Nh áº½
Nh Ã½ng
ch ad
ch ard
ĠC Æł
ĠT Ã¡c
ĠT ung
ĠT uá»ķi
ĠT il
ĠM Äĥ
ĠM iáº¿n
ĠM az
ĠM Ã£nh
ĠM avis
ĠM oody
ĠM anning
ĠB I
ĠB ui
ĠB REA
ĠS Y
ĠS ie
ĠS eon
ĠS CO
ĠS EC
ĠÄĲ á»¥
ĠÄĲ áº§y
ĠÄĲ á»Ĺ
Ġy um
ĠCh es
ĠL ey
ĠL á»ĳc
ĠL ÃĿ
am adre
ĠD inh
ĠD Ã£y
ĠA emon
ĠA xel
ĠG H
ĠG undabad
ĠTh Ã´
ĠTh iá»ģn
ĠTh alia
Con nell
ĠR ameses
ĠV H
ĠV Ã©
ĠV il
ĠV orenus
ĠN ice
ĠN OR
ĠN BE
ĠN eytiri
Ġ2 30
is ing
is tr
Ġngo ai
ĠK A
ĠK iÃª
ĠK risto
ĠK eri
ĠP ig
ĠP ass
ĠP IN
Ġla de
ĠF E
ĠF rid
it r
ĠW ai
Ġco ffee
us ka
ol ks
ic r
ic ano
Äĳ áºŃp
ĠE k
ĠE ps
ĠE wing
ĠI RS
ĠI bbet
ĠO ri
ĠO ishi
ĠO prah
os o
ad d
Ai dan
Oh hh
Ġ5 23
Ġ5 17
Ġw eek
ur ing
ÃĢ n
Ġ4 45
Ġ4 41
ed ia
ĠSt y
ĠSt ing
Ġmu t
ag ast
ag uchi
arl o
ĠMar di
Ġp os
Ġp apa
ĠCon an
Ġthi ch
Ġ7 47
Ġ8 38
ab l
ĠX inh
ĠX áº¿p
ĠSh u
tr Ã¬nh
iv ian
ac as
ĠU sher
ak ov
lo z
lo om
arry l
ĠTa zio
od o
ĠCl ouseau
ond re
ĠZ er
ĠZ ook
end or
end ing
ĠAr nhem
ĠFrank s
ĠFrank ia
Ãį N
ĠlÃ¡ Âº
Ġ15 3
ĠNam ek
ub asa
ok es
Ġand roid
ust ries
ĠSp ot
ĠÄĳá»¥ t
AN T
ĠBar ca
Ġ0 7
ĠDo Ã£n
ĠBen ton
Ġbá»Ŀ m
ĠÂ §
CH UCK
ĠWal king
ib en
ep am
ĠDan ce
ĠMc Murphy
oth aison
ĠJon son
ĠCol a
20 14
ĠAb ilene
Ar nie
IN DY
ĠPet yr
ĠMax ine
ĠÃ° y
ĠMal kin
ĠMan son
ĠHam let
AS S
ĠSim s
ĠLuc is
ĠCo ol
ĠPat ton
ĠMay o
ĠMo jo
ĠBur dette
Gr aham
erm it
ĠMe Mi
ĠRo om
ĠRo oney
ĠLe ila
ĠcÃ² m
á»ĺ NG
ĠPH áº¦N
und us
ĠFor ever
Ã¤ u
ĠHan ratty
ĠNH áº¬T
Ã± or
ĠAh med
Jul ius
ĠUn ivers
ĠMarty n
ĠMel ody
ĠAs ta
ĠRu fus
atch ios
ĠSar coid
ĠOs giliath
kho ang
ĠMu Ã´
Ġ75 3
ĠUm ber
Le igh
ĠAg uilar
Doug al
Ġany way
Ġ29 8
"Â Ŀ
chá»ĭ u
ĠHong Kong
Mur iel
ĠFox trot
Ru dy
ĠSk itter
cl aw
ĠCle ary
Mor ris
Mor pheus
Ġel ec
Ġ196 2
ĠDev a
ĠChim era
ĠWins low
ĠÆł I
ĠMcC ullen
ĠGrand e
ĠWeb er
ĠOb sc
Far han
JO Y
Ġxá»ķ m
utt le
ĠLar son
Æ¯Æł I
Com ic
ĠGust av
ĠBee ch
ĠTho áº£i
Sn art
ĠSunny side
Ġbro ther
ĠMarc os
ooth less
ĠChel ios
rand uil
ĠMyr tle
ĠRi ordan
JU LIE
ĠGib bs
Ġáº¤ m
ĠRem us
ĠlaÃĮ m
Sta cy
ĠHur ley
ĠKey stone
ĠThunder bolt
ĠShar pe
Som ething
ĠField s
Gin ny
olog y
ĠBot swana
AaAa AaAa
Ġmark eting
Dec lan
ĠIns ight
ĠCáº¤ P
ĠSkin ner
Bai ley
Free za
ĠHack us
aik um
risp ina
ĠWolver ine
Mori arty
CHA EL
ĠWak anda
ĠSPEAK ERS
WHIS PERING
berwock y
ä¾ Ĩ
ĠZaits ev
ĠIbbet son
3 24
3 12
A uto
A thel
B U
B s
B Æ°u
B ean
B ello
C Æ°á»¡ng
C ristina
C ERN
D áº¯t
D eva
D estiny
E z
F le
F aris
F uriosa
H E
H áº¡i
I rene
K ol
K iá»ģm
L ino
M ore
M wah
N ai
N Ã´n
N áº¥c
N ÃĵI
O of
P ia
R y
S HIELD
S ummer
S ookie
S CREAMING
T Äĥ
T Ã½
T áº©u
V ali
W ong
W AR
b ane
c elle
d iá»ĩp
d man
e ng
g ew
h Æ°
k ers
l áºŃp
r Ã¢
t uá»ķi
t os
u in
u essa
v othaison
x áº¿p
z ah
Î ĳ
Ġ _
Ġ inh
Ġ Ã¡ng
Ġ Ãºa
Ġ il
Ġ ich
Ġ Ã©m
Ġ Ã²m
Ġc Ã¹m
nh au
Ġl Ã¡n
Ġth on
Ġth Ãły
Ġch áº£ng
Ġm á»§i
Ġb en
Ġb Æ°Æ¡m
Ġkh Ã¨
Ġs áºµng
Ġh á»£t
Ġnh Ãľng
Ġng ao
Ġng Äĥm
Ġr Ã´ng
Ġr ose
Ġtr Ã©t
Ġtr áº¹o
ph Ã¹
ph Ã³ng
Ch Ã³ng
Ch á»«a
Ġd rive
ÄĲ áº£
ĠÄĳi a
Ġqu áº¯t
ay ashi
Ġgi Å©a
Kh uya
Ġcho áº¡ng
ch ant
ch ild
Ġem p
ĠC Ãºp
ĠC ul
ĠC ath
ĠC AO
ĠC ilic
ĠT uyá»ģn
ĠT ac
ĠT ako
ĠT áº¬P
ĠM á»¥
ĠM á»Ļng
ar ina
ĠB Æ¡
ĠB áºŃn
ĠB itch
ĠB áº®T
ĠB Iá»ĤN
ĠS B
ĠS á»ŀ
ĠS eg
ĠS á»¬
ĠS ÃģNG
ĠS iggy
ĠS ultan
ĠS maal
ĠÄĲ E
ĠÄĲ ÃĮNH
ĠÄĲ á»ĺI
ĠH áº¡c
ĠH onda
en son
en iak
ĠCh iv
ĠL Ãłng
ĠL á»£i
ĠL ew
ĠL ash
ĠL Æ°á»¡i
ĠL á»Ľp
ĠL uss
am anga
á»ģ s
ia doc
ĠD ÃĢI
ĠD mitri
ĠD á»ĮA
ĠA J
ĠA cheron
ĠG oehring
Ta h
Ġto Ã¡c
ĠR á»Ŀi
ĠR itz
ĠR aza
ĠR á»ĴI
ĠV á»Ŀi
ĠV á»©t
ĠJ ew
ĠN anh
Ġ2 25
ĠK ik
ĠK ash
ĠK antmiss
ĠP ong
ĠP ita
ĠP GE
ou ard
ck hart
Qu e
ĠF oley
Ġkho m
om en
ĠTr iá»ĥn
ĠTr á»Ļm
ĠTr essler
th rith
Ġ3 30
Ġgh ita
re ction
Ġcha ppie
Äĳ á»Ļ
Äĳ á»ķ
Äĳ á»ķi
ĠI kran
ĠO pera
Ġca ffe
ad don
ĠNh áº¥c
Ġ4 33
ob ile
Ġ6 96
Gi un
ĠEm erald
kh áº£
kh á»ī
ag ua
Ġf o
Ġf áº£i
ĠHo áº¡
Ġp et
Ġp ap
Ġp erson
Ġo cean
son ian
ine as
ann ie
Ġ8 58
Ġ8 68
ĠSh affer
ĠSh orty
ac es
ĠU bbe
Ġhoa ch
ut i
Ġ20 2
ent y
ĠKh áº©n
ath orn
ud den
ĠCl ash
ond e
ĠZ ac
ĠZ ira
ĠZ azu
ĠZ UI
ĠAn imus
sh err
ĠAr athorn
ith er
ub rey
na eus
na zio
ĠSc out
Ġe ng
ans om
ĠGr as
con i
ĠEd oras
orn ing
ky ung
Ġ0 5
ĠMor phine
ĠMor ales
ĠMor pheus
ĠBen z
ĠHar mony
Ha e
ĠAm brose
ĠTH áº®NG
Ġsh ort
Ġsh ining
ĠMon k
Sam ir
CH ES
ĠWal der
ĠPar rish
ĠRe al
ĠPr ud
ĠBer etta
Br ick
Jim mie
ĠAd en
Ġ17 2
Ġst upid
bo ard
Um brella
LE X
ker ville
ĠPet ra
ĠSm all
ĠÃ° Ãª
Don ny
ĠMan ila
ĠTR ANH
ĠTR á»ľI
Sp artan
ĠJul ii
ĠCo ffey
ĠPat sy
va ine
ĠVal yria
inn ing
ĠGl ad
rom eda
gg ie
Gr eta
ĠNor i
ĠNor folk
ĠxÃ¬ u
wen thrith
RO NG
ĠNH Æ¯
Thu áº§n
air s
air es
ĠCor bett
ĠKo z
ĠHill top
ĠBo om
ĠAp o
ĠRick on
Ġbl ind
Yo on
26 4
Ãī P
ĠSnow y
olo khov
ĠOm ni
ĠBal on
ĠPe ac
Ġpl u
ĠSl ugline
LES S
ĠDor ado
ĠYoung er
Per haps
sen sei
IT Y
ĠKe ita
let ics
Ly uda
Roy ce
ĠPhu DeViet
ĠBeth any
las ma
anc arlo
ĠcH iáº¿n
"Â ĳ
ru thers
Dar ius
SI E
azz i
ĠGab i
ĠDick ie
ĠVer one
aint ed
ĠBel icoff
ĠChe ese
Ġdang er
Ger ald
unt z
ĠSab ine
Ġ197 1
Col ombia
ÃľÃĸ ng
Mich el
ĠBir thday
ĠFall on
Ã¼ n
ĠSouth ampton
Ġni u
ĠIr win
ĠJust ine
ĠVel d
ĠVel oc
ĠFre eman
Pet rie
hy un
ĠCec ilia
FC ON
ĠGust avo
ĠBeach um
tu áº§n
ĠRox y
ĠHim ura
ĠTang les
Ġnit Æ¡
Med ivh
Si enna
Ġpass port
Ġdr ink
ĠMagn ussen
ĠMall ow
ĠRic oletti
Face book
Ul tron
ĠChin ook
adeo us
ĠKath leen
ĠNO C
Ġbal Ã´
Coll een
ppe nheimer
DU KE
Tul io
Rho des
usse f
ĠBain bridge
Brook lyn
ĠArbor lon
Mons ieur
Ston ebanks
mor eland
ĠBrother hood
Ġdest iel
Suz anne
Ġcac bon
Smurf ette
ĠVe idt
Ach illes
ĠAbr uzzi
ĠDek ker
ĠDY AD
Aby zou
Athel stan
. /
. {/
3 50
: ..
A cc
B Ã¡ch
B ÃŃt
B and
B one
B urt
B EE
B ingham
C ay
C ost
C EO
D uyá»ĩt
D iÃªm
F ig
F ischer
F ergus
G on
G ren
G racie
G annicus
H ed
H áº¾T
H agrid
H wayi
J ac
K el
K oh
L áº¯m
L loyd
M áºŃp
M it
M ine
M ean
M orm
M ills
N i
N Æ°á»Ľng
N eville
O X
R in
S ak
S á»°
T em
T ennessee
U ES
V oldemort
b ills
c s
c Ãºt
d uc
f ace
h at
l Ãłng
l CK
m Ã£
m art
n á»ķi
n el
p tor
s uá»ĳt
s ook
s ini
w at
w op
w aukee
x on
y llis
z ac
~ ,
Î ľ
Ġ Ã¬
ng th
Ġc ause
ĠÄĳ Æ¡i
ĠÄĳ Ã©n
Ġv á»įc
Ġm em
Ġm er
Ġn áº»
Ġn áº«ng
Ġb ook
Ġb eta
Ġb Ãİ
Ġb eyond
Ġs Ãº
Ġs á»ķng
Ġh uyá»ĩn
Ġh Ã¢y
Ġh ah
Ġh á»·
Ġh ÃĴ
Ġg or
Ġnh n
Ġnh t
Ġnh Ãłnh
Ġnh Ã¡o
Ġnh uá»ĳc
Ġng á»į
Ġr á»Ľ
Ġr á»ģn
Ġtr iá»ģn
ph am
Ġph aser
Ġph araoh
Ġa ren
Ch Ã²m
Ġd Ã£n
Ġd isco
Ġngh Ãĭ
an j
Ã² t
ch enko
ĠC oul
ĠC ove
ĠC rab
ĠT oul
iá»ĥ ng
ĠM av
ĠB end
ĠB Ã¹m
ĠB our
ĠB ianca
ĠS N
ĠS ion
ĠS ever
ĠS uk
ĠS ookie
ĠS okovia
ĠÄĲ H
ĠÄĲ Ã³n
ĠÄĲ áº¤T
ĠÄĲ ÃĵNG
ĠH áº¡n
ĠH Ãºt
ĠH áº¥p
ĠH áº£o
ĠH á»«m
ĠH oly
ĠH áº¢I
en ic
ĠCh á»¯a
ĠCh ina
Ġho urs
ĠL Ã³t
ĠL áºł
ĠL á»ļ
eo l
am ing
ia th
Ġcu ÃĴa
Tr á»Ļn
ĠD iá»ĩm
ĠD agg
ĠD ough
ĠD SS
ĠA mm
ĠG ulf
Con stant
Ġlu pus
ĠR I
Ġlo c
ĠV all
ĠV oy
ĠN ia
ĠN áº¥p
ĠN iá»ģm
ĠN atal
ĠN AM
at rix
ĠK DK
ĠK wenthrith
et y
ĠP ied
ĠP oli
ĠP ivert
ck ert
Qu áº¥n
ĠF ougasse
ĠW agg
Ngh á»ĭch
Ġco w
ah ata
th á»ĭ
Ġ3 24
Ġtráº£ o
Ġgh Ã¬
Äĳ en
ĠE HOME
ĠO dy
á»ħ u
Ġtu á»·
ad riel
ĠNh áº¡n
Ġ5 26
Ġxu á»ĥ
ĠY ELLING
ĠY vonne
ed onia
ig i
ry ce
ĠSt av
ĠSt umpy
ag ascar
27 5
Ġf ront
Ġso Ã¡n
Ġse arch
ĠMar ek
Ġp oss
Ġp iranha
.... "
Ġ7 75
ĠX H
ĠX an
ul o
ĠGi ve
ĠSh irley
tr ÃŃ
ap t
te ga
lo y
eg ood
ord er
ne quan
ĠZ ohan
ach a
to e
Ãģ U
ĠAr lington
Ġ30 6
Sh ut
Sh redder
per ial
ant ic
ant ine
if a
iz zo
Al ma
Ġxo Ãłi
ust en
ĠEd mond
ĠSp ears
ĠÃ´ liu
Ġ0 8
ĠLa Hood
ĠBen eke
Ġj ump
st ill
ĠHar bard
een er
John y
inc t
ĠAm adeo
yn n
ull es
ib a
ĠchÃª t
ĠPr att
20 12
Br iggs
11 1
Ġ16 8
ĠDe i
ĠMer yn
ĠAd renaline
ĠÃĩ Ãİnh
ous sa
ĠGod dard
obb ler
org i
ĠNo elle
Sc ooby
giá» įng
AL PH
gi áº¥y
ĠMan fred
ĠMin ot
TH ER
TH ÃĢNH
ĠGar th
bl ah
EA D
ĠCap ital
ĠBro om
ĠDa esu
Ġi Pod
áº¬ Y
ĠDar nell
So fia
ha an
gg g
AT E
ĠMac y
ĠTor os
ĠSal omon
ĠDom in
RA FT
ĠFred erick
IS IL
NA M
Man ce
Ġab c
ĠMy ung
Ġ28 3
ĠThu á»µ
ĠBo on
ĠBo ise
Ġsp in
eus er
ĠStr igoi
ĠBos nia
ĠGal go
ĠWest chester
Cal ypso
IL Y
Ġneed s
zy me
kho a
ĠMu eller
Gre er
ĠGro ves
US B
ĠSer ena
ĠGu inea
ashi w
ĠPro vid
Ġte ars
Be hmen
ĠWhit man
ect re
Ġlook ed
ĠNe al
Ġboong ke
Ġri u
aka ar
ĠAz tec
ĠSk orsky
ĠWes ton
ĠSuper natural
Francis co
ĠChe ng
cl us
ĠAlfred o
ĠArk ady
Ġ196 4
ĠTw eed
fn Comic
ĠDiv erg
Ġ197 7
ĠMah ishmati
Mel inda
Ġ76 5
Ġ76 6
ĠRho dey
Ġ58 2
ĠPic t
ĠHen shaw
ĠPres cott
ĠChan chad
ĠLar go
ĠFer re
Ġbr andy
Iris h
ĠUr uk
WAT SON
ĠPin ky
umber land
ste ad
LIN T
Yah oo
ĠBul ma
ĠMyr cella
Snow y
car us
ĠTO ÃĢN
ĠNeb uchadnezzar
onia c
ĠDrey man
ĠSweet water
ĠMom o
ĠJoh ann
ĠCer eb
ĠPon celet
ĠKov acs
jack et
tho Ã¡t
Tang les
ĠTree beard
ĠDum as
ĠFreder ic
ĠId aho
zb ek
ĠChern obyl
Dz Ã´
esc ent
ĠEb oshi
ĠLaz lo
Ġ216 6
160 3
ĠVet vix
ĠCoch ise
ĠTit ans
ĠStri ker
LYN CH
ĠObel isk
ĠStre ets
ĠEN COM
Giul ia
ĠKarp ov
ĠDE FCON
ĠBoard man
ĠJAE GER
aged don
ĠDiet rich
ĠCana an
Madel ine
icr uz
CERN AN
ĠProvid ence
3 10
A aaa
B á»Ļi
B Ãło
B um
B ash
B ucky
C ong
C á»ĳt
C Ãºn
C lint
C yrus
C esare
D M
D racula
D ecker
E st
F B
F og
F isk
G á»ĵm
G PS
G aius
H áº£y
H UN
I ng
I er
I ronhide
K iá»ģu
K ings
L á»ĩ
L á»ģu
L AND
M Æ°
M iÃª
M un
M US
M iami
N on
N ÄĤM
N EY
R ee
S ung
T ig
T emp
W ARD
W elcome
W orks
X Æ°ng
b el
b age
b Ie
c Ã¢m
f ix
g il
h áº¡nh
i ard
k ut
k aban
l ai
l Ã©t
l Ã£ng
m Æ°á»Ŀi
m inh
n u
n iá»ģm
p amine
q awi
s to
t iá»ĩc
t uk
u an
v Äĥn
w ar
Ð ¾
å ®
ç ķ
ç ľ
Ġ Ãºng
ng er
Ġt Ãºp
Ġc Ãµ
Ġc ell
Ġc aught
Ġl Ã¢ng
Ġth áº«m
Ġch á»ĵi
Ġk rypton
Ġv er
Ġv is
Ġv Ãħn
Ġm al
Ġm iáº¿u
Ġn ÃŃch
Ġn áº¥n
Ġb áº¥p
Ġb Ã¨n
Ġkh áº¥t
Ġkh ua
Ġs ent
Ġs illy
Ġs edan
Ġh á»Ļc
Ġg ala
Ġr áº±m
Ġtr uck
Ġph Ãłi
Ġph Ãłng
Ġph oton
Ġa u
Ġta king
Ch Ã¡o
Ġd em
ÄĲ N
ÄĲ ao
Ġx á»Ļc
Ġqu Ã¬
Ġgi Ã±
Ġngh en
an ori
ang h
em aru
Th Ã¡c
Th Ã´n
ÌĢ "
á»ı n
ĠC I
ĠC áº¡p
ĠC ac
ĠT J
ĠT Ã¡i
ĠT ell
Ng Ã³
Ng Ãłn
Ng Æ°u
ĠM Ã¡c
ĠM á»ĳi
ĠM ow
ĠM ake
ĠM á»ĲI
ĠM owgli
ĠB em
ĠB Ã¨
ĠB Æ°u
ĠB ali
ĠB ÃĮNH
ĠB eto
ĠB iggles
ĠS Ã¡n
ĠS cher
ĠS OS
ĠÄĲ áº³ng
ĠÄĲ áº¤U
ĠH iáº¿u
ĠH AR
ĠH ÆłN
ĠCh iÃªn
ĠCh it
ĠCh ama
ĠCh annel
Ġho p
á»ī m
ĠL indy
Tr á»Ľ
Tr oy
ĠD R
ĠD Æ°á»Ŀng
ĠD ota
ĠD arla
ĠA cker
ĠG arl
ĠG um
ĠG ott
ĠG oth
ĠG rac
ĠTh eseus
im ano
ĠR ips
ĠR AD
ĠV A
ĠV á»Ĭ
ĠN Ã£y
ĠN it
ĠN ita
ĠN ÃĵI
ĠN eski
Ġ2 12
Ġ2 19
Ġthu Ãĵc
ĠK ob
ĠK ag
ĠK ipps
el dorf
00 7
et z
ĠP ank
ĠP ony
Há»į a
al oo
Ġla dy
it alin
om ere
om ae
om ori
ĠW ash
ĠW ILL
Ngh iá»ĩn
Ġco ver
ah i
us eb
th iáº¿t
th iáº¿u
Ġ3 36
re cht
Äĳ áº¥t
Äĳ an
ĠE ss
ĠE aston
ĠI BM
Ai r
ot ine
ot aire
Ġ5 50
ĠNg á»±c
Ġ4 56
Ġ6 55
Gi b
un ks
)} {\
ig ar
Ġtá»ĩ p
kh á»ıe
ag es
Ġf ig
Ġva cc
ard haan
10 1
Ġthe Mast
Ġ8 46
ĠGi áº£m
ĠSh ell
ĠQ arth
ho áº¡t
Ġ9 99
ĠAl a
25 8
ut ion
lo Ãłi
lo ff
igh s
ĠKh ang
ĠJohn nie
ĠAn nette
Uh huh
to x
Ãģ y
end on
co e
ith a
ec raft
Ġ15 6
ans ki
ĠGr ig
ass el
ank y
ĠEd inburgh
est ly
Ġ11 3
ĠWh e
ĠMor ty
ĠBen jen
st ance
Ġ50 4
ĠÂ ©
ish ed
ep per
á»Ĳ T
á»Ĳ m
ĠRe eves
ĠDon key
ĠMa j
ĠBer na
Ġchá»Ł m
ON DON
ĠChu Ã´ng
Ġknow n
ĠCH UYá»ĨN
ĠCH Æ¯A
Chi ffre
Su zy
ox ide
iet ro
ĠIn uyasha
ide ko
app uccino
Ġle ad
Ġlong er
ĠMay weather
Vi E
ĠEn id
ĠSe atle
ĠSch ul
erm in
ĠRo ot
ĠPH ÃįA
ĠMad dox
und ungus
Re ady
ĠKy oshi
ek ko
ĠDu ffy
ĠLy s
oul aye
Thu Ã´
ado osh
Ãļ ng
ĠFr itz
ĠWin nie
ĠHun s
ĠBu enos
Ġ39 7
Ġsp ecial
Go at
In terpol
Phu DeViet
ĠHer man
De anna
Pr es
ĠInd ustries
Is rael
ST ONE
Ram sey
ĠCass io
Pat ricia
ĠWhit ey
ĠAth letics
Ġheart s
ĠCL OS
ĠEver ett
áº® t
Ġ55 2
ĠGer ard
vi ously
ĠAz er
á»Į N
ĠSuper girl
cl ark
ĠRh ine
idt own
ĠGe ary
Ġ38 5
Ġtua bin
LO U
ĠTan is
Ham ish
ĠHend rix
ulf ric
Ex plorer
Ġstr aight
Æ¯á»ļ NG
Ber k
ĠMid way
ĠOn ly
ĠBir khoff
Ġdz Ã´
ĠNob ody
ĠFu ji
Ã¦ m
ĠOak s
ĠBas kerville
ĠIv o
ĠHav ens
Jin x
ĠMas son
Scot land
emis ia
Cor ey
ĠTul ip
ĠAc apulco
Gro ver
ĠTs ubasa
äº º
ĠYam ato
ĠSpark s
ĠEnc oder
IZ E
ĠMagn um
ICK ERSON
Ak io
ĠCop eland
ĠEur on
Whit ney
Flor ida
OT US
Ġdark ness
ĠHark en
ĠComp any
ĠMU TO
ĠAus chwitz
Aug ust
ĠRoch elle
Ġjean s
McC oy
ĠJing im
ĠFranco is
ĠGiul ia
ĠÄĲá»Ĭ NH
uten ant
ĠhÃĳ c
ĠNass au
ĠCáº¤ M
åĪ °
ĠWel ch
Pil ar
Corn elius
ĠBott om
ebra e
ĠTog awa
Ġlá»ĭ m
Wol ver
ĠGRUN TING
ĠFy ers
ĠCru ise
ĠÃ°o Ã¬
ĠRaz or
ĠAvoc et
Ġcann ot
ĠPember ton
Yas uno
Ġdanc ing
ĠReyn ald
ĠPrew itt
Mikael a
Ġspeed ster
ĠBM W
Osw ald
ĠFors ter
ĠBezu khov
Ġmut agen
nequan on
' !
B Ã´i
B iá»ĩn
B Ä©nh
B ack
B race
B its
C Æ°á»Ŀng
D Ã£
D rac
E laine
E ENS
G oki
H Ã¨
H ad
H á»¯u
H ub
I G
I sh
I var
J I
J T
J oo
K ili
L Ãºa
L Æ°á»Ľi
M U
M Y
M á»Ļng
N ag
O oo
P I
P as
P ic
P art
P ike
P itt
P rom
P oly
R áº£i
R ohan
S oi
T Ã¬
T ARS
T oshio
V á»Ļi
V IN
W u
W ang
W inn
W orld
X áº¡o
Z Ã´
_ ^
b ang
b al
b uk
c á»©ng
c ed
g ang
l áº¡c
m inster
n ch
n athy
p lay
r áºŃp
s Ã¢u
s á»Ľm
t al
v ira
w ho
x Æ¡
x is
æ ²
Ġ á»·
Ġ org
Ġ zo
Ġ áº¤y
Ġt á»įng
Ġc ang
Ġc áº¡ch
ĠÄĳ Æ°á»Ŀi
ĠÄĳ Æ°á»±c
nh áº¯c
Ġl ess
Ġth Ãło
Ġth ÃŃt
Ġch ÃŃt
Ġv áº¡m
Ġv á»¯a
Ġv Ã£nh
Ġm Ã©c
Ġb áº·t
Ġs Ã¬nh
Ġs á»©t
Ġs kin
Ġs udden
Ġh m
Ġh Ã³m
Ġg e
Ġg y
Ġg á»ĵ
Ġg Ã²n
Ġg um
Ġg Ã©m
Ġnh á»ĳi
Ġr Ã©o
Ġtr á»ıng
Ġta co
Ch eck
Ġd á»Ļng
Ġd á»£t
Ġd rop
ÄĲ am
Ġqu á»ĩ
Kh áº³ng
Ġngh ÃŃa
em ale
Th Æ°Æ¡
Th unk
Ìģ "
Nh á»Ļt
ch uy
ch áº¥m
ch Ã¬a
ÌĢ ..
ĠC A
ĠC R
ĠC áº·p
ĠC Ã¡p
ĠC ord
ĠC áº¦N
ĠC ASE
ĠT Y
ĠT win
ĠT á»ĲI
Ng uyá»ĩn
Ng Ãłnh
er ese
ĠM illy
ĠM áº¬T
ĠM ntze
ĠM ocking
ĠM untz
ĠM idtown
Ġlá» īnh
ar que
Ġná»¯ Æ°a
ĠB Ãª
ĠB áº§y
ĠB ÃĢ
ĠB old
ĠB ecause
ĠB ÄĲN
ĠS R
ĠS ul
ĠS Æ¯
ĠS ep
ĠS ana
ĠS HO
ĠS teroid
ĠS oho
Ã½ Ãµi
ĠÄĲ áº·ng
ĠH ost
ĠH ooper
ĠH ershel
ĠH inkley
ĠCh áº¯n
ĠCh ile
ĠCh atur
Ph Ãºt
Ph áº¡t
Ph illy
ĠL l
ĠL á»¯
ĠL ost
ĠL iá»ħu
ĠL utz
á»ģ ib
ia des
ia gra
Ġcu á»ĵn
Tr c
Tr Ã´i
Tr áº§m
ĠD et
ĠD ell
ĠD á»Ĭ
ĠD rac
ĠD illon
ĠD Iá»ĦN
ĠD ARPA
ĠA ether
ĠG ummer
ĠG aga
ĠG adreel
ĠG ekko
ĠTh redson
ĠR D
ĠR us
ĠR á»Ĺng
ĠR ound
ĠV áº¬T
ĠV ÄĲV
ĠJ ur
ĠJ ace
ĠN C
ĠN ai
ĠN ix
ĠN izam
ĠN ascimento
is ed
ĠK uch
ĠK Iáº¾M
et amine
ĠP ai
ĠP art
ĠP yramid
ou c
as g
Qu áºŃy
ĠF L
ĠF ACE
Ġkho Ã©
ĠW AL
ĠTr Æ¡
Ġco l
Ġco ll
Ġvá»ĭ n
th Æ¡
th on
th en
th Æ°Æ¡ng
Ġ... !
Ġgh á»ģ
ĠO ps
os uke
Ġbu ff
Ġtu á»µ
ad ena
ĠPh iá»ģn
ĠNh iÃªn
ĠNh áºŃp
Ġw ord
ĠNg á»Ľ
ill ie
Ġma gic
ÃĢ m
Ġ4 90
ĠY ev
ig uchi
ke ep
oh a
kh Ã³a
Ġ10 4
Ġf t
ĠMar in
ĠMar ine
ĠMar iko
Ġp Ã´
Ġp ip
ev as
ro at
ĠQu áº¿
Ġ8 56
Ġ8 59
ĠX Ã¢y
ĠX EM
ĠX XX
ohn o
ul ar
ĠSh ack
ee han
tr ao
dy ne
enn es
-- --
Ġ20 6
ĠBr ight
oy les
ess ed
Ġhu Ã´
ord ana
Ġ19 56
Ġ19 37
Ġ19 55
Ġ19 93
ĠZ ane
ĠZ urg
Lu cia
ara zza
ber man
ĠNew York
ĠJo es
ĠLu pe
ĠAr chie
Sh aun
Sh elley
ork on
ĠtÃ´ t
ax ton
Ġe pinephrine
ind ler
ind rich
áº¢ NG
Al onzo
ins en
An t
ĠGr iggs
ĠGiá» Ŀi
ĠSp an
Ġru á»Ĺng
ĠBar ret
eor di
Ġgo in
ĠAm ara
ĠAm ish
ĠEl iza
ĠTH áº¤Y
ĠMon aco
ĠvÃµ Ã¬i
Ġnhi u
CH E
CH Iáº¾N
Ġhe p
ĠBl anc
ĠMc Leod
ĠLan agin
ron es
ĠPar tridge
ĠRe ich
Ġfor get
ĠPr om
Br ooke
ĠGre ely
Ġ16 5
ĠCr umb
ĠCr escent
agg u
19 40
Ġ17 00
osh an
Ġwe ar
ĠHay mitch
ĠTu p
He isenberg
ĠEr udite
LE E
Car son
gi Ãł
ĠTy to
yan ide
ĠIm p
ĠCo fell
ero kee
ĠEn zo
El is
El vis
ars ava
ĠGl ade
Ġwhat ever
Gr etel
ĠRam oray
ĠRo che
gar th
Tim my
Tim othy
ĠCas per
Bar ton
ĠMad agascar
Har i
Ġ48 9
ĠLy ons
Thu áº¿
oun ce
ĠThu á»·
ĠBo one
ĠJeff ries
ĠKen ton
aster nak
ĠStr ahm
Ġcl ass
Ġ36 3
Ãī T
In ternet
Ross i
ĠHor st
ĠSn oo
ĠLeo pold
ĠNaz i
ĠDeb orah
ram ento
Hel ius
ĠInd onesia
ĠMu Ã´n
cHF A
IT E
ĠSy racuse
EO PLE
ĠSil as
Ġká»ģ nh
HD Vietnam
ĠBau m
ru vius
ĠAlb us
Mart inez
Cas per
Ash ur
ĠAz ula
ĠAz kaban
Ros en
Nathan iel
Ġsho p
ĠDav ey
ĠGe um
ĠSi obhan
Son ia
Ag nes
Ro oster
Ro osevelt
qua d
ĠÆł i
sw ord
Ã¸ rgen
Ġstr ange
ĠMaster son
Ġser i
ĠBlu eb
Cá»Ń u
ĠHen son
ĠJud as
ĠShe pherd
ĠBon aparte
Rom ina
ĠCorn elius
lov ing
Ġngá»« oi
du ction
ĠMun ch
God frey
ĠVol vo
Bur ke
Joseph ine
Gen eral
ĠJude a
umber gh
Syl via
ĠNGH IÃĬN
ĠPy celle
ĠGol em
ĠGol iath
ĠCON TIN
ĠKay lee
ĠGul dur
GRO ANING
Xi ao
Ġcent imet
Jen kins
å¤ ©
ĠPav lichenko
ĠHur on
ĠDora emon
Ġsil icon
ĠSH U
ĠYO ON
Gri ffin
names e
ĠCir cle
ĠHá»Ĺ n
ĠPull o
phon se
ĠJab berwocky
ĠTap ia
Ġact ually
ĠTall is
ukk ah
Male ficent
æī ĵ
Exp elliarmus
ĠThai land
ĠRud olph
ĠMR X
Gui do
ĠDeg aton
ĠÃ°a Ãŀ
ĠRov ere
Mits uha
ĠTart arus
Ġprot ect
ĠVittor io
clo ps
BOR MAN
ĠWadi ya
ĠArmen ia
ĠSme agol
Ġkne es
alh lhlh
CHUCK LING
Ġplu tonium
ĠLá»ļ N
á»ģib á»ģn
2 80
3 18
B Ãº
B ÃĢ
B ul
B org
B ek
C I
C á»ĳng
C Æ¯á»ľI
C TU
C ÃģC
C lear
C ougar
D in
D Ã¢u
D um
D astan
F riend
F ÃŃli
G áº¡ch
G ul
H on
H á»ĥ
H iggins
J ab
K G
K S
K ap
K ÃŃn
L ila
L INE
M all
M elly
N adia
O le
P edro
R ene
R ous
S even
S aint
S entinel
T us
V á»¯ng
V áº§y
V uá»ĳt
V andal
b Ã¡m
d Ã¬
d á»±
d Ãłi
d un
f ried
h Äĥ
h or
h á»§y
h oun
h ilda
h urst
j im
k im
l Æ°Æ¡ng
l ui
l ady
l air
m á»«ng
m Ã©t
n oc
o it
s Ã´n
s son
t áº¿
w ill
x Ãª
x Ãºc
å ĸ
Ġ áº¡t
Ġ Ã©n
Ġ á»Ńng
á» ¶
ng e
Ġc ara
ĠÄĳ Æ°ng
nh iÃªn
Ġth ÃŁn
Ġch Ã¡
Ġch Ã²ng
Ġch á»ĵm
Ġch Ãī
Ġch Ã¹y
Ġv ie
Ġv ill
Ġm ao
Ġm Æ°ng
Ġm áº£y
Ġm Ãĭ
Ġn Ãºc
Ġn áº§y
Ġb ah
Ġb Ãĥ
Ġb eep
Ġb rain
Ġs Ãł
Ġs á»¯
Ġs ty
Ġs we
Ġnh ong
Ġnh Ãµng
Ġr Æ°á»Ľi
ph u
ph op
Ġph á»Ŀ
ĠcÃ³ t
Ġa v
Ġd Æ°á»£t
Ġd ri
Ġd rag
ÄĲ Ã¡i
Ġx á»ĳc
Ġx á»ĵm
Ġx Ã¹m
Ġx áº¹t
Kh áº½
Kh áº¯c
Kh Ã©o
Kh Ã©ng
an H
in ald
Th iá»ĩp
Th emistocles
ĠnhÆ° váºŃy
Ġgiá» Ĺ
Ġcon t
Nh Äĥ
ĠC RYING
ĠT Ã½
ĠT á»·
ĠT ok
au can
er man
ĠM ole
ĠM ANH
ĠM ÃĮNH
ar zo
ĠB up
ĠB ette
ĠB ÃģN
ĠS W
ĠS tern
ĠS oran
ĠS utler
ĠS vetlana
VÃł nh
ĠH az
ĠH err
ĠH BO
en ick
ĠCh Ã¢m
ĠCh iáº¿u
ĠCh ew
ĠCh ampagne
Ġho en
Ph Ãº
Ph á»ĳi
ĠL Æ¡
ĠL Ã¡t
ĠL ist
ĠL ower
ĠL ED
ĠL obo
ĠL Iá»ĨU
ĠL SD
eo w
Tr á»ĭnh
ĠD ah
ĠD ire
ĠD emo
ĠA qu
ĠA riel
ĠA stro
ĠG TO
ĠG ÃģI
ĠG overnor
ĠTh áº¥p
ĠTh iáº¿p
im oto
Ġlu cky
ĠR ice
ĠR ep
ĠR ance
ĠR haegar
Ġlo Ãłn
ĠV oi
ĠJ ia
ĠJ enner
ĠN im
ĠN es
ĠN ath
is ch
ĠK ÃŃli
el aus
ĠP ran
ĠP ach
ĠP egasus
al en
as mus
Qu áº¥y
ĠÄĳo Ã¡i
ĠF abious
ĠTr Ã²n
ĠTr ina
us ch
th Ãª
Ġ3 22
Ġ3 18
ol os
Äĳ á»Ļc
ĠE ff
ĠE aster
ĠO gygia
os fra
Cho i
ĠNh áº·t
Ġ5 22
Ġ5 44
Ġ5 98
ur ance
Ġ4 17
ĠY áº¿u
Ho Ã£n
ag arin
Ġno Ã¬i
Ġf re
Ġf ur
ĠHo Ãł
Ġse Ãŀ
Ġp orn
um e
ev n
ĠQu arter
ĠÃ į
kay a
.... ?
Ġ8 20
ĠSh it
ĠSh eehan
ĠQ uyáº¿n
ris ius
enn ic
ĠU zbek
te a
man i
ĠBr utus
eb es
ĠKh áº¯c
ud es
eg e
eg ro
ĠCl er
ĠCl aw
Ġ19 9
ĠZ abel
ĠAi bileen
og n
og o
sh it
Ãį ng
ĠSam son
Tin k
ock s
Mar ta
Mar ek
Mar iko
qu o
qu en
ĠGr ing
Wh is
ĠSp ectre
ĠBa ines
ĠBar ran
Ġ.. ?
een ey
Cl oud
inc us
inc lair
ĠMon sie
ug ger
CH AR
BI LL
ĠMc quaid
ĠMc Ivers
Ġis land
ĠAlex andra
ist air
ĠCol by
ĠCarl son
ĠmÃ¢ t
ĠSan to
ier an
ink s
ink owski
Ar c
Ar aragi
ĠWil kerman
ĠCr est
ĠCr aven
ĠMer lot
19 45
19 44
ĠCH áº¾
áº¾ U
ĠCam bul
ĠHe indrich
ĠTu c
ĠNo ctis
xi om
iet ta
ĠPet ey
ĠSm aug
AL I
ĠMal vo
Ġle ng
Ġup load
Gh ost
ĠMark inson
CK D
ĠTR A
Sp ark
Sp ace
TH UD
ĠPhil eas
ĠEn s
ĠEn och
ĠSe ung
ĠSe al
ĠMat er
ĠTe hran
ĠNick i
18 0
rell ana
ĠTo ph
AU DI
ĠNor ma
aa ah
ÄĲu Æ¡
ĠFor bes
Wal k
ĠDom ino
ĠDom inique
ĠDu c
ÃĻ M
Iáº¾ U
IS A
Ġz á»Ľi
Ġ42 6
ĠSmith sonian
usan agi
Mark s
ĠDi eter
ĠDi wan
ĠHer bert
ĠMel ville
Xu Ã¢n
ĠHow ell
ĠJean ette
Hu fan
ĠSar chie
IL LE
ĠOs ama
Sher iff
ĠFran ce
Fel ipe
Le Ann
ALL Y
En vy
ĠClar ice
ĠStorm hold
aver al
ĠAlb ani
Mart ini
Jess up
ĠHans el
ĠGab by
ĠSat urn
Ġex pect
Ġ198 1
Morg ana
ĠTi juana
Mor row
ĠLam onsoff
Rog ers
Ġgr and
ĠBog art
ĠBog gs
ĠFinn ick
ĠThat cher
ĠnH Ãł
ĠAir es
Sl im
Ser ies
tim er
ĠNat ri
ĠChapp elle
GI á»Ŀ
ĠLoth ar
ĠSeo k
Jer ome
ĠBon ny
ĠBas kin
ibb ean
ĠLeg ion
ĠOl enna
ĠVol ga
ĠSP EC
ĠBee cher
ĠPin ter
Ġhapp ens
ĠGard ens
ĠNGH á»Ī
Dra x
ĠDub lin
ĠRow an
ĠGenesis Q
LIN S
Ã§ n
ĠHim mler
ĠBert ie
ĠSin uessa
ĠBul ger
ĠSerge ant
ĠNov ak
Art agnan
ĠMall ory
Qui ca
ĠLev i
ĠNag asaki
osau r
ĠEur op
Fr ost
ĠJoh anna
ĠBaudel aires
leh orn
ĠHark ness
Vas quez
Holl is
Tau b
Sur esh
vid ius
ĠPont iac
ĠOctav ian
Ġfin ally
Ġhor m
Ġfix er
Bog gs
Krist i
cat raz
ĠLing uini
ĠIb iza
ĠQuint us
ĠHed wig
ĠReb ekah
Sat an
ĠÃĵ ng
ĠCard iff
ĠHem ingway
ĠKoh l
ĠNGO ÃĢI
ĠFlem ing
ukk alan
Sus ie
Batt osai
ĠDang al
Natal ya
Ġdom ino
Ġshadow s
ĠTI ÃĬU
ĠKee gan
ĠPell it
ĠMiy agi
lade k
lend ur
Ven ice
ĠRup arel
aken ey
Quint us
ĠBret ton
ĠRol ex
Hass an
ĠCasta Ã±o
endor ff
ĠAsta por
Ġgor illa
ĠWagg oman
ĠMinot aur
ĠCereb ro
HUN TED
kut sk
sto ke
Ġvacc ine
ĠWhe ird
ĠAzer oth
osfra ba
ĠMonsie ur
ĠCambul ac
) *
5 46
6 50
B áº§n
B Ãły
B omb
B aku
B everly
B rown
B aptiste
B LACK
C áº¥y
C Äĥ
C Æ°Æ¡ng
C raw
C utter
C rane
D ax
E ph
F err
G R
G ang
G áº§m
G aby
H Ã´ng
H á»Ľ
H Æ°Æ¡
H os
H are
H ola
I ie
I TH
J ang
J ad
K er
K Ã¬m
K ali
K ubo
L á»ĳ
L on
L is
L Ã¹a
L az
M áº¡i
M Ã¹ng
M od
M ess
M ose
M avis
M asha
M eechum
N Æ°Æ¡ng
N ote
O D
O tis
P oe
R at
R iv
S Ã³c
S Æ°u
S keeter
T og
T ok
T á»¥t
U Ã´
V egeta
W erner
X Ã´
Y i
] .
b ong
b and
b ourn
c os
c Æ°á»Ľp
c ca
c ru
d Ã©
e era
g is
h im
j illo
k á»ĩ
k is
l áº¡nh
l á»ĭch
l ook
l otte
l emen
m ila
n áº¯m
n est
n ix
p ol
p ard
r illo
s Äĥn
s ir
s ync
t iÃªn
t ic
t ian
v Äĥng
w ina
w een
w reck
x Ã¬
x tÆ¡
z ig
z zo
} (
Ã įc
Ì ħ
Ñ ĸ
å ĵ
è ³
Ġ Ìħ
Ġt ÃĨp
Ġc re
ĠÄĳ Ãº
ĠÄĳ áº©u
nh áº¹
nh Ã³m
Ġl áº¡n
Ġl áº¯t
Ġth Ã£i
Ġch ng
Ġch áº³n
Ġch lor
Ġm Ãľ
Ġm ilo
Ġn at
Ġn á»ĭch
Ġn Ã£ng
Ġn Ãĸi
Ġb ui
Ġb and
Ġb ott
Ġkh ang
Ġkh áº£m
Ġs áºŃy
Ġs á»Łi
Ġh á»ħ
Ġg Ã¢u
Ġg ra
Ġnh Ã²
Ġnh á»©
Ġnh Ã¢m
Ġng áº¡n
Ġng á»Ĺ
Ġr t
Ġr Ã¬
Ġr oof
Ġr eturn
ph á»ĳ
Ġta il
Ch Ã¡nh
Ch ir
Ch áºŃc
Ch Ãİ
Ġd ng
Ġd Ã¡
Ġd iÃªn
Ġd ep
ÄĲ iáº¿u
Kh al
Kh á»ıa
in Ãło
in op
in als
Th Ã©p
Th eta
Ġgiá» Ń
ch or
ch ic
ĠC á»§
ĠC im
ĠC Å©
ĠC ris
ĠC orm
ĠC Æ¯á»ľI
ĠC BS
ĠC uster
ĠT iá»ĩm
ĠT yl
ĠT iana
ĠT ivi
ĠT áº¤T
ĠT Iáº¾P
ĠM ud
ĠM idd
ĠM alley
ĠM averick
ĠM áº¶T
ar ov
ĠB áº¯p
ĠB AN
ĠB á»Ĳ
ĠB agg
ĠB ILL
ĠB á»İ
ĠS á»ķ
ĠS áº¡ch
ĠS ack
ĠS od
ÃĶ n
ĠÄĲ T
ĠÄĲ áº£m
ĠÄĲ iá»ĩu
ĠÄĲ ÃģNH
ĠH á»Ł
ĠH Æ°ng
ĠH áº§m
ĠH á»ķng
ĠH wan
ĠCh á»ĳt
ĠCh is
ĠCh iÃª
ĠCh Ã¹a
Ġho m
Ġsá»± c
ĠL Ã£
ĠL áºŃu
ĠL Æ°á»Ľi
ĠL und
ĠL omb
am en
Ġcu te
Tr á»ĵng
Tr ipp
ĠD á»ĳi
ĠD áº¡y
ĠD ot
ĠD ass
ĠD ÃĢNH
ĠD ulles
ĠA xiom
ĠG Æ°Æ¡ng
ĠG yeon
ĠG errera
ĠTh Ã¹ng
ĠTh emistocles
Con way
ĠR et
ĠV ay
ĠV iÃª
ĠV andy
ĠJ oss
ĠN ay
ĠN Ã¢u
ĠN á»ģn
is i
is y
is al
is and
is man
is ka
ĠK ut
ĠK alf
ĠK eep
ĠK ershaw
el da
ĠP AR
ĠP OR
ou sh
ou st
al ind
al inski
as z
ĠF iamma
it or
it age
om o
ĠW ax
ĠW ould
ĠTr eb
Ngh iá»ģn
ah ill
us illa
th áº¥t
th at
th áº¯ng
th ÄĤ
Ġ3 14
Ġchu Ã´i
Máº¹ o
Ġan im
ĠE o
ĠE ye
ing wood
ĠO cc
il ithium
ad ium
ow sky
ĠNh á»ĭp
Ġ5 10
Ġ5 37
Ġw at
and r
ur as
ĠNg Æ°ng
Ġ4 32
ĠY oda
ĠY oshiro
ob ulin
ed ile
Ġ6 87
Ġngu á»µ
á»Ĵ h
ra way
ĠSt auffenberg
Ġthá»ĭ ch
Ho oray
ĠHo áº¡n
Ġp ik
Ġp enny
Ġp oor
Ġp leas
um itaka
ĠtÃŃ c
ard rop
Ġdi Ã§n
ab ol
ĠX ANH
ri zio
khÃ´ng cÃ³
ĠSh iv
ĠSh ort
tr el
ac c
ĠU N
Ġu á»ĥ
FF F
igh ter
ent ist
mm ort
cH CC
Ġ19 03
Ġ19 59
ach ing
end rick
ĠJo lly
sh ik
by lla
art en
art ment
Sh eeta
Ġcan xi
Ġbo omerang
Ġe at
Ah hhhh
eth yl
iz u
iz ard
ans en
ĠCar acas
ĠBar ron
ĠDo anh
st ed
ĠHar grove
Hy uk
St amper
uck oo
ĠAm Works
ÄĲo a
ĠEl endil
ĠTH ÃĻ
CH ÃļC
op ort
Ġ' ...
ĠWal ton
ĠBe h
ĠBe ng
ib e
Ġ14 00
ĠJames on
Ġah h
Ġ16 00
ĠChu á»ĵn
19 42
osh ik
ĠAll anon
Am adeo
ĠOr tega
Su ki
He i
ĠEr rol
ĠRay burn
ĠlÃ² ai
ĠSm iley
ĠMax ie
ain an
ĠKat ana
ĠÃ° ng
ĠMan ch
itz vah
ĠMary ann
ĠPaul son
ĠTR á»ĮNG
ĠCa ine
Bl ood
ĠPhil ippin
su ela
Ġright ly
ĠMay uka
ĠEn rique
ĠVal kyrie
de ur
ger ia
ĠDel acroix
ĠCan averal
ĠMill ican
eron a
ĠSch indler
ĠMil dred
ĠKar os
RI E
RI P
ĠCas pian
ĠFor ge
PS Y
ĠHan zo
ĠNH áºłC
Ġ23 8
Ġdown side
aven worth
oun tains
ĠAh k
egas is
atar ina
ĠFr es
ĠCor ona
ĠWin ifred
ĠNG A
Ġlá»į ai
ĠKr ang
Jon as
ĠKen ai
Ġcl os
Ġcl oud
ÃĲ Ãºng
Ġ36 5
ĠSa kharine
ĠGal adriel
Ġtre es
ĠHer od
ĠTHU A
Mer ida
Pr inc
bs tone
ĠLat ika
ĠJay e
ĠKe aton
ĠSy kes
AM M
ĠAg ent
Mc Queen
Ġnu á»Ļt
ĠAth en
ĠDra x
"Â į
ĠNe ander
BO OK
ci ous
Ġgu inea
ĠSk ip
Ġ33 4
ĠBel inda
Ġ47 1
At lanta
ĠDav ian
TR UNG
ĠSamuel s
EM EN
ĠHerm ann
ret ia
ret ta
Bro ad
AD A
ĠHend ry
Gab i
ãģ Ħ
Ġser ies
Æ¯á»ļ I
Ber tr
ĠPac o
Ã» l
itter s
ĠMarl ey
ĠKang aroo
Queen ie
Ã¦ ng
ĠIr oh
ĠBon o
ĠWood s
ĠMam by
ĠVel asco
ĠHD VN
ĠLeg atus
cr ates
ĠDre ad
Fran ny
Miss iss
66 1
ĠTen ebrae
act ion
Hor ton
ĠLen ore
ĠEc uador
press o
Ġball et
ĠPetrov ich
ĠBry ant
Rad ar
Ġmet al
Lyn ne
ĠLov egood
Med usa
ĠDec ima
ĠHugh es
ĠWol ff
ĠTob in
Win nie
Ġres er
ĠMong a
Ġkid s
ĠGamb le
ĠWy ldstyle
ĠCU á»ĲI
ĠKre acher
Daw g
Ġhappen ing
ĠCav al
Fish er
ĠPrim atech
Ãķ i
ĠSton er
phim hd
ĠGob ber
Lud ovic
Mak soon
Vas udha
ĠSI ÃĬU
ĠKov u
Ġpat in
ĠFilip ova
Zo ey
Ele ktra
ĠTrip oli
Ob el
ĠSha q
Than os
ĠTU áº¦N
Lai la
SCO TT
Ġmill ion
ĠSic ilia
ĠAnders en
ĠNá»® A
ĠAbd ul
Laugh lin
ĠTHá»¦ Y
Af ter
ĠBug sy
Nap oleon
ourn al
Esc obar
ĠNif lhem
ĠTurn bull
ĠEz ra
Wald er
unh yo
WAL LACE
è¦ ģ
ĠGlo ver
ĠKomar ov
ĠMyst ique
Bet sy
ĠMale ficent
ĠPom peii
Mord or
Ġclo thes
ĠPear ce
ĠCus imano
Ã¾ i
ĠGogol ak
Ġnec ess
ĠBritt any
ĠBabb itt
Ã¼n ther
ĠDough erty
Constant ine
ĠXan ax
ĠAcker man
ĠFACE BOOK
ĠBlueb ell
inop le
" ]
. âĻª
2 17
8 26
9 26
; -
A chiIIes
B J
B etter
C el
C Ãį
C rewe
D iá»ģu
D á»°
F irst
G A
G Ã¡c
G á»įn
G á»ĳc
H Æ°á»Łng
H iáº¿p
H and
I X
I GH
J ame
J AM
K á»ĭ
K eo
K ah
K ur
K ab
K ov
K ane
K eep
K utner
K illick
M á»ĭ
M Ã£nh
N ov
N iÃªm
O ld
O ddball
P el
P os
P ass
P ope
P EOPLE
Q uyÃª
R Ã¹a
S R
S W
S cy
S ierra
T á»ıa
T itus
V ol
V ir
W y
W it
W anda
X Ã¡ch
X erxes
b il
b ag
b Ã¹m
c áº¥p
c ett
d Ã¢u
f un
g ing
g ami
h ung
h un
h Ã²a
l aug
m áºŃt
m are
n Ã£o
n ew
n ier
r Ãĵi
s ang
t Ã¹
t ton
u ary
u Ã½ch
v ee
w ork
x ÃŃch
x áº¥u
y ton
y la
z ai
z Ã³n
z man
z ini
Ð µ
å ĳ
å Ń
æ Ģ
æ ĸ
Ġ Ìģ
Ġ ol
Ġt Ã©t
Ġc ou
Ġc orn
ĠÄĳ Ã¬
Ġl Ãªu
Ġl Ãĺ
Ġth á»ĳ
Ġth Äĥn
Ġch Å©ng
Ġm l
Ġm Ã¢n
Ġm á»ĵn
Ġm iles
Ġn ah
Ġn ic
Ġb t
Ġb Æ¡n
Ġh áº³ng
Ġh ur
Ġh Ã¹a
Ġh um
Ġh ide
Ġnh áº¡n
Ġng á»£
Ġr ise
Ġr Æ°á»Ŀm
Ġtr Å©ng
Ġtr ip
Ġtr Ã¤
Ġa rena
Ġta r
Ch áºŃt
Ch Äĥn
Ġthá» «
Ġd arling
ÄĲ Ãłng
ÄĲ Ãĵ
Ġgi ong
Ġgi ÃĢi
Kh ao
Kh Ã¢u
Ìģ ..
ĠnhÆ° Æ¡
Nh iáº¿p
ch Ã©
ch at
ĠC J
ĠC á»±
ĠC Ãłi
ĠC uch
ĠT áº§u
ĠT á»Ŀ
ĠT ubbs
ĠM Ã©
ĠM anh
ĠM og
ĠM ile
ĠM asha
ĠM pudi
ar m
ĠB á»Ļt
ĠB áº¿n
ĠB á»¥ng
ĠB le
ĠB ath
ĠB esh
ĠB etter
ĠS old
ĠS ale
ĠS ikes
ĠÄĲ ÃĢN
ĠH ah
ĠH Ã©t
ĠH á»Ĵ
ĠH ave
ĠH AY
ĠH á»Ĩ
ĠH agan
ĠH Iá»ĨU
en as
en bach
ĠCh Æ¡
ĠCh uá»ĳi
ĠCh ayton
ĠCh ief
ĠCh erokee
Ġho k
Ġho bbit
Ph Ãłn
ĠL ay
ĠL itt
ĠL ise
am phetamine
ĠD iÃªn
ĠD io
ĠD ina
ĠD riscoll
ĠA gh
ĠA usten
ĠG op
ĠG onzo
ĠTh Ã¡c
ĠTh Ãºc
ĠTh áº¯t
Ġtiáº¿ m
ĠR al
ĠR ott
ĠR eturn
ĠV áº½
ĠV á»¹
ĠV oss
ĠV UI
ĠJ eter
ĠJ ank
ĠJ oop
ĠN ah
ĠN ep
ĠN AS
ĠN áºµng
ĠN aberius
is o
at own
ÄĲÃ¢y lÃł
ĠK M
ĠK ama
ĠK raz
ĠP eg
ĠP uff
ĠP ampinea
ĠP lasma
ĠP azzi
ou e
ĠF if
ĠF oss
ĠF AA
ĠF asto
om ro
om ite
ĠW er
ĠW ise
ie ber
ie ux
Ġ3 31
Äĳ Ã¢m
ĠO bi
ĠO oz
os ty
Ġbu ddy
ad ok
ot os
ĠNh á»¡
Ġ5 43
Ġ5 88
Ġ5 95
Ġ5 35
Ġw ide
oo c
ur r
Ġma c
Ġ4 47
id ian
ĠY uma
av ra
av ro
Ġ6 67
ra avi
ig m
ig man
ĠSt iles
oh ashi
Ġmu á»ĵi
ĠcÃ¡ Âº
Ġp u
um er
Ġo Ã¡nh
ĠQu e
NG UY
ta k
ta lly
Ġvi olin
Ġ7 000
Ġ8 23
Ġ8 65
ĠX box
khÃ´ng pháº£i
khÃ´ng thá»ĥ
Ra j
Ra ina
tr á»įng
ho vah
ĠAl meida
ĠU na
man u
Ġ20 17
Ġti red
ĠKh iÃªu
ĠKh á»±a
ĠKh uyá»ĥn
ud din
od ont
Ġhu Ãª
Ġdu c
Ġ( ?
Ġsu p
ĠCl eo
cH EC
Ġ19 19
Ġ19 83
ĠZ omb
ĠZ aya
ÃĬ m
ĠLu pus
sh e
ĠFrank o
ec liff
ub ar
tor ia
ok uz
Ġe p
ind le
if ton
qu áº§n
An at
ĠCar pen
ĠCar ibbean
ĠGr endel
ĠOh h
ank a
ĠSp iro
ĠBar ovsky
ny s
ĠWh eel
ĠMor etti
ĠMor occo
ĠMor timer
Ġ50 8
St ay
St arling
ĠAm on
Ġsh are
yn sley
ĠÂ ¯
CH ÃĢO
Ġ40 8
ĠMc E
ĠMc Laughlin
ÃĤ u
ĠAb addon
Mi ja
Ar ch
ĠCal houn
Ed dy
ĠGre ens
bo om
ĠCH ÃļNG
ĠCH ÆłI
ĠAll ied
ĠOr sini
itt en
itt ens
LE V
iet y
iet z
Ġlá»£ p
Ġle ast
gi Ã¢y
ĠTR UY
ĠTR ANG
Sp arta
ÃĴ A
uss man
ĠSim eon
Bl aire
ĠnhÃŃ p
ĠCap ri
ĠMay s
ĠTony a
ĠSe arch
14 0
ĠNick erson
ĠGl asg
ĠWe instein
ies en
ies el
eron imo
ĠSch u
ĠRon al
ĠTur in
Kim berly
ĠMe hmed
GH ING
sp ring
gar ath
ĠMil os
ĠMil waukee
ĠMad die
ĠMad ame
ĠTor res
Ġre ng
RO SIE
ĠHan ukkah
Ã± ng
Ab bott
táº¥t cáº£
ĠCor to
99 33
Ġlá»į an
Ġ.... ..
Ġ39 4
Ġsp re
Go osfraba
ĠMont auk
Ġ35 5
ĠNik ola
ĠDor ian
ĠNaz is
37 2
Ġ43 5
ĠStar bucks
200 6
Mer cy
ĠtH áº¥y
Pr ot
Pr ime
Se ung
esh old
ĠBell atrix
Dom inus
ĠLat if
Richard s
ĠAg ents
ĠPep e
ĠGeorg ie
Ġany body
ĠQU áº¬N
odd ard
Ġsom ewhere
ĠBarb ados
"Â ĩ
"Â ĵ
ĠNe iman
HO OK
hoo oo
Sub ber
ĠAndre as
ĠVer na
ĠKirk land
Ġlon ely
Xo a
ĠCall o
ĠDav ies
TR UY
Ġ196 6
ĠHoll iday
Cap itol
Sal t
Ġsm elly
ĠBow en
Ke ita
ĠÆł N
ĠÄĲÆ°Æ¡ c
OS S
As lan
Ġ197 6
ĠÄĲu á»£c
ĠSur fer
ras ax
ĠHO A
ĠLA PD
Viet Nam
emp aka
ĠJi had
CC FF
Bom bur
aro che
quang t
ĠMarl a
ĠMarl ene
ĠRap oport
ĠChap lin
Kit ai
Park man
ĠMath urin
Ġ77 2
ĠRaven claw
Ġnew s
ĠAw w
GAS PING
ĠTau riel
ĠMas eo
ĠDá»± ng
ĠVas udha
ĠFog ell
Fran Ã§ois
Boo g
Cor al
ĠTul io
Az ula
Az rael
ĠScar amanga
ĠBran son
ĠTon ight
ĠAnt io
ĠChar ger
ĠSec ond
ĠSec urity
Ġwhy phy
Guy s
ĠDal ton
ĠYam amoto
Reg ina
Med ia
ĠBert in
Pe Ã±a
ĠCur ry
Dav ina
ĠUp endi
ĠBart leby
Sant ino
ĠGamb it
ĠWy oming
HA LES
ĠPav el
ĠCarn ival
her bert
Ġles bian
ĠDak sha
ĠÄĳÃ² an
Ġwar m
Ġsil ver
tan en
Sur ly
ĠRug al
ĠYO U
ĠTad lock
ĠSchw ar
Some one
ĠMess ina
Gold en
viet nameseghost
Ġsá»¥ n
Ġá»ī m
ĠJor dy
ĠBox er
ĠArch ibald
hn sherr
Eg uchi
ĠCelt ic
ĠCald well
ĠSome one
Male kith
ĠFi ji
Mid night
Ġtitan ium
hem ar
ĠMit suko
ĠGalil eo
ĠGir ls
ĠTrit ak
Ey wa
Cliff ord
ĠCornwall is
ĠRuman i
ĠHimal ay
ĠRawl ings
ĠFly ing
SAV ANNAH
Ġcer tain
Ġmur der
usta ce
ĠSef ton
ĠTHO áºłI
ĠShap iro
Bla ze
ĠKed avra
ĠBarbar ians
Ġroul ette
[...]
