{"<bos>":0,"<eos>":1,"<speaker1>":2,"<speaker2>":3,"<pad>":4,"!":5,"\"":6,"#":7,"$":8,"%":9,"&":10,"'":11,"(":12,")":13,"*":14,"+":15,",":16,"-":17,".":18,"/":19,"0":20,"1":21,"2":22,"3":23,"4":24,"5":25,"6":26,"7":27,"8":28,"9":29,":":30,";":31,"<":32,"=":33,">":34,"?":35,"@":36,"A":37,"B":38,"C":39,"D":40,"E":41,"F":42,"G":43,"H":44,"I":45,"J":46,"K":47,"L":48,"M":49,"N":50,"O":51,"P":52,"Q":53,"R":54,"S":55,"T":56,"U":57,"V":58,"W":59,"X":60,"Y":61,"Z":62,"[":63,"\\":64,"]":65,"^":66,"_":67,"`":68,"a":69,"b":70,"c":71,"d":72,"e":73,"f":74,"g":75,"h":76,"i":77,"j":78,"k":79,"l":80,"m":81,"n":82,"o":83,"p":84,"q":85,"r":86,"s":87,"t":88,"u":89,"v":90,"w":91,"x":92,"y":93,"z":94,"{":95,"|":96,"}":97,"~":98,"¡":99,"¢":100,"£":101,"¤":102,"¥":103,"¦":104,"§":105,"¨":106,"©":107,"ª":108,"«":109,"¬":110,"®":111,"¯":112,"°":113,"±":114,"²":115,"³":116,"´":117,"µ":118,"¶":119,"·":120,"¸":121,"¹":122,"º":123,"»":124,"¼":125,"½":126,"¾":127,"¿":128,"À":129,"Á":130,"Â":131,"Ã":132,"Ä":133,"Å":134,"Æ":135,"Ç":136,"È":137,"É":138,"Ê":139,"Ë":140,"Ì":141,"Í":142,"Î":143,"Ï":144,"Ð":145,"Ñ":146,"Ò":147,"Ó":148,"Ô":149,"Õ":150,"Ö":151,"×":152,"Ø":153,"Ù":154,"Ú":155,"Û":156,"Ü":157,"Ý":158,"Þ":159,"ß":160,"à":161,"á":162,"â":163,"ã":164,"ä":165,"å":166,"æ":167,"ç":168,"è":169,"é":170,"ê":171,"ë":172,"ì":173,"í":174,"î":175,"ï":176,"ð":177,"ñ":178,"ò":179,"ó":180,"ô":181,"õ":182,"ö":183,"÷":184,"ø":185,"ù":186,"ú":187,"û":188,"ü":189,"ý":190,"þ":191,"ÿ":192,"Ā":193,"ā":194,"Ă":195,"ă":196,"Ą":197,"ą":198,"Ć":199,"ć":200,"Ĉ":201,"ĉ":202,"Ċ":203,"ċ":204,"Č":205,"č":206,"Ď":207,"ď":208,"Đ":209,"đ":210,"Ē":211,"ē":212,"Ĕ":213,"ĕ":214,"Ė":215,"ė":216,"Ę":217,"ę":218,"Ě":219,"ě":220,"Ĝ":221,"ĝ":222,"Ğ":223,"ğ":224,"Ġ":225,"ġ":226,"Ģ":227,"ģ":228,"Ĥ":229,"ĥ":230,"Ħ":231,"ħ":232,"Ĩ":233,"ĩ":234,"Ī":235,"ī":236,"Ĭ":237,"ĭ":238,"Į":239,"į":240,"İ":241,"ı":242,"Ĳ":243,"ĳ":244,"Ĵ":245,"ĵ":246,"Ķ":247,"ķ":248,"ĸ":249,"Ĺ":250,"ĺ":251,"Ļ":252,"ļ":253,"Ľ":254,"ľ":255,"Ŀ":256,"ŀ":257,"Ł":258,"ł":259,"Ń":260,"á»":261,"áº":262,"ng":263,"Ġt":264,"Ġc":265,"ĠÄ":266,"ĠÄĳ":267,"Ãł":268,"Ã´":269,"nh":270,"Ġl":271,"Ġth":272,"Æ°":273,"Ġch":274,"Ã³":275,"Ġk":276,"Ġv":277,"Ġm":278,"Ġn":279,"Ġb":280,"Ã¡":281,"Ã´ng":282,"áº¿":283,"Ġkh":284,"Ã´i":285,"Ġs":286,"Ġh":287,"Ġg":288,"Æ°á»":289,"áº¥":290,"Ġnh":291,"ĠlÃł":292,"Ã¬":293,"áº£":294,"Ġng":295,"iá»":296,"Ã¢":297,"ĠkhÃ´ng":298,"Ãº":299,"áºŃ":300,"Ġr":301,"..":302,"áº¡":303,"á»ĳ":304,"Ãª":305,"Ġtr":306,"á»Ļ":307,"ĠtÃ´i":308,"ph":309,"Ġph":310,"ĠcÃ³":311,"Ġa":312,"Ġta":313,"iáº¿":314,"Ġcá»":315,"Ã£":316,"Æ¡":317,"á»Ľ":318,"áº¥y":319,"Ãªn":320,"ĠÄĳá»":321,"Ch":322,"áº¯":323,"Ãºng":324,"Ġthá»":325,"Ŀi":326,"ĠnÃł":327,"Ġanh":328,"Ġd":329,"á»į":330,"á»ĵ":331,"ÄĲ":332,"TÃ´i":333,"Æ°á»£":334,"áº½":335,"áº§":336,"§a":337,"Ġcá»§a":338,"ĠnÃ³":339,"ĠÄĳÃ¢":340,"ĠvÃł":341,"ĠÄĳi":342,"ao":343,"Ġx":344,"á»Ļt":345,"uy":346,"on":347,"ĠÄĳÃ£":348,"...":349,"Æ°á»£c":350,"Ġq":351,"Ġsáº½":352,"áº¡i":353,"áº£i":354,"á»Ľi":355,"áº¥t":356,"Ġchá»":357,"ĠgÃ¬":358,"á»ĵi":359,"Ã¡c":360,"ĠÄĳÃ³":361,"Ġqu":362,"á»Ł":363,"iá»ĩ":364,"iáº¿t":365,"Æ°á»Ŀi":366,"Ġmá»Ļt":367,"á»¯":368,"Ġrá»ĵi":369,"ĠÄĳÆ°á»£c":370,"á»ĩ":371,"ÃŃ":372,"ay":373,"uá»ĳ":374,"ĠlÃłm":375,"Ġgi":376,"Ã¡i":377,"ĠngÆ°á»Ŀi":378,"Ġpháº£i":379,"ĠnÃły":380,"Kh":381,"Ġcho":382,"Ġvá»":383,"Ġngh":384,"an":385,"Anh":386,"Ã²":387,"ang":388,"em":389,"ĠchÃºng":390,"áº§n":391,"Ġbiáº¿t":392,"Ġthá»ĥ":393,"in":394,"Th":395,"á»«":396,"áºŃu":397,"ĠÄĳÃ¢y":398,"Ġá»Ł":399,"iá»ģ":400,"ĠcÃ´":401,"Ìģ":402,"ĠnhÆ°":403,"ĠmÃł":404,"áºŃy":405,"ĠnÃ³i":406,"Ã¬nh":407,"ong":408,"KhÃ´ng":409,"Ġvá»Ľi":410,"á»±":411,"Ġra":412,"Ġláº¡i":413,"Ġgiá»":414,"Ġcon":415,"Nh":416,"ch":417,"Ä©":418,"Ġcáº£":419,"Ġsao":420,"á»ĭ":421,"áº·":422,"Ġtháº¿":423,"áº¿t":424,"Ã¹":425,"uyá»ĩ":426,"ĠnÃło":427,"áºŃt":428,"©ng":429,"Ġáº¥y":430,"Æ°a":431,"Äĥ":432,"ÌĢ":433,"áº¯n":434,"Æ¡n":435,"Æ¡i":436,"ĠÄĳang":437,"uá»ĳn":438,"Æ°á»Ľ":439,"Ġem":440,"á»ı":441,"iá»ģu":442,"áº¿n":443,"ĠÃ´ng":444,"Ġmuá»ĳn":445,"ĠÄĳá»ĥ":446,"Ã©":447,"Ġtrong":448,"á»¯ng":449,"uyá»ĩn":450,"ĠC":451,"ai":452,"ĠÄĳÃ¢u":453,"Ã¢n":454,"ĠcáºŃu":455,"ĠváºŃy":456,"ĠÄĳáº¿n":457,"á»ķ":458,"Ãłi":459,"ĠcÃ¡c":460,"ĠcÃ¡i":461,"ChÃºng":462,"Ã¢y":463,"áº±":464,"ĠT":465,"au":466,"Ã²n":467,"Ng":468,"iá»ĥ":469,"áº¹":470,"Ġkhi":471,"á»¥":472,"ĠnghÄ©":473,"Ġhá»į":474,"Ġnhá»¯ng":475,"á»«ng":476,"er":477,"Å©ng":478,"Ġvá»ģ":479,"á»įi":480,"iÃªn":481,"ĠthÃ¬":482,"Ġ1":483,"ĠM":484,"áº¡n":485,"Ġtháº¥y":486,"áº±ng":487,"Ãły":488,"Ġchuyá»ĩn":489,"Ġlá»":490,"ar":491,"Ġná»¯":492,"Ì£":493,"áº¿u":494,"ĠÄĳáº¥y":495,"Ġbá»ĭ":496,"ĠvÃło":497,"Æ°á»Ľc":498,"ĠB":499,"ĠcÅ©ng":500,"áº§u":501,"ĠS":502,"ĠthÃ´i":503,"Æ°ng":504,"Ġchá»ī":505,"iá»ĩc":506,"á»©":507,"Ãłn":508,"Ġchá»©":509,"Ġgiá»Ŀ":510,"VÃł":511,"CÃ³":512,"Ã½":513,"anh":514,"inh":515,"áºŃn":516,"Ġná»¯a":517,"ÃĶ":518,"ĠÄĲ":519,"Ãłng":520,"Æ°Æ¡":521,"ĠcÃ²n":522,"Ã¹ng":523,"ĠH":524,"á»ĳi":525,"Ġcáº§n":526,"Ãłnh":527,"Em":528,"Ãªu":529,"ĠmÃ¬nh":530,"Ġviá»ĩc":531,"Ãºc":532,"Æ°á»Ŀ":533,"á»ĳng":534,"Ã¡t":535,"Ġthá»©":536,"áº¯c":537,"Ġy":538,"áº»":539,"Æ°á»Ŀng":540,"en":541,"áº¯t":542,"ĠCh":543,"Ġai":544,"iáº¿n":545,"CÃ´":546,"NhÆ°ng":547,"áº«":548,"Ġráº¥t":549,"Ġho":550,"á»ī":551,"á»ĳt":552,"Ġsá»±":553,"ĠÃł":554,"NÃ³":555,"ĠlÃªn":556,"ÃŃnh":557,"Ph":558,"Ìī":559,"ĠÄĳiá»ģu":560,"Ġtá»Ľi":561,"ÃŃch":562,"á»įn":563,"ĠtháºŃt":564,"Ġháº¯n":565,"ĠL":566,"Ĺi":567,"á»Ļi":568,"ĠhÆ¡n":569,"iá»ĩn":570,"eo":571,"Ã¬m":572,"ĠnhÃł":573,"Ã¡nh":574,"ĠchÆ°a":575,"ĠvÃ¬":576,"á»ĥ":577,"Ã¡u":578,"ÃĶng":579,"áº«n":580,"Ãło":581,"ĠÆ¡n":582,"Æ°Æ¡ng":583,"á»Ļc":584,"á»£":585,"Ġtá»«":586,"á»Ń":587,"Ã£y":588,"Ã¡ng":589,"á»ıi":590,"Ã´n":591,"ĠÄĳáº§u":592,"Ã¢u":593,"Ġbáº¡n":594,"am":595,"Ġbáº£":596,"ĠtÃ¬m":597,"iá»ĥu":598,"ĠnhÆ°ng":599,"Ã¡o":600,"ĠnÃªn":601,"áº¯m":602,"Ġcháº¿t":603,"Ã²ng":604,"á»ģ":605,"ĠkhÃ¡c":606,"ĠquÃ¡":607,"Ġcá»©":608,"ll":609,"Ãºt":610,"CáºŃu":611,"ia":612,"Ġcu":613,"or":614,"áº©":615,"Ġtin":616,"Tr":617,"ĠD":618,"Ġnhiá»ģu":619,"Ġnháº¥t":620,"á»§":621,"Ã¡m":622,"Äĥm":623,"ĠA":624,"ĠG":625,"Ta":626,"ĠTh":627,"áº·t":628,"ĠtrÆ°á»Ľc":629,"Ġnghe":630,"ĠÄĳá»ģ":631,"Ġmá»įi":632,"áº·p":633,"ĠÄĳá»ĵ":634,"Ġlá»Ĺi":635,"VáºŃy":636,"Náº¿u":637,"ĠtrÃªn":638,"Ġto":639,"Con":640,"Ġbao":641,"ĠcÃ´ng":642,"Ã¬n":643,"Äĥng":644,"Ġtiáº¿":645,"ÄĲÆ°á»£c":646,"Ġtá»ĳt":647,"im":648,"Ġlu":649,"ĠR":650,"Ġlo":651,"á»¥c":652,"Æ°á»Ł":653,"Ã¡n":654,"Ġqua":655,"ĠthÃłnh":656,"ung":657,"ÄĲÃ³":658,"áº¥u":659,"áºŃp":660,"Ãªm":661,"uá»ĳng":662,"Æ°á»Łng":663,"iá»ĩt":664,"Ìĥ":665,"áº³":666,"á»©c":667,"Ã¢m":668,"âĻ":669,"áº¥n":670,"Ġsá»ĳng":671,"iá»ģn":672,"Ġnáº¿u":673,"Ġhay":674,"á»Ŀi":675,"ĠyÃªu":676,"es":677,"ĠthÃŃch":678,"ĠcÃ¹ng":679,"ĠÄĳá»ĭ":680,"Æ°Æ¡i":681,"ĠmÃły":682,"ĠV":683,"á»ķi":684,"Ġláº¯m":685,"ĠcÃ¡ch":686,"Ġgáº·p":687,"LÃł":688,"Ãºp":689,"Ġtheo":690,"ĠJ":691,"Ġmá»Ľi":692,"ĠtÃªn":693,"âĻª":694,"Ġxem":695,"á»Ļng":696,"Ġmáº¹":697,"ĠngÃły":698,"ĠÄĳÃºng":699,"Ġváº«n":700,"áº·c":701,"Ġquan":702,"Ġbáº¯t":703,"ĠTÃ´i":704,"Ġgiáº¿t":705,"ĠN":706,"Ġ2":707,"is":708,"Ġthu":709,"Ġsau":710,"at":711,"iá»ĥm":712,"ĠÃ½":713,"Xin":714,"Ġngay":715,"Ġngo":716,"Ġráº±ng":717,"Ġháº¿t":718,"Sao":719,"Äĥn":720,"Ġbáº£o":721,"áº£y":722,"áº³ng":723,"Å©":724,"ĠÄĥ":725,"Ġbá»ĳ":726,"ĠÄĥn":727,"Ġgá»įi":728,"ĠlÃºc":729,"Ġtá»±":730,"Ġtay":731,"ÄĲÃ¢y":732,"ĠgiÃºp":733,"Pháº£i":734,"á»įng":735,"Ġháº£":736,"Ãºa":737,"ĠbÃł":738,"Ġhiá»ĥu":739,"Má»Ļt":740,"áº£m":741,"Ġláº¥y":742,"ÄĲá»«ng":743,"iá»ĩu":744,"ĠK":745,"Ġmáº¥t":746,"Ġ\"":747,"el":748,"Ġvá»¥":749,"Ġtao":750,"Ġtá»Ľ":751,"Ġxin":752,"00":753,"áº©n":754,"ĠnháºŃn":755,"ĠnhÃ¢n":756,"Ġcáº£m":757,"á»ģn":758,"Ã¢ng":759,"Ġxe":760,"Ġdo":761,"±c":762,"ĠKhÃ´ng":763,"Ġquy":764,"ĠnhÃ©":765,"Ġkhá»ıi":766,"Ã¡y":767,"ÄĲi":768,"et":769,"ĠnÄĥm":770,"ui":771,"Ġcuá»Ļc":772,"Ġchá»ĭ":773,"Ġláº§n":774,"ĠP":775,"ou":776,"Ġnay":777,"Ġbá»ı":778,"ĠÄĳÆ°a":779,"ĠÄĳá»ĭnh":780,"ĠAnh":781,"Há»į":782,"ĠbÃ©":783,"ĠcÆ¡":784,"Ãµ":785,"áº¡nh":786,"ck":787,"al":788,"iÃªu":789,"ĠchÃ¡u":790,"áº¯ng":791,"Ã¨":792,"Ġtáº¥t":793,"iÃª":794,"ĠnhÃ¬n":795,"Ġhai":796,"á»Ŀ":797,"as":798,"Ã³c":799,"Ġá»ķ":800,"Ġtrá»Ł":801,"Ġnhau":802,"Ġgia":803,"ĠngÃłi":804,"CÃ¡i":805,"ĠchÃŃnh":806,"ey":807,"Ġtiá»ģn":808,"Ġxuá»ĳng":809,"áº¡y":810,"ĠÄĳá»Ļng":811,"áº§m":812,"HÃ£y":813,"Ġcháº¯c":814,"Ġthá»Ŀi":815,"Ġbá»įn":816,"Ġmáº·t":817,"Ġla":818,"ĠÄĳÆ°á»Ŀng":819,"áº£n":820,"ĠgÃ¡i":821,"uá»ķi":822,"Giá»":823,"ĠluÃ´n":824,"á»ĩnh":825,"á»±c":826,"áº¡o":827,"á»ĳc":828,"uyá»ĩt":829,"Ġgiá»¯":830,"ĠtoÃłn":831,"Qu":832,"Ġlá»Ŀi":833,"«ng":834,"Ġtá»«ng":835,"ĠÄĳo":836,"ĠsÃ¡t":837,"Ġtáº¡i":838,"ĠF":839,"it":840,"Ġkho":841,"á»Łi":842,"ĠnÆ¡i":843,"Ã¡ch":844,"ĠngoÃłi":845,"ĠngÆ°Æ¡i":846,"áº¡m":847,"Ġchuy":848,"ĠchÃºt":849,"om":850,"LÃłm":851,"á»ĳn":852,"Ġtho":853,"áº¡c":854,"Ġsá»ĳ":855,"ĠnhiÃªn":856,"ĠW":857,"Ġkáº»":858,"ĠÆ¡i":859,"áº¥p":860,"ĠhÃłng":861,"Ġhá»įc":862,"ĠTr":863,"Ġchiáº¿n":864,"ua":865,"Ngh":866,"Ġco":867,"Ġgian":868,"ie":869,"Ġvá»ĭ":870,"ĠphÃ²ng":871,"áº¹p":872,"Æ°á»£ng":873,"ĠsÄ©":874,"ĠlÃ½":875,"áº¯p":876,"ĠtÃ¢m":877,"Ġchá»Ĺ":878,"Háº¯n":879,"Ġ?":880,"78":881,"Ńa":882,"Ġhá»ıi":883,"Chá»ī":884,"Ġbáº¥t":885,"Ġbáº±ng":886,"Ġnhá»Ľ":887,"«a":888,"á»ª":889,"ĠÄĳá»ģu":890,"ah":891,"Ġthá»±c":892,"Ġtrai":893,"ĳng":894,"Ġláº½":895,"ĠbÃªn":896,"us":897,"TháºŃt":898,"CÃ¡c":899,"ĠhÃ£y":900,"Ġxáº£y":901,"th":902,"Ġ3":903,"á»ĵn":904,"Ġquay":905,"Ã´m":906,"Ġkia":907,"Ġlá»Ľ":908,"Ġvui":909,"Ľi":910,"Ġ...":911,"áº£nh":912,"Ġsinh":913,"NgÆ°á»Ŀi":914,"Tá»Ľ":915,"Ġmáº¥y":916,"Ġchu":917,"Ġá»ķn":918,"á»ĵng":919,"Ġtiáº¿p":920,"Ġcá»ĳ":921,"ĠmÃ¡y":922,"ĠÄĳÃ¡nh":923,"Ġgiá»Ľi":924,"iá»ĩm":925,"Ġtráº£":926,"uá»ĳi":927,"ĠhÃłnh":928,"ĠÄĳá»ķ":929,"ĠtÃ¬nh":930,"NÃły":931,"ĠchÆ¡i":932,"ĠÄĳá»ĵng":933,"Ġgh":934,"ÄĲÃºng":935,"ÄĲá»ĥ":936,"re":937,"Ġcá»©u":938,"ĠnÆ°á»Ľc":939,"ĠvÃłi":940,"Ġbá»Ļ":941,"Ġtháº±ng":942,"ol":943,"ĠÄĳá»«ng":944,"Æ°á»Ľi":945,"Ġcha":946,"Ã¡p":947,"iáº¿m":948,"Máº¹":949,"ĠkhÃ³":950,"Ġhiá»ĩn":951,"áº¡t":952,"á»ĭch":953,"ĠtÆ°á»Łng":954,"ĠthÆ°a":955,"Ġan":956,"Ġkáº¿t":957,"Ġcháº³ng":958,"Ġvá»«a":959,"áº¡ch":960,"áº§y":961,"Ã©t":962,"iá»ħ":963,"ic":964,"Ġtrá»įng":965,"MÃły":966,"ĠcÃ¢u":967,"ĠviÃªn":968,"Äĳ":969,"ĠvÃ´":970,"CÃ²n":971,"ĠbÃ¡o":972,"ChÃło":973,"Ġsá»£":974,"Ã³ng":975,"Tháº¿":976,"Ġtra":977,"Ġgiá»ĳng":978,"ĠÄĳáº¹p":979,"VÃ¢ng":980,"24":981,"Ġtá»ĳi":982,"áº¡ng":983,"á»©ng":984,"Ġlá»Ľn":985,"Ġba":986,"ĠÄĳá»©":987,"ĠE":988,"uyá»ģn":989,"ing":990,"Giá»Ŀ":991,"ĠI":992,"ĠO":993,"Ġcáº£nh":994,"Ġbiá»ĩt":995,"á»£p":996,"iáº¿c":997,"á»Ĺi":998,"Ġtuyá»ĩt":999,"ĠlÃ¢u":1000,"Ġváº»":1001,"Ġká»":1002,"uá»ĳc":1003,"ĠthÆ°Æ¡ng":1004,"Khi":1005,"os":1006,"Nhá»¯ng":1007,"il":1008,"Táº¥t":1009,"Æ°á»Ľng":1010,"Ġko":1011,"Ġbu":1012,"ĠhÃ¬nh":1013,"ĠchÃº":1014,"Ã£i":1015,"VÃ¬":1016,"ÃĶi":1017,"Nghe":1018,"ĠthÃ´ng":1019,"ĠsÃ¡ng":1020,"ĠthÆ°á»Ŀng":1021,"á»ħ":1022,"ĠÄĳÃ¡ng":1023,"Ġca":1024,"á»ĥn":1025,"ĠâĻª":1026,"Ġhá»£p":1027,"Ġcá»Ńa":1028,"Ġtiáº¿ng":1029,"Ġváº¥n":1030,"ĠphÃŃ":1031,"Ġgiáº£i":1032,"Ã©p":1033,"Ġtu":1034,"ĠkÃ¬":1035,"ad":1036,"Tao":1037,"Ġphá»¥":1038,"ĠdÃ¹ng":1039,"ĠthÃ¢n":1040,"Táº¡i":1041,"Ai":1042,"Cáº£m":1043,"Ġcá»ķ":1044,"ĠÄĳá»Ŀi":1045,"áº£ng":1046,"ĠxÃ¡c":1047,"Ġbay":1048,"ow":1049,"ĠbÃ¢y":1050,"Ġnhá»ı":1051,"Ġnhanh":1052,"Cho":1053,"Ġcáº§u":1054,"£i":1055,"ĠÄĳá»ķi":1056,"ĠÄĳá»§":1057,"Ġvá»ĩ":1058,"á»¥ng":1059,"Ãłu":1060,"ĠtiÃªn":1061,"iáº¿p":1062,"Ġbáº£n":1063,"ot":1064,"Bá»ĳ":1065,"ĠÄĳáº¡i":1066,"áº¿p":1067,"Ġcuá»ĳi":1068,"Ġxa":1069,"ĠPh":1070,"Ġthay":1071,"Ġmang":1072,"ĠquÃ¢n":1073,"iá»ħn":1074,"ÃŃt":1075,"iá»ĩp":1076,"Ġnhá»ī":1077,"Ġáº¡":1078,"ĠphÃ¡t":1079,"ĠÄĳá»©a":1080,"ĠChÃºa":1081,"Ġngá»§":1082,"iá»ĥn":1083,"ĠthÃªm":1084,"Má»įi":1085,"ĠNh":1086,"Ġtháº§n":1087,"Ġbáº¯n":1088,"Ġtráº»":1089,"áºµ":1090,"NÃ³i":1091,"ĠÄĳiá»ĩn":1092,"Ġhá»Ļi":1093,"Ġtá»Ļi":1094,"Oh":1095,"uyÃªn":1096,"Ġ5":1097,"Ġw":1098,"and":1099,"á»Ńa":1100,"ĠÄĳá»Ļi":1101,"áºµn":1102,"oo":1103,"áº¥m":1104,"áº£o":1105,"ur":1106,"Ġchiáº¿c":1107,"ĠNg":1108,"ill":1109,"á»ŀ":1110,"ĠsÆ°":1111,"ĠbÃ¬nh":1112,"ĠnÄĥng":1113,"Ġma":1114,"ĠliÃªn":1115,"ĠtÃŃnh":1116,"ÃĢ":1117,"ĠtrÆ°á»Ŀng":1118,"ÃĿ":1119,"Ġ4":1120,"ell":1121,"Chuyá»ĩn":1122,"Ġvá»įng":1123,"ĠÄĳá»ĳi":1124,"Ġthá»§":1125,"á»±a":1126,"ĠnghÄ©a":1127,"Ġnghi":1128,"id":1129,"ĠrÃµ":1130,"Cá»©":1131,"Ġxu":1132,"ĠhoÃłn":1133,"Ġquyáº¿t":1134,"le":1135,"Ġchá»ĭu":1136,"Ġgáº§n":1137,"ĠY":1138,"ĠhÃ´m":1139,"ĠÄĳáº¥t":1140,"ĠÄĳÃªm":1141,"Ġcháº¡y":1142,"ĠchÃło":1143,"ChÃ¡u":1144,"ĠváºŃt":1145,"Ġchá»Ŀ":1146,"ThÃ´i":1147,"Ġchuyá»ĥn":1148,"Ġbá»ĩnh":1149,"Ġchá»©ng":1150,"ĠsÃºng":1151,"Ġcao":1152,"Bá»įn":1153,"av":1154,"ob":1155,"ed":1156,"Ġ.":1157,"ĠÄĳáº¥u":1158,"Ġchá»įn":1159,"ĠÄĳÃ¬nh":1160,"Ġ!":1161,"ĠgiÃ¡":1162,"Ġbá»Łi":1163,"Ġmáº¡nh":1164,"Ġthá»ĳng":1165,"Ġtá»Ń":1166,"ĠdÆ°á»Ľi":1167,"Ã¹a":1168,"ĠsÃłng":1169,"ĠÄĳiÃªn":1170,"BÃł":1171,"Ġsáº¯p":1172,"Ġchá»§":1173,"Ġmáº¯t":1174,"ĠlÃ²ng":1175,"Cháº¯c":1176,"Ġ6":1177,".\"":1178,"Ġkiáº¿m":1179,"ĠtrÆ°á»Łng":1180,"Gi":1181,"Ä©nh":1182,"un":1183,"Ġdá»¥ng":1184,"ĠÄĳa":1185,"ĠÄĳÃłn":1186,"ĠtáºŃp":1187,"iáº¿u":1188,"ĠquÃ¡i":1189,"ter":1190,"Ġdá»±":1191,"Ġáº£nh":1192,"ĠphÃºt":1193,"Ġlá»±c":1194,"ĠthÆ°":1195,"Ã£o":1196,"ĠbÃ¡c":1197,"Ġthá»©c":1198,"ĠphÃŃa":1199,"NhÃ¬n":1200,"eah":1201,"Ġkhu":1202,"Ġngu":1203,"Ġkáº¿":1204,"ĠCÃ³":1205,"Ġkiá»ĥm":1206,"Ġcháº¯n":1207,"Ġtrá»Ŀi":1208,"á»Ĵ":1209,"áº·ng":1210,"Ġsai":1211,")}":1212,"ĠÆ°":1213,"Ġloáº¡i":1214,"Ġxong":1215,"Ġbiáº¿n":1216,"ra":1217,"Rá»ĵi":1218,"Ġuá»ĳng":1219,"Ġpháº§n":1220,"ĠÄĳiá»ĥm":1221,"Ġhá»Ļ":1222,"ĠkÃ¬a":1223,"Ġngá»ĵi":1224,"ĠtrÃŃ":1225,"á»Ĺ":1226,"Ġsáºµn":1227,"Ġtá»ķ":1228,"ig":1229,"Ġduy":1230,"Ġká»ĥ":1231,"ry":1232,"ĠEm":1233,"Ġthá»Ń":1234,"ĠtÃłu":1235,"Ġminh":1236,"Ã©o":1237,"á»¹":1238,"NgÆ°Æ¡i":1239,"Ġ#":1240,"ĠSt":1241,"CÃ¡m":1242,"Ġmá»«ng":1243,"ĠkhÃŃ":1244,"Ġthuá»ĳc":1245,"Ġtrung":1246,"Ġdá»ħ":1247,"á»©a":1248,"Ġsá»©c":1249,"ĠÄĳau":1250,"Tá»ĳt":1251,"ke":1252,"Ġquáº£":1253,"oh":1254,"Ġtá»ĩ":1255,"Cha":1256,"Ġthá»ĭ":1257,"Ġphá»ĳ":1258,"ĠhÆ¡i":1259,"Ġhiá»ĩu":1260,"ĠphÃ©p":1261,"áºŃm":1262,"áº±m":1263,"Ġmu":1264,"Ġquyá»ģn":1265,"ĠchÃ¢n":1266,"Ġhá»ĩ":1267,"Ġná»ķi":1268,"Ġmá»Ł":1269,"Ġtá»¥c":1270,"Ãºi":1271,"Ġtáº¡o":1272,"ĠÄĳá»©ng":1273,"ĠÄĳá»Ļ":1274,"ĠÄĳá»£i":1275,"Ã²a":1276,"ĠÄĳÃ´":1277,"ĠÃŃt":1278,"Ġtuáº§n":1279,"ĠChÃºng":1280,"Trong":1281,"ĠquÃªn":1282,"oi":1283,"tÃ´i":1284,"Ġmua":1285,"kh":1286,"Ġhiá»ĥm":1287,"ir":1288,"Ġhuy":1289,"Ġdiá»ħn":1290,"ĠtrÃ²":1291,"ĠphÃ¡":1292,"ĠtÃłi":1293,"ĠvÅ©":1294,"Ho":1295,"BÃ¢y":1296,"ĠCÃ´":1297,"Ġ10":1298,"ĠnhiÃªu":1299,"Ġkhá»ĳn":1300,"Ġkhiáº¿n":1301,"Ġmay":1302,"ran":1303,"Ġphá»¥c":1304,"NhÆ°":1305,"Ġdáº«n":1306,"ĠyÃªn":1307,"Ġká»³":1308,"Ġna":1309,"Ġtuá»ķi":1310,"Ġkinh":1311,"ĠtrÃ´ng":1312,"ĠchÃŃ":1313,"ĠtiÃªu":1314,"Ráº¥t":1315,"ĠdÃ¹":1316,"ĠdÃ¢n":1317,"Ġháº¡":1318,"ĠtrÃ¡i":1319,"Ġmai":1320,"Ġvá»£":1321,"ag":1322,"ĠthÃ¡ng":1323,"Ġno":1324,"Nhanh":1325,"ĠgÃ£":1326,"Ã³a":1327,"ĠthÃºc":1328,"Ã³n":1329,"ĠÄĳáº·t":1330,"á»Ľm":1331,"ĠquÃ½":1332,"ĠcÃ¡":1333,"ĠkhÃ¡ch":1334,"27":1335,"Ġbuá»ķi":1336,"arl":1337,"á»¥i":1338,"Ġmáº¡ng":1339,"Ġthoáº¡i":1340,"ĠtÆ°":1341,"Ġtranh":1342,"Ġpháº¡m":1343,"ĠhÃ´n":1344,"79":1345,"ĠmÃ¡u":1346,"ĠbÃłi":1347,"ĠthÃº":1348,"Ġtiá»ĩt":1349,"ÄĲiá»ģu":1350,"ChÃºa":1351,"Ġf":1352,"Ġtinh":1353,"Ã³m":1354,"ĠÄĳáº·c":1355,"Ġyou":1356,"Ġso":1357,"ĠtÃ¹":1358,"ĠgÃ¢y":1359,"Ġchi":1360,"ĠÄĳÆ¡n":1361,"ĠHo":1362,"ĠthoÃ¡t":1363,"ĠtrÃ¬nh":1364,"ĠchÃ³":1365,"Ġtháº¯ng":1366,"Ġxáº¥u":1367,"Ġse":1368,"Æ°á»£t":1369,"ick":1370,"á»Ļn":1371,"ĠsÃ¡ch":1372,"ĠtÆ°á»£ng":1373,"á»·":1374,"ĠÄĲÆ°á»£c":1375,"ĠMar":1376,"Ġnhiá»ĩm":1377,"ĠbÃłn":1378,"ack":1379,"Ġtáº¥n":1380,"Ġhoáº·c":1381,"Ġdanh":1382,"Ġxuáº¥t":1383,"ĠcÃ¢y":1384,"Ã¹i":1385,"Ġp":1386,"Ġtiáº¿n":1387,"ÄĲÃ£":1388,"Ġva":1389,"Ġláº¡c":1390,"á»§ng":1391,"ĠthÃª":1392,"á»¯a":1393,"um":1394,"ton":1395,"Ġcáº¥p":1396,"Ġhoáº¡ch":1397,"ĠmáºŃt":1398,"ĠluáºŃt":1399,"ev":1400,"ıi":1401,"Ġxá»Ń":1402,"ro":1403,"ĠCon":1404,"ĠtÃŃ":1405,"ĠÃ¡o":1406,"TÃªn":1407,"MÃ¬nh":1408,"ce":1409,"ard":1410,"uá»ĳt":1411,"Ġrá»Ŀi":1412,"á»Ńi":1413,"Ġcoi":1414,"Ġvá»Ŀi":1415,"Ġthi":1416,"nd":1417,"Ġo":1418,"Ġlá»ĩnh":1419,"áº¹n":1420,"10":1421,"Ġthiáº¿t":1422,"iÃªng":1423,"Ġthe":1424,"á»įc":1425,"Ġmáº·c":1426,"Ġdá»ĳi":1427,"Ġnguy":1428,"Chá»ĭ":1429,"Ġháº¡i":1430,"ĠÄĳÃª":1431,"ÄĲÆ°a":1432,"Ġgiáº£":1433,"ĠbÃ¡n":1434,"ĠtÄ©nh":1435,"ĠQu":1436,"Ġsá»Ń":1437,"ĠÄĳÃ´i":1438,"ĠÃ":1439,"Ãłm":1440,"NgÃłi":1441,"ĠthuáºŃt":1442,"ĠÄĳoÃ¡n":1443,"vÃł":1444,"Ġhá»©a":1445,"ich":1446,"uyáº¿t":1447,"son":1448,"Ġpha":1449,"Ġgiá»¯a":1450,"kay":1451,"Ġtrá»ĭ":1452,"á»§y":1453,"ĠVÃ¢ng":1454,"NG":1455,"Ġsá»Ľm":1456,"Ġtim":1457,"ine":1458,"Ġmá»Ĺi":1459,"Sau":1460,"ĠkhÃ¡":1461,"Ġ,":1462,"ĠhÆ°á»Ľng":1463,"Hay":1464,"ĠlÆ°á»£ng":1465,"ĠmÆ¡":1466,"Kho":1467,"Ġdi":1468,"Ġpháº£n":1469,"ĠmÃ´":1470,"Ġtrá»ĳn":1471,"įc":1472,"ĠÃĶng":1473,"Ġ-":1474,"Ġtáº¿":1475,"ĠtháºŃn":1476,"Ġviáº¿t":1477,"....":1478,"Ġrá»ĳi":1479,"ĠÄĳá»ĭa":1480,"á»ķng":1481,"ĠSao":1482,"Ġchuáº©n":1483,"Ġngon":1484,"ĠchÃłng":1485,"Ġliá»ĩu":1486,"GÃ¬":1487,"ĠcÃ¡nh":1488,"ta":1489,"Yeah":1490,"Sáº½":1491,"Æ°á»£u":1492,"ĠChÃło":1493,"ĠláºŃp":1494,"ĠÄĳÃ¡":1495,"Ġnghá»ī":1496,"Æ°u":1497,"Ġnáº¡n":1498,";#":1499,"Ġdáº¥u":1500,"ĠnhÃ³c":1501,"Ġgiao":1502,"Ġngá»ĳc":1503,"Ġhá»ģ":1504,"ĠvÃ²ng":1505,"ChÃº":1506,"ĠbÃ³ng":1507,"Ġvi":1508,"ann":1509,"Ġ7":1510,"ĠchÃºa":1511,"ĠPháº£i":1512,"60":1513,"ff":1514,"Ġhá»ĵ":1515,"ĠtÃ¡c":1516,"ĠdáºŃy":1517,"Ġdá»«ng":1518,"ĠbÄĥng":1519,"Hai":1520,"Ġviá»ĩn":1521,"ĠphÃ¡p":1522,"ĠÄĳá»įc":1523,"Ġda":1524,"Ġtham":1525,"á»ıng":1526,"ĠcÄĥn":1527,"Ġláº¡":1528,"Ġgiá»ıi":1529,"Ġ8":1530,"ab":1531,"244":1532,"Ġnghiá»ĩp":1533,"ĠgiÃł":1534,"ĠX":1535,"Ġphim":1536,"ohn":1537,"all":1538,"000":1539,"á»«a":1540,"ĠbÃŃ":1541,"Ġchá»¯":1542,"ĠMá»¹":1543,"ri":1544,"ĠcÃłng":1545,"á»£i":1546,"ĠCáºŃu":1547,"á»ıe":1548,"ĠÃ¡n":1549,"ÄĲáº¿n":1550,"Ġnghiá»ĩm":1551,"ĠgiÃ¡c":1552,"ĠbÆ°á»Ľc":1553,"Ġtá»©c":1554,"áº·n":1555,"Ġmá»¥c":1556,"ĠcÆ°á»Ŀi":1557,"\".":1558,"khÃ´ng":1559,"ew":1560,"ĠÄĳá»Ļc":1561,"Ġnáº±m":1562,"ĠrÆ°á»£u":1563,"Ġsáº¿p":1564,"ĠcÃ¡o":1565,"ThÆ°a":1566,"áº©m":1567,"ĠÄĳáº§y":1568,"273":1569,"Ã³i":1570,"ĠÄĳÆ°Æ¡":1571,"Ġhy":1572,"ul":1573,"Ġtrang":1574,"Ġkiá»ĥu":1575,"ĠGi":1576,"áº¡p":1577,"Ġthanh":1578,"Ġháº¡nh":1579,"ĠSh":1580,"ĠthÃ¹":1581,"Æ°á»¡":1582,"Tá»«":1583,"Ã¨n":1584,"Ã³t":1585,"Cháº¿t":1586,"Ġquanh":1587,"Ġkiáº¿p":1588,"Bá»Łi":1589,"Báº¡n":1590,"Ġsuy":1591,"ee":1592,"Ġtháº¥t":1593,"Ra":1594,"Ġkhá»§ng":1595,"ĠÄĳÃ¹a":1596,"DÃ¹":1597,"Ġmong":1598,"Ġkháº£":1599,"Ġmá»Ŀi":1600,"Ġtriá»ĩu":1601,"ĠÄĳÃ¡m":1602,"ĠÄĳÃ³ng":1603,"iáº¿ng":1604,"Ġlá»Ńa":1605,"ĠQ":1606,"Ġgá»Ńi":1607,"Ġngá»Ŀ":1608,"ĠdÃłi":1609,"Chu":1610,"ĠmÃ£i":1611,"tr":1612,"ĠrÃ´":1613,"á»īnh":1614,"Ġdá»ĭch":1615,"Ġmau":1616,"Ġhoáº¡t":1617,"CÅ©ng":1618,"ĠCÃ¡i":1619,"Ġná»ķ":1620,"ĠdÃłnh":1621,"ĠlÃ¡i":1622,"ĠriÃªng":1623,"ĠhoÃłng":1624,"Ġá»ª":1625,"ho":1626,"Ġtiáº¿c":1627,"ChÃŃnh":1628,"Ġmáº¯n":1629,"ĠvÄĥn":1630,"Ġcá»¥":1631,"ĠbÃ¡nh":1632,"ĠlÃ£":1633,"ĠlÅ©":1634,"Ġbiá»ĥn":1635,"Ġsuá»ĳt":1636,"Vá»Ľi":1637,"224":1638,"ĠsÆ¡":1639,"Hey":1640,"ris":1641,"Ġkhá»ıe":1642,"Ġchá»©c":1643,"Ġ9":1644,"ĠmÃ³n":1645,"Chá»Ŀ":1646,"Ġthuá»Ļc":1647,"Ġgáº¯ng":1648,"ĠtráºŃn":1649,"iv":1650,"ĠVÃł":1651,"Ġtháº³ng":1652,"Ġnháº£y":1653,"áº³n":1654,"ĠÄĳá»¡":1655,"Ġquá»ĳc":1656,"Ġchá»ĳng":1657,"Ġly":1658,"ap":1659,"áº©u":1660,"Ġtha":1661,"ĠhÃ³a":1662,"Ngay":1663,"ĠnháºŃp":1664,"Ã©m":1665,"ĠtÆ°Æ¡ng":1666,"Ġquen":1667,"Tuyá»ĩt":1668,"ĠÄĳáº¡o":1669,"ĠmÃłu":1670,"dy":1671,"'s":1672,"ĠgiÃ¡o":1673,"áº«u":1674,"ĠcÅ©":1675,"Ġlá»ĭch":1676,"á»Ķ":1677,"ĠngÄĥn":1678,"ĠAl":1679,"enn":1680,"Ġdáº¡y":1681,"Ġbuá»ĵn":1682,"ac":1683,"Ġhá»ĵi":1684,"Cháº³ng":1685,"ĠU":1686,"Láº¡i":1687,"Ġu":1688,"ĠghÃ©t":1689,"ak":1690,"Ġkiáº¿n":1691,"Ġcháº¥t":1692,"Ġthuyá»ģn":1693,"Æ°á»Ľp":1694,"Ãµi":1695,"Dá»«ng":1696,"ĠkhÃ³a":1697,"ĠÄĳáº¡n":1698,"Ġhoa":1699,"ark":1700,"784":1701,"ĠÄĳuá»ķi":1702,"LÃºc":1703,"Ġbá»©c":1704,"Ġláº¯ng":1705,"ĠthiÃªn":1706,"Ã¨o":1707,"se":1708,"Ġphi":1709,"ĠtrÃ¡ch":1710,"NÃªn":1711,"Ġá»ķng":1712,"25":1713,"ĠbiÃª":1714,"Ġhá»§y":1715,"Ġbinh":1716,"Ġbá»¯a":1717,"Ġbi":1718,"Ġtrá»£":1719,"ĠngÆ°Æ¡":1720,"Ġlá»£i":1721,"Ġchá»«ng":1722,"Ġvua":1723,"ĠlÃŃnh":1724,"te":1725,"Ġkhoáº£ng":1726,"ĠÄĲÃºng":1727,"Ġban":1728,"HÃ´m":1729,"Okay":1730,"Ġbáº¡i":1731,"Ġha":1732,"ChÃºc":1733,"Ġláº§m":1734,"Ġchia":1735,"ĠdÃ¢y":1736,"ĠnguyÃªn":1737,"Ġcháº¿":1738,"ĠNÃ³":1739,"ĠkÃ©o":1740,"ĠcÃ¢":1741,"Máº¥y":1742,"Ġtruyá»ģn":1743,"Cáº£":1744,"Coi":1745,"Ġghi":1746,"Ã£n":1747,"ĠÄĳáº£m":1748,"Ġháº¹n":1749,"--":1750,"rank":1751,"ĠÄĲáº¡i":1752,"ĠÄĳem":1753,"ĠrÃłng":1754,"ĠkÃ½":1755,"ĠVáºŃy":1756,"Ġlá»±a":1757,"ĠvÃ¢":1758,"áº©y":1759,"ĠtÃ¡":1760,"Tháº±ng":1761,"ĠÄĳen":1762,"ĠcÆ°á»Ľi":1763,"ĠthÃ¢":1764,"Ġcá»Ń":1765,"ĠtrÃ¡nh":1766,"NÃło":1767,"ĠvÃłng":1768,"ut":1769,"lo":1770,"man":1771,"VÃło":1772,"Ġngá»±a":1773,"Ġphiá»ģn":1774,"Ġchung":1775,"Ġchá»ĵng":1776,"ĠphÃ¢n":1777,"ĠngÃ´i":1778,"á»§a":1779,"á»Ļm":1780,"1060":1781,"ĠcÆ°á»Ľp":1782,"Ġcháº£":1783,"Ġsá»Ł":1784,"Ġnghá»ĭ":1785,"ĠXin":1786,"Ġmá»ĳi":1787,"Ġcáº¯t":1788,"FF":1789,"á»ıa":1790,"ĠÃ¢m":1791,"Ġ20":1792,"ĠdÃ¡m":1793,"ChÆ°a":1794,"Ġlinh":1795,"Ġti":1796,"Ġcháº¥p":1797,"Ġlai":1798,"igh":1799,"Láº§n":1800,"ĠBr":1801,"Xem":1802,"eb":1803,"Ġná»Ńa":1804,"Ġtiá»ĩc":1805,"ent":1806,"23":1807,"Ġtai":1808,"ip":1809,"Ġtrá»«":1810,"ĠnÃłng":1811,"Ãºy":1812,"Ġváº¿t":1813,"ĠKh":1814,"Ġquáº§n":1815,"ĠtÃŃch":1816,"MÃł":1817,"Ġtháº§y":1818,"uÃ´i":1819,"ĠÄĲá»«ng":1820,"ĠrÆ¡i":1821,"ian":1822,"ĠvÆ°á»£t":1823,"Ġnháº¯c":1824,"ĠphÆ°Æ¡ng":1825,"ThÃ¬":1826,"á»¡":1827,"Khoan":1828,"Viá»ĩc":1829,"ĠtÃ²a":1830,"ĠkhÄĥn":1831,"ĠhÃ¡t":1832,"ĠTrung":1833,"Theo":1834,"arry":1835,"Ġlá»ĩ":1836,"Ġthuyáº¿t":1837,"ath":1838,"ĠgiÃ¢y":1839,"áº¥c":1840,"ĠtáºŃn":1841,"Ġtá»¥i":1842,"ĠÄĳÃ´ng":1843,"mm":1844,"ud":1845,"ĠsÄĥn":1846,"ĠÄĲi":1847,"Bá»ı":1848,"ĠthuáºŃn":1849,"Ġcáº§m":1850,"Ġháº³n":1851,"ĠvÃ¹ng":1852,"ĠTa":1853,"Ba":1854,"ĠkÃŃch":1855,"ĠcÆ°":1856,"ĠÆ¡":1857,"od":1858,"my":1859,"oy":1860,"NgÃły":1861,"eg":1862,"ĠCha":1863,"ĠsoÃ¡t":1864,"ĠnghiÃªm":1865,"ess":1866,"Ġráº¯c":1867,"aw":1868,"Ġtiáº¿t":1869,"ty":1870,"Ġdá»¯":1871,"ĠÄĲá»©c":1872,"Ġbuá»Ļc":1873,"Ġhu":1874,"ĠJohn":1875,"ĠÄĳoÃłn":1876,"ĠnÃ³ng":1877,"787":1878,"ĠphÃºc":1879,"iá»ĩng":1880,"ers":1881,"ĠNhÆ°ng":1882,"ĠmÃ¡i":1883,"Ġthá»ĭt":1884,"Báº¯t":1885,"Ã¬a":1886,"ĠvÆ¡":1887,"ĠNgÆ°á»Ŀi":1888,"ĠnÃ¨":1889,"nhÆ°ng":1890,"Ġtrá»Ļm":1891,"Sá»±":1892,"BÃ¡c":1893,"Ġnháº¡c":1894,"Ġngoáº¡i":1895,"Ġyáº¿u":1896,"Ġchuyáº¿n":1897,"Ġnhá»Ŀ":1898,"ĠdÃµi":1899,"Ġty":1900,"Ġthá»ı":1901,"Ġsa":1902,"ord":1903,"iá»ģm":1904,"ĠgiáºŃn":1905,"Ġá»©ng":1906,"Ġdu":1907,"Ġ(":1908,"ion":1909,"ĠMáº¹":1910,"Ġsu":1911,"ĠphÃ¹":1912,"Ġmiá»ĩng":1913,"ĠÄĲÃ³":1914,"ÄĲá»ĵ":1915,"ĠQuá»ĳc":1916,"Ġsáº£n":1917,"Ġmi":1918,"ĠchÄĥm":1919,"ĠxÃ©t":1920,"ĠÆ°á»Ľc":1921,"Ġgiáº¥y":1922,"ĠCl":1923,"Ìģ.":1924,"ĠhÆ°á»Łng":1925,"ÄĲáº¡i":1926,"Ġin":1927,"Ġláº¡nh":1928,"Ġquá»·":1929,"ĠtÄĥng":1930,"{\\":1931,"Ġmá»©c":1932,"uá»Ļc":1933,"ĠÄĳáº¿":1934,"Ä©a":1935,"ĠÃŃch":1936,"ov":1937,"cH":1938,"ne":1939,"ĠlÃŃ":1940,"Thá»©":1941,"Ġlá»ħ":1942,"ĠnhÃ³m":1943,"ond":1944,"Æ¯":1945,"Ġ19":1946,"Ġsá»Ńa":1947,"ler":1948,"ĠsÃ¢u":1949,"ĠtÃºi":1950,"ĠZ":1951,"ĠcÃł":1952,"Vá»ģ":1953,"Ġnha":1954,"ĠhÃ¹ng":1955,"ĠAn":1956,"Ġbom":1957,"Ġdiá»ĩn":1958,"Ġphá»§":1959,"ach":1960,"Ġthiáº¿u":1961,"Tháº¥y":1962,"Ġdá»ĭ":1963,"TrÆ°á»Ľc":1964,"TrÃ´ng":1965,"ĠÄĳáº±ng":1966,"Ġlá»«a":1967,"Mau":1968,"ĠnháºŃt":1969,"Uh":1970,"ĠtÃŃn":1971,"ĠmÅ©":1972,"Lu":1973,"ĠcÆ°ng":1974,"Ġdiá»ĩt":1975,"Ã²i":1976,"Ġkhai":1977,"ĠtÃ³c":1978,"ara":1979,"Ġloáº¡n":1980,"ÄĲá»©ng":1981,"Ġtá»īnh":1982,"Ġme":1983,"Ġluyá»ĩn":1984,"ĠxÃºc":1985,"ÄĲá»£i":1986,"ÃĬ":1987,"Ġtháº£":1988,"ĠmÃ£":1989,"la":1990,"ĠlÃ£o":1991,"Ġcáº¡nh":1992,"á»³":1993,"Ġnáº·ng":1994,"Ġgiáº£n":1995,"ber":1996,"Ġchá»¯a":1997,"to":1998,"Ġlá»ĳi":1999,"Ġvá»±c":2000,"ik":2001,"Ġcung":2002,"ĠÄĳáº£o":2003,"ood":2004,"Ġhá»ĵn":2005,"Ãģ":2006,"ĠÃ¡c":2007,"Ġlá»Ļ":2008,"ĠÄĳá»Ļt":2009,"Ġthá»ģ":2010,"sc":2011,"Ġká»¹":2012,"ĠphÃ³ng":2013,"ĠsÃ³c":2014,"ĠTháºŃt":2015,"Táº¡m":2016,"io":2017,"ere":2018,"Ġsáº¡ch":2019,"Ġcáº©n":2020,"á»ľ":2021,"ight":2022,"Ġbiá»ĥu":2023,"ĠbáºŃn":2024,"Ġsang":2025,"Ġ12":2026,"ĠcÃ¡m":2027,"áº§ng":2028,"Ġcuá»ĳn":2029,"á»ĵm":2030,"ĠAi":2031,"ĠsÃ³t":2032,"32":2033,"ĠthÄĥm":2034,"chÃºng":2035,"TrÃ¡nh":2036,"Ġtá»ĵi":2037,"ĠchuyÃªn":2038,"ĠÄĳÃ³n":2039,"á»ĩt":2040,"og":2041,"Ġtáº¥m":2042,"ĠhÃ²a":2043,"Ġhá»ıng":2044,"ĠNew":2045,"ĠÃ¢":2046,"Ġná»Ĺi":2047,"ĠnÃ£o":2048,"Ġgiáº¥u":2049,"ash":2050,"Ġlá»Ľp":2051,"ĠlÃłnh":2052,"ly":2053,"end":2054,"Ġcá»±c":2055,"Ġxáº¿p":2056,"ĠÄĳá»ı":2057,"ĠJo":2058,"ĠÄĳoáº¡n":2059,"Ġtráº¡i":2060,"co":2061,"Hoáº·c":2062,"á»įa":2063,"ĠcÆ¡n":2064,"ge":2065,"Ġláº·ng":2066,"ĠtháºŃm":2067,"ĠLu":2068,"ĠthuÃª":2069,"cÃ³":2070,"sh":2071,"Ġtráº¯ng":2072,"ĠloÃłi":2073,"ĠháºŃu":2074,"ĠLÃłm":2075,"ĠMá»Ļt":2076,"Ġkáº¹":2077,"Ġnguyá»ĩn":2078,"Tá»Ľi":2079,"ĠkÃŃ":2080,"Muá»ĳn":2081,"Ġkháº©u":2082,"ĠnÃºi":2083,"ĠAr":2084,"by":2085,"ĠFrank":2086,"Ġháº¡n":2087,"ley":2088,"ĠÃ¡nh":2089,"art":2090,"Ãį":2091,"Ġkháº¯p":2092,"Ġxanh":2093,"Ġ30":2094,"Giá»¯":2095,"Ġthá»Ł":2096,"Ġdá»±ng":2097,"Cháº¡y":2098,"Ġná»£":2099,"Ġnháº¯n":2100,"CÃ´ng":2101,"NhÃł":2102,"gh":2103,"Ġmáº¯c":2104,"ith":2105,"ĠlÃ¡":2106,"ĠtÆ°á»Ŀng":2107,"Sh":2108,"Ġhá»Ļp":2109,"ec":2110,"Ġim":2111,"ĠchÆ°Æ¡ng":2112,"Ġthá»ıa":2113,"á»¯u":2114,"Ġ15":2115,"Ġtá»ĵn":2116,"Ġkiá»ĩn":2117,"BÃ¬nh":2118,"Ġhi":2119,"Ġcan":2120,"ex":2121,"Trá»Ŀi":2122,"ĠkÃŃnh":2123,"ĠÄĳÃŃch":2124,"Cá»ĳ":2125,"Váº«n":2126,"Ġhuynh":2127,"ĠSam":2128,"ĠBáº¯c":2129,"Ġtruy":2130,"Ġchim":2131,"ĠNam":2132,"Thá»±c":2133,"ĠTÃ¢y":2134,"ĠlÃ£nh":2135,"ub":2136,"Ġháº£o":2137,"Giá»ĳng":2138,"Ġsay":2139,"Ġtáº¯m":2140,"789":2141,"á»ĭp":2142,"ĠJack":2143,"ĠsÃ¢n":2144,"Ġtrá»±c":2145,"Ġtáº§m":2146,"Ġthá»«a":2147,"ĠCáº£m":2148,"Ġcá»Ļng":2149,"ave":2150,"ĠÄĳá»ĳng":2151,"Ġtá»ķng":2152,"Tin":2153,"Ġcháº¡m":2154,"ĠquÃł":2155,"Ġon":2156,"Ġof":2157,"ike":2158,"Ġngáº¡c":2159,"ĠquÃ¡n":2160,"RÃµ":2161,"Ġhá»¯u":2162,"Ġmuá»Ļn":2163,"TÃ¬m":2164,"ĠtÃłn":2165,"791":2166,"ĠrÃºt":2167,"Ġtuy":2168,"ĠxÃ¢y":2169,"ĠpháºŃn":2170,"ina":2171,"ork":2172,"Láº¥y":2173,"Ġbáº¡c":2174,"Ġkhoa":2175,"ĠÄĳáºŃp":2176,"Ġgiáº¥c":2177,"ĠNgÃłi":2178,"tor":2179,"ĠgiÆ°á»Ŀng":2180,"ĠmÃ¹i":2181,"á»įt":2182,"243":2183,"ĠtÆ°á»Ľng":2184,"ĠhÃºt":2185,"Cá»©u":2186,"Ġxinh":2187,"Ġnháº«n":2188,"Æ°á»¡ng":2189,"Ġthua":2190,"Ġquáº£n":2191,"ĠtÃ´n":2192,"Ġchá»¥":2193,"Ġáº©n":2194,"Ġthá»§y":2195,"ĠmÃª":2196,"hoa":2197,"Ġtáº§ng":2198,"per":2199,"ĠTháº¿":2200,"ĠtÃ´":2201,"ĠthÆ¡":2202,"790":2203,"Ġcháº·t":2204,"ĠGÃ¬":2205,"ĠngÃłn":2206,"ant":2207,"ome":2208,"Cuá»Ļc":2209,"Ġcháº·n":2210,"ĠlÆ°u":2211,"ĠphÃª":2212,"Ġrá»«ng":2213,"Ġnháº§m":2214,"Ġthang":2215,"788":2216,"ĠdÃŃnh":2217,"ock":2218,"eter":2219,"ĠhÃło":2220,"ÄĲang":2221,"ĠÄĳá»ĩ":2222,"Ġbo":2223,"Ġkháº¯c":2224,"432":2225,"Ġtá»Ļc":2226,"Æ°á»¡i":2227,"Ġsá»ķ":2228,"Ġtáº¡m":2229,"ok":2230,"na":2231,"Tá»ĳi":2232,"ĠnuÃ´i":2233,"Quay":2234,"ĠÄĳÃ³i":2235,"Ġtráº¥n":2236,"ĠSc":2237,"Mar":2238,"Ġdá»įn":2239,"ax":2240,"Ġe":2241,"ean":2242,"áº«y":2243,"ind":2244,"áº¢":2245,"ĠmuÃ´":2246,"ĠlÆ°ng":2247,"Ġtá»Ŀ":2248,"ĠÄĲÃ¢y":2249,"ĠdÃłng":2250,"ĠÃ¡p":2251,"ĠtÃºc":2252,"ĠkhÃ³c":2253,"if":2254,"Ġtung":2255,"Ġbe":2256,"ĠluáºŃn":2257,"Ah":2258,"qu":2259,"Ġná»Ļi":2260,"áº·m":2261,"Báº£o":2262,"Báº¥t":2263,"Cáº£nh":2264,"Ġnghá»ĩ":2265,"Ġkhá»ķ":2266,"ĠÄĳÃłi":2267,"Ġnguá»ĵn":2268,"Ġngá»«ng":2269,"Ġdá»įa":2270,"ve":2271,"Biáº¿t":2272,"ĠAnd":2273,"ĠvÃª":2274,"No":2275,"ĠTá»ķng":2276,"eth":2277,"Ġxá»©ng":2278,"Ġphu":2279,"ĠváºŃn":2280,"Ġtiá»ĥu":2281,"ĠngÃ¢n":2282,"Ġit":2283,"oll":2284,"Ġháº§m":2285,"ael":2286,"ĠchÆ°":2287,"Ġvá»¡":2288,"á»©t":2289,"ĠÄĲá»ĥ":2290,"Ġtráº¡ng":2291,"Ġdá»¥c":2292,"ĠÃºy":2293,"ĠÄĳe":2294,"Ġnáº¯m":2295,"iz":2296,"Tiáº¿p":2297,"Ġkhiá»ĥn":2298,"ĠsiÃªu":2299,"ĠÃ¡":2300,"ĠgiÆ¡":2301,"ans":2302,"Ġhoang":2303,"Al":2304,"iel":2305,"Ġtáº¯t":2306,"Báº¯n":2307,"Ġkhá»Łi":2308,"Ġká»·":2309,"Ġmá»ĩnh":2310,"ins":2311,"Ġxo":2312,"An":2313,"'t":2314,"ĠchÃ¡y":2315,"Ġtráº£i":2316,"lex":2317,"Ġmáº«u":2318,"Ġand":2319,"Ġhá»Ĺ":2320,"Ġphong":2321,"ĠmÃ¹a":2322,"Ġga":2323,"įng":2324,"ĠÄĳáº©y":2325,"Ko":2326,"LÃªn":2327,"Ġtrá»ħ":2328,"Ġtá»ĳc":2329,"oss":2330,"ĠÄĳÃ¨n":2331,"ĠdÃ²ng":2332,"12":2333,"Ġtriá»ĥn":2334,"ĠCar":2335,"Ġngá»¥c":2336,"ĠGr":2337,"Ã¹m":2338,"ĠÃ¡m":2339,"Ã¨m":2340,"Ġche":2341,"Ngá»ĵi":2342,"Gá»įi":2343,"á»Ľt":2344,"ĠPhÃ¡p":2345,"Má»Ĺi":2346,"Ġbá»Ļi":2347,"QuÃ¡":2348,"ĠlÃ´":2349,"ass":2350,"fsc":2351,"ĠTáº¡i":2352,"ĠNga":2353,"ÄĤ":2354,"ĠchÃ¬a":2355,"Ġgiáº£m":2356,"Ġmá»ĩt":2357,"ane":2358,"ĠOh":2359,"Tiáº¿n":2360,"Ġninh":2361,"con":2362,"ĠchÃ¡n":2363,"ĠHoÃłng":2364,"Má»Ł":2365,"Ġbáº§u":2366,"ett":2367,"Ã©n":2368,"ĠCÃ¡m":2369,"ĠHoa":2370,"ĠGiá»":2371,"Ġcá»¥c":2372,"Ġtiá»ĩn":2373,"ĠnÃ©m":2374,"Ġhá»©ng":2375,"ĠYork":2376,"ĠnghiÃªn":2377,"Ġdao":2378,"Ġdáº·m":2379,"Ġtrá»¥":2380,"Ġchá»¥p":2381,"ank":2382,"ĠHá»į":2383,"Ġháº§u":2384,"Ngo":2385,"ĠsÃ´ng":2386,"ĠthÃ¡i":2387,"ĠchÃºc":2388,"á»Ķn":2389,"Ġhá»ķ":2390,"ust":2391,"Ġbang":2392,"Ġcháº£y":2393,"ĠBá»ĳ":2394,"ĠNÃły":2395,"ate":2396,"nie":2397,"uh":2398,"Ġsáº¯c":2399,"Ġxung":2400,"cÃ´":2401,"Ġtáº·ng":2402,"ice":2403,"ĠbÃ²":2404,"Ġvinh":2405,"ĠkÃªu":2406,"ChÃł":2407,"ld":2408,"Ġtá»ķn":2409,"Ã½t":2410,"Tiáº¿ng":2411,"lÃł":2412,"ames":2413,"ĠvÄ©":2414,"Ġcáº¯p":2415,"Ġlá»Ĺ":2416,"Ġtá»ı":2417,"ĠEd":2418,"az":2419,"ĠgiÃ¡m":2420,"Wh":2421,"eon":2422,"Ġná»ĳi":2423,"Ġchá»ĳi":2424,"ĠChá»ī":2425,"Giáº¿t":2426,"att":2427,"orn":2428,"Ġkim":2429,"ĠcháºŃm":2430,"á»Ķng":2431,"ĠmÅ©i":2432,"est":2433,"785":2434,"Ġ00":2435,"ĠSp":2436,"Cáº©n":2437,"ĠÃ´":2438,"ĠCharl":2439,"ĠBa":2440,"Ġthiá»ĩu":2441,"Ġchiá»ģu":2442,"ĠkhÃ¡m":2443,"our":2444,"ĠvÆ°Æ¡ng":2445,"Ġrá»Ļng":2446,"69":2447,"ĠÄĳÃło":2448,"Ġchiáº¿m":2449,"ĠtoÃ¡n":2450,"ĠhÃ£i":2451,"ĠnÆ°":2452,"ĠÄĳá»¥":2453,"Ġgiam":2454,"Ġgháº¿":2455,"ĠtÃ¡n":2456,"ĠngÆ°á»£c":2457,"ĠhÃ²":2458,"Ca":2459,"Nhá»Ľ":2460,"ky":2461,"ĠkÃª":2462,"Ãįt":2463,"ĠHÃ£y":2464,"Ġkhoáº£n":2465,"ĠthÆ°á»Łng":2466,"Ġcáº£n":2467,"Co":2468,"Ġmy":2469,"ĠCÃ²n":2470,"ĠcÃº":2471,"Ġpháº©m":2472,"lin":2473,"Ġáº¥n":2474,"ĠbÃ¨":2475,"Ġ11":2476,"Ġbá»¥ng":2477,"ĠÄĳá»ĳc":2478,"Ġru":2479,"Ġthá»Ŀ":2480,"AN":2481,"ĠhÆ°":2482,"Ġvai":2483,"Ġ100":2484,"ĠHáº¯n":2485,"ĠBar":2486,"ichael":2487,"Ġmá»Ļ":2488,"Ġsáº¡n":2489,"Ã³p":2490,"NÆ¡i":2491,"ĠgiÃ³":2492,"īnh":2493,"ĠthÆ°á»£ng":2494,"ĠhÃłi":2495,"Káº»":2496,"ĠÃĿ":2497,"ĠxÆ°a":2498,"Ġá»ĳng":2499,"ĠchuyÃª":2500,"Hiá»ĥu":2501,"Ġhá»įp":2502,"Ġ0":2503,"Ġkhá»ī":2504,"ĠhÃ´":2505,"ĠtrÄĥm":2506,"ÄĲÃ¡ng":2507,"ĠÄĳá»ĭch":2508,"ĠTá»Ľ":2509,"ĠnÃ´":2510,"ÌĢ.":2511,"ĠÃĶi":2512,"ĠnhÃ¢":2513,"á»Ľn":2514,"ny":2515,"ĠmÃ´ng":2516,"ĠlÆ°Æ¡ng":2517,"Ġrá»ĵ":2518,"ĠLa":2519,"ĠThÃ´i":2520,"Ġváº½":2521,"Ġká»ĭch":2522,"Ġnhiá»ħ":2523,"Nhiá»ģu":2524,"22":2525,"Ġbá»ĳn":2526,"Ġháº¡t":2527,"Ġlao":2528,"Ġtan":2529,"ĠÄĳiÃª":2530,"Ġthá»ķ":2531,"ĠDo":2532,"Ġháº¥p":2533,"iss":2534,"ast":2535,"Ġkhiáº¿p":2536,"ĠLÃł":2537,"old":2538,"Ġtrao":2539,"ÄĲá»Ļi":2540,"Ġniá»ģm":2541,"Ġnam":2542,"DÄ©":2543,"ING":2544,"ĠWh":2545,"Ġtáº¡p":2546,"ĠgÃł":2547,"ca":2548,"ĠMor":2549,"eor":2550,"ĠghÃª":2551,"GiÃºp":2552,"Ká»ĥ":2553,"Ġbáº¡o":2554,"Ġkhá»©":2555,"ĠthÃŃ":2556,"Ġdáº¡ng":2557,"ĠÄĳá»ĳt":2558,"ĠÄĳiá»ĩp":2559,"Ġnháº¹":2560,"ĠJim":2561,"Ġkáº¹t":2562,"Ġcá»¡":2563,"HÃ¬nh":2564,"ĠBen":2565,"red":2566,"Ġngoan":2567,"Ġtáº¯c":2568,"Ġj":2569,"Ġ..":2570,"...?":2571,"st":2572,"ĠthÃ¡nh":2573,"ĠphÃ¡n":2574,"Ġthiá»ĩn":2575,"Ġ50":2576,"Ġmáº½":2577,"Chuáº©n":2578,"225":2579,"Cá»§a":2580,"ĠtiÃª":2581,"áº¤":2582,"Ġcam":2583,"ica":2584,"Ġrá»ĵng":2585,"aire":2586,"Ġcá»Ŀ":2587,"ĠHar":2588,"Ġpháº¡t":2589,"7871":2590,"CÃ¢u":2591,"Cuá»ĳi":2592,"Ha":2593,"ĠÄĳeo":2594,"one":2595,"Ġwh":2596,"ĠTom":2597,"Ġcanh":2598,"Ġtrá»ĳng":2599,"To":2600,"een":2601,"now":2602,"ĠÄĳÃ¢m":2603,"ĠxuyÃªn":2604,"ĠNáº¿u":2605,"Im":2606,"ĠsÃ³ng":2607,"ĠChuyá»ĩn":2608,"Hy":2609,"ott":2610,"Cl":2611,"John":2612,"inc":2613,"TrÃªn":2614,"Ġthoáº£i":2615,"Ġchuá»Ļt":2616,"Ġcá»©ng":2617,"ÄĲá»§":2618,"Ġcá»ķng":2619,"ose":2620,"Ġláº«n":2621,"Ġgo":2622,"Æ°á»£n":2623,"ĠYeah":2624,"ĠmÃłn":2625,"Ġnghá»ģ":2626,"Cá»ķ":2627,"Ġbáº©n":2628,"Ġnga":2629,"ÄĲÃ´i":2630,"St":2631,"ĠkhuyÃªn":2632,"Ġtáº£i":2633,"ÌĢ?":2634,"Ġáº£":2635,"ore":2636,"Ġngá»įn":2637,"Ġgiá»įng":2638,"uck":2639,"aul":2640,"Ġhiá»ĩp":2641,"Sáºµn":2642,"ĠTá»ĳt":2643,"ĠrÄĥng":2644,"Ġtháº£m":2645,"ĠAm":2646,"ĠcáºŃn":2647,"ĠsÃ´":2648,"ĠxÆ°Æ¡ng":2649,"ĠÄĳua":2650,"ver":2651,"ÄĲáº§u":2652,"Ġ18":2653,"Ġcáº·p":2654,"Bá»ĭ":2655,"ĠÄĳá»¥ng":2656,"Ġdáº§n":2657,"Ġká»ĭp":2658,"ĠcÃ¢n":2659,"ĠRob":2660,"ĠtÃ³m":2661,"ÄĲo":2662,"\"?":2663,"Thá»Ŀi":2664,"ook":2665,"ĠEl":2666,"ĠTH":2667,"Ġsh":2668,"âĻ«":2669,"ĠlÃ£ng":2670,"yn":2671,"ĠcÃ³c":2672,"ĠgiÃłu":2673,"ma":2674,"Ġsá»©":2675,"ĠbÆ¡i":2676,"ĠlÃ´i":2677,"ĠtrÃ¹ng":2678,"Ġdá»¥":2679,"Ġtá»ĳ":2680,"Ġgáº¥p":2681,"ĠTáº¥t":2682,"Ġthiá»ĩt":2683,"avid":2684,"liv":2685,"ÄĤn":2686,"Lo":2687,"iam":2688,"ĠxÃ¢m":2689,"ĠÄĳá»±":2690,"**":2691,"?\"":2692,"ĠÄĳÃ¡p":2693,"ĠMon":2694,"ĠÄĳÃ²i":2695,"do":2696,"Tá»¥i":2697,"Ġváº©n":2698,"Ġmá»ĵm":2699,"Háº£":2700,"ĠtrÆ°a":2701,"á»Ľp":2702,"BÃªn":2703,"TÃ¬nh":2704,"ĠMÃły":2705,"Ġkhoan":2706,"Báº±ng":2707,"ner":2708,"ĠrÃ¡c":2709,"Háº¿t":2710,"Ìģ?":2711,"ony":2712,"ĠÄĲÃ´ng":2713,"Sam":2714,"Ġbá»Ŀ":2715,"ĠtÆ¡":2716,"ĠvÃµ":2717,"Ġthá»£":2718,"ĠCho":2719,"ĠÂ":2720,"ĠcÃ£i":2721,"Ġhá»ĳi":2722,"ull":2723,"Gáº·p":2724,"ĠnÃ¡t":2725,"ish":2726,"Bao":2727,"ĠÄĳáº¡t":2728,"ĠÄĳu":2729,"ĠTháº§n":2730,"ĠlÃ¢":2731,"ĠWill":2732,"Ġnhiá»ĩt":2733,"Ġmáº£nh":2734,"Ġá»Ĵ":2735,"ĠlÄ©nh":2736,"ĠÄĳá»©c":2737,"ĠÄĳá»±ng":2738,"Ġtháº¥p":2739,"Ġngá»±c":2740,"Trung":2741,"ĠtÃ¢y":2742,"Ġphiáº¿u":2743,"NÃ¨":2744,"yl":2745,"ĠÄĳá»ĵn":2746,"ug":2747,"Ġtháº»":2748,"Tháº§n":2749,"ĠdÆ°Æ¡ng":2750,"Ġthai":2751,"Ġnhi":2752,"Ġchiáº¿u":2753,"out":2754,"Ġcáº¥t":2755,"CH":2756,"Sá»ĳ":2757,"ren":2758,"ĠxÃ£":2759,"op":2760,"ĠngÃ£":2761,"NÄĥm":2762,"ĠcáºŃp":2763,"BI":2764,"ĠvÃ¢ng":2765,"ĠNháºŃt":2766,"ĠÃ©p":2767,"Ġáº¥m":2768,"Ġtreo":2769,"ert":2770,"Ġrá»Ńa":2771,"Æł":2772,"Ġ'":2773,"Ġnhiá»ħm":2774,"ĠgiÃły":2775,"ĠbÃ£i":2776,"cy":2777,"Ġá»«":2778,"Ġhe":2779,"Ġmiá»ħn":2780,"ĠWal":2781,"ĠThe":2782,"Chá»Ĺ":2783,"ÄĲÃ¢u":2784,"ĠmÃ¨o":2785,"Ġ40":2786,"Ġtháº©m":2787,"236":2788,"Ġcá»Ľ":2789,"anny":2790,"Ġuh":2791,"ĠviÃª":2792,"ĠCÃ¡c":2793,"ĠTrÃ¡i":2794,"ĠBl":2795,"ĠngÆ¡i":2796,"Ġá»ŀ":2797,"ĠCháº¯c":2798,"cáºŃu":2799,"nÃ³":2800,"Ġkháº©n":2801,"Ġngang":2802,"Well":2803,"ĠsÃ¡u":2804,"ĠthÄĥng":2805,"ĠBe":2806,"CÃ¡ch":2807,"Jack":2808,"OK":2809,"Ġthat":2810,"Wow":2811,"ib":2812,"Ġdung":2813,"ĠlÃłng":2814,"erry":2815,"ake":2816,"NghÄ©a":2817,"ily":2818,"Ġáº£o":2819,"ĠdÅ©ng":2820,"Hi":2821,"ĠcÄĥng":2822,"Bá»Ļ":2823,"Ġlang":2824,"ĠthÃ¨m":2825,"ep":2826,"Tháº£":2827,"Ġchá»©a":2828,"Ok":2829,"ÄĲá»ĵng":2830,"ĠRá»ĵi":2831,"ĠDan":2832,"ĠChÃ¡u":2833,"ale":2834,"ĠThÃ¡i":2835,"ĠmÆ°u":2836,"Ã£ng":2837,"Váº¥n":2838,"má»Ļt":2839,"ki":2840,"Ġvá»Ľ":2841,"Ġtá»ĳng":2842,"ĠCÃ´ng":2843,"Ġniá»ĩm":2844,"ĠFl":2845,"ĠMc":2846,"Máº·c":2847,"áº¹o":2848,"áº±n":2849,"Ġcháº¥m":2850,"Ġtri":2851,"Ġbáº«y":2852,"NhÃ¢n":2853,"ĠÄĳÄĥng":2854,"Ġliá»ģu":2855,"Ġgan":2856,"Ġhoáº¡i":2857,"Ġyour":2858,"ĠBÃł":2859,"ĠCá»©":2860,"ĠLan":2861,"lÃłm":2862,"ĠBob":2863,"And":2864,"ka":2865,"Ġlá»¥c":2866,"Ġmáº¡ch":2867,"Ġlá»¡":2868,"Ġis":2869,"Æ°á»Ŀn":2870,"Xong":2871,"ĠngÃ³n":2872,"ĠchÃª":2873,"Má»Ŀi":2874,"The":2875,"ĠgÃ¡c":2876,"Ġchai":2877,"Tráº£":2878,"Tá»±":2879,"Whoa":2880,"za":2881,"ĠbiÃªn":2882,"ĠtrÃł":2883,"ĠvÃ©":2884,"á»Ļp":2885,"era":2886,"Ġphá»©c":2887,"ÄĲÃ¡nh":2888,"7845":2889,"ron":2890,"Ġbia":2891,"ĠPar":2892,"ĠthÃ¡m":2893,"ĠchÃ´n":2894,"ĠmÃ¹":2895,"Ġ--":2896,"Tuy":2897,"MÃ¡y":2898,"row":2899,"ĠlÃ¹ng":2900,"Ġbáº¿p":2901,"Ġhá»ıa":2902,"ĠtÆ°á»Ľc":2903,"30":2904,"Ġdoanh":2905,"Ġsáº»":2906,"Ġngáº¯n":2907,"ĠlÆ¡":2908,"Ġdá»©t":2909,"ĠmÃ´n":2910,"ĠVÃ¬":2911,"oth":2912,"ĠthÃ¡ch":2913,"ĠchÄĥ":2914,"TháºŃm":2915,"Káº¿t":2916,"á»Ĳ":2917,"rist":2918,"ĠhiÃª":2919,"eorge":2920,"Ġ:":2921,"Trá»«":2922,"ĠPeter":2923,"Ġhuáº¥n":2924,"Gáº§n":2925,"ĠÃģ":2926,"ĠtrÃºng":2927,"Ġhoáº£ng":2928,"Ġlui":2929,"ĠThiÃªn":2930,"ĠtrÄĥng":2931,"Ġhung":2932,"Ġngáº¡i":2933,"ĠÄĳiáº¿m":2934,"Tháº§y":2935,"ĠtÃºy":2936,"ĠmÃ¡t":2937,"Ġá»©c":2938,"ade":2939,"ĠlÃ¡t":2940,"ĠbÄĥ":2941,"GÃ£":2942,"ĠNÃ³i":2943,"ĠtÃ¡i":2944,"ER":2945,"ĠgÆ°Æ¡ng":2946,"ico":2947,"ĠÄĳá»īnh":2948,"ĠAlex":2949,"iÃªm":2950,"ThÃłnh":2951,"Jo":2952,"Va":2953,"ĠbáºŃt":2954,"ĠRáº¥t":2955,"ĠmÆ°a":2956,"ue":2957,"ĠlÆ°á»£t":2958,"Chuy":2959,"'m":2960,"Ġmiáº¿ng":2961,"50":2962,"ĠRe":2963,"ald":2964,"Ġnáº¥u":2965,"illy":2966,"ĠphÃ³":2967,"Ġmáº¡o":2968,"ever":2969,"Ġhá»įa":2970,"ĠÄĳáº¿m":2971,"Vá»£":2972,"Ã¹n":2973,"Ġlá»Ļn":2974,"ĠPhi":2975,"Tiá»ģn":2976,"7843":2977,"Ã£nh":2978,"ĠChÃ¢u":2979,"Xe":2980,"ĠrÃ¢":2981,"ĠxÃŃ":2982,"ĠbÃ¡m":2983,"NH":2984,"ens":2985,"Ġkha":2986,"Ġnháº¯m":2987,"ĠTao":2988,"ĠRa":2989,"Ġtháº£o":2990,"Mang":2991,"Sáº¿p":2992,"Ġfor":2993,"á»µ":2994,"ĠtÃ¢":2995,"CÃ¹ng":2996,"ÃĤ":2997,"land":2998,"ĠDon":2999,"Ġphe":3000,"ÌĢ,":3001,"ĠgÃ³c":3002,"ĠMa":3003,"ĠkhÃ´":3004,"ĠNghe":3005,"á»ĭnh":3006,"Ġchá»īnh":3007,"ĠbÃª":3008,"á»¥p":3009,"ĠBan":3010,"ĠthÃ¹ng":3011,"Ġ24":3012,"á»Ĺng":3013,"Náº±m":3014,"ĠtuyÃªn":3015,"Ġmo":3016,"Cáº§n":3017,"Bu":3018,"ney":3019,"ĠÄĳÃ©o":3020,"Thá»Ń":3021,"Ġá»§ng":3022,"Ġvu":3023,"ĠtÃ¹y":3024,"Ġcáº£i":3025,"ĠgiÃ£n":3026,"CÆ¡":3027,"VÃłi":3028,"Ġcá»±":3029,"ity":3030,"ĠnÃ´ng":3031,"ĠgiÃłnh":3032,"ĠNhÃł":3033,"Ġ14":3034,"ĠJames":3035,"Ġ13":3036,"ĠbuÃ´n":3037,"ĠnÃ£y":3038,"ĠVÆ°Æ¡ng":3039,"Gia":3040,"ĠÄĳc":3041,"Ġlá»ĵ":3042,"ana":3043,"Ġyeah":3044,"Chiáº¿n":3045,"ouse":3046,"PhÃ²ng":3047,"Frank":3048,"Khá»ĳn":3049,"ĠPr":3050,"LÅ©":3051,"Vui":3052,"Ġvá»Ŀ":3053,"Ġsáº¯t":3054,"ĠJon":3055,"ary":3056,"ĠÄĳá»Ľn":3057,"yd":3058,"ĠchÃ³ng":3059,"á»ªm":3060,"enny":3061,"ranc":3062,"ĠBer":3063,"ÄĲáº·c":3064,"Ġxá»©":3065,"ist":3066,"Ġtáº£":3067,"ĠCol":3068,"ĠbÃło":3069,"20":3070,"Ġtá»ī":3071,"Äĳá»ĥ":3072,"Ġkhá»ķng":3073,"ĠÄĳáºŃu":3074,"ĠGiÃ¡o":3075,"ĠmÃ³c":3076,"Ġli":3077,"SÆ°":3078,"go":3079,"Do":3080,"ĠNha":3081,"ĠCarl":3082,"Láº¡y":3083,"You":3084,"Ġháº£i":3085,"IA":3086,"ĠxÃ³a":3087,"\",":3088,"Ġcá»ĳc":3089,"ort":3090,"ĠhÄĥ":3091,"ĠdÃ¬":3092,"Ma":3093,"ĠchÃ¬m":3094,"ĠLong":3095,"cus":3096,"Ġliá»ģn":3097,"Chiáº¿c":3098,"cho":3099,"Ġdáº¡o":3100,"liver":3101,"Ġdáº§u":3102,"ĠAb":3103,"250":3104,"Ġtrá»©ng":3105,"ĠtrÆ°Æ¡":3106,"BÃ¡o":3107,"Ġchá»Ł":3108,"Ãĥ":3109,"Ġmá»ĵi":3110,"ĠtÃ¡ch":3111,"Ġbáº£ng":3112,"Æ°á»Ľt":3113,"ius":3114,"Ġpháº«u":3115,"ĠmÃ´i":3116,"ÄĳÆ°á»£c":3117,"Ġmá»¥":3118,"ĠÄĲáº¥t":3119,"ĠVua":3120,"226":3121,"Ġhá»ĵng":3122,"ĠmÃ¢":3123,"Mi":3124,"ĠSan":3125,"á»§i":3126,"ĠtrÃ¡":3127,"Ġnhu":3128,"ThÃªm":3129,"ĠKim":3130,"Ġcáº¯n":3131,"ĠHai":3132,"La":3133,"Ġphá»ıng":3134,"Ġchá»Ľ":3135,"Ġnho":3136,"Br":3137,"Ġthá»ķi":3138,"Ġsá»¹":3139,"NÆ°á»Ľc":3140,"Ġ200":3141,"17":3142,"Ġtá»¥":3143,"ĠÄĳÆ°":3144,"ĠháºŃn":3145,"ĠkÃŃn":3146,"Ġgáº¯n":3147,"ĠdÃ¢m":3148,"Ġngá»¯":3149,"ĠStark":3150,"ier":3151,"wood":3152,"ink":3153,"ĠKá»³":3154,"Láº½":3155,"ngel":3156,"Ġdáº¹p":3157,"Ġquang":3158,"Vá»¥":3159,"Ġdá»±a":3160,"Ġtráº§n":3161,"ix":3162,"Ġgáº¥u":3163,"ĠbÃ£o":3164,"ÄĲÃªm":3165,"ĠÄĳáº¥m":3166,"á»ĭa":3167,"Ġmá»Ļng":3168,"ĠBá»Ļ":3169,"eet":3170,"ĠbÃ´":3171,"7853":3172,"die":3173,"ĠphiÃªn":3174,"AR":3175,"Ġngá»įt":3176,"11":3177,"Ġnguyá»ģn":3178,"QuÃ¢n":3179,"Ar":3180,"ĠkhÃ¡t":3181,"ÄĳÃ³":3182,"ington":3183,"ĠtrÃ¬":3184,"ĠtrÃ´i":3185,"ĠkÄ©":3186,"ĠWil":3187,"Ġtuyáº¿n":3188,"May":3189,"Tay":3190,"LÃ¹i":3191,"ĠhÃ©t":3192,"á»ĭt":3193,"ĠCal":3194,"ĠmÆ°á»£n":3195,"Ġtá»ĳn":3196,"á»ĳm":3197,"Ġah":3198,"ÄĲÆ°á»Ŀng":3199,"ĠgiÃ¡n":3200,"ĠdÆ°":3201,"ĠHá»Ļi":3202,"Khá»ī":3203,"náº¿u":3204,"ita":3205,"Ed":3206,"ĠniÃªn":3207,"ĠHarry":3208,"ĠghÃ©":3209,"Jim":3210,"ĠtÃ¡o":3211,"ĠsÃłn":3212,"ĠMá»įi":3213,"VÃ´":3214,"Kiá»ĥm":3215,"ĠÃ³c":3216,"ON":3217,"Ġcáº¥m":3218,"ĠnhiÃª":3219,"ĠGre":3220,"Ġ16":3221,"HÃłng":3222,"ĠÄĳuÃ´i":3223,"ĠLiÃªn":3224,"Ġráº¯n":3225,"Phá»¥":3226,"áº¢nh":3227,"ĠtrÆ°á»£t":3228,"Uá»ĳng":3229,"ĠMichael":3230,"ĠCr":3231,"ĠDe":3232,"ĠhÃ¨":3233,"ÄĲáº¥y":3234,"Ġnhá»¥c":3235,"agg":3236,"ĠmÃ²":3237,"ĠdÃ²":3238,"á»Łm":3239,"ail":3240,"ĠÃ´m":3241,"Ġ25":3242,"Ġngáº§m":3243,"way":3244,"ĠhÃ²n":3245,"á»ĩn":3246,"Äĳi":3247,"ĠtháºŃp":3248,"ĠMer":3249,"ĠbÃły":3250,"ĠlÆ°á»¡i":3251,"ĠchiÃª":3252,"ĠAd":3253,"ĠChu":3254,"ĠquÃª":3255,"Ġknow":3256,"ĠkhiÃªu":3257,"Liá»ĩu":3258,"ĠTuyá»ĩt":3259,"Ġcá»Ľm":3260,"ite":3261,"fscx":3262,"fscy":3263,"19":3264,"ĠlÃ´ng":3265,"ĠgÃ£y":3266,"ko":3267,"áº«m":3268,"HÆ¡n":3269,"LuÃ´n":3270,"ĠFBI":3271,"NgoÃłi":3272,"Ġquyá»ĥn":3273,"Ġ17":3274,"Hmm":3275,"TáºŃp":3276,"ĠÃĩ":3277,"Khoáº£ng":3278,"osh":3279,"Ġst":3280,"ToÃłn":3281,"Biáº¿n":3282,"ĠbÆ¡":3283,"bo":3284,"Â¿":3285,"Ġthá»¥":3286,"Ġliá»ĩt":3287,"arah":3288,"sa":3289,"'re":3290,"Tu":3291,"ĠphÃ¡o":3292,"ĠCH":3293,"Ġtá»§":3294,"Ġleo":3295,"Ġmanh":3296,"pe":3297,"ĠMike":3298,"ene":3299,"ĠkhuÃ´n":3300,"Ġvá»Ļi":3301,"thÃ¬":3302,"Ġtuyáº¿t":3303,"Ġtháº£i":3304,"Ġtráº¡m":3305,"ory":3306,"ĠAll":3307,"ĠvÃ¢y":3308,"Ġgá»ĳc":3309,"ĠhÃ¨n":3310,"ous":3311,"Ġcá»Ł":3312,"Charl":3313,"ĠCharlie":3314,"Am":3315,"HoÃłn":3316,"Ġháº¡ng":3317,"Ġná»ģn":3318,"Tiá»ĥu":3319,"ĠÃĢ":3320,"ĠmÃ¬":3321,"Ġcá»ı":3322,"ĠGiá»Ŀ":3323,"age":3324,"ĠnÃ¢ng":3325,"ason":3326,"pháº£i":3327,"obot":3328,"uynh":3329,"NghÄ©":3330,"ĠOr":3331,"ĠChÃŃnh":3332,"ĠParis":3333,"Um":3334,"Ġwe":3335,"ĠsÃ³i":3336,"á»ģm":3337,"ĠThÃ¡nh":3338,"Lá»ĳi":3339,"LÃ£o":3340,"ire":3341,"Ġhuyáº¿t":3342,"7889":3343,"Ġnghiá»ĩn":3344,"ĠtrÆ¡":3345,"Ġchá»£":3346,"ĠmÄĥ":3347,"ictor":3348,"tin":3349,"ĠtÆ°Æ¡i":3350,"ĠkhÃ¡ng":3351,"Ìī.":3352,"elle":3353,"Ġokay":3354,"ĠlÃ¹i":3355,"Chi":3356,"Ġmáº¿n":3357,"ĠmáºŃp":3358,"ĠTáº¡m":3359,"own":3360,"rodo":3361,"Ráº±ng":3362,"ĠkhÃ´n":3363,"ĠkhÃ¹ng":3364,"Ġmáº¡n":3365,"Ġcá»Łi":3366,"áº¾":3367,"ĠnÆ°á»Ľng":3368,"ĠRach":3369,"NÃłng":3370,"ĠGod":3371,"ÄĲáº¹p":3372,"Ġung":3373,"evin":3374,"ÃŃn":3375,"áº¤n":3376,"7879":3377,"sy":3378,"ĠÄĳuá»ĳi":3379,"ĠthÃ´":3380,"Ġtro":3381,"7841":3382,"ĠÄĳáº§n":3383,"ĠÄĳiá»ĩu":3384,"ĠÄĲÆ°a":3385,"ĠCam":3386,"obb":3387,"rey":3388,"ÄĲá»ĳi":3389,"SÃ¡ng":3390,"ĠThÆ°á»£ng":3391,"Ġbá»ıng":3392,"Ġki":3393,"ester":3394,"oug":3395,"ĠbÃ´ng":3396,"ĠNhá»¯ng":3397,"ace":3398,"ĠMÃ£":3399,"ĠÃĤ":3400,"itt":3401,"org":3402,"Su":3403,"Ġdá»Ł":3404,"ĠHay":3405,"ĠHy":3406,"669":3407,"ox":3408,"Káº¿":3409,"ĠlÄĥ":3410,"ĠÄĳÃŃt":3411,"olm":3412,"Ġbá»ķ":3413,"Ġmá»ıi":3414,"Ġnhá»ĳt":3415,"ĠHe":3416,"ĠTu":3417,"ĠhÃ´i":3418,"Ġmá»ĵ":3419,"ena":3420,"ĠDavid":3421,"He":3422,"ĠClaire":3423,"Cáº§m":3424,"Ġmáº¡c":3425,"ĠgÃ³i":3426,"Dáº¡":3427,"Ġman":3428,"Ġsá»¯a":3429,"ĠNo":3430,"ase":3431,"ĠnÃºt":3432,"Ġby":3433,"rian":3434,"rancis":3435,"ĠRoss":3436,"da":3437,"ĠvÃŃ":3438,"ĠphÃ¡i":3439,"FFFF":3440,"Háº¡":3441,"Ġkem":3442,"Ġnáº¡":3443,"ĠhÃ¢n":3444,"ChÆ¡i":3445,"ThÃ´ng":3446,"ĠBÃ¡c":3447,"Ġ60":3448,"Ġbá»¥i":3449,"ĠnhÃ¡t":3450,"KÃ©o":3451,"áº¿m":3452,"ĠEr":3453,"icky":3454,"Ġxáº¡":3455,"xi":3456,"ĠcÆ°Æ¡ng":3457,"CÃ¢":3458,"Ġsá»ĳt":3459,"Ġkhá»ĳi":3460,"ĠTiÃªn":3461,"Háº¹n":3462,"ĠRay":3463,"LE":3464,"OR":3465,"iet":3466,"ĠkiÃªn":3467,"ĠBÃ¬nh":3468,"ould":3469,"Pháº§n":3470,"ĠIn":3471,"ĠcuÃ´":3472,"Ġthoáº£ng":3473,"ĠChÆ°a":3474,";.":3475,"Sc":3476,"Ġtrá»«ng":3477,"ker":3478,"15":3479,"Ġká»ī":3480,"IN":3481,"der":3482,"ĠlÃ²":3483,"Ġchá»įc":3484,"ĠJoe":3485,"ĠTV":3486,"ĠthiÃªu":3487,"ĠgiÃ¡p":3488,"ĠChÃºc":3489,"7901":3490,"ĠThÆ°a":3491,"QuÃªn":3492,"ello":3493,"ĠrÅ©":3494,"Ġall":3495,"Thuyá»ģn":3496,"Ġtang":3497,"Ġhang":3498,"ĠNá»¯":3499,"Ġtá»·":3500,"¡n":3501,"ĠPet":3502,"ĠTrá»Ŀi":3503,"ĠGeorge":3504,"Ãľ":3505,"ĠhÃª":3506,"Ġquáº£ng":3507,"Ġlan":3508,"Ġbáº¯c":3509,"ĠbÃ³p":3510,"Ġbá»ĳc":3511,"enry":3512,"ĠNhanh":3513,"Cháº£":3514,"ĠSm":3515,"ichard":3516,"ĠchÄĥng":3517,"Ġbar":3518,"Ġ1060":3519,"giá»":3520,"van":3521,"Ġhiáº¿n":3522,"ĠMax":3523,"ada":3524,"Ãĵ":3525,"Tom":3526,"ngÆ°á»Ŀi":3527,"ĠthÃ¡p":3528,"ĠmÃ©t":3529,"pp":3530,"ĠÄĳÄ©a":3531,"Ġheo":3532,"ĠBá»įn":3533,"Æ°á»Łi":3534,"!\"":3535,"Ġngáº¯m":3536,"ain":3537,"les":3538,"ĠkÃ©m":3539,"eve":3540,"mer":3541,"Má»¥c":3542,"Thanh":3543,"Ġmiá»ģn":3544,"Máº·t":3545,"Ġbá»ĵi":3546,"ama":3547,"are":3548,"ĠlÃª":3549,"ĠKat":3550,"Ìģ,":3551,"ĠdÃ¢u":3552,"Ngá»§":3553,"'ll":3554,"ĠtrÃ²n":3555,"á»¥y":3556,"ino":3557,"Ġláº»":3558,"ĠhÆ°Æ¡ng":3559,"...\"":3560,"ĠCáº£nh":3561,"ĠNhÃ¬n":3562,"ĠÃ°":3563,"56":3564,"Car":3565,"ÃĮ":3566,"ield":3567,"anda":3568,"DÃ¹ng":3569,"á»¦":3570,"chá»ī":3571,"ĠÄĳá»ģn":3572,"AL":3573,"rie":3574,"ide":3575,"Ġhá»Ĺn":3576,"YÃªu":3577,"ĠvÃ£i":3578,"Ġlá»£":3579,"ĠcÆ°á»£c":3580,"Ġbáº£y":3581,"ĠLau":3582,"athan":3583,"Ġkáº¹o":3584,"hÃ£y":3585,"Lá»Ŀi":3586,"Ġtá»Łm":3587,"ÄĳÃ¢y":3588,"Ġxoay":3589,"Ġvá»©":3590,"cÃ¡i":3591,"iro":3592,"ĠngÅ©":3593,"ĠPark":3594,"ĠdÃ¡ng":3595,"ĠMÃ¬nh":3596,"Bá»ĩnh":3597,"Ġruá»Ļt":3598,"ĠvÃ¢n":3599,"ĠRachel":3600,"Máº¥t":3601,"Ġtiá»ĩm":3602,"Ġthá»ĳi":3603,"ĠkiÃª":3604,"Ġtoa":3605,"app":3606,"1000":3607,"ĠMal":3608,"Tá»ķng":3609,"Ġmá»ı":3610,"Ġá»ĳm":3611,"Ġgiai":3612,"ondon":3613,"ĠÃ¢n":3614,"Ġmá»ģm":3615,"ĠbÃ¡u":3616,"ThÆ°":3617,"Don":3618,"Sáº¯p":3619,"Ġmuá»Ļi":3620,"ĠEll":3621,"Ġvá»©t":3622,"ĠgiáºŃt":3623,"ound":3624,"Mu":3625,"Xuá»ĳng":3626,"ba":3627,"irus":3628,"Ġle":3629,"ĠxÃ³m":3630,"ĠquÃ©t":3631,"GiÃ¡o":3632,"gi":3633,"hh":3634,"ĠKhi":3635,"ĠTy":3636,"bie":3637,"Ġ$":3638,"uz":3639,"ĠCháº¿t":3640,"Ġhuá»ĳng":3641,"ĠTÆ°":3642,"Ġcá»©t":3643,"ĠÄĳá»ĵi":3644,"ella":3645,"Ġup":3646,"Ġcá»Ļt":3647,"ora":3648,"Ġcuá»ĵng":3649,"ÄĲÆ°Æ¡":3650,"ĠxÃŃch":3651,"li":3652,"áºŃc":3653,"Ġvá»¯ng":3654,"ÄĳÃºng":3655,"ÃŃa":3656,"Qua":3657,"ĠtiÃªm":3658,"bur":3659,"ĠcÃ¡t":3660,"ĠngÃ´n":3661,"ĠsuÃ½t":3662,"yan":3663,"Ġtá»ĭch":3664,"Ġká»ĩ":3665,"ĠIs":3666,"Ġwith":3667,"ĠAngel":3668,"Ġcai":3669,"ngh":3670,"lock":3671,"\"...":3672,"Ġláº§u":3673,"ĠMan":3674,"Äĳá»«ng":3675,"ĠBáº¡n":3676,"Ġgá»£i":3677,"trong":3678,"ĠdÄ©":3679,"ĠThuyá»ģn":3680,"itz":3681,"ĠmÆ°á»Ŀi":3682,"ĠtrÃłn":3683,"ĠÄĲiá»ģu":3684,"Ġlong":3685,"ÄĲáº·t":3686,"ĠMin":3687,"Ben":3688,"Ġgá»Łi":3689,"ĠÄĳáº¡p":3690,"Alex":3691,"Thay":3692,"Quáº£":3693,"Ġhiáº¿p":3694,"ĠNhÆ°":3695,"Vá»«a":3696,"Ġtruyá»ĩn":3697,"Ġvá»ı":3698,"ĠtÃłng":3699,"ĠChÃº":3700,"Gh":3701,"Quan":3702,"Ġgá»¥c":3703,"ĠtÃª":3704,"ĠchÃ¢u":3705,"ĠdÆ°á»Ŀng":3706,"Ġthis":3707,"andy":3708,"234":3709,"Hiá»ĩn":3710,"Ġhiáº¿m":3711,"Ġchá»§ng":3712,"lor":3713,"ĠdÃ£":3714,"Giáº£i":3715,"Peter":3716,"ĠkhÃŃch":3717,"Ġdiá»ĩu":3718,"ĠMary":3719,"ĠHam":3720,"ĠPaul":3721,"Ġbá»ĳi":3722,"ĠkhoÃ¡c":3723,"ĠMark":3724,"ĠgÄĥ":3725,"ĠBarry":3726,"ĠLou":3727,"ise":3728,"45":3729,"Ġváº§y":3730,"rew":3731,"ather":3732,"ĠÄĳáº»":3733,"ĠnÃª":3734,"Ġgiá»¡n":3735,"Háº§u":3736,"ĠTÃªn":3737,"ĠTiáº¿n":3738,"ĠtrÃ³i":3739,"Ì£.":3740,"ost":3741,"CK":3742,"ĠTR":3743,"exico":3744,"Ġxá»ī":3745,"ĠIm":3746,"ally":3747,"ĠÆ°u":3748,"Ġnháº£m":3749,"Trá»Ł":3750,"ern":3751,"ĠThÃłnh":3752,"vÃ¬":3753,"ĠHáº£i":3754,"itch":3755,"sao":3756,"Ġtháº¯c":3757,"Ġthiá»ĩp":3758,"Ġlá»ģ":3759,"ĠChá»ĭ":3760,"ings":3761,"Sp":3762,"eed":3763,"ĠTrong":3764,"Ġlá»£n":3765,"rick":3766,"ĠvÃ¡y":3767,"ĠLee":3768,"Ġgá»Ĺ":3769,"70":3770,"AS":3771,"Ġviá»ħn":3772,"Ġgá»ĳi":3773,"Ġro":3774,"ĠrÄĥ":3775,"ĠLondon":3776,"21":3777,"7875":3778,"ĠJul":3779,"ĠTráº¯ng":3780,"7897":3781,"ĠthÃ¡o":3782,"Khu":3783,"Ġláº·n":3784,"Ġngáº©n":3785,"ĠmÃ£n":3786,"Ġná»Ļp":3787,"ery":3788,"Ġ01":3789,"NÃª":3790,"ĠÄĲÃ£":3791,"alf":3792,"TH":3793,"ÃĴ":3794,"ĠNgh":3795,"Ġbá»ĵ":3796,"ĠbÃ©o":3797,"Ġtrá»¥c":3798,"ĠvÆ°á»Ŀn":3799,"ÄĲÆ°":3800,"ons":3801,"uss":3802,"thÆ°a":3803,"Huynh":3804,"Iá»":3805,"andler":3806,"ĠHey":3807,"ĠGar":3808,"ĠCa":3809,"Ġkhoang":3810,"ĠtuÃ¢n":3811,"ĠÄĳÃłng":3812,"Ġhuyá»ģn":3813,"up":3814,"ĠtrÃºc":3815,"ĠnÆ°Æ¡ng":3816,"ĠSim":3817,"Bl":3818,"Ġvá»ĳn":3819,"ĠTá»Ń":3820,"ĠnghÃ¬n":3821,"á»Ľc":3822,"ĠPhil":3823,"7873":3824,"Ġthan":3825,"Ġcá»§":3826,"ĠchuÃ´ng":3827,"ĠLuc":3828,"ĠâĻ«":3829,"ĠvÄ©nh":3830,"Ġpho":3831,"rag":3832,"HoÃłng":3833,"ĠSte":3834,"Ġsá»¥p":3835,"Ġgá»¡":3836,"ĠnhÃŃ":3837,"Huh":3838,"ÄĲá»©a":3839,"13":3840,"Ġbá»±c":3841,"Chá»§":3842,"lyn":3843,"net":3844,"su":3845,"bl":3846,"ĠgÃ¡nh":3847,"Ġde":3848,"ĠCo":3849,"ĠMr":3850,"orm":3851,"Ġright":3852,"bert":3853,"ÄĳÃ£":3854,"xin":3855,"ĠtÃ²":3856,"EA":3857,"ĠÄĲá»ĵng":3858,"Ġquyáº¿n":3859,"ĠkhÃ³i":3860,"ĠGiÃ¡ng":3861,"Kiá»ĥu":3862,"ĠÆ°a":3863,"ĠSÄ©":3864,"ĠPat":3865,"Ġthao":3866,"Ġbá»±":3867,"Ġgá»ĵm":3868,"Ġghen":3869,"olly":3870,"227":3871,"ero":3872,"ĠtÃ¹ng":3873,"ĠgiÃª":3874,"ese":3875,"ĠMexico":3876,"ThiÃªn":3877,"Ġráº»":3878,"ChÃłng":3879,"Ġquá»¹":3880,"ĠngÆ°":3881,"Ġke":3882,"Ġná»¥":3883,"ĠJe":3884,"Ġsá»£i":3885,"Loáº¡i":3886,"Ġngá»Ľ":3887,"ĠdÆ°á»¡ng":3888,"Michael":3889,"CÃºt":3890,"Ġthiáº¿p":3891,"ĠCap":3892,"elly":3893,"ĠgÃ³p":3894,"TrÃ¡i":3895,"isa":3896,"ĠdÃły":3897,"iá»ħu":3898,"ĠDave":3899,"16":3900,"há»į":3901,"ĠMay":3902,"Ġcháº¥n":3903,"GiÆ¡":3904,"Háº³n":3905,"ye":3906,"Cáº§u":3907,"ĠtÆ°Æ¡":3908,"ĠJimmy":3909,"BÃłi":3910,"âĢ":3911,"ĠBro":3912,"igg":3913,"ÄĲáº±ng":3914,"ĠBill":3915,"ĠngÆ°á»¡ng":3916,"Di":3917,"va":3918,"Ġcá»«":3919,"ĠtrÃº":3920,"7899":3921,"ĠÄĲÃ´":3922,"ĠÄĳÆ°Æ¡ng":3923,"ĠSinh":3924,"Æ¯á»Ľc":3925,"ĠbÃ¢":3926,"áº¿ch":3927,"ĠHouse":3928,"ĠNhÃ¢n":3929,"Vi":3930,"Chá»ĵng":3931,"ĠxÄĥng":3932,"cher":3933,"ĠnhÃłng":3934,"Ġcá»Ĺ":3935,"Ġloáº¡t":3936,"Ġsuáº¥t":3937,"ĠnhÆ¡":3938,"ĠMo":3939,"Ġvoi":3940,"ĠmÃ¡":3941,"LÃ¢u":3942,"Ġbá»ĩ":3943,"ĠDa":3944,"ĠFrancis":3945,"ĠHá»ĵng":3946,"Ġkhoáº»":3947,"ÄĲÃ³ng":3948,"DáºŃy":3949,"ĠsÆ¡n":3950,"ĠEn":3951,"ThÃ¢":3952,"ĠChá»Ŀ":3953,"QuÃ½":3954,"Báº£n":3955,"ĠJoey":3956,"ĠnghÃ¨o":3957,"ĠTony":3958,"Harry":3959,"ĠÄĳÃ²n":3960,"Ġgot":3961,"Ġdon":3962,",...":3963,"Dá»ħ":3964,"ĠÄĳáº¯n":3965,"Ġchui":3966,"ĠVal":3967,"KhÃ¡":3968,"ĠSe":3969,"uch":3970,"ĠSher":3971,"nhá»¯ng":3972,"Ġngá»Ńi":3973,"ĠÃĤu":3974,"me":3975,"ĠlÃ³t":3976,"ree":3977,"Ġi":3978,"áº¬":3979,"áºł":3980,"ĠÄĳÆ¡":3981,"Ġare":3982,"ough":3983,"field":3984,"ĠchÃ´":3985,"inch":3986,"ister":3987,"ĠtÃ¡m":3988,"Ġbá»ģ":3989,"Ġnáº¯ng":3990,"ĠJake":3991,"ĠOliver":3992,"ĠdÃ¹m":3993,"CÃ¢m":3994,"Há»ıi":3995,"Bob":3996,"ĠlÃ©n":3997,"Ġgáº¡t":3998,"Ġdáº¡":3999,"ĠDar":4000,"áº»o":4001,"EL":4002,"Mm":4003,"Ġvong":4004,"Ġbá»įc":4005,"Ġthá»ī":4006,"ĠHáº£":4007,"ĠkhoÃ¡":4008,"Ġcáº¯m":4009,"annah":4010,"7907":4011,"Há»ĵi":4012,"váºŃy":4013,"ĠchiÃªu":4014,"ĠbáºŃc":4015,"7913":4016,"Ġáº¤n":4017,"inn":4018,"ĠCIA":4019,"ander":4020,")\\":4021,"VÃ¢":4022,"ille":4023,"Ġbá»Ľt":4024,"Ġnhe":4025,"Ġmá»įc":4026,"ĠcÆ¡m":4027,"de":4028,"cÃ¡c":4029,"Ġout":4030,"ĠMat":4031,"ct":4032,"Ġphá»ķi":4033,"ĠxÃ©":4034,"omas":4035,"ini":4036,"ĠTe":4037,"ĠhoÃłi":4038,"14":4039,"ĠchÃŃn":4040,"Dá»ĭch":4041,"Ġbiá»ĩn":4042,"ashington":4043,"Vá»ĭ":4044,"MÃ´":4045,"So":4046,"ger":4047,"oeb":4048,"Ġwas":4049,"ĠcáºŃy":4050,"ĠlÆ°á»£c":4051,"El":4052,"Will":4053,"Ġláº¡y":4054,"Ġkhoáº£nh":4055,"ĠNick":4056,"umb":4057,"67":4058,"mÃł":4059,"ars":4060,"Ġcamera":4061,"18":4062,"Thuá»ĳc":4063,"Giá»ıi":4064,"ha":4065,"Ġnhá»ĭp":4066,"Cá»Ńa":4067,"ward":4068,"272":4069,"Ġtáº¡":4070,"Ġhave":4071,"ĠThanh":4072,"Ġrobot":4073,"ĠBáº£o":4074,"thur":4075,"ipp":4076,"BiÃªn":4077,"Ġthá»īu":4078,"ĠrÃło":4079,"ĠtrÃ¹m":4080,"Ngon":4081,"ĠtÃ¢n":4082,"ĠngÃło":4083,"Ġráº½":4084,"ÄĲá»ĩ":4085,"ĠGl":4086,"ĠThÃ¬":4087,"7911":4088,"Ġá»ĵn":4089,"CÃ¡":4090,"lan":4091,"rom":4092,"29":4093,"ÄĲa":4094,"á»¥t":4095,"ĠQuÃ¢n":4096,"Ġláº·p":4097,"ĠhÆ°á»Ľc":4098,"Ġrá»§a":4099,"Buá»ķi":4100,"ĠÆ°á»Ľt":4101,"ĠDÆ°Æ¡ng":4102,"ĠHiá»ĩp":4103,"ĠDel":4104,"ĠRobert":4105,"xy":4106,"Å©i":4107,"ĠWe":4108,"Ġchá»ĳt":4109,"Nháº£y":4110,"Ġ[":4111,"Ġkhá»Ľp":4112,").":4113,"ĠlÆ°á»Ľi":4114,"ideo":4115,"Ġvo":4116,"Ġwhat":4117,"Ġvirus":4118,"ĠhÃł":4119,"BÆ°á»Ľc":4120,"ĠÄĳÃłm":4121,"ĠlÆ°":4122,"ame":4123,"Ġ500":4124,"Ġtuyá»ĥn":4125,"Ġnot":4126,"Tá»ĩ":4127,"ChÃ³":4128,"uk":4129,"ĠÄĳiá»ĥn":4130,"ĠchÃ³c":4131,"ĠTed":4132,"ĠJes":4133,"Ġlau":4134,"Ġtá»ıa":4135,"Ġtrá»¯":4136,"ĠbuÃ½t":4137,"áº¹t":4138,"ĠCan":4139,"TÃłu":4140,"ĠSo":4141,"Ġve":4142,"Ġbáº¿n":4143,"oman":4144,"ĠsÆ°á»Ľng":4145,"Ġtru":4146,"Nháº¥t":4147,"gg":4148,"sáº½":4149,"yr":4150,"ĠngÃłnh":4151,"ChÃ¢n":4152,"ĠÂ½":4153,"Ġ]":4154,"ĠTim":4155,"rell":4156,"khi":4157,"ies":4158,"Ġhá»ĩt":4159,"tein":4160,"Mmm":4161,"ford":4162,"Ġtia":4163,"ĠnÃ´n":4164,"What":4165,"HÃłnh":4166,"oe":4167,"įt":4168,"Nhiá»ĩm":4169,"LuáºŃt":4170,"ĠWilliam":4171,"ÄĲÆ¡n":4172,"iley":4173,"ĠMill":4174,"ĠBur":4175,"ĠDanny":4176,"ĠRed":4177,"EN":4178,"Kat":4179,"uddy":4180,"ĠJones":4181,"mond":4182,"Ġmá»Ŀ":4183,"aron":4184,"Ġcá»ĳng":4185,"eel":4186,"ĠhÃ¢m":4187,"uyáº¿n":4188,"Ġlá»ĳ":4189,"ĠngÃ´":4190,"eron":4191,"Gr":4192,"ĠMáº·t":4193,"ĠUh":4194,"Carl":4195,"Na":4196,"Æ¯á»ľ":4197,"Má»Ľi":4198,"Ġpháº¥n":4199,"Ġdáº¯t":4200,"ĠChrist":4201,"ĠRam":4202,"ĠÄĳoáº¡t":4203,"40":4204,"DÃ¬":4205,"hay":4206,"ĠthÃ¡c":4207,"36":4208,"Ġphá»ĳi":4209,"zo":4210,"Ġlike":4211,"ĠTo":4212,"ĠnhÃ¡":4213,"ĠngoÃ¡i":4214,"Ġ80":4215,"Aah":4216,"Tá»«ng":4217,"Ġbá»ĥ":4218,"Ġ45":4219,"ĠQueen":4220,"7891":4221,"Ġrad":4222,"ĠScott":4223,"PH":4224,"arta":4225,"ĠWashington":4226,"AT":4227,"TÃ¹":4228,"hmm":4229,"ĠbÃ³":4230,"ĠSau":4231,"ĠphÃ´":4232,"ors":4233,"TrÃ²":4234,"ther":4235,"ĠSáº½":4236,"ile":4237,"ss":4238,"ĠSch":4239,"ĠthÄĥ":4240,"inda":4241,"Ġmá»Ľ":4242,"Ġrá»Ļn":4243,"Ġdáº¡i":4244,"ĠLo":4245,"fe":4246,"ĠÄĳÃ¡o":4247,"Ġbá»į":4248,"Ġcáº£ng":4249,"ĠMau":4250,"ĠÄĳá»©t":4251,"eep":4252,"vin":4253,"Ġsá»ĳc":4254,"ĠRon":4255,"ĠngáºŃp":4256,"nhÆ°":4257,"ĠDá»ĭch":4258,"ĠchÃ©p":4259,"ÄĲem":4260,"Dan":4261,"Ġbáº¯p":4262,"Ġtrinh":4263,"Ġvang":4264,"ĠChá»§":4265,"agn":4266,"ĠMartin":4267,"ĠbÃºt":4268,"ĠOkay":4269,"Æ°Æ¡m":4270,"ĠTur":4271,"ĠChris":4272,"gan":4273,"ĠÄĳáº¡c":4274,"Ġlá»ĵng":4275,"Ġbá»ĵn":4276,"ÄĲiá»ĩn":4277,"Ġchá»ķ":4278,"ĠMur":4279,"Ġhoáº¡n":4280,"ya":4281,"ĠrÃ¢u":4282,"Ġgiu":4283,"Rach":4284,"rid":4285,"ĠÄĳáº£ng":4286,"ĠSarah":4287,"AU":4288,"ĠthÃł":4289,"erm":4290,"Ġwhoa":4291,"Kim":4292,"ĠtrÃ¡ng":4293,"Ġngáº¯t":4294,"ĠMe":4295,"ĠRo":4296,"ĠThiáº¿u":4297,"ĠVictor":4298,"100":4299,"HÆ¡i":4300,"ĠhÆ°u":4301,"ĠLáº¡p":4302,"ĠNor":4303,"ola":4304,"blur":4305,"GH":4306,"ĠSu":4307,"ĠcÃ¢m":4308,"Ġmá»ķ":4309,"ĠAt":4310,"Ġtáº£ng":4311,"Ġal":4312,"ĠdÃ¢":4313,"ĠÄĲá»ĵ":4314,"ĠLe":4315,"Ġgá»įn":4316,"ison":4317,"ĠcÃ²":4318,"Ġcáº¡n":4319,"Bay":4320,"ĠSara":4321,"nes":4322,"sp":4323,"Ġvá»Ł":4324,"ĠMac":4325,"ĠHa":4326,"tháºŃt":4327,"cia":4328,"ĠvÆ°":4329,"ĠKinh":4330,"ĠkhÃºc":4331,"gar":4332,"ÄĲÆ°Æ¡ng":4333,"á»ģu":4334,"andalf":4335,"CÆ°ng":4336,"Tá»ķ":4337,"ĠmÆ°Æ¡i":4338,"ĠhÃŃt":4339,"ÄĲÃłn":4340,"Ġgiáº·t":4341,"ĠBÃ¢y":4342,"ĠYou":4343,"Tim":4344,"eman":4345,"ĠRichard":4346,"7869":4347,"David":4348,"Ġrun":4349,"Ġcuá»Ļn":4350,"ĠcÆ°á»Ŀng":4351,"ĠngÆ°ng":4352,"ĠMinh":4353,"lly":4354,"Claire":4355,"ont":4356,"ĠBá»ı":4357,"ush":4358,"LiÃªn":4359,"Ġum":4360,"ĠRÃµ":4361,"ette":4362,"SÃºng":4363,"ez":4364,"ÄĲÃ¡m":4365,"ait":4366,"BÃ¡nh":4367,"aa":4368,"wn":4369,"Ġsong":4370,"ĠMil":4371,"ĠghÃ©p":4372,"TÆ°á»Ľng":4373,"Ġvan":4374,"Ġkhen":4375,"ĠgáºŃy":4376,"ĠSky":4377,"ĠEddie":4378,"rel":4379,"ĠcÆ°á»¡ng":4380,"ĠdÃ£y":4381,"ĠTay":4382,"ĠKar":4383,"%.":4384,"uce":4385,"ĠdÃª":4386,"ĠAv":4387,"ole":4388,"ĠtÃ©":4389,"ĠÄĳá»Ļn":4390,"42":4391,"Ġcáº¥u":4392,"Ġlá»ıng":4393,"ĠFrodo":4394,"Rob":4395,"Ġváº£":4396,"Ġrá»Ĺng":4397,"Ġcá»¥t":4398,"Â¶":4399,"ÄĲÃª":4400,"ÄĲau":4401,"Ġxáº¿":4402,"Ġngoa":4403,"Ġváº¯ng":4404,"KhÃ³":4405,"ÃĶNG":4406,"ĠDá»«ng":4407,"ady":4408,"Ġná»Ĺ":4409,"Ġtháº¯t":4410,"ation":4411,"RI":4412,"ĠvÃ¡n":4413,"Ġpin":4414,"Ġthuáº¿":4415,"Ġná»ĳt":4416,"ence":4417,"ĠThá»§":4418,"ĠJane":4419,"ĠWat":4420,"James":4421,"ĠÄĲáº¿n":4422,"Bo":4423,"LÃ½":4424,"ĠCas":4425,"Ná»¯":4426,"san":4427,"Ġtaxi":4428,"ĠdÃłn":4429,"ĠTá»±":4430,"Ġ21":4431,"ĠCharles":4432,"ĠxÃŃu":4433,"ĠLáº¡i":4434,"ĠDoug":4435,"ali":4436,"Ġong":4437,"Ġnháº¡y":4438,"ĠHá»ıa":4439,"Táº¯t":4440,"á»ĺ":4441,"ĠMi":4442,"vá»Ľi":4443,"Ġjust":4444,"DÆ°á»Ľi":4445,"ĠlÃ¢m":4446,"ĠmÃ³ng":4447,"All":4448,"ÄĲá»©c":4449,"ago":4450,"Ġngá»įc":4451,"ĠxÃ¬":4452,"ĠnhÃ©t":4453,"GiÃ¡":4454,"oebe":4455,"ĠÄĳáº¯t":4456,"ĠPH":4457,"Bar":4458,"Sinh":4459,"ĠcÃłi":4460,"ÄĲu":4461,"ES":4462,"Ġchuá»Ļc":4463,"ric":4464,"Ġdá»Ĺ":4465,"Ġ300":4466,"CÄĥn":4467,"Ġná»į":4468,"ĠMad":4469,"Ġget":4470,"than":4471,"und":4472,"cHFF":4473,"Ġvideo":4474,"ĠTheo":4475,"raz":4476,"ayne":4477,"ĠChiáº¿n":4478,"We":4479,"Ġ{\\":4480,"Ġkiá»ĩt":4481,"ĠxÃłi":4482,"ĠÄĲÆ°á»Ŀng":4483,"ĠkÃ©t":4484,",\"":4485,"Har":4486,"ĠCá»§a":4487,"Ngu":4488,"ĠRome":4489,"ĠÄĳáº¿ch":4490,"Lau":4491,"ĠchÄĥn":4492,"Ġthuáº§n":4493,"Tá»Ļi":4494,"ĠTor":4495,"ĠBut":4496,"Ġ1000":4497,"ĠViá»ĩt":4498,"iff":4499,"Thiáº¿u":4500,"ĠTommy":4501,"Ġsi":4502,"amp":4503,"ĠOk":4504,"Sá»ĳng":4505,"Ġtriá»ģu":4506,"ĠÄĳÃ£i":4507,"ĠGia":4508,"Ġlove":4509,"eck":4510,"ĠchÃł":4511,"ĠSal":4512,"pha":4513,"ĠFor":4514,"Ngoáº¡i":4515,"417":4516,"oung":4517,"7885":4518,"Re":4519,"Ġre":4520,"ordon":4521,"ĠAnna":4522,"Há»Ļi":4523,"Ġá»Ŀ":4524,"wen":4525,"ĠÄĳinh":4526,"Ġgiang":4527,"Yes":4528,"ĠxÄĥm":4529,"ĠTá»«":4530,"ĠÄĲang":4531,"Ġhá»ĳ":4532,"ThÃŃch":4533,"Ġá»«m":4534,".:":4535,"Bá»¯a":4536,"mÃły":4537,"ĠSub":4538,"amb":4539,"BÃ¡m":4540,"ĠgÃµ":4541,"ĠCoi":4542,"erson":4543,"ĠhoÃ¡":4544,"Ġhiá»ģn":4545,"ĠPal":4546,"Âī":4547,"Ġtiá»ģm":4548,"ĠbÃ¡":4549,"NghiÃªm":4550,"Wal":4551,"ĠxÃ´ng":4552,"ĠTá»ĳi":4553,"ĠkÃªnh":4554,"Ġbáº§y":4555,"ĠdÆ°á»£c":4556,"ĠNgÃły":4557,"avis":4558,"áº¥ng":4559,"ĠMatt":4560,"uel":4561,"ĠDom":4562,"ĠKy":4563,"ek":4564,"RO":4565,"Ġnuá»ĳt":4566,"ĠrÆ°á»¡i":4567,"ĠCá»Ļng":4568,"ĠNÄĥm":4569,"ĠgiÃ¹m":4570,"Ġnháº·t":4571,"RÃºt":4572,"TÆ°á»Łng":4573,"Ġdá»įc":4574,"cÃ²n":4575,"ĠcÆ°á»¡i":4576,"ĠtráºŃt":4577,"á»ĥm":4578,"ĠkhoÃ¡i":4579,"ive":4580,"istan":4581,"ĠHenry":4582,"ĠPer":4583,"oln":4584,"nder":4585,"Ã£m":4586,"ĠcÃ´n":4587,"Ġ22":4588,"£t":4589,"Ġhuá»·":4590,"ĠhoÃ£n":4591,"izza":4592,"ĠDaniel":4593,"ĠlÄĥn":4594,"Ġhey":4595,"Nhá»Ŀ":4596,"AlÃ´":4597,"ĠÄĳai":4598,"Ban":4599,"ĠtÄĥm":4600,"ĠHáº¡":4601,"Ġkháº¥u":4602,"Ġnháº¥n":4603,"RA":4604,"XÃ¡c":4605,"Ġquáº¥y":4606,"ĠVan":4607,"MÃ³n":4608,"tá»Ľ":4609,"ĠTex":4610,"ĠVá»ģ":4611,"ĠbuÃ´ng":4612,"ida":4613,"uman":4614,"Ġcá»«u":4615,"Ġsá»Ŀ":4616,"á»±u":4617,"ĠÃłh":4618,"Há»ĩ":4619,"Ġmá»±c":4620,"ĠxuÃ¢n":4621,"57":4622,"Max":4623,"Ġ48":4624,"7855":4625,"PS":4626,"Ã¤":4627,"vey":4628,"Ġráº£nh":4629,"ĠHan":4630,"ĠHel":4631,"PhÃŃa":4632,"Ìī?":4633,"ĠThá»ĳng":4634,"Bá»ĳn":4635,"ĠlÃ¹n":4636,"Ġtrá»Ļn":4637,"ĠTÆ°á»Ľng":4638,"ĠtrÆ°ng":4639,"ĠCity":4640,"Ġhá»įng":4641,"ĠBlack":4642,"olmes":4643,"ĠDu":4644,"ĠBilly":4645,"ĠSong":4646,"ĠWell":4647,"Ġtá»ĥ":4648,"Ġváº·t":4649,"Pha":4650,"ĠLy":4651,"Charlie":4652,"á»ĭn":4653,"omb":4654,"Ġ90":4655,"ĠNH":4656,"ĠFlor":4657,"pt":4658,"Ġquá»³":4659,"ĠHank":4660,"ĠKH":4661,"ĠFred":4662,"Ġcáº¡o":4663,"ĠláºŃt":4664,"oul":4665,"ĠEmily":4666,"ĠbÃ£":4667,"Ġrung":4668,"ĠKevin":4669,"anna":4670,"ii":4671,"ĠbÃ¹":4672,"ĠgÆ°Æ¡m":4673,"Mon":4674,"ĠchÃ©n":4675,"Cu":4676,"Ã±":4677,"Ġ23":4678,"tháº¿":4679,"ĠOK":4680,"ÃĻ":4681,"ĠMos":4682,"MÃ¡u":4683,"ï¼":4684,"KhÃ¡ch":4685,"Thu":4686,"incoln":4687,"Mike":4688,"Â¡":4689,"ĠCÅ©ng":4690,"ĠAsh":4691,"Ad":4692,"Gá»Ńi":4693,"Mai":4694,"YÃªn":4695,"Ġkiá»ĩm":4696,"Phi":4697,"Ġháº±ng":4698,"Chá»©":4699,"Ġranh":4700,"Ġdown":4701,"ĠÄĳÄĥ":4702,"ĠxÃ¡":4703,"LÃŃnh":4704,"ĠÄĲá»ĭa":4705,"etty":4706,"ĠChandler":4707,"Hoa":4708,"Ġtiá»ħn":4709,"Ġmáº¡i":4710,"ĠsÄĥ":4711,"ĠLann":4712,"Ġdá»ĭp":4713,"Ab":4714,"ĠmÃ¢y":4715,"ĠAdam":4716,"Mong":4717,"Ġat":4718,"ĠThá»©":4719,"ĠÄĳÃ¡y":4720,"ĠlÄĥng":4721,"ĠchÃ©m":4722,"Ġrá»ī":4723,"Ġloa":4724,"Ġthuá»·":4725,"Ġone":4726,"Ġbáº»":4727,"ĠCarol":4728,"ium":4729,"ĠtoÃł":4730,"It":4731,"Iáº¾":4732,"cel":4733,"ĠLinh":4734,"ĠVÅ©":4735,"IS":4736,"NA":4737,"ĠtáºŃt":4738,"ĠTháº±ng":4739,"Ġkhoai":4740,"Giáº£":4741,"Ġ70":4742,"á»¡i":4743,"ĠMonica":4744,"75":4745,"táº¥t":4746,"ĠÃĶ":4747,"ĠÄĳÃł":4748,"ÄĲá»Ļng":4749,"ĠxÃł":4750,"Ngá»«ng":4751,"Ġnáº¡p":4752,"ĠKhoan":4753,"ĠRos":4754,"ĠNgÆ°Æ¡i":4755,"ablo":4756,"CÃ¢y":4757,"ĠthÃ¢m":4758,"Ġtháº§m":4759,"Ġtháº¡ch":4760,"Ìģ!":4761,"ĠHobb":4762,"ĠrÆ°á»Łi":4763,"ĠBáº£n":4764,"ĠKing":4765,"eta":4766,"aven":4767,"Ġoh":4768,"ym":4769,"air":4770,"urt":4771,"otch":4772,"48":4773,"den":4774,"Ġnhá»Ł":4775,"ecca":4776,"olf":4777,"Ġthá»īnh":4778,"á»µt":4779,"ĠTexas":4780,"Má»«ng":4781,"ja":4782,"Ġbáº¡ch":4783,"ĠdÆ¡":4784,"ĠÄĲá»Ļi":4785,"ĠJess":4786,"ĠBao":4787,"ĠSÆ°":4788,"Rachel":4789,"ĠxuÃ´":4790,"máº¹":4791,"Ġváº¡n":4792,"ĠLang":4793,"ĠPhÃ²ng":4794,"Máº¯t":4795,"ĠVinc":4796,"Ġcá»±u":4797,"Ġradio":4798,"Ġtá»ĭ":4799,"Ġtáº©y":4800,"ĠSteve":4801,"ĠthÃ©p":4802,"Da":4803,"eil":4804,"Ġláº¯p":4805,"ĠCá»±c":4806,"ĠHÃłn":4807,"ĠCháº³ng":4808,"lat":4809,"Ġxá»Ļn":4810,"ĠNgay":4811,"'ve":4812,"ster":4813,"ThÆ°á»Ŀng":4814,"Man":4815,"oun":4816,"Ġrá»§i":4817,"ĠRoy":4818,"icago":4819,"Ġ:.":4820,"cá»§a":4821,"háº¯n":4822,"ĠchÃ¢m":4823,"ĠnÃ£":4824,"Ġsung":4825,"Ġrá»Ľt":4826,"120":4827,"Kinh":4828,"Tuáº§n":4829,"âĢĵ":4830,"ĠÄĳáºŃy":4831,"Tha":4832,"7903":4833,"tha":4834,"olas":4835,"ado":4836,"110":4837,"Ġgiáº£ng":4838,"ft":4839,"Ġkháº£o":4840,"ĠCÆ¡":4841,"ĠMáº¥y":4842,"ĠmuÃ´n":4843,"IC":4844,"Ġ*":4845,"ĠkiÃªu":4846,"arlett":4847,"Ġváº¥t":4848,"uyÃª":4849,"ĠFel":4850,"ĠlÃ¢y":4851,"Ġbuá»ĵng":4852,"ĠShaw":4853,"Chuyáº¿n":4854,"Å©a":4855,"ĠVÃło":4856,"HÃ³a":4857,"ga":4858,"ĠnhÃ£":4859,"Ġab":4860,"ĠgiÆ°":4861,"ĠAh":4862,"Ìĥ.":4863,"ĠUnder":4864,"BuÃ´ng":4865,"egas":4866,"asha":4867,"Ġtáº§u":4868,"ĠMy":4869,"Whoo":4870,"Ġá»§y":4871,"omp":4872,"ĠWall":4873,"Mo":4874,"Ãļ":4875,"Ġcháº±m":4876,"Ġmá»ī":4877,"ĠphiÃªu":4878,"ĠJu":4879,"Cá»Łi":4880,"ĠgÃłi":4881,"Ġphun":4882,"ĠquyÃª":4883,"thew":4884,"//":4885,"ji":4886,"ĠTiá»ĥu":4887,"esar":4888,"ĠPhÆ°Æ¡ng":4889,"tain":4890,"ĠJohnny":4891,"Sá»©c":4892,"ĠWilson":4893,"Â°":4894,"ĠBrian":4895,"Jul":4896,"ĠmÃºa":4897,"Ġbá»Ļt":4898,"atar":4899,"Mr":4900,"Oliver":4901,"7915":4902,"Ãªnh":4903,"ĠSÆ¡n":4904,"ĠÄĲá»Ļ":4905,"Ġwant":4906,"ornia":4907,"Me":4908,"ĠSav":4909,"ĠRog":4910,"Ray":4911,"rá»ĵi":4912,"Ġtáº©u":4913,"ĠÄĳáº³ng":4914,"ĠFr":4915,"Joey":4916,"Jes":4917,"ĠsÃºc":4918,"ĠCor":4919,"ĠDáº¡":4920,"ĠWin":4921,"ĠPhong":4922,"ĠCá»©u":4923,"Cáº¯t":4924,"Ġvá»ĭt":4925,"giá»Ŀ":4926,"HÆ°á»Ľng":4927,"Tá»īnh":4928,"ling":4929,"Ġnon":4930,"ĠxÆ°á»Łng":4931,"Ã¥":4932,"ĠÄĳiáº¿u":4933,"ĠÄĳá»Ĺ":4934,"ĠHáº¯c":4935,"Ġthoa":4936,"Hello":4937,"Vua":4938,"ifornia":4939,"má»įi":4940,"Ġever":4941,"Ġtáº£n":4942,"TÃ³m":4943,"ĠCá»ķ":4944,"ĠVá»Ľi":4945,"ĠNG":4946,"ĠWalter":4947,"ham":4948,"ĠKáº»":4949,"race":4950,"iana":4951,"ĠthÆ¡m":4952,"Quy":4953,"TÃ´":4954,"ÄĲÃ´":4955,"Ġ28":4956,"MÆ°á»Ŀi":4957,"ĠHun":4958,"ĠKo":4959,"33":4960,"99":4961,"Ġlá»į":4962,"ĠthÃ³i":4963,"acob":4964,"(\\":4965,"ĠÃ¡i":4966,"ÄĲÃ¹a":4967,"ince":4968,"ĠBáº¯t":4969,"Ġpr":4970,"ĠQuan":4971,"CÃłng":4972,"tao":4973,"Ġhere":4974,"Chá»«ng":4975,"ĠdÃ¢ng":4976,"ĠsÃ©t":4977,"Ġsáº¹o":4978,"Sá»£":4979,"ĠlÅ©ng":4980,"ĠnÃ³n":4981,"oody":4982,"ideon":4983,"656":4984,"Kiáº¿m":4985,"ear":4986,"ĠthÆ°Æ¡":4987,"Hoan":4988,"ĠthiÃªng":4989,"ĠsÃ¡nh":4990,"ona":4991,"ĠBá»Łi":4992,"ĠTháº¥y":4993,"tone":4994,"Ġz":4995,"ĠCáº£":4996,"ĠKr":4997,"ĠFar":4998,"ura":4999,"ĠphÃº":5000,"int":5001,"Nháº¯c":5002,"Ġhuh":5003,"á»Ĳi":5004,"ĠtÃ¡t":5005,"oney":5006,"ĠDr":5007,"Ooh":5008,"Ġhim":5009,"ĠtrÃŃch":5010,"ĠHu":5011,"ĠDun":5012,"ĠJackson":5013,"HÃ´n":5014,"Ow":5015,"Ġ....":5016,"á»¨":5017,"ĠHolmes":5018,"ĠLos":5019,"ĠVáº«n":5020,"ĠsÆ°u":5021,"ustin":5022,"ĠLor":5023,"itler":5024,"terp":5025,"que":5026,"nÃ³i":5027,"ĠcÄĥm":5028,"Ġlá»Ļt":5029,"Ġmuá»ĳi":5030,"aus":5031,"TráºŃn":5032,"ĠThu":5033,"Ġthere":5034,"ĠdiÃª":5035,"ĠHÃł":5036,"ĠHill":5037,"Ġlá»ģu":5038,"ĠBo":5039,"Thá»īnh":5040,"NháºŃn":5041,"PhÃ¡t":5042,"ĠAp":5043,"Ġ42":5044,"ĠLannister":5045,"ĠBeck":5046,"aggie":5047,"Nick":5048,"nÃły":5049,"ĠtrÃ¢n":5050,"Ġas":5051,"ThÃº":5052,"Thiáº¿t":5053,"ĠThomas":5054,"ĠRick":5055,"ĠUn":5056,"Ell":5057,"Ġlá»įc":5058,"Ġngáº«u":5059,"TrÆ°á»Ŀng":5060,"Ġká»µ":5061,"ĠAlice":5062,"Chuyá»ĥn":5063,"ĠSmith":5064,"Barry":5065,"Miá»ħn":5066,"Ġsá»į":5067,"Ġnháº±m":5068,"ĠÄĲáº§u":5069,"VÅ©":5070,"zz":5071,"Ġhiá»ĥn":5072,"ĠTrÃ´ng":5073,"usan":5074,"Ġwill":5075,"Ġlá»Ŀ":5076,"SA":5077,"Tony":5078,"Ġbl":5079,"ĠHaw":5080,"ami":5081,"amin":5082,"Luc":5083,"ĠAndy":5084,"nÃªn":5085,"isk":5086,"7919":5087,"ET":5088,"kins":5089,"ĠchiÃªn":5090,"ĠkÃ¨n":5091,"ĠMeg":5092,"ĠHiá»ĥu":5093,"ĠChicago":5094,"80":5095,"Ġnhá»ĩn":5096,"ĠWayne":5097,"ĠYi":5098,"Ġdá»ĭu":5099,"Ġchua":5100,"Ġam":5101,"ates":5102,"Ġchuá»ĵng":5103,"ze":5104,"onna":5105,"ĠÄĲá»£i":5106,"ias":5107,"ĠJan":5108,"Há»įc":5109,"ĠJeff":5110,"Jon":5111,"Ġkhá»Ń":5112,"Ġgá»Ľm":5113,"Ġbaby":5114,"ittle":5115,"á»Ĭ":5116,"Ġmá»¹":5117,"...!":5118,"Ġbá»ĭch":5119,"ĠLeon":5120,"ĠRock":5121,"ĠTin":5122,"err":5123,"ourne":5124,";?":5125,"can":5126,"ĠNathan":5127,"ĠRyan":5128,"03":5129,"Ġláº¯c":5130,"Ġham":5131,"Ġtrá»ĵng":5132,"ĠgiÃ¡ng":5133,"ĠBu":5134,"7847":5135,"Jimmy":5136,"Há»©a":5137,"Jake":5138,"ĠthÆ°á»Ľc":5139,"Ġ39":5140,"ps":5141,"Ãºm":5142,"ĠTrÃ¡nh":5143,"win":5144,"Ġá»§i":5145,"Ġsp":5146,"Ġbanh":5147,"ĠtrÆ°Æ¡ng":5148,"ĠKen":5149,"Ġchuá»Ĺi":5150,"athy":5151,"DÆ°á»Ŀng":5152,"eus":5153,"ance":5154,"otter":5155,"TÃ¹y":5156,"ĠLi":5157,"ĠWard":5158,"rant":5159,"even":5160,"Ġnáº¿m":5161,"ĠtrÃ¨o":5162,"ÄĲá»ĭnh":5163,"aster":5164,"anne":5165,"Mary":5166,"ĠdáºŃp":5167,"Yo":5168,"onnie":5169,"ĠquáºŃn":5170,"Ġkhinh":5171,"Nghá»ī":5172,"ĠviÃªm":5173,"LA":5174,"Linh":5175,"Sá»Ľm":5176,"Ġsáº£nh":5177,"phÃª":5178,"ĠnÃłn":5179,"NhÃ³c":5180,"ĠRiley":5181,"Ġsee":5182,"ĠÄĳÃŃnh":5183,"Ġváº¹n":5184,"essa":5185,"ĠbÃºp":5186,"ĠJam":5187,"ĠStr":5188,"Iá»Ĩ":5189,"87":5190,"Ġváº¡ch":5191,"ete":5192,"ĠtÃ´ng":5193,"Ġok":5194,"Ġrá»£":5195,"Ġdá»Ļi":5196,"ĠquÃŃ":5197,"ĠArthur":5198,"26":5199,"Ġcl":5200,"ĠrÃ¨n":5201,"Ã²m":5202,"ĠBang":5203,"ennis":5204,"Thá»§":5205,"ÌĢ...":5206,"ĠLÃ½":5207,"ĠGreg":5208,"Bá»©c":5209,"Ká»ĩ":5210,"TÃŃnh":5211,"Táº¥n":5212,"Ġcá»ĳt":5213,"ĠÄĳÃ¨":5214,"Ġngáº¥t":5215,"ĠTÃ¬nh":5216,"Ġgay":5217,"ThÃ¡nh":5218,"ater":5219,"abeth":5220,"ordan":5221,"ÄĲoÃ¡n":5222,"Ġhá»Ł":5223,"Du":5224,"ĠchÃły":5225,"ÄĲá»įc":5226,"500":5227,"táº¡i":5228,"ÃĲ":5229,"ĠchÄ©a":5230,"ĠMiss":5231,"Ġthoáº£":5232,"DÃ¢n":5233,"qui":5234,"ĠtÃ¨":5235,"Ġliá»ħu":5236,"Ġchuá»ĵn":5237,"Sarah":5238,"ĠcÃºi":5239,"ĠCáºŃp":5240,"ĠSw":5241,"itan":5242,"ooper":5243,"Mark":5244,"cÅ©ng":5245,"ĠcÃ²ng":5246,"Ġkhá»ıa":5247,"Ġ36":5248,"Go":5249,"Ãī":5250,"ĠlÃ¡o":5251,"Ġtráº§m":5252,"Lui":5253,"TÃłi":5254,"ĠsÆ°á»Ŀn":5255,"ĠquÃ£ng":5256,"ĠSáºµn":5257,"irk":5258,"ĠWhite":5259,"be":5260,"che":5261,"ĠTá»Ľi":5262,"Náº¯m":5263,"Ġuy":5264,"ĠbÃ¹a":5265,"ĠsÃª":5266,"don":5267,"Ġhack":5268,"enna":5269,"iano":5270,"ĠMiller":5271,"Váº¿t":5272,"yo":5273,"Ġus":5274,"ĠkhiÃª":5275,"Shh":5276,"George":5277,"Ġtui":5278,"Ġláº¥p":5279,"ĠTáºŃp":5280,"ĠThor":5281,"Anna":5282,"ĠLouis":5283,"In":5284,"báº¡n":5285,"Ġtáº·c":5286,"ĠnÃŃt":5287,"ĠkhÃ´i":5288,"ÄĲiá»ĥm":5289,"ĠNa":5290,"top":5291,"Ġky":5292,"ĠsáºŃp":5293,"ĠhÃ£ng":5294,"ĠlÃłn":5295,"Ġnghá»ĭch":5296,"ĠScot":5297,"28":5298,"ĠkhÆ¡i":5299,"ĠhÃłm":5300,"ĠSnow":5301,"ĠhoÃł":5302,"Phong":5303,"rik":5304,"Tai":5305,"ĠhÃ£nh":5306,"ĠdÃ¡n":5307,"cha":5308,"ĠSa":5309,"orld":5310,"ĠJer":5311,"ĠMm":5312,"iona":5313,"ĠcÃºp":5314,"Ġchinh":5315,"Ġgiá»įt":5316,"ĠMorgan":5317,"Ġchá»Ľp":5318,"thing":5319,"olo":5320,"ĠOm":5321,"ĠNgo":5322,"Kia":5323,"aker":5324,"CÃ¡nh":5325,"Frodo":5326,"Leo":5327,"Ġvay":5328,"ĠÄĲo":5329,"Ġlung":5330,"Äĳáº¿n":5331,"ĠCalifornia":5332,"áº¬T":5333,"á»ļ":5334,"Ġrá»ĳt":5335,"ThÆ°á»£ng":5336,"ĠBos":5337,"ĠHall":5338,"44":5339,"Danny":5340,"ĠUnderwood":5341,"Ross":5342,"ĠÄĳá»£t":5343,"kin":5344,"ĠláºŃn":5345,"Ãºn":5346,"ata":5347,"ĠnÃ¢u":5348,"Phu":5349,"ĠDi":5350,"0000":5351,"ĠGal":5352,"eeta":5353,"Æ¯á»ľNG":5354,"agnar":5355,"Cam":5356,"MÃ¹i":5357,"Ġváº£i":5358,"Tho":5359,"ĠCast":5360,"Ġchuyá»ģn":5361,"berg":5362,"LÃ¡i":5363,"ĠBal":5364,"ĠGordon":5365,"Ġbuá»ĵm":5366,"Ġbáº¥m":5367,"ĠnhÃ¬":5368,"ÄĲá»ĭa":5369,"ĠMuá»ĳn":5370,"ĠÄĳá»ĳ":5371,"emy":5372,"ĠBoy":5373,"ĠDean":5374,"ĠÄĳoan":5375,"BÃŃ":5376,"Sim":5377,"Ġ=":5378,"Ġnow":5379,"Ã©c":5380,"ĠHor":5381,"anks":5382,"On":5383,"ÃĨ":5384,"Ġkhao":5385,"Ġrá»ĥ":5386,"ĠTam":5387,"Muá»Ļi":5388,"91":5389,"Dá»±":5390,"Ġrá»Ĺi":5391,"artacus":5392,"Ġchá»ĳn":5393,"ĠnhÆ°á»Ŀng":5394,"ÄĲiÃªn":5395,"ĠChi":5396,"ĠVegas":5397,"Ġkáº¹p":5398,"CháºŃm":5399,"Ġquáº§y":5400,"ĠSn":5401,"ĠLincoln":5402,"Quá»·":5403,"ĠMarty":5404,"Joe":5405,"ĠPete":5406,"IM":5407,"lÃ´":5408,"Ġtre":5409,"Ġphá»ķ":5410,"Ġchá»Ń":5411,"Thá»Ł":5412,"Ġhoan":5413,"rence":5414,"CÆ°á»Ŀi":5415,"ĠAmy":5416,"ĠParker":5417,"Ġcáº¥y":5418,"áº»m":5419,"ĠBobby":5420,"ViÃªn":5421,"ĠÄĳÅ©a":5422,"ĠSand":5423,"ĠHer":5424,"ima":5425,"Ġthiá»ĥu":5426,"Ġar":5427,"ĠMel":5428,"otte":5429,"ĠMont":5430,"ĠlÃ¡nh":5431,"NhÃ³m":5432,"NgÃ´i":5433,"ĠAs":5434,"Ġ35":5435,"ĠkÃ¨m":5436,"ĠPhim":5437,"Æłn":5438,"Ġkháº³ng":5439,"chuyá»ĩn":5440,"ĠÄĲá»©ng":5441,"ĠIt":5442,"ĠAngeles":5443,"RÆ°á»£u":5444,"TÃ³c":5445,"Ġá»Ķn":5446,"ĠhÃ¢":5447,"Ġgen":5448,"NguyÃªn":5449,"Ġ27":5450,"237":5451,"Suá»ĳt":5452,"TÆ°":5453,"Ġxáº£":5454,"ĠSáº¿p":5455,"izabeth":5456,"Xu":5457,"ĠÃ´i":5458,"Ġmoi":5459,"ĠhÃ£m":5460,"ĠchoÃłng":5461,"Ġfrom":5462,"eorg":5463,"ĠÄĲá»ı":5464,"Sai":5465,"ĠkhÃ¡n":5466,"Chris":5467,"Giao":5468,"atherine":5469,"43":5470,"NÃ©m":5471,"ĠmÃ²n":5472,"ĠWest":5473,"cá»©":5474,"ChÆ°Æ¡ng":5475,"ĠCá»ĳ":5476,"ĠVi":5477,"ude":5478,"ĠrÃ¡ch":5479,"ĠHow":5480,"ĠGh":5481,"ĠPe":5482,"ĠEv":5483,"oseph":5484,"Ġsáº¯m":5485,"SÆ¡":5486,"CÃºi":5487,"II":5488,"Ġkhiáº¿u":5489,"Thiá»ĩt":5490,"7921":5491,"ump":5492,"Ġxá»īn":5493,"ĠSherlock":5494,"Há»ĵ":5495,"ĠÄĲÃªm":5496,"ĠMaria":5497,"Ġpizza":5498,"Ġtime":5499,"Cao":5500,"MÃłu":5501,"ĠxÃ´":5502,"786":5503,"Bill":5504,"ráº¥t":5505,"Ġá»ľ":5506,"Ġháº¡m":5507,"isco":5508,"ĠÃĬ":5509,"ĠGiá»¯":5510,"Báº£":5511,"oc":5512,"ĠMich":5513,"Victor":5514,"huh":5515,"Ġláº©n":5516,"ĠJesus":5517,"vn":5518,"well":5519,"ĠÄĳÄ©":5520,"Ġthey":5521,"Khá»ıe":5522,"ĠRu":5523,"ĠNik":5524,"agh":5525,"Ġabout":5526,"ira":5527,"Ġcáº·n":5528,"ĠhÆ°Æ¡":5529,"ĠTÃłu":5530,"Danh":5531,"ĠHannah":5532,"Ġkhoe":5533,"ĠKhu":5534,"Ġcome":5535,"ĠngÃ¢y":5536,"ĠJean":5537,"atch":5538,"Ġweb":5539,"ĠÃļ":5540,"Hu":5541,"Láº¡":5542,"Ġdáº·n":5543,"ĠÄĲáº¿":5544,"HÄĥ":5545,"Henry":5546,"ĠRiv":5547,"Ãģo":5548,"Dáº¥u":5549,"ĠxÃ¡ch":5550,"Ġvá»Ĺ":5551,"eller":5552,"ÃĬN":5553,"Kevin":5554,"Ġnháº¡t":5555,"ĠMed":5556,"ime":5557,"ats":5558,"ĠPan":5559,"Ġpl":5560,"Ġmiá»ĩn":5561,"ĠbÆ°á»Ľ":5562,"ĠBol":5563,"elia":5564,"ĠTHU":5565,"ĠChuáº©n":5566,"Chá»įn":5567,"ĠBond":5568,"ĠDÄ©":5569,"etro":5570,"ĠsÃ¡o":5571,"Ġyá»ĥm":5572,"ĠUS":5573,"otham":5574,"ure":5575,"ĠÃªm":5576,"ĠSl":5577,"ĠSiÃªu":5578,"Ġfeet":5579,"ĠBerlin":5580,"Cal":5581,"KÃŃnh":5582,"ĠLáº¥y":5583,"Sara":5584,"ĠÄĳÃ¡i":5585,"ĠkhÃ©o":5586,"its":5587,"ĠQuá»·":5588,"ĠBrown":5589,"Je":5590,"rad":5591,"ĠcÃ´i":5592,"Chá»©ng":5593,"Emily":5594,"ĠGiÃ¡m":5595,"ĠbÆ¡m":5596,"TÃ¢":5597,"dore":5598,"Ġkhung":5599,"ĠSar":5600,"PhÆ°Æ¡ng":5601,"ĠÄĲá»§":5602,"ĠLeo":5603,"ĠLÃ¢m":5604,"ĠVÃ´":5605,"BÃłn":5606,"ĠcÃµi":5607,"ĠxÆ°ng":5608,"Ġquáº·c":5609,"ĠmÃłng":5610,"ĠPo":5611,"ĠGreen":5612,"nghe":5613,"Rá»ĳt":5614,"ĠvÃº":5615,"Ġná»Ł":5616,"ĠbÃ¹ng":5617,"Ġday":5618,"Khá»Łi":5619,"uc":5620,"ChÃ¬a":5621,"uya":5622,"7883":5623,"ĠAndrew":5624,"ĠWells":5625,"Äĳang":5626,"aby":5627,"ĠWalker":5628,"\"!":5629,"tá»«":5630,"Ġsá»ī":5631,"ĠgÃ¢":5632,"ari":5633,"ĠXem":5634,"Máº¡nh":5635,"ĠÄĳáº½":5636,"ĠMá»Ł":5637,"Ġkhuáº©n":5638,"ĠFlash":5639,"ĠAvatar":5640,"Nguá»ĵn":5641,"88":5642,"EV":5643,"bend":5644,"láº¡i":5645,"ĠBáº¯n":5646,"DÃ¡m":5647,"cáº£m":5648,"Ġvuá»ĳt":5649,"ĠBay":5650,"oto":5651,"rac":5652,"hoáº·c":5653,"CO":5654,"IL":5655,"ĠNÃło":5656,"ĠTriá»ģu":5657,"ĠtuyÃª":5658,"Tá»©c":5659,"Ġcháº©n":5660,"ange":5661,"Nháº¯m":5662,"orth":5663,"ĠTháº§y":5664,"ĠPotter":5665,"ĠbuÃ´":5666,"ĠNháº«n":5667,"ĠCarter":5668,"colm":5669,"ĠbáºŃy":5670,"phy":5671,"ĠquáºŃy":5672,"arth":5673,"ĠMarcus":5674,"ĠWinter":5675,"KH":5676,"UY":5677,"Ġtháº¥u":5678,"Ġgood":5679,"Ġgonna":5680,"ano":5681,"ĠCáº©n":5682,"imus":5683,"ĠFinch":5684,"Ġngá»Ļt":5685,"ÄĲá»ģu":5686,"Thá»©c":5687,"ĠBiáº¿t":5688,"ĠnhuáºŃn":5689,"LES":5690,"Ġtáº§n":5691,"Ġmá»ıng":5692,"Ġngá»Ļ":5693,"ĠHitler":5694,"ĠWhoa":5695,"ream":5696,"ĠOs":5697,"irg":5698,"á»¦y":5699,"TÆ°Æ¡ng":5700,"ĠSÆ¡":5701,"ĠDor":5702,"ĠNaz":5703,"37":5704,"men":5705,"nor":5706,"ville":5707,"Ġcafe":5708,"672":5709,"bá»ĳ":5710,"ĠBenn":5711,"ĠÃło":5712,"appy":5713,"BÃ³ng":5714,"SÃ¡u":5715,"á»¤":5716,"Ġcáº©u":5717,"chÃ¡u":5718,"ĠÄĲÃ¢u":5719,"etto":5720,"Ġthá»§ng":5721,"Ġkhuáº¥t":5722,"ĠláºŃu":5723,"ĠhÃ´ng":5724,"Ġtrá»įn":5725,"ĠphÃłn":5726,"chan":5727,"ĠTÆ°á»Ŀng":5728,"ĠDeb":5729,"ĠRose":5730,"55":5731,"Ġneed":5732,"ĠsÃ´i":5733,"Ġráº¡p":5734,"ĠphÃ¢":5735,"Ġemail":5736,"Ġ43":5737,"ula":5738,"PD":5739,"ĠtÃºng":5740,"Ġmáº»":5741,"Dave":5742,"ĠÄĤ":5743,"Ġngáº¡o":5744,"Thi":5745,"ĠMÃ´n":5746,"Ġbá»ĭa":5747,"GiÃ¡m":5748,"ĠStan":5749,"ven":5750,"Ġnhá»ķ":5751,"ĠBáº£y":5752,"ĠDen":5753,"ĠAllen":5754,"Ġdid":5755,"ĠBruce":5756,"CÃł":5757,"Ġgai":5758,"Ġnháº¥c":5759,"ÄĲuá»ķi":5760,"Ġrau":5761,"ĠJason":5762,"igan":5763,"ffrey":5764,"acy":5765,"ĠlÆ°á»£n":5766,"ĠÄĲáº·c":5767,"aham":5768,"Ġ37":5769,"ove":5770,"ĠGray":5771,"Ngoan":5772,"Come":5773,"ĠThá»§y":5774,"Ġchá»¥c":5775,"Buá»ĵn":5776,"ĠÄĳáº¯m":5777,"nhÃ¬n":5778,"Ġsoi":5779,"Christ":5780,"ĠRom":5781,"Ġfan":5782,"Mua":5783,"VÃŃ":5784,"ae":5785,"ĠchÆ¡":5786,"Ġháº¹p":5787,"Ġthá»ĭnh":5788,"ĠHobbit":5789,"CÆ¡n":5790,"Lou":5791,"ĠhÆ¡":5792,"Paul":5793,"Ġthung":5794,"ĠbÃłng":5795,"Ġkhá»Ŀ":5796,"cHFFFF":5797,"ĠEdward":5798,"cáº£":5799,"Ġcould":5800,"ĠtrÃªu":5801,"emo":5802,"ĠPablo":5803,"ĠHarris":5804,"ĠRobin":5805,"Amen":5806,"bÃł":5807,"Â§":5808,"ando":5809,"ternet":5810,"90":5811,"zy":5812,"ĠThá»ķ":5813,"ffff":5814,"riel":5815,"Sher":5816,"Ġtá»īa":5817,"De":5818,"Ġ**":5819,"ĠcÆ°Æ¡":5820,"ĠÄĳam":5821,"Ġngá»±":5822,"ĠGá»įi":5823,"Ġway":5824,"ĠtÃŃm":5825,"Dá»įn":5826,"Táº¡":5827,"ram":5828,"Ġxoa":5829,"ĠOrc":5830,"ĠthiÃª":5831,"Hel":5832,"ĠÄĲiá»ĩn":5833,"ĠHáºŃu":5834,"ĠStar":5835,"Ġfeel":5836,"200":5837,"Mer":5838,"Ty":5839,"Vá»Ľ":5840,"ĠtH":5841,"ĠnÆ°Æ¡":5842,"Ġnáº¥p":5843,"ĠbÃºa":5844,"ĠSá»±":5845,"ĠKate":5846,"ardo":5847,"Ġoxy":5848,"wich":5849,"thÃ´i":5850,"NÃ¢ng":5851,"Sm":5852,"UN":5853,"oot":5854,"Ġá»ĳc":5855,"Ġtá»įa":5856,"aisy":5857,"ĠBat":5858,"ĠGandalf":5859,"ĠThiáº¿t":5860,"atal":5861,"Ġruá»ĵi":5862,"ĠCanada":5863,"Pr":5864,"Se":5865,"ĠTrÆ°á»Łng":5866,"ĠPháºŃt":5867,"kho":5868,"Ġnáº¥m":5869,"ĠTÃ¬m":5870,"ĠRuss":5871,"ĠInd":5872,"Ġ400":5873,"ĠScarlett":5874,"Ġlá»įt":5875,"ĠbÃ¹n":5876,"ĠLiz":5877,"Ġtoi":5878,"95":5879,"km":5880,"ĠVá»¥":5881,"ÃĤm":5882,"BÃ´":5883,"Ġkm":5884,"Ġrá»±c":5885,"ĠgiÃ¢":5886,"Thá»ıa":5887,"esh":5888,"ĠLucas":5889,"Lá»ĩnh":5890,"bá»įn":5891,"fred":5892,"nhanh":5893,"Ġkhá»ĳng":5894,"ĠkhiÃªn":5895,"ogan":5896,"ĠBoston":5897,"04":5898,"Dáº«n":5899,"ves":5900,"ĠkhÃ¡i":5901,"ĠVá»ĩ":5902,"Ġbut":5903,"ĠngáºŃm":5904,"Ġdá»ĵn":5905,"Nguy":5906,"erg":5907,"ĠSá»Ł":5908,"ĠSean":5909,"ĠLÃºc":5910,"ĠTráº§n":5911,"242":5912,"Ġback":5913,"ĠQuÃ¡":5914,"Â£":5915,"Ġcay":5916,"Ġnghiá»ĩt":5917,"ĠCÃ¢m":5918,"Er":5919,"VÃ²ng":5920,"sau":5921,"Ġngai":5922,"ÄĲáº¥t":5923,"ĠCao":5924,"ĠBÃ³ng":5925,"ĠGen":5926,"tháº±ng":5927,"ild":5928,".,":5929,"Is":5930,"ble":5931,"vá»ģ":5932,"Ġif":5933,"ĠnÃ¡o":5934,"ĠTá»ķ":5935,"ĠHá»ķ":5936,"ury":5937,"ĠWalt":5938,"Scott":5939,"bs":5940,"ChÄĥ":5941,"ĠLÃªn":5942,"ĠSimon":5943,"ski":5944,"ĠÄĳáº§m":5945,"Ġxui":5946,"ĠquÄĥng":5947,"ThÃª":5948,"ĠMu":5949,"ĠHÃ´m":5950,"ĠDNA":5951,"á»°":5952,"ĠBell":5953,"ĠChuck":5954,"Pháº£n":5955,"ĠTrÆ°á»Ŀng":5956,"........":5957,"Dom":5958,"Suy":5959,"ĠÆ¯":5960,"phen":5961,"ĠduyÃªn":5962,"ĠCháº¡y":5963,"ĠGotham":5964,"ĠYoung":5965,"ewis":5966,"FBI":5967,"á»Ģ":5968,"Ġgáº¡ch":5969,"ĠlÃŃu":5970,"ĠEric":5971,"35":5972,"TiÃªu":5973,"oon":5974,"Chá»¥p":5975,"ĠÄĲen":5976,"ĠRey":5977,"Ãģnh":5978,"Ġkiá»ģm":5979,"ĠHá»ĵi":5980,"icity":5981,"VÄĥn":5982,"ju":5983,"ĠtÃł":5984,"ĠthÃ©t":5985,"Ġkhe":5986,"ĠQuay":5987,"Ġ75":5988,"ife":5989,"Gre":5990,"Ġdá»Ŀi":5991,"ĠgiÃ´":5992,"ĠPhoebe":5993,"he":5994,"kes":5995,"ĠÄĳiá»ģn":5996,"Ġmen":5997,"ĠSant":5998,"47":5999,"Bá»ĩ":6000,"ĠcÃºt":6001,"Ġthink":6002,"Ġnáº£y":6003,"ĠrÆ¡":6004,"NgÆ°Æ¡":6005,"ĠThá»ĭ":6006,"uri":6007,"Ġlam":6008,"ÄĲá»ķi":6009,"ĠnÃ³c":6010,"ĠGro":6011,"Ted":6012,"á»¢":6013,"Ġnghiá»ģn":6014,"ThÃ¢n":6015,"ĠJacob":6016,"Ġphá»¥ng":6017,"ĠmÃ£nh":6018,"MÃ¹a":6019,"wa":6020,"ĠgÅ©i":6021,"ĠMÃ¡y":6022,"Äĳiá»ģu":6023,"cofield":6024,"ĠMatthew":6025,"oulson":6026,"Ġtháº¯n":6027,"ĠngÆ¡":6028,"ĠTiáº¿p":6029,"ĠBor":6030,"orp":6031,"ĠGáº·p":6032,"ĠHarvey":6033,"Ġváº§n":6034,"ĠSÃ¡u":6035,"ĠAf":6036,"ĠEthan":6037,"Ġsoáº¡n":6038,"cHF":6039,"ĠLuke":6040,"Per":6041,"vÃło":6042,"Âº":6043,"Ġxi":6044,"Quá»³":6045,"ito":6046,"ĠTrÃªn":6047,"ĠHolly":6048,"anslat":6049,"ĠSavage":6050,"Aw":6051,"ST":6052,"ness":6053,"ĠlÆ°á»Ľt":6054,"ĠnhÃŃch":6055,"Ġcá»į":6056,"arg":6057,"Giá»įng":6058,"une":6059,"Tommy":6060,"VÆ°Æ¡ng":6061,"Ġvá»ĵ":6062,"Ġná»Ļ":6063,"Khá»ıi":6064,"But":6065,"Bye":6066,"How":6067,"ĠsÃ²ng":6068,"Ġtráº·c":6069,"Ġnhiá»ħu":6070,"My":6071,"sen":6072,"ĠUm":6073,"entine":6074,"ĠClay":6075,"ully":6076,"Ġevery":6077,"ĠbÃ¡t":6078,"ĠxÃ³t":6079,"chi":6080,"ĠBá»©c":6081,"Giá»¯a":6082,"ync":6083,"HÃ¢n":6084,"IT":6085,"LÃ£nh":6086,"UCK":6087,"nold":6088,"Ġhis":6089,"ĠBá»ĭ":6090,"ĠLat":6091,"ĠJay":6092,"ĠKe":6093,"ĠxuÃ´i":6094,"ĠXu":6095,"aku":6096,"House":6097,"ĠSy":6098,"ĠSon":6099,"ĠFran":6100,"avo":6101,"ĠXong":6102,"ĠGrey":6103,"ouston":6104,"ĠÄĳá»±c":6105,"ĠThá»¥y":6106,"ĠRoman":6107,"ilbo":6108,"lake":6109,"Fel":6110,"Le":6111,"br":6112,"elf":6113,"ĠLuÃ¢n":6114,"uzz":6115,"BÄĥng":6116,"CÆ°":6117,"Ram":6118,"ĠsÆ°Æ¡ng":6119,"ĠsÃºp":6120,"phia":6121,"ohan":6122,"MÃ£":6123,"OL":6124,"ancy":6125,"ause":6126,"Nga":6127,"ĠBáº¥t":6128,"Ġ26":6129,"ala":6130,"tral":6131,"'d":6132,"áº¦":6133,"ĠnÃ©t":6134,".....":6135,"ĠHuy":6136,"ĠRáºŃp":6137,"ydia":6138,"Eddie":6139,"ĠbÆ°á»Ľm":6140,"Ká»³":6141,"Richard":6142,"di":6143,"han":6144,"Ġvá»¥n":6145,"ĠAlpha":6146,"lad":6147,"vis":6148,"Ġsá»«ng":6149,"PhÃ¡":6150,"Ġxuáº©n":6151,"rael":6152,"Hank":6153,"Ġná»©t":6154,"ĠHi":6155,"Ġchip":6156,"Ġlá»ĩch":6157,"ĠAnnie":6158,"Daniel":6159,"terpris":6160,"Jan":6161,"ĠKho":6162,"ThÃ¡ng":6163,"That":6164,"cháº¯c":6165,"ele":6166,"EO":6167,"ĠÄĳÃ¹i":6168,"ĠsÃ¢m":6169,"ĠnhÃºc":6170,"ĠCass":6171,"á»£m":6172,"ĠJoy":6173,"ĠthuÃ´":6174,"ĠKai":6175,"ĠEsc":6176,"Uhm":6177,"Ghi":6178,"39":6179,"Há»£p":6180,"ĠchÃ¢":6181,"Ġdá»ĳc":6182,"ĠuÃ½":6183,"let":6184,"ĠcÃ":6185,"Khiáº¿n":6186,"ĠTer":6187,"ĠhÃłn":6188,"Ġnháº¡o":6189,"ĠTÃ²a":6190,"orry":6191,"Ġ46":6192,"ĠXÃ´":6193,"SuÃ½t":6194,"Ġláº»n":6195,"Hiá»ĩp":6196,"Ġhon":6197,"Thá»ĭ":6198,"ĠBá»ĩ":6199,"ican":6200,"Robert":6201,"Cuá»ĳn":6202,"US":6203,"ĠcÃ²i":6204,"ĠlÃµi":6205,"ÄĲáº©y":6206,"AM":6207,"bi":6208,"ms":6209,"ĠkhÃ¢u":6210,"Ġhiáº¿u":6211,"ĠTinh":6212,"PhÃ¢n":6213,"Ġwould":6214,"ALL":6215,"38":6216,"Ly":6217,"Matt":6218,"Ná»Ńa":6219,"ĠcÃ¡u":6220,"ĠchÃ¬":6221,"ĠxÃ´i":6222,"icholas":6223,"ondor":6224,"ĠAnton":6225,"Quyáº¿t":6226,"ĠLinda":6227,"ĠGood":6228,"ĠEmma":6229,"Monica":6230,"Gar":6231,"po":6232,"Ġcm":6233,"KhÃ³a":6234,"ĠLÃ£nh":6235,"Roy":6236,"fell":6237,"Ġnáº¡t":6238,"Ġkhiáº¿t":6239,"Ġpháº¿t":6240,"ĠSer":6241,"ĠTyler":6242,"Ġchá»Ńi":6243,"41":6244,"BÃ¡n":6245,"Quyá»ģn":6246,"ĠhÃ²ng":6247,"ĠgÄĥng":6248,"ĠSil":6249,"ĠDory":6250,"ĠGu":6251,"ĠXe":6252,"ĠBrad":6253,"ashi":6254,"iami":6255,"cow":6256,"ody":6257,"ĠcÃ¡n":6258,"ĠbÃ³c":6259,"Ġpháº¿":6260,"ÄĲÃ¡":6261,"ÄĲá»Ŀi":6262,"ĠBourne":6263,"ĠChun":6264,"ĠLÃ£o":6265,"ĠAg":6266,"ĠPep":6267,"Steve":6268,"Mal":6269,"niss":6270,"Ġnhai":6271,"ĠGrant":6272,"Quáº§n":6273,"ower":6274,"ifer":6275,"Adam":6276,"Jane":6277,"Mc":6278,"Ġun":6279,"ĠvÃ£":6280,"ĠbÆ°":6281,"ĠgÃ¬n":6282,"ĠMÄ©":6283,"ĠViá»ĩc":6284,"Ġdoáº¡":6285,"ĠthoÃ¡ng":6286,")}...":6287,"'.":6288,"bon":6289,"ks":6290,"Ġká»ģ":6291,"indy":6292,"ĠMag":6293,"ĠChase":6294,"ĠLaw":6295,"ĠNÆ°á»Ľc":6296,"ĠNap":6297,"ĠBrook":6298,"umble":6299,"Cr":6300,"Doug":6301,"En":6302,"Ti":6303,"tá»ĳt":6304,"Ġváº«y":6305,"ĠxÃ¡m":6306,"ĠMia":6307,"ĠÄĲÃłi":6308,"ori":6309,"ĠPhu":6310,"ĠClark":6311,"ector":6312,"cHFFFFFF":6313,"Mat":6314,"ys":6315,"Ġnáº¿n":6316,"Ġbáº§m":6317,"Ġngáº§u":6318,"ĠphÆ¡i":6319,"Cháº¥t":6320,"augh":6321,"ĠhoÃłnh":6322,"ĠRagnar":6323,"olt":6324,"Ġ49":6325,"ird":6326,"ÄĲá»ĩch":6327,"cer":6328,"yatt":6329,"Ġáº¢":6330,"ani":6331,"Tháº¯ng":6332,"ĠÄĲáº£ng":6333,"ĠVirg":6334,"illa":6335,"297":6336,"ĠFlorida":6337,"ĠsÆ°á»Łi":6338,"Ġngá»£i":6339,"Ġque":6340,"ĠGideon":6341,"ĠRá»ĵng":6342,"rix":6343,"Â©":6344,"ĠhÃ¡i":6345,"Ġháº»m":6346,"Chim":6347,"ĠBiÃªn":6348,"ĠLáº§n":6349,"ĠAng":6350,"Ġtuá»ĩ":6351,"arling":6352,"ĠTeddy":6353,"BA":6354,"New":6355,"gÃ¬":6356,"ĠtÃ½":6357,"ines":6358,"ĠMolly":6359,"uill":6360,"Ġwhen":6361,"BáºŃt":6362,"LÃ²ng":6363,"rl":6364,"Ãĳ":6365,"Kháº£":6366,"ĠMai":6367,"ĠNic":6368,"ĠWatson":6369,"Pat":6370,"ĠchÃ´m":6371,"ĠnhÃ¡y":6372,"Ìģ...":6373,"ĠGeorg":6374,"idd":6375,"sei":6376,"ĠClar":6377,".'":6378,"Billy":6379,"Cung":6380,"Wil":6381,"Ġláº«y":6382,"Ġnever":6383,"ĠdÆ°a":6384,"Ġquáº¡":6385,"chu":6386,"ĠPro":6387,"Ġ911":6388,"awa":6389,"Cá»¥c":6390,"MAN":6391,"Ġnhá»ĭ":6392,"ĠtrÆ¡n":6393,"Chia":6394,"Ġcua":6395,"Alo":6396,"Cá»Ļng":6397,"Ġxáº»":6398,"ĠTÃ´":6399,"Ġbá»ĭt":6400,"ĠVáº¥n":6401,"ets":6402,"itol":6403,"Hiá»ĩu":6404,"Má»¥":6405,"phie":6406,"ĠMik":6407,"ĠBing":6408,"Ġany":6409,"ĠVincent":6410,"01":6411,"Sky":6412,"rich":6413,"ĠnhÃ£n":6414,"Ġtrá»į":6415,"ĠCuá»Ļc":6416,"ĠSáº¯t":6417,"Ġbáº£nh":6418,"ĠRand":6419,"ĠlÃ£m":6420,"attan":6421,"Rick":6422,"Ġte":6423,"Ġkhuyáº¿n":6424,"Ġsome":6425,"ÄĲá»¡":6426,"ĠBinh":6427,"ĠHá»ĵ":6428,"burg":6429,"AUGH":6430,"ĠcÃ¡p":6431,"á»«m":6432,"ĠBÃ¡":6433,"ĠSun":6434,"esa":6435,"ĠJosh":6436,"ote":6437,"Ġwell":6438,"Giáº¥y":6439,"LoÃłi":6440,"Be":6441,"Sá»Ł":6442,"ĠtrÃ¡n":6443,"Ġthá»±":6444,"ĠSol":6445,"PhÃ³ng":6446,"ĠLisa":6447,"ĠNgá»ĵi":6448,"agol":6449,"ĠWhit":6450,"ĠTHUáº¬T":6451,"HD":6452,"Ġcong":6453,"Ġráº§y":6454,"ĠBau":6455,"ĠBáº±ng":6456,"ĠBeth":6457,"ĠStorm":6458,"ĠQU":6459,"entin":6460,"46":6461,"Ken":6462,"day":6463,"ĠÄĳiáº¿c":6464,"ĠlÆ°á»Ŀi":6465,"ĠtrÆ°á»£ng":6466,"any":6467,"inia":6468,"ThÃ¡m":6469,"ĠHá»įc":6470,"Ãµm":6471,"ĠIris":6472,"obar":6473,"odd":6474,"ĠHarold":6475,"TS":6476,"jamin":6477,"Ìī,":6478,"Trang":6479,"ĠVui":6480,"QuÃ¡i":6481,"ider":6482,"Dá»±a":6483,"Ġá»Ľt":6484,"ĠbÆ°u":6485,"Ġsand":6486,"ĠÄĳÃ£ng":6487,"ied":6488,"Ġnu":6489,"Ġsom":6490,"ĠChÃ¢n":6491,"Suá»µt":6492,"ĠFrancisco":6493,"áºłI":6494,"mi":6495,"ĠchÆ°á»Ľc":6496,"ĠvÆ°á»Ľng":6497,"ĠMord":6498,"ĠNá»Ļi":6499,"ĠQuÃ½":6500,"ĠRaymond":6501,"Xuáº¥t":6502,"EC":6503,"las":6504,"ĠmÆ°":6505,"ĠtrÃło":6506,"ĠColl":6507,"ĠSing":6508,"Trá»ĳn":6509,"Ġmake":6510,"ĠBarb":6511,"other":6512,"saac":6513,"49":6514,"Dean":6515,"TÄĥng":6516,"bá»Łi":6517,"hai":6518,"ngay":6519,"Ġláº¡m":6520,"anc":6521,"ĠFitz":6522,"ĠLucy":6523,"Lá»Ĺi":6524,"ti":6525,"Ġnáº¯p":6526,"ĠnhÃ¡nh":6527,"Ġroi":6528,"ĠMaggie":6529,"ĠDol":6530,"ĠAth":6531,"ĠPier":6532,"Ġpiano":6533,"ebecca":6534,"31":6535,"Nam":6536,"TÆ¯á»ľNG":6537,"line":6538,"mp":6539,"Ãĸ":6540,"ĠlÃºt":6541,"ĠnhÃºng":6542,"Ġnháº½":6543,"ĠdÆ°Æ¡":6544,"ĠMiami":6545,"amm":6546,"Ġ29":6547,"outh":6548,"ĠÄĳoa":6549,"BÃ©":6550,"Ná»Ĺi":6551,"ĠTÃło":6552,"ĠReg":6553,"ely":6554,"ĠcH":6555,"Ġnhá»ĵi":6556,"ĠGary":6557,"ĠJerry":6558,"Ġsex":6559,"ĠBarnes":6560,"Charles":6561,"tÃªn":6562,"Ġáº©m":6563,"Ġtá»§y":6564,"ĠDra":6565,"Äĳá»ĵ":6566,"ring":6567,"Ġnight":6568,"Ġgáº§y":6569,"ĠCá»¥c":6570,"ĠKn":6571,"Ġwho":6572,"ect":6573,"Alice":6574,"Ġheart":6575,"ĠTeam":6576,"AC":6577,"ĠvÃ£n":6578,"Ġher":6579,"Ġphiáº¿n":6580,"aya":6581,"ĠCL":6582,"ĠSung":6583,"Phim":6584,"Truyá»ģn":6585,"ips":6586,"Gandalf":6587,"ĠchÃ¨o":6588,"ĠbÃ´i":6589,"Ġngáº§n":6590,"ĠTá»Ļc":6591,"eland":6592,"ĠEver":6593,"ĠxoÃ¡y":6594,"William":6595,"ĠTurner":6596,"ĠPalmer":6597,"Tinh":6598,"Ġbus":6599,"Ġhá»ķng":6600,"Ġngá»¥":6601,"atron":6602,"Ġoff":6603,"inder":6604,"ĠGiá»ĳng":6605,"Sean":6606,"ĠnÄĥ":6607,"Ġgáº§m":6608,"ĠrÃ¹a":6609,"Ġdinh":6610,"ĠMick":6611,"ĠGall":6612,"edy":6613,"ĠReese":6614,"Brian":6615,"Máº¡ng":6616,"TÃ¢m":6617,"XÃ©t":6618,"mÃ¬nh":6619,"Â¾":6620,"Ġbáº¿":6621,"Ġkhuya":6622,"ĠCÃ¢u":6623,"anhattan":6624,"Ġlook":6625,"icia":6626,"ĠÄĳÆ°Æ¡c":6627,"Andy":6628,"ĠKatie":6629,"\"Â":6630,"KK":6631,"ru":6632,"Ġen":6633,"ĠvÃ¡c":6634,"ĠvÃ¡ch":6635,"ĠvÃ²i":6636,"Ngáº¡c":6637,"ĠViÃªn":6638,"aver":6639,"Ġ150":6640,"Ahh":6641,"83":6642,"KÃªu":6643,"Meg":6644,"nt":6645,"py":6646,"ĠlÆ°á»¡ng":6647,"Ġbá»Ĺng":6648,"Ġxen":6649,"ĠCáº§u":6650,"ĠBáº¡ch":6651,"ĠÄĲá»ĩ":6652,"ĠHá»£p":6653,"Ġ67":6654,"ĠStone":6655,"ĠSanta":6656,"ĠJesse":6657,"ridge":6658,"HÃŃt":6659,"Rá»Ŀi":6660,"áº®":6661,"Ġlen":6662,"Ġtháº¹n":6663,"Ġviáº¿ng":6664,"ĠmÃ¡nh":6665,"Ġmá»¡":6666,"ĠbÃ¬":6667,"ĠgÃło":6668,"ĠnhÆ°á»£ng":6669,"Ġnhá»±a":6670,"Ġrá»¡":6671,"Ġphanh":6672,"ĠÄĲÆ°":6673,"ĠThá»Ŀi":6674,"ĠNe":6675,"ĠNguyÃªn":6676,"Ġ642":6677,"okyo":6678,"ĠEnterpris":6679,"ĠSá»ĳ":6680,"ĠAlb":6681,"ĠAnn":6682,"Ġboong":6683,"oki":6684,"DO":6685,"wo":6686,"Ġná»ģ":6687,"ĠpháºŃt":6688,"Ġxáº£o":6689,"ĠÄĲÃ´n":6690,"ĠMarie":6691,"ANG":6692,"ctor":6693,"ĠÄĳao":6694,"ĠEvan":6695,"ĠNgá»§":6696,"Dar":6697,"Mart":6698,"pr":6699,"Ġá»Ķng":6700,"Ġcom":6701,"Ġváº¡t":6702,"Ġri":6703,"Nháº¹":6704,"ĠDavis":6705,"ĠRen":6706,"ĠNÃªn":6707,"Cas":6708,"MáºŃt":6709,"San":6710,"Ġcar":6711,"ChuyÃª":6712,":.":6713,"Jess":6714,"cul":6715,"Ġchá»ĵn":6716,"Ġbá»«a":6717,"ĠdÆ°ng":6718,"ĠnghÃªnh":6719,"ĠMir":6720,"ĠLily":6721,"ĠWow":6722,"Ġ55":6723,"ivi":6724,"DN":6725,"Táº§ng":6726,"Ġor":6727,"ĠJoseph":6728,"ila":6729,"Ġ99":6730,"ĠVÃłng":6731,"DÃ¢y":6732,"Sa":6733,"Ã©ng":6734,"Ġour":6735,"Ġná»ĵng":6736,"Ġphiá»ĩn":6737,"ĠCat":6738,"ĠCooper":6739,"ĠHÃ¬nh":6740,"ĠDur":6741,"ĠGo":6742,"áº³m":6743,"ï¼Ł":6744,"ĠGrayson":6745,"Cáº¡n":6746,"Good":6747,"SI":6748,"TÃ²a":6749,"ĠliÃªng":6750,"Ġgiá»Ł":6751,"chá»ĭ":6752,"ĠBoo":6753,"ĠHong":6754,"Phoebe":6755,"ĠJordan":6756,"ĠFiona":6757,"lease":6758,"iper":6759,"ĠLance":6760,"Lá»±c":6761,"pton":6762,"tiáº¿ng":6763,"Ġhuá»ĩ":6764,"Johnny":6765,"ope":6766,"á»¦A":6767,"ĠKaren":6768,"Ġsandwich":6769,"SiÃªu":6770,"bá»ĭ":6771,"Ġvali":6772,"ĠrÃ¡n":6773,"ĠCos":6774,"ĠThá»±c":6775,"ĠReid":6776,"VÃ¹ng":6777,"Ġá»¦y":6778,"Ġláº§y":6779,"ĠtrÃ´":6780,"Ġ34":6781,"adel":6782,"ĠnÃ©":6783,"ĠTÃ¢m":6784,"ĠWar":6785,"uba":6786,"ollo":6787,"Bobby":6788,"ĠAshley":6789,"Ġlet":6790,"Ġthem":6791,"ĠDEA":6792,"ĠTroy":6793,"aha":6794,"Ġá»ªm":6795,"ĠÄĤn":6796,"ĠCá»¦A":6797,"ĠGondor":6798,"ota":6799,"ega":6800,"BO":6801,"Báº£y":6802,"Hannah":6803,"Mur":6804,"ĠlÆ°á»Ŀng":6805,"Ġbáº¥y":6806,"ĠrÃłnh":6807,"Thiáº¿p":6808,"ĠGI":6809,"azz":6810,"ĠTuáº§n":6811,"VáºŃt":6812,"Ġmore":6813,"ĠÄĳá»ĥu":6814,"ĠSÃ¡t":6815,"ĠAaron":6816,"ĠYÃªu":6817,"iko":6818,"ĠElizabeth":6819,"Ġshow":6820,"ĠBern":6821,"ĠMoscow":6822,"Leon":6823,"oom":6824,"ĠchÃŃch":6825,"ÄĲáºŃp":6826,"aney":6827,"ĠCen":6828,"oster":6829,"ĠAmanda":6830,"ĠcÆ°a":6831,"ĠSai":6832,"ĠHans":6833,"Tra":6834,"ĠDÃ¢n":6835,"ĠGab":6836,"259":6837,"ĠCapitol":6838,"Ġtruá»ĵng":6839,"02":6840,"Há»¡i":6841,"ci":6842,"dd":6843,"Ġnáº£n":6844,"Ġtake":6845,"etch":6846,"ili":6847,"ĠNgá»įc":6848,"ĠBrody":6849,"ĠWinterfell":6850,"BB":6851,"ĠthÃ¢y":6852,"Ġthuáº«n":6853,"ulu":6854,"trÆ°á»Ľc":6855,"azar":6856,"Jesse":6857,"ĠScotland":6858,"ĠMordor":6859,"HO":6860,"hoo":6861,"ĠkÃ¨o":6862,"ĠmiÃªu":6863,"ĠchoÃ¡ng":6864,"á»ķn":6865,"ĠBuck":6866,"ĠHmm":6867,"erys":6868,"iskey":6869,"hi":6870,"sey":6871,"ĠRod":6872,"ĠHoward":6873,"ĠEscobar":6874,"INH":6875,"Kar":6876,"Molly":6877,"Sub":6878,"Val":6879,"jah":6880,"sá»±":6881,"Ġlá»±u":6882,"ÄĲá»ĳt":6883,"Æ°á»£m":6884,"ĠHáº§u":6885,"Ġ32":6886,"ĠNhá»ĩn":6887,"Ġ88":6888,"ĠQuyá»ģn":6889,"TáºŃn":6890,"so":6891,"tit":6892,"Ġbá»ķng":6893,"Ġsan":6894,"ĠphÃłm":6895,"ĠSat":6896,"ĠMarsh":6897,"ova":6898,"Kate":6899,"Ste":6900,"UD":6901,"arty":6902,"ĠJin":6903,"ĠEx":6904,"aka":6905,"ersey":6906,"enstein":6907,"AY":6908,"EE":6909,"QKK":6910,"ĠmÃ¬n":6911,"Ġhá»¥t":6912,"Thá»§y":6913,"ĠSÃ¡ng":6914,"ĠDick":6915,"ĠRich":6916,"ĠAndre":6917,"Carol":6918,"ĠLaurel":6919,"ombia":6920,"ĠÃ¢u":6921,"ngÆ°Æ¡i":6922,"Ġcá»ĳi":6923,"ĠcháºŃt":6924,"Ġaway":6925,"Ġtam":6926,"ĠCung":6927,"ĠTiáº¿ng":6928,"ĠSyl":6929,"ĠVer":6930,"ĠKirk":6931,"erek":6932,"ĠThea":6933,"Can":6934,"fsp":6935,"gy":6936,"iot":6937,"Ġkáº½":6938,"Ġdáº«m":6939,"Thá»ĭt":6940,"ĠCuddy":6941,"ĠMÃł":6942,"ĠBÃ¡o":6943,"ĠGer":6944,"ĠVÄĥn":6945,"ĠJai":6946,"elt":6947,"ĠÂ¶":6948,"Ġchá»£t":6949,"96":6950,"vi":6951,"Ġsir":6952,"ĠhÃ¹":6953,"ĠhÄĥng":6954,"ĠrÃ£i":6955,"Chandler":6956,"chÃło":6957,"ĠMak":6958,"Tráº»":6959,"ĠOx":6960,"udev":6961,"ĠJohnson":6962,"aint":6963,"Katie":6964,"ĠRoger":6965,"Amy":6966,"ĠÃ´n":6967,"ĠtÃ¡ng":6968,"ĠtÃ´m":6969,"ĠlÆ°Æ¡":6970,"Ġgu":6971,"Ġguy":6972,"ĠManhattan":6973,"Ġ52":6974,"ĠQuáºŃn":6975,"KÃŃch":6976,"TiÃªn":6977,"lu":6978,"Ġcháº£i":6979,"ĠmÃ©p":6980,"Ġbáº©m":6981,"Ġduyá»ĩt":6982,"ÄĲá»ģ":6983,"ĠLÃ¹i":6984,"ĠDÃ¹":6985,"ĠThÆ°":6986,"ĠVÃµ":6987,"ĠNháº¥t":6988,"ucker":6989,"ĠBennet":6990,"Bi":6991,"Her":6992,"Ġtráº¯c":6993,"ĠHal":6994,"imo":6995,"Ġvá»ĭnh":6996,"SÄ©":6997,"bord":6998,"king":6999,"ĠmÃ¡ch":7000,"ĠsÃ©c":7001,"ĠphÆ°á»Ľc":7002,"ÌĢ!":7003,"ĠKenn":7004,"ryan":7005,"aggins":7006,"-...":7007,"Beck":7008,"Ġphang":7009,"Ġao":7010,"ĠSum":7011,"ĠHiro":7012,"ĠKÃ´ng":7013,"ĠBrand":7014,"05":7015,"book":7016,"ĠchÃ¹i":7017,"á»¥a":7018,"ĠJersey":7019,"ĠKit":7020,"inger":7021,"uro":7022,"Ash":7023,"Diá»ħn":7024,"biáº¿t":7025,"ĠÄĳáº¯p":7026,"Ġgame":7027,"ĠtrÃºt":7028,"Cháº·n":7029,"ĠTÃ´n":7030,"NgÃ¢n":7031,"á»£n":7032,"ĠAz":7033,"ĠKelly":7034,"ĠLuáºŃt":7035,"Ġbeen":7036,"ASA":7037,"udeviet":7038,"DÃ²ng":7039,"Ros":7040,"Ġtháº£y":7041,"Ġsc":7042,"Ġthá»«ng":7043,"Thomas":7044,"ĠMmm":7045,"ĠBá»ĵ":7046,"ĠÄĲÃło":7047,"ĠLyn":7048,"ĠRio":7049,"ĠKong":7050,"ĠFox":7051,"ĠWick":7052,"ĠBarney":7053,"Binh":7054,"Dr":7055,"Ru":7056,"vÃ¢ng":7057,"zie":7058,"Ġlon":7059,"Ġchuá»ĳi":7060,"ĠrÃªn":7061,"ĠdÃŃ":7062,"Tham":7063,"Thank":7064,"Nhi":7065,"ĠCÃ¡nh":7066,"ĠLewis":7067,"ĠthoÃ¡i":7068,"ahl":7069,"riend":7070,"Edward":7071,"Náº¡n":7072,"ĠnÃ©n":7073,"uyá»ĥn":7074,"ĠGPS":7075,"ĠbÃ©n":7076,"ĠIan":7077,"Ġ96":7078,"issa":7079,"bor":7080,"low":7081,"Â¥":7082,"ĠtÃło":7083,"Ġxá»ĭt":7084,"Thor":7085,"ĠkhiÃªm":7086,"ĠViá»ĩn":7087,"ĠNed":7088,"ĠPhÃ³":7089,"lymp":7090,"ĠMcG":7091,"ĠNghá»ĭ":7092,"AP":7093,"Ugh":7094,"Ġex":7095,"ĠÄĳáº¯c":7096,"Ġchanh":7097,"Ġcá»įc":7098,"ĠSk":7099,"ĠGold":7100,"iles":7101,"ĠVictoria":7102,"Angel":7103,"Ron":7104,"aff":7105,"ĠcÄĥ":7106,"ĠlÃ¡ch":7107,"ĠbÃ¡ch":7108,"ĠLá»¥c":7109,"ĠQuáº£":7110,"loe":7111,"oko":7112,"TuÃ¢n":7113,"Nor":7114,"Nathan":7115,"sky":7116,"Ġchá»įi":7117,"ĠnhÃ£i":7118,"Ġráº£i":7119,"Ġrá»§":7120,"oni":7121,"ĠBuzz":7122,"ĠScofield":7123,"Ġcall":7124,"apa":7125,"Ġlá»Ļng":7126,"Ġcháº·ng":7127,"Ġag":7128,"ores":7129,"ision":7130,"aly":7131,"Nghi":7132,"iego":7133,"ĠKhá»ī":7134,"instein":7135,"ĠAlexander":7136,"ĠCaesar":7137,"Má»ĳi":7138,"Ráº½":7139,"ple":7140,"Ġne":7141,"Ġngháº¿ch":7142,"iá»ģng":7143,"ĠSel":7144,"ĠLÆ°u":7145,"ĠTháº£":7146,"ĠSid":7147,"ĠThÃ´ng":7148,"ĠTháº©m":7149,"evor":7150,"Ann":7151,"ĠNgoáº¡i":7152,"Dáº¹p":7153,"MÃ£i":7154,"SÃ¡t":7155,"Xo":7156,"gr":7157,"rough":7158,"Ã«":7159,"ĠrÃ¬nh":7160,"Ġrá»ķ":7161,"ĠKiáº¿m":7162,"ansa":7163,"ĠCameron":7164,"ĠCastle":7165,"Viáº¿t":7166,"born":7167,"dock":7168,"ken":7169,"ĠkhÄĥng":7170,"Ġdá»¡":7171,"iago":7172,"ĠGiáº¿t":7173,"ĠWes":7174,"Ġ.:":7175,"ĠStarling":7176,"team":7177,"7887":7178,"ĠTaylor":7179,"uart":7180,"ĠÄĳiá»ģm":7181,"ĠvÃ¹i":7182,"Ġmáº©u":7183,"ÄĲáº¿m":7184,"ĠÄĲa":7185,"ĠTrÆ°á»Ľc":7186,"ghan":7187,"oku":7188,"Lá»ĭch":7189,"ĠcÃºng":7190,"Ġváº·n":7191,"Ġgirl":7192,"ango":7193,"Ġ33":7194,"ĠHoÃłn":7195,"abel":7196,"ĠGiÃºp":7197,"ĠAngela":7198,"ID":7199,"Let":7200,"Lee":7201,"ĠnghiÃª":7202,"anie":7203,"ĠSusan":7204,"ĠÄĲá»Ļng":7205,"ĠGrace":7206,"ÃĢY":7207,"Ġ198":7208,"ĠCentral":7209,"ni":7210,"tus":7211,"Ġtháº³m":7212,"Ġhad":7213,"ĠCÃ¡":7214,"Ġbá»ĭp":7215,"ĠPl":7216,"theo":7217,"reak":7218,"ĠEs":7219,"7881":7220,"Arthur":7221,"Æ¯á»ľI":7222,"Walter":7223,"Simon":7224,"Tiáº¿c":7225,"á»Į":7226,"Ġtháº£n":7227,"Ġbong":7228,"Ġdáº»o":7229,"Ġgiáº§y":7230,"raw":7231,"odka":7232,"Ġxoáº¯n":7233,"ED":7234,"LáºŃp":7235,"Red":7236,"mons":7237,"Ġsáº¥u":7238,"ChÃ¡n":7239,"ĠCoulson":7240,"ĠBel":7241,"ĠHÃłng":7242,"ĠTrÄĥng":7243,"the":7244,"ĠOz":7245,"Ġ600":7246,"ĠHoáº·c":7247,"ĠSuper":7248,"ĠJessica":7249,"Dáº¡o":7250,"Ethan":7251,"Francis":7252,"Hiro":7253,"Ġá»ĵ":7254,"á»Ĩ":7255,"Ġrock":7256,"Kháº©u":7257,"ĠBig":7258,"ĠOsc":7259,"Marcus":7260,"ĠGarcia":7261,"Boy":7262,"lt":7263,"ÂŃ":7264,"Ġtáº¡ng":7265,"Ġtell":7266,"ĠcÃło":7267,"Ġcáº±n":7268,"Ġbá»įt":7269,"oren":7270,"ĠKl":7271,"Ġ51":7272,"Ġ47":7273,"58":7274,"CÃº":7275,"Jam":7276,"ĠkÃ¬m":7277,"ĠnÄĥn":7278,"Ġgiáº¿ng":7279,"Ã¬u":7280,"ĠMason":7281,"ĠHotch":7282,"ĠLarry":7283,"52":7284,"At":7285,"KÃ½":7286,"MÆ¡":7287,"Morg":7288,"Ġliáº¿m":7289,"Ġná»±c":7290,"ator":7291,"ĠTráº£":7292,"249":7293,"ĠOliv":7294,"ÃĤN":7295,"ĠCole":7296,"ĠPatrick":7297,"UCKLES":7298,"TÆ¡":7299,"bing":7300,"Ġtivi":7301,"ĠlÃ¢n":7302,"ĠnÆ¡":7303,"Ġsho":7304,"ĠtrÃ¢":7305,"ĠxÆ¡":7306,"Ġgiá»Ŀi":7307,"ĠChe":7308,"ĠthuÃ¢":7309,"elyn":7310,"Ãµng":7311,"raine":7312,"ĠCarrie":7313,"92":7314,"ĠngÃ³":7315,"ĠvÃłnh":7316,"ĠTi":7317,"Ì£,":7318,"NÃ³ng":7319,"ĠOlymp":7320,"ĠcÃºn":7321,"Ġbá»ķn":7322,"mo":7323,"Ġnai":7324,"Ġngáº¡t":7325,"Ġxá»ĭn":7326,"reet":7327,"Sherlock":7328,"ĠlÃ¬n":7329,"Ġray":7330,"Ġdang":7331,"ĠCall":7332,"ĠLock":7333,"ĠWade":7334,"ĠNhá»Ľ":7335,"Ġ72":7336,"Sá»Ń":7337,"Ġchay":7338,"Ġngá»¥y":7339,"ĠquyÃªn":7340,"áºµng":7341,"Ġinch":7342,"ÄĲoÃłn":7343,"ĠColombia":7344,"Ġchá»ķi":7345,"Jesus":7346,"Sang":7347,"Ġláº¹":7348,"ĠvÄĥng":7349,"Ġháº¡ch":7350,"ĠnhÄĥn":7351,"Ġdai":7352,"Tráº¡m":7353,"ĠDam":7354,"asa":7355,"ĠFace":7356,"ache":7357,"garet":7358,"ĠForeman":7359,"ĠHunt":7360,"TÃŃn":7361,"bar":7362,"lÃºc":7363,"ĠvÃ©t":7364,"ĠbÃ¡ng":7365,"Ġxiáº¿c":7366,"ĠHá»Ļ":7367,"ato":7368,"ÄĲiÃª":7369,"ĠEy":7370,"Ġwon":7371,"Ġ-**":7372,"ĠÄĳá»ĩt":7373,"Ġcá»§i":7374,"Or":7375,"Xá»Ń":7376,"cl":7377,"ĠquÃ¡ng":7378,"ThÃ¡i":7379,"ĠCle":7380,"Phil":7381,"ial":7382,"Mad":7383,"Rose":7384,"Táº¡o":7385,"rice":7386,"Ġ~":7387,"ĠrÃ²":7388,"Ġgio":7389,"ĠTiá»ģn":7390,"NgÄĥn":7391,"asc":7392,"ugene":7393,"rows":7394,"Lá»ħ":7395,"Mor":7396,"Ġnáº¥y":7397,"ÄĲÃ¨n":7398,"Thá»ģ":7399,"aris":7400,"ĠHáº¹n":7401,"ĠChá»Ĺ":7402,"ĠDiá»ĩp":7403,"ĠDaw":7404,"ĠADN":7405,"ether":7406,"gie":7407,"gle":7408,"hm":7409,"Ġel":7410,"Ġngá»©a":7411,"ĠnghiÃªng":7412,"ĠBonnie":7413,"ĠVik":7414,"Chuck":7415,"ĠAlfred":7416,"ĠÃģo":7417,"ĠMerlyn":7418,"361":7419,"ghanistan":7420,"ĠCÃ¡t":7421,"ĠBab":7422,"Ġhot":7423,"ĠnhÃłm":7424,"ĠDav":7425,"ĠVI":7426,"ÄĳÆ°a":7427,"ething":7428,"ĠMoses":7429,"Láº¡nh":7430,"Nik":7431,"TR":7432,"Â®":7433,"Ġáº¥u":7434,"Ġsuá»ĳi":7435,"Ġnhá»įn":7436,"ĠngÃµ":7437,"mus":7438,"ts":7439,"ĠliÃª":7440,"Ġneo":7441,"pher":7442,"ĠcÃ³ng":7443,"ĠLam":7444,"llie":7445,"ela":7446,"Cáº¥p":7447,"Fred":7448,"Ġhá»Ń":7449,"ĠxÆ°":7450,"ĠTÃŃ":7451,"Ġnguá»Ļi":7452,"ĠAli":7453,"ĠArk":7454,"ĠSpock":7455,"áº¤T":7456,"ELL":7457,"lanta":7458,"Eric":7459,"HI":7460,"Lá»¡":7461,"Ġthen":7462,"Ġson":7463,"Ġsá»§a":7464,"Ġgáº¡o":7465,"chÃº":7466,"ĠTuyáº¿t":7467,"ĠTokyo":7468,"endy":7469,"Ġhoáº£":7470,"PhÃ¹":7471,"atter":7472,"una":7473,"loyd":7474,"Há»ıa":7475,"Rog":7476,"fa":7477,"ĠtrÃ¢u":7478,"ones":7479,"ThÃŃ":7480,"ĠCáº§n":7481,"á»£t":7482,"aki":7483,"ĠSamuel":7484,"7909":7485,"Cá»±c":7486,"side":7487,"Ġ78":7488,"Ġláº£ng":7489,"ĠkH":7490,"ĠhÃ¡o":7491,"ÄĲáº¥u":7492,"ĠBud":7493,"enerys":7494,"ĠRh":7495,"etter":7496,"ĠYu":7497,"annis":7498,"ĠGiá»Ľi":7499,"ĠMalcolm":7500,"dor":7501,"ĠÄĳáº£":7502,"Ġdáº£i":7503,"ĠBraz":7504,"ĠHáº¿t":7505,"ĠDaisy":7506,"ĠGÃ£":7507,"Ohh":7508,"Cá»©t":7509,"ĠYÃªn":7510,"des":7511,"jo":7512,"Ġáº§m":7513,"Ġtriáº¿t":7514,"KhÃ¡c":7515,"ĠMack":7516,"ĠVáºŃt":7517,"Ġ57":7518,"idt":7519,"cept":7520,"ĠBeau":7521,"Bruce":7522,"ĠIsrael":7523,"lynn":7524,"EM":7525,"cÃ¡m":7526,"ÂĮ":7527,"Ġtá»©":7528,"Ġtáº»":7529,"Ġlife":7530,"ÄĲá»Ļt":7531,"Nháº¡c":7532,"ĠBÃªn":7533,"ĠBilbo":7534,"ĠLáº¡y":7535,"ati":7536,"ennifer":7537,"34":7538,"Pete":7539,"Ryan":7540,"cÃ´ng":7541,"Ãŀ":7542,"Ġmá»£":7543,"Ġbá»Ŀi":7544,"Ġgom":7545,"ĠHÃłnh":7546,"ĠDennis":7547,"ĠGe":7548,"oli":7549,"ĠNgÃ¢n":7550,"ights":7551,"ĠVirginia":7552,"54":7553,"Gl":7554,"Háº£i":7555,"xem":7556,"nhÃł":7557,"Ġgr":7558,"Cháº¥p":7559,"ĠxÃŃt":7560,"ĠBog":7561,"ĠLá»ħ":7562,"Ġ38":7563,"icon":7564,"Äĳáº§u":7565,"Iáº¾NG":7566,".]":7567,"Hm":7568,"Rock":7569,"we":7570,"Ġchá»ĳc":7571,"Ġkeo":7572,"Ġbá»Ľi":7573,"ĠnhÆ°á»£c":7574,"Chá»¯":7575,"Ġxáº»o":7576,"ĠBlake":7577,"aser":7578,"233":7579,"ione":7580,"ĠJoffrey":7581,"ĠKyle":7582,".!":7583,"Lá»±a":7584,"TV":7585,"ĠÄĳÃły":7586,"ĠrÃ¡ng":7587,"This":7588,"á»ım":7589,"Phá»¥c":7590,"ĠFal":7591,"Ġover":7592,"Ġ196":7593,"ĠÄĳá»ĩch":7594,"Ãĺ":7595,"cháº¿t":7596,"chÃŃnh":7597,"ĠTerry":7598,"ĠMÆ°á»Ŀi":7599,"ĠManny":7600,"uit":7601,"ĠFinn":7602,"oly":7603,"abelle":7604,"ĠCharlotte":7605,"Ġgoing":7606,"ORG":7607,"ĠMurphy":7608,"ĠJudy":7609,"ĠBrooklyn":7610,"BÄĥ":7611,"Ġnhá»©c":7612,"aid":7613,"ĠÄĲáº¹p":7614,"ĠHÃ²a":7615,"ĠFish":7616,"utobot":7617,"Caesar":7618,"cules":7619,"Ger":7620,"LÃ¡":7621,"vard":7622,"Ġtrá»¥i":7623,"ĠBaker":7624,"ĠGáº§n":7625,"ĠPhá»¥":7626,"ĠStephen":7627,"ĠToretto":7628,"98":7629,"Deb":7630,"Ind":7631,"woo":7632,"Ġ)":7633,"ĠÄĳÃºc":7634,"Chiá»ģu":7635,"ĠTw":7636,"ĠBy":7637,"ĠÄĲÃ¡nh":7638,"ĠLogan":7639,"ĠWoody":7640,"Lucy":7641,"ĠOrle":7642,"VN":7643,"ĠthÃ´n":7644,"ĠnÃ¡u":7645,"Ġnhá»§":7646,"Ġnhá»ĭn":7647,"Che":7648,"Ġxáº¯n":7649,"ĠCÃ¹ng":7650,"ĠSi":7651,"ĠLand":7652,"ĠNhi":7653,"eder":7654,"ï¼Į":7655,"ĠDebbie":7656,"atalie":7657,"ĠAfghanistan":7658,"AI":7659,"Ju":7660,"LÃ´i":7661,"Ġlá»Ļi":7662,"ĠlÃºa":7663,"Ġnom":7664,"Ġnhá»Ń":7665,"Ġnhiáº¿p":7666,"Ġpháº³ng":7667,"ĠBull":7668,"ĠÄĲiÃªn":7669,"Ġ31":7670,"ĠHoll":7671,"ĠXÃ¡m":7672,"ĠEnterprise":7673,"Josh":7674,"VÃ£i":7675,"no":7676,"ĠÆ°Æ¡ng":7677,"Ġáº¿ch":7678,"ĠcÆ°á»Ľc":7679,"ĠtrÆ°":7680,"ĠKiá»ĥm":7681,"á»ħn":7682,"ĠchÃ³i":7683,"ptimus":7684,"Ġmá»īa":7685,"Cap":7686,"Son":7687,"SÃ¡ch":7688,"rn":7689,"raham":7690,"Ġtua":7691,"Ġtháº¯p":7692,"Ġnháº±n":7693,"Ġdá»ĳt":7694,"Ġgive":7695,"Tháº©m":7696,"ĠCÃ¢":7697,"ĠBá»ĩnh":7698,"ĠDev":7699,"Ġcoca":7700,"ĠNhiá»ģu":7701,"ĠQuÃ¡i":7702,"ĠAlan":7703,"ragorn":7704,"Ġlá»ĳp":7705,"Lucas":7706,"7863":7707,"Van":7708,"Âĭ":7709,"ĠbÄĥn":7710,"They":7711,"chá»Ŀ":7712,"ĠMáºŃt":7713,"arin":7714,"ĠTha":7715,"ĠNicholas":7716,"ĠKiá»ĩt":7717,"ĠkhoÄĥn":7718,"ĠPha":7719,"ansas":7720,"ĠNorman":7721,"06":7722,"CÆ°á»Ľp":7723,"Del":7724,"LO":7725,"á»®":7726,"Ġná»ĵi":7727,"ChÄĥm":7728,"ÄĲáº¡n":7729,"NháºŃt":7730,"Ngá»įn":7731,"erto":7732,"ĠBiáº¿n":7733,"ĠSom":7734,"ĠÄĲáº¥ng":7735,"ĠHuh":7736,"ĠFort":7737,"use":7738,"ilet":7739,"Ġworld":7740,"iller":7741,"unt":7742,"ĠchÃ³t":7743,"Chá»ĭu":7744,"ĠWhat":7745,"Onii":7746,"Ġ****":7747,"07":7748,"Lá»Ľn":7749,"fia":7750,"zel":7751,"ĠÄĳáº«m":7752,"ĠrÃ³t":7753,"ĠCÃ¡ch":7754,"ĠBuddy":7755,"VÃłng":7756,"ĠGiÃª":7757,"ĠJar":7758,"ĠJill":7759,"Ġtá»±a":7760,"ĠSammy":7761,"Marty":7762,"Amanda":7763,"Ag":7764,"Lá»Ńa":7765,"TiÃª":7766,"ĠgÃ³a":7767,"ÄĲáº£m":7768,"Ġxá»ı":7769,"Ġquáº¥n":7770,"ĠMÃ´":7771,"ĠBai":7772,"ĠHouston":7773,"ĠNÆ¡i":7774,"ĠPort":7775,"ades":7776,"ĠAlbert":7777,"ĠSpartacus":7778,"ĠChristian":7779,"Sal":7780,"Táº¥m":7781,"cc":7782,"Ãİ":7783,"ĠbÃ¬a":7784,"ĠThat":7785,"ĠON":7786,"ĠPhÃ¡t":7787,"enda":7788,"ĠSparta":7789,"Walt":7790,"Dory":7791,"Ro":7792,"bin":7793,"fs":7794,"gon":7795,"áº¨":7796,"ĠMá»Ŀi":7797,"Ġtoo":7798,"ĠFe":7799,"ĠÄĳÃ´la":7800,"ĠQuáº£ng":7801,"utch":7802,"aitlin":7803,"300":7804,"Kan":7805,"fan":7806,"right":7807,"ĠSeth":7808,"á»īa":7809,"olis":7810,"olet":7811,"ĠtuÃ½":7812,"ĠArrow":7813,"ibal":7814,"JC":7815,"less":7816,"rin":7817,"Ġlittle":7818,"ChÃŃn":7819,"ĠMáº¯t":7820,"ĠBaggins":7821,"ĠGus":7822,"othy":7823,"adelphia":7824,"For":7825,"mon":7826,"Ġtá»µ":7827,"ĠcÃłnh":7828,"Ġlá»¥a":7829,"ĠgÃ¡y":7830,"Ã©agol":7831,"ĠChim":7832,"Ġhow":7833,"ĠTháº¥t":7834,"Ãµa":7835,"alo":7836,"oby":7837,"Morgan":7838,".?":7839,"Fl":7840,"qua":7841,"ÂĨ":7842,"ĠmiÃª":7843,"Ġhá»©c":7844,"ÃĶm":7845,"ĠHerm":7846,"Ġyo":7847,"Ġwere":7848,"Ġpound":7849,"Ġ84":7850,"ĠuÃ´":7851,"ERS":7852,"ĠNoah":7853,"relli":7854,"fn":7855,"mar":7856,"ret":7857,"ĠmiÃªn":7858,"Ġmáº¯ng":7859,"Ġráº¡ch":7860,"ÄĲáºŃu":7861,"ĠCisco":7862,"ÃĶI":7863,"ĠNina":7864,"QuÃ¡n":7865,"Ġwanna":7866,"ĠÄĳá»ĩm":7867,"ĠAtlanta":7868,"ĠOrleans":7869,"Há»§y":7870,"Quá»ĳc":7871,"Táº§m":7872,"Vinh":7873,"báº¯t":7874,"dÃ¹":7875,"á»¬":7876,"ĠsÃ¹ng":7877,"ĠVen":7878,"ĠGrim":7879,"ĠFlorence":7880,"NÄĥng":7881,"REA":7882,"TÃŃ":7883,"YD":7884,"ĠÄĳá»ĳn":7885,"Ġlanh":7886,"Ġláº±n":7887,"ĠkiÃªng":7888,"ĠTáº¡":7889,"ĠLane":7890,"ĠDiv":7891,"ĠThá»Ń":7892,"ĠKáº¿t":7893,"ĠShire":7894,"Æ¯á»¢":7895,"ĠCamp":7896,"eronica":7897,"ĠXuÃ¢n":7898,"ĠLawrence":7899,"HÃłi":7900,"lÃªn":7901,"ĠmÃ¢u":7902,"ĠtriÃª":7903,"ÄĲáº¡o":7904,"ĠSally":7905,"ĠLydia":7906,"ĠTrÆ°Æ¡ng":7907,"Annie":7908,"ĠLaura":7909,"ĠKHÃĶNG":7910,"Bro":7911,"ngÃły":7912,"Ġtá»¥ng":7913,"PhÃ¡p":7914,"ĠThÃ¡o":7915,"ĠVá»ĭnh":7916,"Ġ2000":7917,"oud":7918,"thá»©":7919,"liff":7920,"ĠValentine":7921,"ĠHollywood":7922,"Jason":7923,"ĠtÄĥ":7924,"Ġsm":7925,"Ġgáº¯t":7926,"cháº³ng":7927,"ĠHÃ¡n":7928,"ĠLes":7929,"ĠLab":7930,"ĠJenny":7931,"Ġvá»¥ng":7932,"ĠWins":7933,"GiÃ¡ng":7934,"ĠZoe":7935,"ĠZeus":7936,"Maria":7937,"Ġshh":7938,"ggsy":7939,"rella":7940,"rixus":7941,"Tiá»ĩc":7942,"VÄ©nh":7943,"VÆ°á»£t":7944,"ĠÆ°á»Ľp":7945,"Ġboy":7946,"Ġreo":7947,"Ġdiá»ħu":7948,"ĠBÃ¡nh":7949,"ĠBow":7950,"ĠAk":7951,"ĠAri":7952,"ĠGuy":7953,"ĠKent":7954,"QuÃł":7955,"ĠWyatt":7956,"ĠConnor":7957,"ĠoÃ¡n":7958,"ĠQuÃªn":7959,"ives":7960,"log":7961,"AE":7962,"Ang":7963,"HÃ¡t":7964,"Ke":7965,"Liz":7966,"Lá»Ľp":7967,"ĠhÃ¡":7968,"Ġrá»ħ":7969,"ĠdÆ¡i":7970,"Thá»ĳng":7971,"ĠCuba":7972,"Ġ54":7973,"ĠÃįt":7974,"ĠSubbing":7975,"Ġagain":7976,"ĠBrazil":7977,"==":7978,"Bá»ĵ":7979,"Cáº¥m":7980,"Jean":7981,"MÃłn":7982,"Ãĩ":7983,"ĠÆł":7984,"Ġchen":7985,"Ġkhuyáº¿t":7986,"ĠdÃ´":7987,"ThÃ¡o":7988,"ĠÄĲÆ°Æ¡":7989,"Trá»±c":7990,"ĠJen":7991,"ĠPenn":7992,"ĠPhá»¥c":7993,"ellow":7994,"ika":7995,"ippin":7996,"Mac":7997,"UR":7998,"ngÃłi":7999,"ĠchÆ°á»Łng":8000,"ĠnháºŃu":8001,"Ġngá»«a":8002,"ĠrÃ£":8003,"Ġthá»į":8004,"ĠTan":8005,"ĠÄĲÃ¡ng":8006,"ĠLá»±c":8007,"ĠThÃ¡m":8008,"oma":8009,"acon":8010,"akes":8011,"Ġonly":8012,"Spartacus":8013,"ĠHelen":8014,"ĠUmb":8015,"ĠÃª":8016,"Ġmá»ĳc":8017,"Ġquáº©n":8018,"Thá»«a":8019,"ĠMitch":8020,"ĠDÃ¬":8021,"alia":8022,"ĠkhoÃ¡n":8023,"Ġtuáº¿":8024,"adia":8025,"ĠAmer":8026,"AD":8027,"Ham":8028,"Li":8029,"OS":8030,"Te":8031,"mont":8032,"oid":8033,"ĠlÃ©o":8034,"Ġná»ī":8035,"Ġbáº¡":8036,"ĠphÃ²":8037,"ĠSab":8038,"ĠHend":8039,"alin":8040,"ĠMcC":8041,"áº¾T":8042,"HÃ²a":8043,"Mia":8044,"TÃĶi":8045,"weet":8046,"ĠnH":8047,"Ġrá»¥i":8048,"Ġgieo":8049,"ĠLÃ¹n":8050,"usk":8051,"ĠPhill":8052,"ign":8053,"rion":8054,"tron":8055,"Ġmá»īm":8056,"ĠLatin":8057,"-**":8058,"MÃ¨o":8059,"TÃ´n":8060,"máº¥y":8061,"stone":8062,"Ġbá»ī":8063,"ĠsÆ°ng":8064,"Ġrá»¯a":8065,"Tháº»":8066,"ĠSaint":8067,"Tráº§n":8068,"ĠTra":8069,"Ġ66":8070,"arlet":8071,"ĠXanh":8072,"hop":8073,"Ġcá»¡i":8074,"ĠvÆ°Æ¡n":8075,"ĠVinci":8076,"ĠHunter":8077,"ĠBecky":8078,"Tá»Ń":8079,"bÃ¡c":8080,"Ġmáº¡":8081,"Ġsiáº¿t":8082,"ĠgÃ´n":8083,"KhÃŃ":8084,"Thá»£":8085,"ĠMá»¥c":8086,"ĠIsaac":8087,"osa":8088,"urai":8089,"ĠNguyá»ĩt":8090,"rypton":8091,"ĠStev":8092,"anner":8093,"As":8094,"KÃ¬a":8095,"Linda":8096,"RÃ´":8097,"Ġhá»¡i":8098,"ĠCrow":8099,"ĠCatherine":8100,"aux":8101,"ĠSaul":8102,"ĠNeil":8103,"ĠKi":8104,"ĠkhoÃ¡t":8105,"Ġláº½o":8106,"idge":8107,"ulf":8108,"ĠGiáº£i":8109,"rison":8110,"umbledore":8111,"MÅ©i":8112,"gard":8113,"ĠÄĳáºŃm":8114,"Ġtháº§u":8115,"Ġtháº¥m":8116,"Ġsing":8117,"ĠnhÄĥ":8118,"ChuyÃªn":8119,"anger":8120,"Ġtoilet":8121,"ĠVic":8122,"ĠErik":8123,"addy":8124,"Ġ669":8125,"uno":8126,"ager":8127,"ÄĲoáº¡n":8128,"Greg":8129,"ĠÄĳáº¯ng":8130,"ĠlÃ³c":8131,"Ġlá»ĳc":8132,"Ġnhá»įc":8133,"ĠrÃ¡p":8134,"ĠÄĳá»į":8135,"ĠLas":8136,"Trá»ĳng":8137,"ĠDiego":8138,"ĠAT":8139,"ĠAir":8140,"ĠbÃ©t":8141,"oween":8142,"idon":8143,"ĠKhá»ĳn":8144,"Ġ197":8145,"ĠÄĳá»¥c":8146,"lint":8147,"ĠJulie":8148,"ĠRonnie":8149,"Tyler":8150,"Cáº·p":8151,"nÃło":8152,"sw":8153,"Ã¸":8154,"Ġcá»ıi":8155,"ĠCom":8156,"ĠMah":8157,"TrÆ°á»Łng":8158,"ĠTháºŃp":8159,"Ġthoi":8160,"ĠAmber":8161,"ylan":8162,"ĠvuÃ´ng":8163,"giá»ĳng":8164,"vania":8165,"ĠSherman":8166,"ĠWilliams":8167,"Sl":8168,"Ser":8169,"bb":8170,"lm":8171,"ä¸":8172,"Tháº³ng":8173,"PhÃ©p":8174,"Ìī...":8175,"ĠThÃ¡p":8176,"ĠWorld":8177,"ilton":8178,"ĠPhÃ¹":8179,"ĠNhá»ı":8180,"ÃĢNH":8181,"Clay":8182,"ĠNoel":8183,"ĠStein":8184,"bender":8185,"84":8186,"Ex":8187,"Mel":8188,"NO":8189,"Ná»ķ":8190,"VÃµ":8191,"din":8192,"tÃ¬m":8193,"ÂĬ":8194,"ĠMach":8195,"ĠÄĲu":8196,"ĠGÃł":8197,"ĠmÃ´t":8198,"ĠKhá»ıe":8199,"ĠGrand":8200,"ÄĤM":8201,"ĠEllis":8202,"Ġsomething":8203,"Martin":8204,"ĠKennedy":8205,"Xa":8206,"bÃ¢y":8207,"kg":8208,"muá»ĳn":8209,"Ã¯":8210,"ĠTá»©":8211,"ĠTá»¥i":8212,"ĠTitan":8213,"ĠBetty":8214,"ĠLav":8215,"Ġluá»ĵng":8216,"ĠRebecca":8217,"ĠPow":8218,"Quáº£n":8219,"Ġghe":8220,"Ġ800":8221,"ĠBravo":8222,"ĠPhiladelphia":8223,"ĠÃļc":8224,"Col":8225,"tim":8226,"Ġlay":8227,"Ġbiáº¿ng":8228,"Ġstr":8229,"ÄĲáº§y":8230,"Ġquá»ī":8231,"Khai":8232,"ĠMang":8233,"ĠMaster":8234,"ĠVÃĢ":8235,"ĠNat":8236,"ĠWeb":8237,"ĠhÃ²m":8238,"ĠCLB":8239,"Hung":8240,"váº«n":8241,"yu":8242,"Ġkhá»ĳc":8243,"Ġsáº¥m":8244,"ÄĲá»ĩt":8245,"Tháº¥t":8246,"ĠCÃ¢y":8247,"ĠNÃ¨":8248,"Äĳa":8249,"ĠOb":8250,"AND":8251,"ĠFelicity":8252,"Garcia":8253,"AA":8254,"Gab":8255,"TER":8256,"rus":8257,"ãģ":8258,"ĠhÃ©":8259,"ĠdÃ³":8260,"ÄĲeo":8261,"arn":8262,"ĠSur":8263,"ĠViáº¿t":8264,"Ġfind":8265,"7895":8266,"Clar":8267,"ĠReed":8268,"ĠSophie":8269,"Máº«u":8270,"Maggie":8271,"col":8272,"Ġ+":8273,"ĠÄĳan":8274,"ĠÄĳÃłnh":8275,"ĠÄĳáº¥ng":8276,"Ġthrough":8277,"Ġmáº¥u":8278,"ĠnÃ²ng":8279,"Ġhá»ĳt":8280,"Ġquá»µ":8281,"ĠKá»µ":8282,"ĠYan":8283,"ĠStreet":8284,"ĠBenjamin":8285,"ĠJulia":8286,"IET":8287,"lant":8288,"nÆ¡i":8289,"off":8290,"Ã®":8291,"Ġser":8292,"Ġrá»¥ng":8293,"ĠrÃ¬a":8294,"ĠBiá»ĥn":8295,"ĠLÃ¢u":8296,"ĠDumbledore":8297,"ilo":8298,"ooh":8299,"ode":8300,"lace":8301,"ydney":8302,"ĠToÃłn":8303,"Ġaround":8304,"láº§n":8305,"ras":8306,"viá»ĩc":8307,"}[":8308,"ĠtÆ°ng":8309,"Ġkg":8310,"Ġhas":8311,"Ġcá»ĵ":8312,"Ġqui":8313,"Ġquáº¥t":8314,"ĠThÃ¢":8315,"ĠKid":8316,"omon":8317,"Ġtuá»Ļt":8318,"Ġfire":8319,"ĠShel":8320,"trÃªn":8321,"ĠDoc":8322,"amien":8323,"Cass":8324,"Gideon":8325,"Náº¡p":8326,"Vinc":8327,"Ġvest":8328,"ĠrÃ¬u":8329,"Ġtriá»ĩt":8330,"ĠÄĲáº±ng":8331,"ĠHO":8332,"Phiá»ģn":8333,"ĠnhÃło":8334,"ĠApp":8335,"tháº¥y":8336,"ĠIra":8337,"edd":8338,"iger":8339,"roe":8340,"ĠQua":8341,"Æ¯á»ļ":8342,"Noah":8343,"ĠBlue":8344,"Ġtá»¥t":8345,"ĠDarcy":8346,"ĠMikey":8347,"Ber":8348,"cÃ¹ng":8349,"ead":8350,"self":8351,"xit":8352,"ĠthuyÃªn":8353,"Ġtry":8354,"ĠxÆ°á»Ľc":8355,"inus":8356,"ĠTÃłi":8357,"ĠBorg":8358,"ĠLA":8359,"ĠWester":8360,"ĠEinstein":8361,"ĠOt":8362,"GiÃ³":8363,"Ġoan":8364,"ĠShin":8365,"enness":8366,"Andre":8367,"á»Ĳng":8368,"giá»¯":8369,"ĠPhilip":8370,"DÃłnh":8371,"LÆ°u":8372,"Tam":8373,"uu":8374,"Ġá»ĭ":8375,"Ġáº¢nh":8376,"ĠnÃªu":8377,"ĠkhÃ©p":8378,"Ġdream":8379,"ÄĲÃ´ng":8380,"Ġxao":8381,"chÆ°a":8382,"ĠBra":8383,"ĠNak":8384,"ĠKá»ĥ":8385,"Ġcá»ĳp":8386,"ĠOwen":8387,"ĠMart":8388,"Ġ76":8389,"ĠUá»ĳng":8390,"ĠhuÃ¢n":8391,"ourt":8392,"ĠBlu":8393,"ĠDaenerys":8394,"RUN":8395,"kun":8396,"ráº±ng":8397,"wan":8398,"ĠCu":8399,"ĠTai":8400,"ĠChÃ³":8401,"ĠChapp":8402,"ĠJed":8403,"ĠNev":8404,"ĠWolf":8405,"ingham":8406,"etti":8407,"ÃľÃĸ":8408,"08":8409,"EY":8410,"Finch":8411,"Niá»ģm":8412,"Po":8413,"Ġkn":8414,"Ġnáº¡i":8415,"ĠbÃŃt":8416,"ĠTarg":8417,"TrÃºng":8418,"ĠAang":8419,"ĠPil":8420,"rop":8421,"ĠZoom":8422,"ĠDonnie":8423,"ĠMerlin":8424,"ĠEllen":8425,"BÃ¡":8426,"Kai":8427,"max":8428,"yle":8429,"ĠrÆ°Æ¡ng":8430,"ĠHá»Ļp":8431,"aline":8432,"ics":8433,"ĠPhá»ĳ":8434,"urch":8435,"ÃĢI":8436,"eebs":8437,"ebast":8438,"Buzz":8439,"Ġnhuá»Ļm":8440,"ĠhÆ°Æ¡u":8441,"59":8442,"Just":8443,"LÃ¡t":8444,"Ná»¯a":8445,"Viet":8446,"ĠâĢĵ":8447,"Ġtháº¡o":8448,"Ġmá»³":8449,"Ġxáº©y":8450,"ersei":8451,"ĠÄĲáº£o":8452,"lla":8453,"ĠRho":8454,"ĠPor":8455,"Giá»Ľi":8456,"ĠTrang":8457,"ingo":8458,"idi":8459,"7917":8460,"ylvania":8461,"ĠSylar":8462,"lie":8463,"ria":8464,"yeon":8465,"ĠlÃ£i":8466,"Ġthá»ĩ":8467,"emp":8468,"TráºŃt":8469,"ĠYoo":8470,"enne":8471,"ĠMiles":8472,"ĠBolton":8473,"EVIET":8474,"UDEVIET":8475,"Cá»Ń":8476,"Lá»¥c":8477,"kov":8478,"ĠthÃŃnh":8479,"ĠnÃºp":8480,"ĠhiÃªn":8481,"Ġtrá»įc":8482,"Ngá»±a":8483,"ĠMetro":8484,"ĠluÃ¢":8485,"ĠJi":8486,"ĠNASA":8487,"ĠIf":8488,"ĠNgÃ´i":8489,"Luke":8490,"Ġshe":8491,"CHUCKLES":8492,"ops":8493,"GhÃª":8494,"(*":8495,"CC":8496,"cÆ¡":8497,"gen":8498,"ngo":8499,"Ġsam":8500,"Ġak":8501,"ĠBax":8502,"ĠÄĲÃ¡":8503,"ĠLittle":8504,"Triá»ĩu":8505,"ĠGun":8506,"ĠNáº±m":8507,"Ġngoáº¡n":8508,"etta":8509,"ĠPac":8510,"iá»ħm":8511,"Giáº¥c":8512,"oga":8513,"ĠFranklin":8514,"ĠPrime":8515,"ĠJamie":8516,"áº¦N":8517,"Xoay":8518,"Bom":8519,"BÃ¹m":8520,"GI":8521,"TÃ¡c":8522,"TÃ¡m":8523,"cliff":8524,"dá»«ng":8525,"ux":8526,"Ġtáº¥p":8527,"Ġmá»įt":8528,"Ġdá»Ļt":8529,"ĠquÃ¨":8530,"Nhiá»ĩt":8531,"Ã¹y":8532,"ĠHá»©a":8533,"ĠChÃł":8534,"alem":8535,"ĠxuÃ¢":8536,"ĠXÃ¬":8537,"ĠJackie":8538,"ANH":8539,"Black":8540,"ĠMira":8541,"ĠFelix":8542,"anslated":8543,"ĠBauer":8544,"YDRA":8545,"Now":8546,"ZT":8547,"get":8548,"}âĻª":8549,"ĠxÆ¡i":8550,"ember":8551,"There":8552,"aii":8553,"ĠMid":8554,"ĠHard":8555,"ĠDerek":8556,"Ìĥ,":8557,"icah":8558,"ilda":8559,"adow":8560,"ĠConn":8561,"Ġtá»¥y":8562,"Spock":8563,"Thoáº£i":8564,"Aaron":8565,"Diá»ĩp":8566,"Pablo":8567,"Xáº¿p":8568,"lon":8569,"ĠgáºŃt":8570,"ĠráºŃp":8571,"arao":8572,"ĠÄĲáº¥u":8573,"ĠHyd":8574,"ĠluÃ¢n":8575,"ĠKings":8576,"ĠEarth":8577,"acqu":8578,"Ãģp":8579,"ÃģNG":8580,"urtis":8581,"Norman":8582,"LÃ¢":8583,"sk":8584,"Ã»":8585,"Ġcr":8586,"ĠchÃ¹m":8587,"Ġnan":8588,"Ġbá»Ļc":8589,"ĠhÆ°ng":8590,"ĠgÃ³t":8591,"ĠdÃ£i":8592,"ĠÄĳiÃªu":8593,"ĠCathy":8594,"aud":8595,"ĠHÃ¹ng":8596,"ĠLenny":8597,"Truy":8598,"ĠNÆ°Æ¡ng":8599,"ĠKend":8600,"ĠkhoÃ¡ng":8601,"ĠOn":8602,"Ġngá»§i":8603,"udson":8604,"ĠxoÃ¡":8605,"ĠHarvard":8606,"Carrie":8607,"ĠSauron":8608,"ĠFacebook":8609,"Ian":8610,"Long":8611,"Mich":8612,"Song":8613,"Ter":8614,"TÃºi":8615,"bro":8616,"Ġgiá»ı":8617,"ĠTal":8618,"ĠBir":8619,"ĠTrevor":8620,"Ġ58":8621,"eda":8622,"Ġ657":8623,"unzel":8624,"annibal":8625,"Ġ120":8626,"Shaw":8627,"7893":8628,"Why":8629,"ĠEli":8630,"á»ĬCH":8631,"ĠTargary":8632,"Dáº¡y":8633,"Look":8634,"SS":8635,"fer":8636,"ls":8637,"Cháº¥m":8638,"Ġdz":8639,"ĠdÆ°á»£ng":8640,"Ġdáº±n":8641,"ÄĲÃ©o":8642,"ĠSuz":8643,"ĠChá»īnh":8644,"eyes":8645,"ĠFall":8646,"Äĳá»£i":8647,"ĠIÃł":8648,"ĠdiÃªm":8649,"Stan":8650,"Thea":8651,"ĠHarrison":8652,"ebastian":8653,"Han":8654,"ĠNghÄ©a":8655,"ĠvÃ¡":8656,"Ġgara":8657,"Ġngáº·t":8658,"ĠtrÃ¡t":8659,"ĠÄĲÃ¬nh":8660,"Ġair":8661,"ĠLester":8662,"ĠNob":8663,"ĠOne":8664,"Ġ5000":8665,"irst":8666,"ĠMartha":8667,"Ġcá»Ńu":8668,"over":8669,"ĠMerc":8670,"ĠPercy":8671,"CPD":8672,"Nic":8673,"Riley":8674,"ĠkhÃ©ng":8675,"ĠngÃ²i":8676,"ChÃºt":8677,"aro":8678,"encer":8679,"ĠJos":8680,"ĠPic":8681,"Ġtuá»³":8682,"oop":8683,"ĠkhÃŃa":8684,"---":8685,"very":8686,"ĠUmbrella":8687,"Hal":8688,"KING":8689,"Min":8690,"Sar":8691,"Â½":8692,"ĠKhoáº£ng":8693,"ÄĲá»ĭt":8694,"Ġquáº³ng":8695,"PhÃ¡o":8696,"ĠLoth":8697,"ĠJustin":8698,"ĠFord":8699,"usty":8700,"usalem":8701,"ĠOld":8702,"umi":8703,"ako":8704,"Ġsub":8705,"ĠJoon":8706,"ifler":8707,"á»ĺT":8708,"ĠMegan":8709,"bending":8710,"Ġdidn":8711,"ĠMarshall":8712,"Vincent":8713,"))":8714,"Tui":8715,"Tá»·":8716,"báº¥t":8717,"ior":8718,"midt":8719,"nam":8720,"ĠtrÃłng":8721,"ĠHen":8722,"ĠHigh":8723,"TrÃŃ":8724,"ĠDay":8725,"ĠDis":8726,"ĠDale":8727,"ĠVÃ¢n":8728,"ĠKansas":8729,"thia":8730,"unk":8731,"Ġ309":8732,"oseidon":8733,"giÃºp":8734,"ĠBurrows":8735,"ĠApache":8736,"212":8737,"Ki":8738,"Xáº¥u":8739,"ĠlÃ¬a":8740,"ĠxÃ¢":8741,"Ġxua":8742,"ĠmÃłi":8743,"Nhá»ı":8744,"ĠÄĲá»ĳc":8745,"Ġhome":8746,"ĠThÃº":8747,"ĠngoÃ£n":8748,"ĠPen":8749,"alph":8750,"ĠOoh":8751,"illo":8752,"ĠSteven":8753,"kee":8754,"ĠsuÃ´n":8755,"ÃĮNH":8756,"ĠLauren":8757,"loria":8758,"Laurel":8759,"Ġplay":8760,"ĠBailey":8761,"ĠBaxter":8762,"DÆ°":8763,"Sá»Ńa":8764,"mail":8765,"rig":8766,"tuyá»ĩt":8767,"ĠCÃł":8768,"ĠBÄĥ":8769,"ĠChiáº¿c":8770,"Ìī!":8771,"ĠDO":8772,"Conner":8773,"ĠRohan":8774,"ĠJud":8775,"eline":8776,"ĠWoo":8777,"rov":8778,"ĠQui":8779,"ĠbÃªnh":8780,"ÃĴng":8781,"ĠSubteam":8782,"ĠBoris":8783,"ĠPepper":8784,"51":8785,"Cáº¥t":8786,"]:":8787,"tá»Ľi":8788,"ĠÆ°ng":8789,"ĠlÃ¡ng":8790,"Ġchuá»ĳc":8791,"Ġgas":8792,"ĠrÃ£nh":8793,"Thá»ĥ":8794,"ĠÄĲá»Ļc":8795,"Trá»ħ":8796,"ĠDw":8797,"Ġ250":8798,"Ġ64":8799,"igne":8800,"oshi":8801,"Matthew":8802,"Roger":8803,"bridge":8804,"gom":8805,"mai":8806,"ray":8807,"ĠngÃ¢m":8808,"Ġráº¡ng":8809,"ĠráºŃm":8810,"ĠdÄĥ":8811,"Ġhoáº¡":8812,"ĠThomp":8813,"ĠJa":8814,"ĠKal":8815,"elson":8816,"asm":8817,"Ġlap":8818,"ĠFu":8819,"thá»±c":8820,"ĠYo":8821,"unny":8822,"okka":8823,"ollum":8824,"ĠMorg":8825,"ount":8826,"KHÃĶNG":8827,"ĠBernard":8828,"ĠOxford":8829,"Far":8830,"GÃł":8831,"Káº¹o":8832,"NÃ£o":8833,"SP":8834,"Ġtáº¹o":8835,"Ġria":8836,"Nhá»¡":8837,"ĠSeo":8838,"ĠHÃ£n":8839,"ĠLáºŃp":8840,"asy":8841,"itter":8842,"ilia":8843,"elli":8844,"ĠMori":8845,"Ġwhere":8846,"Andrew":8847,"ARS":8848,"Ġrá»£n":8849,"ĠBatman":8850,"Bang":8851,"Joy":8852,"Lá»£i":8853,"Tor":8854,"Vá»ĩ":8855,"bum":8856,"gic":8857,"Ã¼":8858,"Ġhand":8859,"ĠrÆ°Æ¡":8860,"ÄĲáº£o":8861,"Nháº¥c":8862,"ĠSouth":8863,"ĠVa":8864,"als":8865,"ĠIran":8866,"ĠHop":8867,"ĠAlÃ´":8868,"Ġinternet":8869,"arts":8870,"quang":8871,"Anton":8872,"Ġcá»§ng":8873,"agher":8874,"Louis":8875,"Ġcmn":8876,"ĠGeorgia":8877,"ĠMickey":8878,"Cá»¥":8879,"RÃ¢":8880,"key":8881,"Ġáº¥p":8882,"Ġend":8883,"Ġláº¥n":8884,"ĠbÃº":8885,"ĠgÃ´":8886,"ĠngÆ°á»£ng":8887,"Ġphá»ĵng":8888,"ÄĲá»ķ":8889,"ĠCO":8890,"ĠCuá»ĳi":8891,"ĠCá»Ńa":8892,"ĠMáº·p":8893,"ĠMarl":8894,"ĠBag":8895,"ĠSansa":8896,"ĠÄĲinh":8897,"ĠHand":8898,"ĠKÃ©o":8899,"iri":8900,"ĠDonald":8901,"Scarlett":8902,"Reid":8903,"LAY":8904,"ĠUSD":8905,"ĠLavigne":8906,"Ass":8907,"VáºŃn":8908,"vie":8909,"Nháº£m":8910,"ĠGam":8911,"ĠPháº§n":8912,"ÃĢy":8913,"oba":8914,"obo":8915,"ffin":8916,"Ġ1923":8917,"attle":8918,"Huyáº¿t":8919,"Há»«m":8920,"LAUGH":8921,"oa":8922,"ten":8923,"ĠtÃ£":8924,"Ġkeep":8925,"Ġmic":8926,"Ġná»ĥ":8927,"ĠgÃ¢n":8928,"ĠdÄ©a":8929,"emon":8930,"ĠCai":8931,"aut":8932,"ĠHudson":8933,"amine":8934,"ĠRap":8935,"ĠKang":8936,"cker":8937,"Ġ345":8938,"ooke":8939,"agi":8940,"Ġfriend":8941,"abella":8942,"ĠAnne":8943,"ĠColumb":8944,"ĠInternet":8945,"title":8946,"Lily":8947,"water":8948,"ĠÃ©o":8949,"ĠphÃł":8950,"ĠMet":8951,"ĠBad":8952,"ĠNicky":8953,"ĠPoll":8954,"Ġbá»Ļn":8955,"olan":8956,"ÃĢN":8957,"ĠShe":8958,"ĠDecept":8959,"ĠKatniss":8960,"burn":8961,"ountain":8962,"ĠWallace":8963,"ĠSantiago":8964,"Dor":8965,"JO":8966,"Ne":8967,"Ná»Ļi":8968,"Nina":8969,"Tiá»ĩn":8970,"Váº£":8971,"hall":8972,"káº»":8973,"uko":8974,"ĠÄĳÃºt":8975,"ĠÄĳá»ĳm":8976,"Ġlim":8977,"ĠlÆ°á»£m":8978,"Ġmá»Ļc":8979,"Ġtrym":8980,"ĠChap":8981,"ĠRad":8982,"ĠVat":8983,"ĠJun":8984,"ĠKÃ¬":8985,"ouch":8986,"Queen":8987,"roft":8988,"iane":8989,"laf":8990,"ĠFrankie":8991,"Marie":8992,"cone":8993,"ixon":8994,"gomery":8995,"Jer":8996,"Woo":8997,"bá»ı":8998,"Ġni":8999,"Ġbá»ģn":9000,"ĠkhÃ¢m":9001,"Chase":9002,"ÄĲÃło":9003,"emen":9004,"ĠTÃ¹ng":9005,"ĠTáº¯t":9006,"ĠTara":9007,"ĠSue":9008,"ĠHector":9009,"ĠChá»įn":9010,"ĠLai":9011,"ĠVá»£":9012,"ĠNZT":9013,"etcher":9014,"oland":9015,"rab":9016,"eek":9017,"Ġ92":9018,"She":9019,"ensen":9020,"Muá»Ļn":9021,"uchot":9022,"ĠMississ":9023,"Ġ==":9024,"anslator":9025,"Thorin":9026,";,":9027,"Kit":9028,"Mos":9029,"TO":9030,"bee":9031,"Ġlá»Ł":9032,"ĠnÃŃn":9033,"ĠhÃº":9034,"Ġháº¯c":9035,"ĠrÃ´i":9036,"inja":9037,"arp":9038,"ĠNÃºi":9039,"uda":9040,"sha":9041,"áº¤y":9042,"ĠPres":9043,"ĠNorth":9044,"ĠRiver":9045,"ĠReyes":9046,"ĠkHÃ´ng":9047,"ĠTargaryen":9048,"Get":9049,"Manny":9050,"Park":9051,"TING":9052,"VÆ¡":9053,"sylvania":9054,"ÃŁ":9055,"ĠtÃº":9056,"ĠlÄĥm":9057,"Ġváº¯t":9058,"ĠquÃ¢":9059,"Nháº«n":9060,"ĠChan":9061,"ĠChÆ¡i":9062,"ĠLá»ĳi":9063,"ĠNÄĤM":9064,"ĠKrypton":9065,"Ġwork":9066,"atheon":9067,"Ġstill":9068,"iggs":9069,"Malcolm":9070,"Ġcá»ĵn":9071,"97":9072,"BÆ¡":9073,"Ráº¯c":9074,"for":9075,"Ã¦":9076,"Ġtrá»Ĺi":9077,"Chá»ĳng":9078,"ChÃ¡y":9079,"ĠTá»ĥ":9080,"ĠBÄĥng":9081,"ĠGates":9082,"ĠVIá»Ĩ":9083,"ouri":9084,"ĠIr":9085,"ĠtuÃ´":9086,"Ġwow":9087,"avier":9088,"Ġinto":9089,"ĠkÃŃp":9090,"ĠWhen":9091,"Ġwhiskey":9092,"ugo":9093,"ĠPetrelli":9094,"Iá»Ĥ":9095,"ragon":9096,"á»°C":9097,"ĠIraq":9098,"Evan":9099,"Fiona":9100,"Jacob":9101,"TÆ°á»Ŀng":9102,"ĠtÆ¡i":9103,"ĠlÃŃt":9104,"Ġbáº½":9105,"ĠrÃł":9106,"Thanks":9107,"ĠBon":9108,"ĠAutobot":9109,"ĠGri":9110,"esi":9111,"ĠNancy":9112,"ĠTrum":9113,"oogle":9114,"Ġ645":9115,"GiÃły":9116,"agen":9117,"allas":9118,"ivan":9119,"ÃģT":9120,"ĠOmar":9121,"Ká»¹":9122,"Má»¹":9123,"rine":9124,"ĠÃ³i":9125,"Ġcháº½":9126,"Ġvá»Ľt":9127,"Ġhel":9128,"ĠnhÃ³t":9129,"Ġxá»ķ":9130,"ThÆ°Æ¡ng":9131,"ĠCave":9132,"ĠSad":9133,"ĠÄĲá»Ģ":9134,"ĠWood":9135,"ĠOak":9136,"ionel":9137,"ĠBaratheon":9138,"Charlotte":9139,"ĠMinion":9140,"ushi":9141,"ĠHawaii":9142,"ĠJerusalem":9143,"ĠÃļy":9144,"If":9145,"RÄĥng":9146,"Woody":9147,"ĠÃ¢y":9148,"Ġlá»Ļc":9149,"Ġsáº£ng":9150,"Ġgáº·m":9151,"ĠnhÅ©ng":9152,"ĠCáº§m":9153,"ĠMath":9154,"ĠBong":9155,"ĠHarl":9156,"Emma":9157,"Ġmuch":9158,"ipper":9159,"Ġmean":9160,"ĠMaya":9161,"ĠBarbara":9162,"Aang":9163,"BE":9164,"Canh":9165,"Russ":9166,"báº±ng":9167,"Ġ|":9168,"ĠgÄĥm":9169,"Ġgolf":9170,"ChÃ¢u":9171,"Ġquáº¡t":9172,"ĠTáº¿":9173,"NgÆ°á»£c":9174,"ĠMáº¥t":9175,"ĠÄĲáº¡o":9176,"ĠHÆ°á»Ľng":9177,"ĠNight":9178,"els":9179,"ĠFeder":9180,"ĠOut":9181,"ĠNgon":9182,"ĠUl":9183,"achi":9184,"ĠAnderson":9185,"Ġxá»īu":9186,"ELD":9187,"Katniss":9188,"Felicity":9189,"ĠJaime":9190,"09":9191,"Fitz":9192,"Há»Ĺ":9193,"Jay":9194,"NÃ£y":9195,"ĠÄĳÃ¹ng":9196,"ĠCD":9197,"ĠSoo":9198,"ĠHood":9199,"ĠChang":9200,"ĠLá»Ĺ":9201,"ĠPop":9202,"iter":9203,"......":9204,"risto":9205,"stan":9206,"rances":9207,"GHS":9208,"ĠKyung":9209,"terpol":9210,"68":9211,"Robb":9212,"SÃ¢n":9213,"more":9214,"ĠniÃªm":9215,"ĠbÆ°Æ¡":9216,"Ġsá»¥c":9217,"ÄĲÃłi":9218,"Nha":9219,"ĠTáº¡o":9220,"ĠBá»ĳn":9221,"Trá»©ng":9222,"ĠJust":9223,"âĻªâĻª":9224,"ĠPam":9225,"owa":9226,"urn":9227,"ryn":9228,"ichi":9229,"Ãģi":9230,"Ġshit":9231,"ynthia":9232,"ĠFletcher":9233,"ĠSkye":9234,"Ġreally":9235,"Julie":9236,"Ã¥i":9237,"ĠRuth":9238,"ĠCollins":9239,"$.":9240,"DS":9241,"LY":9242,"Ġ000":9243,"Ġláº£":9244,"Ġmáº¡t":9245,"Ġtal":9246,"ĠLáº¡c":9247,"ĠAug":9248,"ischer":9249,"avi":9250,"Ġ622":9251,"Ġ77":9252,"utt":9253,"utter":9254,"ĠArm":9255,"assus":9256,"ĠJuan":9257,"000000":9258,"ĠGallagher":9259,"GÃ¢y":9260,"ND":9261,"fore":9262,"ĠÆłn":9263,"Ġlive":9264,"Ġthing":9265,"Ġchang":9266,"Ġsun":9267,"Ġhero":9268,"Ġtrá»Ļi":9269,"ÄĲM":9270,"ĠÄĲáº·t":9271,"ĠLar":9272,"ĠRaven":9273,"ĠNorm":9274,"Ġtá»±u":9275,"Ġ700":9276,"alley":9277,"acher":9278,"ĠArt":9279,"ĠElena":9280,"ÃĤn":9281,"Donald":9282,"ippi":9283,"ĠLeonard":9284,"ĠHalloween":9285,"ĠRusso":9286,"Jar":9287,"bÃ¬nh":9288,"dington":9289,"rett":9290,"tá»±":9291,"ĠcháºŃu":9292,"Ġmáº£ng":9293,"Ġbáº¡t":9294,"ĠkhÃ©t":9295,"ĠsÃ²":9296,"ĠnhÃµm":9297,"ChÃŃ":9298,"ĠquÃ´":9299,"iny":9300,"ĠMam":9301,"ĠSÃºng":9302,"ĠTháº¡ch":9303,"elie":9304,"Æ¯Æł":9305,"Where":9306,"ways":9307,"ĠThorin":9308,"ĠMontgomery":9309,"atsby":9310,"cHFAE":9311,"ĠClarke":9312,"cHFAEBB":9313,"Biá»ĥn":9314,"CIA":9315,"Larry":9316,"Rom":9317,"gia":9318,"pin":9319,"port":9320,"Ãĭ":9321,"ĠÆ°Æ¡":9322,"ĠlÃ¬":9323,"Ġnáº·c":9324,"Ġnew":9325,"Ġchá»«a":9326,"Kháº©n":9327,"ThÆ¡":9328,"Ġgiá»¥":9329,"ĠCorn":9330,"ĠBÃŃ":9331,"ĠBas":9332,"ĠLind":9333,"Trans":9334,"ĠThung":9335,"ĠVo":9336,"ĠVel":9337,"Ġmáº¹o":9338,"ĠFlynn":9339,"ĠtuÃ¢":9340,"ĠPhá»§":9341,"ĠYes":9342,"abi":9343,"ape":9344,"ĠÄĳuÃ´":9345,"ĠÃĤm":9346,"Jones":9347,"ĠMichelle":9348,"),":9349,"BS":9350,"Biá»ĥu":9351,"Happy":9352,"TÃ©":9353,"Tá»ĳc":9354,"Who":9355,"hÃłng":9356,"Ġtwo":9357,"ĠthÃºi":9358,"Ġká»ĭ":9359,"Ġvodka":9360,"Ġhuyá»ĩt":9361,"Ġráº©y":9362,"ĠxÃ¡o":9363,"Ġquyá»ĩt":9364,"ĠquáºŃt":9365,"Ġquáº¹o":9366,"Nhá»ĭp":9367,"ĠÄĲáº¥y":9368,"ĠÄĲá»©a":9369,"TrÃł":9370,"ĠVince":9371,"ĠPak":9372,"ĠPink":9373,"ĠchuÃ¢":9374,"andra":9375,"avan":9376,"Ġ85":9377,"ĠBernie":9378,"Cast":9379,"Kara":9380,"joy":9381,"Ġuá»ĳn":9382,"Ġtáº¿t":9383,"ĠchÃ©o":9384,"Ġbit":9385,"ĠsÃºt":9386,"Ġnhá»¡":9387,"Ġcá»£t":9388,"Ġxay":9389,"aig":9390,"ĠMÃª":9391,"PhÃ³":9392,"ĠAur":9393,"ĠKarl":9394,"kham":9395,"api":9396,"ĠFrankenstein":9397,"ĠCaroline":9398,"Quyá»ĥn":9399,"ĠDivision":9400,"Neil":9401,"TU":9402,"TÃło":9403,"pen":9404,"Â¹":9405,"á»Ĥ":9406,"ĠÄĳá»Ľi":9407,"ĠthuyÃª":9408,"ĠbÃ¹m":9409,"ÄĲÃ¢":9410,"ĠBall":9411,"ĠÄĲÃłn":9412,"ĠhoÄĥ":9413,"ĠKick":9414,"thony":9415,"ĠIron":9416,"Ġwait":9417,"uto":9418,"ĠSimmons":9419,"Iáº¾N":9420,"ĠJoshua":9421,"Ġkáº½m":9422,"ĠLynch":9423,"Ġlaptop":9424,"Beth":9425,"Hotch":9426,"dam":9427,"tÃ´":9428,"tÃ¬nh":9429,"ÄĲá»Ļ":9430,"ĠCy":9431,"ĠTáº§m":9432,"ĠMá»Ľi":9433,"orado":9434,"ĠRan":9435,"ĠFre":9436,"ĠEast":9437,"ĠIvan":9438,"irl":9439,"ĠÃĦ":9440,"ĠbiÃªt":9441,"lov":9442,"Ġshould":9443,"ĠDead":9444,"ppie":9445,"âĢĭ":9446,"Harold":9447,"Ellis":9448,"ĠOscar":9449,"Aa":9450,"NS":9451,"TA":9452,"mers":9453,"rÃºt":9454,"wald":9455,"ĠáºŃp":9456,"Ġtáº¡t":9457,"Ġblog":9458,"ĠkhÄĥ":9459,"ĠHÆ°Æ¡ng":9460,"eople":9461,"ĠNy":9462,"ĠWendy":9463,"ĠEle":9464,"seus":9465,"ĠZach":9466,"erez":9467,"ĠArnold":9468,"ĠTyrell":9469,"ĠAtlant":9470,"Cá»Ľm":9471,"IV":9472,"Kl":9473,"Pet":9474,"mie":9475,"tra":9476,"ĠÄĳáº£n":9477,"ĠchÆ°á»Ľng":9478,"Ġviá»ĩt":9479,"Ġbetter":9480,"ĠhÃ³t":9481,"Ġtráº§y":9482,"phine":9483,"Ġpháº«n":9484,"antha":9485,"ĠCraw":9486,"ĠMem":9487,"ĠMá»ħ":9488,"á»£c":9489,"ĠAw":9490,"ĠGor":9491,"ĠGáº¥u":9492,"Ġdoll":9493,"ĠII":9494,"ĠIv":9495,"ĠIll":9496,"ĠOw":9497,"Ġsaid":9498,"ĠchiÃªm":9499,"Ġsexy":9500,"ĠBroad":9501,"ĠVienna":9502,"ĠStormborn":9503,"ĠPierce":9504,"ĠWesteros":9505,"*.":9506,"BÆ¡i":9507,"Dá»¯":9508,"Dam":9509,"Mir":9510,"Nemo":9511,"VD":9512,"Vá»©t":9513,"ĠÃºp":9514,"áº¶":9515,"Ġcháº§u":9516,"ĠvÃ²":9517,"Ġsal":9518,"Ġngá»«":9519,"á»ĳp":9520,"Ġdiá»ģu":9521,"Nháº·t":9522,"ĠTÃ¢n":9523,"ĠMass":9524,"arch":9525,"ĠSAU":9526,"ĠHD":9527,"ĠHav":9528,"ĠHold":9529,"esis":9530,"ĠKir":9531,"ĠKenny":9532,"ĠPenny":9533,"ĠFer":9534,"ĠFury":9535,"Ġghim":9536,"acks":9537,"ult":9538,"sex":9539,"ĠAmen":9540,"ĠRobbie":9541,"ibb":9542,"ĠÃģc":9543,"Carter":9544,"Elsa":9545,"Harvey":9546,"Gal":9547,"GAS":9548,"Há»ĵng":9549,"IE":9550,"Jin":9551,"Kelly":9552,"Sch":9553,"Ġeo":9554,"ĠhÄĥm":9555,"Ġnháº¹n":9556,"ĠrÆ°á»£t":9557,"inic":9558,"ĠCre":9559,"Ġlá»Ń":9560,"Ì£?":9561,"ĠBÃłng":9562,"ĠSáº¯p":9563,"ĠLin":9564,"ĠLeg":9565,"ĠVÄ©":9566,"ĠVá»ĭ":9567,"ĠNemo":9568,"ict":9569,"adi":9570,"ĠShh":9571,"ĠAld":9572,"ÃģC":9573,"ONE":9574,"eila":9575,"etroit":9576,"ĠSatan":9577,"Ġguys":9578,"ĠVenice":9579,"Eh":9580,"GÃ¡i":9581,"ball":9582,"cr":9583,"cu":9584,"du":9585,"par":9586,"say":9587,"Ã°":9588,"Ġtem":9589,"ĠbÃ¡i":9590,"Ġsorry":9591,"ĠLÃ´i":9592,"ĠVlad":9593,"iti":9594,"olph":9595,"ĠNgá»¥c":9596,"ĠStannis":9597,"umba":9598,"quay":9599,"ĠCarlos":9600,"ĠLoan":9601,"Gordon":9602,"Há»Ļp":9603,"Lor":9604,"Oa":9605,"TIáº¾NG":9606,"frey":9607,"ool":9608,"Ġmade":9609,"Ġdá»«a":9610,"ÄĲÃ¢m":9611,"áº½n":9612,"chiáº¿n":9613,"cháº¡y":9614,"ĠCand":9615,"ĠMig":9616,"ĠMend":9617,"ĠCher":9618,"ĠLá»Ľn":9619,"ĠThi":9620,"ĠNSA":9621,"ĠKáº¿":9622,"ĠTri":9623,"thá»Ŀi":9624,"illian":9625,"igail":9626,"ĠStuart":9627,"ĠGiai":9628,"azel":9629,"Ġjazz":9630,"yde":9631,"ĠÃĩÃľ":9632,"ĠDelaney":9633,"ĠDunbar":9634,"ĠScotty":9635,"ĠSaruman":9636,"Janet":9637,"ĠVatican":9638,"94":9639,"Bor":9640,"Hiá»ĥn":9641,"Hans":9642,"Jordan":9643,"LÆ°Æ¡ng":9644,"Lisa":9645,"VÃ©":9646,"Xanh":9647,"tinh":9648,"Ġlá»¥y":9649,"ĠchÃ¡o":9650,"Ġmáº§m":9651,"ĠTau":9652,"ĠTodd":9653,"ĠMáº·c":9654,"ĠMas":9655,"ĠBis":9656,"Treo":9657,"ĠGai":9658,"Taxi":9659,"owal":9660,"Ġwr":9661,"ĠMargaret":9662,"aco":9663,"ĠKhÃŃ":9664,"agger":9665,"ĠBrock":9666,"iggy":9667,"Elizabeth":9668,"ĠGregory":9669,"Victoria":9670,"Becky":9671,"ĠHydra":9672,"Com":9673,"IÃĬN":9674,"boy":9675,"Ġ/":9676,"ĠlÃ³":9677,"Ġkhiáº¿m":9678,"ĠquÃ¡t":9679,"ĠMand":9680,"ĠBri":9681,"ĠDá»±":9682,"ĠDÃ¹ng":9683,"ĠThÃªm":9684,"ĠVas":9685,"ĠPho":9686,"torm":9687,"ANS":9688,"á»ĲI":9689,"INE":9690,"burgh":9691,"áºłN":9692,"ĠButler":9693,"ĠÄĲoÃłn":9694,"akespe":9695,"MA":9696,"Ná»ĳi":9697,"Oliv":9698,"XÆ°Æ¡ng":9699,"Xáº£y":9700,"hy":9701,"rr":9702,"ĠtÃ¨o":9703,"ĠmÃºt":9704,"Khá»§ng":9705,"ĠCindy":9706,"NgÆ°ng":9707,"ĠÄĲÃ´i":9708,"ĠÄĲÆ¡n":9709,"ĠÄĲiá»ĥn":9710,"ĠLim":9711,"ĠLAUGH":9712,"iah":9713,"ĠKara":9714,"ĠFog":9715,"reen":9716,"Ġxuá»ĵng":9717,"ĠQuáº£n":9718,"quÃ¡":9719,"isha":9720,"ĠAbraham":9721,"GRUN":9722,"Hall":9723,"RÃ¡ng":9724,"Tan":9725,"Wall":9726,"ning":9727,"ĠkÃ©n":9728,"ĠngÃ¡y":9729,"ĠHung":9730,"enberg":9731,"ĠDong":9732,"ĠThorn":9733,"Khoa":9734,"shaw":9735,"ĠLake":9736,"ĠAbby":9737,"Brad":9738,"hhhh":9739,"Jeff":9740,"ĠChappie":9741,"araoh":9742,"Yá»ĥm":9743,"gn":9744,"Ġthough":9745,"Ġnanh":9746,"Ġbr":9747,"Ġsáº¡c":9748,"Thá»ķi":9749,"Nháº¥n":9750,"ĠTá»ĩ":9751,"ĠChÆ°Æ¡ng":9752,"ĠLip":9753,"ĠDer":9754,"ĠDia":9755,"ĠDre":9756,"ÄĲÃ³i":9757,"ĠTracy":9758,"ĠNhÄ©":9759,"Ġwal":9760,"rya":9761,"ries":9762,"ĠGiáº£":9763,"udd":9764,"ÃģI":9765,"Heh":9766,"ĠElliot":9767,"ĠLizzy":9768,"BÃ£i":9769,"Cisco":9770,"Iris":9771,"cm":9772,"láº¥y":9773,"áº©ng":9774,"Ġlá»¥i":9775,"ĠvÅ©ng":9776,"Ġváº±n":9777,"Ġganh":9778,"ĠxÃ£y":9779,"Ġxáº¡o":9780,"ĠgiÃłn":9781,"ĠSen":9782,"ĠSandy":9783,"ĠKev":9784,"icus":9785,"ĠOl":9786,"Ġfuck":9787,"ĠXuá»ĳng":9788,"ĠShane":9789,"iver":9790,"ĠArcher":9791,"ugar":9792,"ARK":9793,"Scot":9794,"ĠRosie":9795,"ĠDolores":9796,"LÃª":9797,"Táº·ng":9798,"báº£o":9799,"Ġcháº¡p":9800,"ĠrÃ¨m":9801,"Ġphá»Ļng":9802,"Ġaxit":9803,"ĠCÃºt":9804,"ĠCec":9805,"ĠCome":9806,"ĠMá»Ļc":9807,"ĠMun":9808,"arrow":9809,"ĠÄĲau":9810,"ĠChÃ©n":9811,"ĠDC":9812,"ĠDeep":9813,"ĠRac":9814,"ĠKira":9815,"cky":9816,"ĠQuang":9817,"onder":9818,"CKING":9819,"áº¬P":9820,"ction":9821,"razy":9822,"Skyler":9823,"ĠThompson":9824,"53":9825,"Ev":9826,"Jai":9827,"KNO":9828,"Lincoln":9829,"Tuá»ķi":9830,"hart":9831,"uka":9832,"yeah":9833,"Ġcáº©m":9834,"Ġsen":9835,"Ġrong":9836,"ÄĲá»Ļc":9837,"ĠSÃ¡ch":9838,"ĠLÃĢ":9839,"ĠNar":9840,"aton":9841,"ĠPeeta":9842,"omer":9843,"NghiÃªn":9844,"ffman":9845,"ĠGiao":9846,"ĠBrid":9847,"shire":9848,"ÃĤY":9849,"ĠLothbro":9850,"akespeare":9851,"Biá»ĩt":9852,"Erik":9853,"Ga":9854,"Há»Ń":9855,"Má»©c":9856,"æĪ":9857,"nhiá»ģu":9858,"Ġnhá»Ļn":9859,"ĠtrÄ©":9860,"Ġphao":9861,"Nháº§m":9862,"ĠBryan":9863,"ĠHYDRA":9864,"Ġyes":9865,"Ġhoi":9866,"ĠDanh":9867,"ĠDetroit":9868,"ĠThá»£":9869,"uster":9870,"ĠchuÃ´":9871,"ĠNguy":9872,"lee":9873,"Ġ618":9874,"Ġkhuáº¥y":9875,"eger":9876,"ĠGru":9877,"Ġshot":9878,"ĠGabriel":9879,"ĠLabs":9880,"Ġgiá»¥c":9881,"God":9882,"Gary":9883,"Há»Ļ":9884,"Paris":9885,"Say":9886,"rat":9887,"zona":9888,"Âĳ":9889,"Ġáº©u":9890,"Ġmá»©t":9891,"Ġbá»«ng":9892,"Ġnham":9893,"iness":9894,"ĠMicky":9895,"ĠÄĲá»ĭnh":9896,"ĠDá»ħ":9897,"003":9898,"reat":9899,"ĠXa":9900,"ĠGiÃ¡":9901,"ĠUr":9902,"253":9903,"FFB":9904,"Alan":9905,"redder":9906,"ĠTuco":9907,"ĠParkman":9908,"ĠSuá»µt":9909,"ĠCasey":9910,"ambers":9911,"ĠLothbrok":9912,"Gu":9913,"KÃª":9914,"XÃ´ng":9915,"worth":9916,"ÃĪ":9917,"á»Ī":9918,"ĠthÃ¬nh":9919,"Ġváº¹t":9920,"Ġná»ĭnh":9921,"Ġaf":9922,"ema":9923,"Æ°á»Ľn":9924,"Ġlá»§":9925,"ĠCháº£":9926,"ĠDes":9927,"ĠDent":9928,"ĠDallas":9929,"Ġloanh":9930,"omir":9931,"ĠQuy":9932,"trÃ´ng":9933,"ube":9934,"inchester":9935,"ĠDelta":9936,"ÃĻt":9937,"ĠLangley":9938,"ĠRogers":9939,"quila":9940,"Cameron":9941,"Av":9942,"Fran":9943,"MÃ¡":9944,"Miss":9945,"Merry":9946,"Reed":9947,"Tá»ĳng":9948,"sá»ĳng":9949,"Â´":9950,"ĠÄĳáº¡m":9951,"Ġmeta":9952,"Ġngá»Ĺng":9953,"Ġngáº«m":9954,"ĠphÃ¡c":9955,"Ġngháº¹t":9956,"emis":9957,"Thuá»Ļc":9958,"ĠHart":9959,"ĠChÃłng":9960,"ĠVol":9961,"ĠNatalie":9962,"elu":9963,"Äĳáº¡i":9964,"edes":9965,"igt":9966,"agan":9967,"ĠGiang":9968,"ÃģN":9969,"ĠLuÃ´n":9970,"ĠMonroe":9971,"Ġstart":9972,"PHUDEVIET":9973,"Æ¯á»¢C":9974,"Dáº§u":9975,"Jerry":9976,"Ward":9977,"bao":9978,"giáº¿t":9979,"pi":9980,"īa":9981,"Ġtháº±n":9982,"ĠtrÃ¡o":9983,"ĠLord":9984,"ĠLola":9985,"ask":9986,"thor":9987,"ĠNhÃ³c":9988,"ents":9989,"ÃĬU":9990,"endell":9991,"ĠCarson":9992,"Ġtrá»¥y":9993,"ANN":9994,"ĠRobb":9995,"ĠÃĩi":9996,"ĠtÃ©i":9997,"7865":9998,"ĠOlivia":9999,"HIELD":10000,"66":10001,"93":10002,"Boo":10003,"HÃºt":10004,"Please":10005,"Susan":10006,"Ġá»§":10007,"Ġain":10008,"ĠxÃ©o":10009,"emma":10010,"chez":10011,"ĠTá»Ļi":10012,"NgáºŃm":10013,"ĠMÃ¡u":10014,"ĠHÃ¢n":10015,"ĠAle":10016,"ĠVon":10017,"ĠJang":10018,"ĠNÃłng":10019,"ĠTriá»ĩu":10020,"rez":10021,"ĠOng":10022,"ĠphÃŃm":10023,"andal":10024,"ĠElsa":10025,"ĠLoren":10026,"ThoÃ¡t":10027,"Teddy":10028,"ĠKeith":10029,"ĠSonny":10030,"Wilson":10031,"Bur":10032,"Pin":10033,"Right":10034,"Str":10035,"Terry":10036,"bell":10037,"uf":10038,"via":10039,"zan":10040,"Ġ79":10041,"ĠÄĳiá»ĥu":10042,"Ġcháº£o":10043,"ĠchÃ¹a":10044,"Ġvung":10045,"Ġhigh":10046,"Ġnguyá»ĩt":10047,"Ġngá»Ńa":10048,"ĠrÃ¹ng":10049,"Ġráº¯m":10050,"ĠtrÃ²ng":10051,"Ã©s":10052,"Ngáº¯m":10053,"ĠBá»ī":10054,"aman":10055,"ĠDVD":10056,"ĠGil":10057,"ĠFBl":10058,"osev":10059,"urs":10060,"agne":10061,"ĠQuentin":10062,"ĠAbu":10063,"ĠMurdock":10064,"ĠkhiÃªng":10065,"ĠPennsylvania":10066,"CU":10067,"Joseph":10068,"Ná»¥":10069,"SÃ¢u":10070,"ien":10071,"yer":10072,"Â¢":10073,"Âª":10074,"ĠchÃ¨":10075,"Ġhá»Ŀi":10076,"Ġnháº¥m":10077,"...,":10078,"ĠCoh":10079,"ĠCá»ķng":10080,"ĠCobb":10081,"ĠTen":10082,"ĠTess":10083,"ĠMáº¡ch":10084,"ĠSydney":10085,"Ġhold":10086,"Phudeviet":10087,"Trá»£":10088,"ĠÄĳá»ĭt":10089,"ĠPas":10090,"urf":10091,"icks":10092,"Ġplace":10093,"uma":10094,"cÃ´la":10095,"ĠcÃºm":10096,"á»ĲNG":10097,"ĠColorado":10098,"ÃĴi":10099,"Ġalbum":10100,"ĠNGÆ¯á»ľI":10101,"Karen":10102,"uitar":10103,"FC":10104,"Gen":10105,"KÃŃ":10106,"MÆ°a":10107,"WAT":10108,"af":10109,"met":10110,"ĠÃ¡t":10111,"Ġlm":10112,"Ġláº£m":10113,"ĠlÃ²i":10114,"Ġmá»§":10115,"Ġmind":10116,"..?":10117,"ĠdÃ¬m":10118,"ÄĲáº¥m":10119,"ThÃł":10120,"ĠCost":10121,"NgÃ³n":10122,"ĠSang":10123,"ĠChÃŃ":10124,"ĠRemy":10125,"thazar":10126,"Ġturn":10127,"Ġface":10128,"ĠMarcel":10129,"ersh":10130,"ender":10131,"oker":10132,"áº¢I":10133,"Clane":10134,"ĠPatty":10135,"Debbie":10136,"Báº¯c":10137,"HH":10138,"KÃ¬":10139,"Nancy":10140,"ril":10141,"Ġeyes":10142,"Ġláº³ng":10143,"Ġmá»ĳt":10144,"ÃŃu":10145,"Ġgiáº»":10146,"ĠTir":10147,"ĠBlo":10148,"ĠBella":10149,"ĠRalph":10150,"ĠJennifer":10151,"itamin":10152,"ĠEugene":10153,"ĠsoÃ¡i":10154,"act":10155,"aleesi":10156,"ĠHeather":10157,"Donnie":10158,"uchi":10159,"PHá»¤":10160,"ĠDouglas":10161,"ĠSanders":10162,"Daisy":10163,"MÅ©":10164,"cá»ĳ":10165,"ved":10166,"ĠcÃły":10167,"Ġváº¥y":10168,"Ġná»ĳc":10169,"Ġsáº§u":10170,"ĠrÃ¡o":10171,"Ġphá»Ľt":10172,"Ngá»įc":10173,"Ġ112":10174,"ĠBiá»ĩt":10175,"ĠSP":10176,"ĠSÃ´":10177,"ĠSÃłi":10178,"ĠÄĲan":10179,"ĠLot":10180,"iatus":10181,"ĠGust":10182,"elot":10183,"ĠIl":10184,"Hoáº¡t":10185,"Holly":10186,"Ġsoda":10187,"ummer":10188,"abama":10189,"ĠUy":10190,"ĠCarm":10191,"Ġhead":10192,"ĠPrince":10193,"body":10194,"Barney":10195,"ĠSnart":10196,"Angela":10197,"ĠFalcone":10198,"Bia":10199,"Cor":10200,"Grace":10201,"Mik":10202,"Nat":10203,"Rich":10204,"SÃ´":10205,"cuá»Ļc":10206,"yÃªu":10207,"ĠkhÃ¢":10208,"phne":10209,"Ġad":10210,"ĠCÃĵ":10211,"Ì£!":10212,"ĠBee":10213,"ĠBecca":10214,"ĠSU":10215,"ĠVá»«a":10216,"ĠKra":10217,"ĠNgá»¥y":10218,"Ġfall":10219,"Ġstay":10220,"Ġradar":10221,"celot":10222,"EVE":10223,"ĠNazir":10224,"Ashley":10225,"ĠMcGill":10226,"ĠDawson":10227,"ĠPakistan":10228,"osevelt":10229,"Jenny":10230,"ONG":10231,"banh":10232,"gw":10233,"Ġá»ĩn":10234,"ĠcÃºc":10235,"ĠÄĳuá»ĳc":10236,"ĠmÄ©":10237,"ĠrÆ°":10238,"ĠCurtis":10239,"ĠTá»ĳ":10240,"ĠTul":10241,"ĠTak":10242,"ĠBelle":10243,"thÃłnh":10244,"Ġ3000":10245,"Ġtuá»Ļc":10246,"owski":10247,"ĠNháº£y":10248,"avin":10249,"oira":10250,"abody":10251,"Ġcá»¥m":10252,"ĠOhio":10253,"ÃĤy":10254,"ĠÃ°i":10255,"ĠJefferson":10256,"nolds":10257,"ĠKhoa":10258,"Æ¯á»ļC":10259,"76":10260,"Az":10261,"Bell":10262,"Gáº¥u":10263,"Un":10264,"bott":10265,"ĠtÃ¬":10266,"Ġtá»£n":10267,"ĠhÃ³i":10268,"ĠgÆ°":10269,"Ġphá»ī":10270,"Chung":10271,"Ġdie":10272,"chá»©":10273,"ĠTáº§n":10274,"ĠBÃ©":10275,"ĠChurch":10276,"amo":10277,"ĠAustin":10278,"ĠTho":10279,"ĠRidd":10280,"ĠVÃ¹ng":10281,"ĠPin":10282,"itri":10283,"ĠWally":10284,"ĠTráºŃn":10285,"oleon":10286,"ĠID":10287,"ĠPhiáº¿n":10288,"led":10289,")}âĻª":10290,"ĠchÃŃp":10291,"Ġfl":10292,"inez":10293,"ĠScar":10294,"ĠDonna":10295,"RIO":10296,"á»ĺI":10297,"ĠVanessa":10298,"ĠStrange":10299,"ĠMissouri":10300,"Ġcá»įp":10301,"BOTH":10302,"Ġcocaine":10303,"Cá»ķng":10304,"GÃ³c":10305,"Hor":10306,"Kem":10307,"Logan":10308,"Máº£nh":10309,"gs":10310,"ios":10311,"lah":10312,"uff":10313,"ĠvÆ°á»£ng":10314,"Ġmá»ĭ":10315,"ĠbÃ³i":10316,"Ġbáº©y":10317,"Ġhapp":10318,"ĠgáºŃp":10319,"Chiáº¿u":10320,"ĠCÆ°":10321,"ĠMá»Ĺi":10322,"ĠHá»ĵn":10323,"enix":10324,"PhiÃªn":10325,"ĠLá»Ŀi":10326,"ĠGin":10327,"ĠTráº¡i":10328,"thra":10329,"ĠConrad":10330,"Ġ73":10331,"ulcan":10332,"ovan":10333,"Ġbox":10334,"Ġbefore":10335,"veng":10336,"ĠTime":10337,"ĠRonan":10338,"ILL":10339,"otein":10340,"ĠRhodes":10341,"Buá»Ļc":10342,"Baby":10343,"UNG":10344,"lh":10345,"veland":10346,"Ġláº¿t":10347,"Ġváº¥p":10348,"ĠvÃ²m":10349,"ĠnÃºm":10350,"Ġgiun":10351,"Ngá»Ļ":10352,"ĠMul":10353,"ĠBuá»ķi":10354,"ĠBean":10355,"ĠAc":10356,"ĠGard":10357,"ĠGatsby":10358,"ĠVeronica":10359,"ĠNate":10360,"thá»ĥ":10361,"icc":10362,"ĠOllie":10363,"oway":10364,"aves":10365,"annon":10366,"Rap":10367,"ĠBron":10368,"7857":10369,"ĠDaryl":10370,"yria":10371,"ĠMilan":10372,"Helen":10373,"ĠMississippi":10374,"Ġlá»Ńng":10375,"Herm":10376,"Houston":10377,"Lá»«a":10378,"hÃ´m":10379,"nik":10380,"nhe":10381,"nhá»Ľ":10382,"ĠnÃ´i":10383,"Ġná»ĩ":10384,"Ġbá»ĳt":10385,"ĠnhÃºt":10386,"ĠphÃ©t":10387,"ChÃ¨o":10388,"Ġthá»įc":10389,"ĠTar":10390,"aunt":10391,"ĠÄĲÆ°Æ¡ng":10392,"enko":10393,"ĠLen":10394,"ĠDark":10395,"ĠVu":10396,"ĠFischer":10397,"ĠWinchester":10398,"ÄĳÃ¢u":10399,"ĠEarl":10400,"Giáº£m":10401,"Ġpeople":10402,"oda":10403,"topher":10404,"ĠDana":10405,"ĠAllah":10406,"ĠIsland":10407,"Ġhacker":10408,"ĠPhimHD":10409,"ĠPhillips":10410,"Cá»±u":10411,"MÃ¢":10412,"Tá»Ŀ":10413,"cÃ¡ch":10414,"fus":10415,"hiá»ĥu":10416,"pa":10417,"xa":10418,"ĠtÃłnh":10419,"Ġháº±n":10420,"Ġgar":10421,"ĠngÃ¡n":10422,"ĠrÃ¢m":10423,"Cháº¿":10424,"ĠHas":10425,"ĠLá»ĩnh":10426,"ĠLud":10427,"ĠLex":10428,"ĠGas":10429,"Ġdoes":10430,"ĠPLAY":10431,"ĠTrá»Ł":10432,"Ġcock":10433,"ÄĳÃª":10434,"ĠOptimus":10435,"Ġ44":10436,"ĠYuri":10437,"Chappie":10438,"Ġtheir":10439,"ĠXÃ£":10440,"ĠtruyÃª":10441,"ĠÂ°":10442,"ĠBeach":10443,"iggle":10444,"ĠSkyler":10445,"Camera":10446,"SmÃ©agol":10447,"ĠGroot":10448,"Casey":10449,"ĠArizona":10450,"DÅ©ng":10451,"HáºŃu":10452,"Pad":10453,"Young":10454,"cáº§n":10455,"croft":10456,"rent":10457,"Ġváº¯c":10458,"Ġvá»įt":10459,"Ġmt":10460,"Ġmá»įn":10461,"Ġnang":10462,"Ġrem":10463,"ĠphiÃª":10464,"Cháº·t":10465,"ĠxÆ°á»Ľng":10466,"ĠMiá»ģn":10467,"ĠyÃª":10468,"TrÃ³i":10469,"ĠGwen":10470,"ĠThuá»ĳc":10471,"ĠRip":10472,"ĠJet":10473,"ĠKeller":10474,"Äĳá»ĵng":10475,"Ġ61":10476,"ĠStifler":10477,"irut":10478,"Ġ101":10479,"ague":10480,"Ġother":10481,"aba":10482,"ĠXÃ¡c":10483,"load":10484,"ĠKhan":10485,"ĠClyde":10486,"ĠEdit":10487,"ĠBarn":10488,"ucky":10489,"ĠBeat":10490,"arez":10491,"ÄĲÆ°Æ¡c":10492,"bury":10493,"ernando":10494,"ĠCaptain":10495,"reland":10496,"Laura":10497,"Ġblah":10498,"leton":10499,"etchen":10500,"AV":10501,"Aragorn":10502,"CE":10503,"CÃ¡o":10504,"Kyle":10505,"Virus":10506,"ká»ĥ":10507,"len":10508,"lass":10509,"tail":10510,"Ã¶":10511,"ĠsÃ«":10512,"ĠhÄ©nh":10513,"Ġnháº£":10514,"ĠngÃ¡ch":10515,"ĠnghÃª":10516,"ĠCro":10517,"ĠCEO":10518,"ĠMáº¡nh":10519,"ĠBran":10520,"ĠÄĲÃ³ng":10521,"ĠHuyáº¿t":10522,"ĠJude":10523,"ĠKan":10524,"ĠFrey":10525,"ĠanH":10526,"ÄĳÃ¡nh":10527,"teroid":10528,"Ġplease":10529,"umber":10530,"ĠAlabama":10531,"ogway":10532,"Alvin":10533,"ĠSpencer":10534,"Ġ180":10535,"ĠBerk":10536,"ARD":10537,"Maya":10538,"Ãĵi":10539,"ENN":10540,"orsch":10541,"Ã¤i":10542,"ĠPeabody":10543,"ĠBradley":10544,".)":10545,"CREA":10546,"LING":10547,"vui":10548,"zer":10549,"Ġcháº§n":10550,"ĠsÃłnh":10551,"ĠTon":10552,"ĠHÆ¡n":10553,"Ġyáº¿n":10554,"Ġlogic":10555,"ĠPoseidon":10556,"Nghá»ĭ":10557,"Ġcopy":10558,"ĠIng":10559,"Ġ63":10560,"under":10561,"rys":10562,"ĠStd":10563,"ĠlÅ©y":10564,"ighty":10565,"ĠKhÃ¡ch":10566,"7851":10567,"Ġ04":10568,"ĠMorris":10569,"ept":10570,"ĠNghiÃªm":10571,"ĠTech":10572,"Ġeverything":10573,"ĠStevens":10574,"ĠDecepticon":10575,"ĠCrawford":10576,"Hobo":10577,"Mick":10578,"QU":10579,"Ren":10580,"coi":10581,"come":10582,"jorn":10583,"xe":10584,"ĠtÃºm":10585,"Ġcá»Ļ":10586,"Ġls":10587,"ĠchÃ¡nh":10588,"Ġbá»£m":10589,"ĠgÃłng":10590,"Ġnhung":10591,"ĠnÃłi":10592,"Ġquáº¿":10593,"Nhá»ĭ":10594,"ĠMao":10595,"ĠMen":10596,"ĠHá»ĩ":10597,"amir":10598,"orah":10599,"ĠAss":10600,"ĠRá»«ng":10601,"ĠPri":10602,"ĠTravis":10603,"á»ªa":10604,"ĠEc":10605,"Ġ65":10606,"Ġ68":10607,"Ġmuá»Ĺi":10608,"Chuá»Ļt":10609,"ĠKhÃ¡":10610,"ĠKháº£":10611,"erst":10612,"ĠGiá»ıi":10613,"ĠCross":10614,"ĠErin":10615,"ĠDaniels":10616,"Ġxáº»ng":10617,"ĠPierre":10618,"press":10619,"luÃ´n":10620,"music":10621,"fnHobo":10622,"Buddy":10623,"HÃłn":10624,"Jae":10625,"Syl":10626,"TÃ¡i":10627,"TÃ¢y":10628,"Yep":10629,"night":10630,"psy":10631,"sá»ĳ":10632,"ĠÃºt":10633,"ĠtÃŃt":10634,"ĠlÃ¬nh":10635,"Ġlá»¥t":10636,"Ġthings":10637,"Ġná»įc":10638,"ĠbÆ°á»Ľng":10639,"Ġbá»±a":10640,"ĠphÃ¡ch":10641,"chÆ¡i":10642,"ĠCaitlin":10643,"eresa":10644,"ĠSaw":10645,"ĠChloe":10646,"ĠDÆ¡i":10647,"ĠThÃŃch":10648,"ĠNGH":10649,"ĠPy":10650,"ĠFil":10651,"ĠTrans":10652,"Ġ619":10653,"otts":10654,"ĠMoon":10655,"Barb":10656,"inderman":10657,"Bon":10658,"IR":10659,"Lá»Ĺ":10660,"Law":10661,"Minh":10662,"Náº·ng":10663,"Ragnar":10664,"Tur":10665,"Ung":10666,"pper":10667,"ving":10668,"ä½":10669,"Ġlá»«ng":10670,"Ġkill":10671,"Ġhá»£m":10672,"Ġrao":10673,"Ġráº«y":10674,"ĠxÆ°á»£c":10675,"ĠTá»ģ":10676,"ario":10677,"ĠÄĲÃª":10678,"ĠÄĲÆ¯á»¢C":10679,"ĠLoki":10680,"amy":10681,"ĠGol":10682,"ĠVÃ¢":10683,"Ġdoing":10684,"ĠPizza":10685,"ĠTrÃ¹m":10686,"thers":10687,"Ġball":10688,"ĠInh":10689,"uru":10690,"Ġfile":10691,"Ġpanh":10692,"ordo":10693,"Ġsure":10694,"ĠJoan":10695,"quan":10696,"ĠMae":10697,"ĠHayes":10698,"ĠInterpol":10699,"raga":10700,"suko":10701,"ĠDuke":10702,"CuÃ´":10703,"ĠBuÃ´ng":10704,"ennessee":10705,"AO":10706,"Ná»ķi":10707,"Xung":10708,"ban":10709,"ros":10710,"sull":10711,"wh":10712,"Ġcáº±m":10713,"ĠcÃ¹i":10714,"ĠthÃ³c":10715,"Ġbai":10716,"Ġhá»Ŀ":10717,"Ġphai":10718,"Ġdc":10719,"ÄĲen":10720,"Tháº¯t":10721,"ĠCad":10722,"ĠMÃ¹a":10723,"Ã½c":10724,"ĠLight":10725,"Trá»įng":10726,"ĠDamien":10727,"Ġwater":10728,"ĠNgu":10729,"Giáº¥u":10730,"ĠShakespeare":10731,"Ġ900":10732,"oyle":10733,"ĠAnt":10734,"aines":10735,"ctav":10736,"ĠDuncan":10737,"ĠJanet":10738,"ĠNicole":10739,"Jessica":10740,"ĠKlaus":10741,"Indy":10742,"',":10743,"Cause":10744,"com":10745,"lÃª":10746,"mel":10747,"rina":10748,"»a":10749,"ĠcÃłn":10750,"nhÃ¢n":10751,"Ġká»ģn":10752,"Ġná»Ľi":10753,"ĠbÃŃch":10754,"ĠgÃ²":10755,"Ġnhá»ĥ":10756,"ChÆ°":10757,"ChÃª":10758,"ChÆ¡":10759,"Ġdiáº¿m":10760,"Tháº¥p":10761,"ĠTusk":10762,"ĠSync":10763,"ĠChar":10764,"ĠLáº§u":10765,"amper":10766,"ĠtoÃ¡i":10767,"ĠKiáº¿n":10768,"á»ªNG":10769,"ols":10770,"Ġpáº£i":10771,"ards":10772,"Ġhear":10773,"ĠWilkes":10774,"ĠCalvin":10775,"ĠPetrov":10776,"ĠcÃ»a":10777,"Ġngá»¥m":10778,"ĠRhett":10779,"ĠChapman":10780,",..":10781,"2000":10782,"June":10783,"KiÃªn":10784,"LÆ°á»¡i":10785,"MÃ´ng":10786,"Tiáº¿t":10787,"Vai":10788,"dale":10789,"gu":10790,"mas":10791,"tu":10792,"ĠcháºŃp":10793,"Ġmá»ģn":10794,"Ġmá»Ńa":10795,"Ġhá»§":10796,"ĠtrÆ°á»Ľng":10797,"ÄĲá»¥":10798,"ÄĲá»ĳng":10799,"aomi":10800,"ThÆ°á»Łng":10801,"ĠCab":10802,"ĠTÆ°Æ¡ng":10803,"ĠTiÃªu":10804,"ĠBÃłi":10805,"ĠBry":10806,"ĠBael":10807,"ĠGoku":10808,"ĠThÃ¡ng":10809,"imer":10810,"ici":10811,"illes":10812,"ffe":10813,"Ġuáº¿":10814,"ĠAna":10815,"ĠDothra":10816,"Jackson":10817,"isten":10818,"yrus":10819,"ICAP":10820,"Christian":10821,"timore":10822,"GASPS":10823,"Cos":10824,"Dra":10825,"Gáº¥p":10826,"Gro":10827,"deen":10828,"ÃĽ":10829,"ĠlÃ¹a":10830,"Ġnáº¥ng":10831,"ĠhÃ¡m":10832,"ĠnhÄĥng":10833,"Ġngáº£":10834,"Ġquáº©y":10835,"Khá»ĳi":10836,"inal":10837,"ĠTs":10838,"Ġtoáº£":10839,"ĠViet":10840,"obby":10841,"aga":10842,"Ġ97":10843,"Æ¯u":10844,"ĠZe":10845,"Doc":10846,"ĠSanchez":10847,"ĠCamelot":10848,"áº¬N":10849,"Ġalways":10850,"ĠFreddy":10851,"ĠLorraine":10852,"ĠAndrews":10853,"ĠDorne":10854,"ĠGreyjoy":10855,"Stephen":10856,"ĠRichie":10857,"asmine":10858,"ĠColumbia":10859,"Lenny":10860,"Lydia":10861,"One":10862,"Sokka":10863,"XÃ³a":10864,"báº¯n":10865,"fu":10866,"ful":10867,"gá»įi":10868,"sin":10869,"Ġteo":10870,"Ġtáº¡c":10871,"Ġcare":10872,"ĠngÃ³ng":10873,"Ġdáº»":10874,"Tháº£o":10875,"ĠMá»«ng":10876,"ĠMáºŃp":10877,"ĠSebastian":10878,"Ġthose":10879,"Ġ...?":10880,"ĠPhÃŃa":10881,"ĠNgá»įn":10882,"ills":10883,"ido":10884,"Ġfax":10885,"entiss":10886,"ĠKhal":10887,"lando":10888,"ĠHamilton":10889,"ĠJules":10890,"Ġgotta":10891,"ĠReynolds":10892,"ĠAntonio":10893,"Jamie":10894,"ĠMoriarty":10895,"Scotty":10896,"æĪĳ":10897,"Roman":10898,"Tá»Ļc":10899,"TÃ¡n":10900,"WALL":10901,"mau":10902,"ste":10903,"Ġtáº©m":10904,"Ġkung":10905,"Ġbon":10906,"Ã¡Âº":10907,"Ġding":10908,"ÄĲá»ı":10909,"ĠMÃ´ng":10910,"ĠMÅ©":10911,"ĠSec":10912,"ĠSull":10913,"Ġyáº¿m":10914,"ĠLet":10915,"TrÃ¡ch":10916,"ĠNelson":10917,"omar":10918,"Ġkáº»o":10919,"Ġanother":10920,"Äĳá»©ng":10921,"ĠEng":10922,"Ġcabin":10923,"ĠQuÃ¡n":10924,"anning":10925,"abb":10926,"ĠGiÆ¡":10927,"ĠGiun":10928,"ĠZh":10929,"Ãģc":10930,"Ġwhy":10931,"ĠTHÃģNG":10932,"Brand":10933,"ĠLangdon":10934,"ĠFrost":10935,"ĠGrodd":10936,"Ġ672":10937,"sullied":10938,"Gyeon":10939,"Sn":10940,"Vá»ı":10941,"may":10942,"res":10943,"town":10944,"ĠtÆ°á»Ľi":10945,"Ġtennis":10946,"ĠÄ©":10947,"ĠlÃºn":10948,"Ġmust":10949,"Ġbáº§n":10950,"Ġbáº¹p":10951,"ĠhÃ¹m":10952,"Ġhappy":10953,"Chloe":10954,"Ġthá»ıi":10955,"ĠdÃ¨":10956,"ÄĲc":10957,"Ġxá»Ł":10958,"ĠTÃ¡m":10959,"ĠMot":10960,"ĠÄĲá»ģ":10961,"ĠHÃ´n":10962,"ĠGloria":10963,"ĠVÃłi":10964,"ĠKÃ½":10965,"ĠKane":10966,"ĠPitt":10967,"ĠTris":10968,"Nghá»ĩ":10969,"rain":10970,"Ġ---":10971,"Ġ87":10972,"cock":10973,"ĠElias":10974,"ĠAdrian":10975,"pps":10976,"Benjamin":10977,"ĠNghi":10978,"ekov":10979,"IST":10980,"ĠHercules":10981,"Howard":10982,"ĠCleveland":10983,"colate":10984,"ÃľÃĸi":10985,"Cooper":10986,"Every":10987,"Miller":10988,"Raven":10989,"Wyatt":10990,"fle":10991,"ser":10992,"wi":10993,"ãĢ":10994,"ĠthÃ²":10995,"Ġmorn":10996,"ĠmÆ°á»Ľn":10997,"ĠbÃłnh":10998,"ĠgÃ£i":10999,"ĠdÃ©p":11000,"ĠxÃ³":11001,"Kha":11002,"Thá»ķ":11003,"ĠBá»±":11004,"orrow":11005,"TrÆ¡":11006,"ĠDub":11007,"ĠRex":11008,"ĠJune":11009,"oux":11010,"ales":11011,"aska":11012,"usco":11013,"ĠEnd":11014,"Saul":11015,"trá»«":11016,"ecause":11017,"ĠRobot":11018,"ried":11019,"eeler":11020,"ergus":11021,"ĠNaples":11022,"ĠAthens":11023,"ĠPorter":11024,"ĠVIá»ĨT":11025,"ristoff":11026,"400":11027,"Aur":11028,"HÃ¨n":11029,"Pier":11030,"Rad":11031,"SO":11032,"UM":11033,"bu":11034,"si":11035,"vers":11036,"Ġá»īa":11037,"Ġton":11038,"nhÃ³c":11039,"Ġvitamin":11040,"Ġmáº«n":11041,"ĠxiÃªn":11042,"ĠxÃ¡t":11043,"ÃŃp":11044,"aude":11045,"ĠÄĲá»ĭch":11046,"ĠLiá»ĩu":11047,"ĠAveng":11048,"ĠRow":11049,"este":11050,"ĠVern":11051,"ĠVulcan":11052,"Ġchá»ĭch":11053,"ĠTrá»«":11054,"Ġfree":11055,"ĠnguyÃª":11056,"ĠbÃŃp":11057,"ĠShredder":11058,"enner":11059,"shin":11060,"Ġboa":11061,"Ahhh":11062,"ĠGrady":11063,"ookie":11064,"uller":11065,"ĠBeckett":11066,"khoan":11067,"ĠGenesis":11068,"Percy":11069,"eleine":11070,"ĠKaiju":11071,"ĠSunny":11072,"ĠVIP":11073,"Bat":11074,"Bilbo":11075,"Guy":11076,"IP":11077,"LIN":11078,"Viá»ĩn":11079,"Zoe":11080,"jan":11081,"tiáº¿p":11082,"Ġcáº¡p":11083,"Ġchá»Ļp":11084,"Ġmar":11085,"ĠmÄĥng":11086,"Ġmet":11087,"ĠCá»Ń":11088,"ĠMus":11089,"ĠMoh":11090,"ĠLove":11091,"TrÆ°Æ¡ng":11092,"Translator":11093,"ĠDylan":11094,"Ġbad":11095,"ĠNgÅ©":11096,"idas":11097,"igel":11098,"ĠKhá»§ng":11099,"ÃģO":11100,"endan":11101,"ĠJulian":11102,"ĠStefan":11103,"ĠRomeo":11104,"ĠNevada":11105,"Ġhelp":11106,"ĠTirith":11107,"orschach":11108,"bÃªn":11109,"sie":11110,"Å¨":11111,"ĠNghÄ©":11112,"Ġcomp":11113,"ĠthÃ¢u":11114,"Ġthese":11115,"ĠkÃ¨":11116,"Ġváº£ng":11117,"Ġguitar":11118,"Ġgien":11119,"auss":11120,"ĠSá»ĳng":11121,"ĠChuyá»ĥn":11122,"ĠPla":11123,"igo":11124,"eva":11125,"Ġ82":11126,"sea":11127,"loki":11128,"Albert":11129,"ible":11130,"ĠMcK":11131,"ĠJonathan":11132,"ational":11133,"ĠEvil":11134,"Ġsamurai":11135,"acques":11136,"ĠCairo":11137,"Ġdollar":11138,"owalski":11139,"gwarts":11140,"74":11141,";...":11142,"HÃ´":11143,"Háº¡nh":11144,"Háº¡t":11145,"Má»ĩt":11146,"Nicky":11147,"Rod":11148,"TÃ¡ch":11149,"Ã§":11150,"ĠÃ³":11151,"Ġund":11152,"ngá»ĵi":11153,"Ġtá»ıi":11154,"ĠlÃºng":11155,"ĠchÃ¡c":11156,"Ġbig":11157,"Ġbelie":11158,"ĠkhÃ¡nh":11159,"ĠrÃ©t":11160,"Ġdáº¡t":11161,"KhÃ³c":11162,"ThÄĥ":11163,"Thua":11164,"ThÃ¡p":11165,"ĠTÆ°á»Ľc":11166,"Ngá»±c":11167,"ĠHoo":11168,"ĠDex":11169,"ĠRita":11170,"ĠRox":11171,"ĠPerez":11172,"rek":11173,"ĠOd":11174,"ĠPharaoh":11175,"ĠNhÃ³m":11176,"ĠNhÃ£n":11177,"eez":11178,"ĠArkham":11179,"Shit":11180,"pera":11181,"quer":11182,"lder":11183,"ĠWhoo":11184,"Stark":11185,"opez":11186,"ĠÃģnh":11187,"Frankie":11188,"ĠTyrion":11189,"nghÄ©":11190,"ĠMoore":11191,"ĠGlenn":11192,"ĠChristina":11193,"ĠHills":11194,"ĠJamal":11195,"ĠCassie":11196,"yssa":11197,"Joshua":11198,"Moses":11199,"Bal":11200,"Becca":11201,"Bonnie":11202,"Cá»Ĺ":11203,"HÃ²n":11204,"Lyn":11205,"Mitch":11206,"Pippin":11207,"Yah":11208,"ÃĽi":11209,"äº":11210,"Ġes":11211,"ĠlÃµa":11212,"ĠmÃ¨":11213,"ĠmÃ©o":11214,"Ġsá»ıi":11215,"Ġdel":11216,"chester":11217,"ĠCON":11218,"ĠCynthia":11219,"aige":11220,"ĠBi":11221,"ĠST":11222,"ĠSHIELD":11223,"ĠHá»ıi":11224,"ĠHim":11225,"ĠHum":11226,"ĠHass":11227,"ĠDal":11228,"ĠRING":11229,"ÄĲÃ³n":11230,"ĠVÃ²ng":11231,"ated":11232,"ĠKurt":11233,"ĠKling":11234,"asper":11235,"ĠTrÃ²":11236,"ĠEve":11237,"ĠEggsy":11238,"ĠPháº¡m":11239,"ooby":11240,"ĠYam":11241,"Ġ69":11242,"Ġsoa":11243,"ĠConway":11244,"ĠQuinn":11245,"ĠQuill":11246,"ĠBrick":11247,"ĠsuÃ´":11248,"bye":11249,"Ãľng":11250,"Merlin":11251,"Boyka":11252,"Báº¡ch":11253,"Nicholas":11254,"Pep":11255,"Tá»ī":11256,"Ui":11257,"site":11258,"wick":11259,"Ġom":11260,"Ġeven":11261,"Ġkáº¿p":11262,"ĠvÆ°Æ¡":11263,"Ġná»ĩn":11264,"Ġbro":11265,"Ġsáº¥y":11266,"ĠngÃ½":11267,"Ġroll":11268,"Ġdáº¥n":11269,"Tranh":11270,"ĠPol":11271,"ĠFour":11272,"ĠFree":11273,"ĠFisk":11274,"itty":11275,"ĠIreland":11276,"ĠNgÃ´":11277,"ava":11278,"trom":11279,"ĠEdgar":11280,"When":11281,"astan":11282,"Argh":11283,"Ġchá»£p":11284,"ĠEllie":11285,"ĠSeattle":11286,"Ã±i":11287,"Raymond":11288,"Iá»ĨN":11289,"ÃĨt":11290,"Patrick":11291,"ĠWarren":11292,"áº¨n":11293,"ĠJenkins":11294,"ĠLorenzo":11295,"CÄĥng":11296,"Cat":11297,"Den":11298,"Georg":11299,"MÃ¡i":11300,"Rebecca":11301,"nell":11302,"won":11303,"~)":11304,"nham":11305,"Ġchao":11306,"Ġvon":11307,"Ġbow":11308,"Ġháº¯t":11309,"ĠphÃ¬":11310,"Ġdis":11311,"ĠCot":11312,"ĠTang":11313,"ĠTÃ³c":11314,"Ngá»ĳc":11315,"ĠSasha":11316,"ĠDai":11317,"ĠDÆ°á»Ľi":11318,"ĠDew":11319,"ĠKay":11320,"ĠKÃŃnh":11321,"eto":11322,"ĠPau":11323,"ĠOogway":11324,"aden":11325,"ellus":11326,"leep":11327,"Ġnothing":11328,"ĠXÃł":11329,"ulk":11330,"ulin":11331,"ĠWilly":11332,"ĠnhoÃ¡ng":11333,"iffany":11334,"Reese":11335,"Dá»±ng":11336,"cá»©u":11337,"ĠSlade":11338,"ĠClayton":11339,"Hercules":11340,"ĠOlympic":11341,"iccup":11342,"ĠDothraki":11343,"ICAPRIO":11344,"GÆ°Æ¡ng":11345,"Huy":11346,"Sasha":11347,"Tuyáº¿t":11348,"Your":11349,"hÆ¡n":11350,"mann":11351,"Â¯":11352,"ĠcÃį":11353,"Ġlá»ıi":11354,"Ġthá»ĳt":11355,"Ġthiá»ģn":11356,"Ġkind":11357,"ĠmÃ³":11358,"Ġmeth":11359,"Ġbreak":11360,"Ġhun":11361,"ĠrÃŃch":11362,"chÃºa":11363,"ĠSE":11364,"ĠHáº¡nh":11365,"lle":11366,"oro":11367,"ĠRicky":11368,"ĠNinh":11369,"ahan":11370,"ĠOre":11371,"ĠOver":11372,"Ġput":11373,"udi":11374,"coon":11375,"ourg":11376,"ĠCraig":11377,"ĠÃĩÃ¢y":11378,"Ãĵng":11379,"Alexander":11380,"Blu":11381,"ĠUnsullied":11382,"ĠAsgard":11383,"ĠDamon":11384,"ascal":11385,"ĠViking":11386,"Andrea":11387,"KNOCKING":11388,"Dao":11389,"Eve":11390,"Eugene":11391,"Hitler":11392,"Ivan":11393,"Sá»¯a":11394,"TT":11395,"Tia":11396,"gun":11397,"rigan":11398,"tÆ¡":11399,"vo":11400,"áºº":11401,"Ġnit":11402,"Ġsushi":11403,"ĠhÃ³c":11404,"Ġgá»Ļi":11405,"Ġnháº£i":11406,"ĠrÃ²ng":11407,"Ġphá»ĭch":11408,"áº½m":11409,"ĠxÃª":11410,"onz":11411,"Ġchá»«":11412,"ĠCersei":11413,"ĠBre":11414,"ĠBanks":11415,"ĠLow":11416,"ĠLiam":11417,"amura":11418,"ĠGul":11419,"ĠGeller":11420,"ĠRV":11421,"ĠRÆ°á»£u":11422,"Ìĥ!":11423,"ĠNY":11424,"ĠkhÃ³e":11425,"Äĳo":11426,"tern":11427,"Ġ108":11428,"evy":11429,"teen":11430,"away":11431,"shi":11432,"Star":11433,"TuyÃª":11434,"á»ĲC":11435,"Ġmá»¥n":11436,"ĠdÃ²m":11437,"ĠRoosevelt":11438,"ricia":11439,"Ġ***":11440,"ĠrÆ¡m":11441,"ĠAndrea":11442,"ĠDOOR":11443,"Peeta":11444,"Reg":11445,"Sid":11446,"WO":11447,"cÃ¢u":11448,"cre":11449,"fl":11450,"lar":11451,"min":11452,"pus":11453,"sáº¿p":11454,"Ġow":11455,"Ġcn":11456,"Ġlá»įi":11457,"ĠlÃĥ":11458,"Ġthá»ĳn":11459,"Ġnáº¿p":11460,"Ġnháº¥p":11461,"Ġphiáº¿m":11462,"ÄĲá»ĭch":11463,"onel":11464,"onne":11465,"Ġgiáº«m":11466,"ĠmÃło":11467,"ĠTia":11468,"ĠTÆ°á»Łng":11469,"ĠTina":11470,"ĠMountain":11471,"Ġlá»©":11472,"ĠBak":11473,"ĠHÆ¡i":11474,"ĠLov":11475,"ĠDim":11476,"ĠDiana":11477,"ĠRoll":11478,"ĠKá»ĩ":11479,"ĠTranslated":11480,"Äĳáº¥y":11481,"Ġpro":11482,"NGÃĢY":11483,"Sauron":11484,"ĠSharon":11485,"anko":11486,"azon":11487,"Ġ115":11488,"Clark":11489,"ronos":11490,"Ġthá»¥c":11491,"Ġdead":11492,"ĠTheodore":11493,"Julia":11494,"ĠNapoleon":11495,"ĠHermione":11496,"ĠPowers":11497,"Ġná»ĩm":11498,"Báº§u":11499,"Betty":11500,"DICAPRIO":11501,"Hah":11502,"Lan":11503,"Lester":11504,"Med":11505,"Si":11506,"Vince":11507,"ment":11508,"uardo":11509,"ĠngÃ¡ng":11510,"ĠxÃ¹":11511,"ĠTop":11512,"ĠMob":11513,"ĠBert":11514,"ĠSin":11515,"ĠHad":11516,"ĠHuynh":11517,"ĠDuy":11518,"Giá»¡n":11519,"ombie":11520,"Ġ357":11521,"ĠPhilly":11522,"ÃĢi":11523,"ÃĢNG":11524,"Giai":11525,"Ġnguá»Ŀi":11526,"athcliff":11527,"ondu":11528,"ĠAnthony":11529,"ĠCarver":11530,"Ġruá»ĵng":11531,"Scarlet":11532,"Iá»Ģ":11533,"ampagne":11534,"ĠFring":11535,"Huáº¥n":11536,"................":11537,"ntze":11538,"SIGHS":11539,"ĠHotchner":11540,"Ãĺng":11541,"Sonny":11542,"elujah":11543,"-\"":11544,"Dennis":11545,"Finn":11546,"Hobb":11547,"Mason":11548,"Sá»©":11549,"ÃĹ":11550,"á»İ":11551,"ĠluyÃª":11552,"Ġmad":11553,"ĠbÃ³n":11554,"ChiÃª":11555,"chÃłng":11556,"chie":11557,"ĠCáº¥p":11558,"ĠTiÃª":11559,"ĠMiÃª":11560,"ĠBuch":11561,"ĠHir":11562,"ĠLÅ©":11563,"ĠLiv":11564,"eok":11565,"ĠWit":11566,"olai":11567,"ĠEM":11568,"ĠIowa":11569,"andora":11570,"illon":11571,"idan":11572,"Ġ656":11573,"ires":11574,"ĠMarc":11575,"ĠQuáº§n":11576,"Ġ95":11577,"Ġduá»ĩ":11578,"ĠsÃ´cÃ´la":11579,"ĠCarlo":11580,"ĠCrassus":11581,"ĠIsabelle":11582,"EAKING":11583,"á»¨C":11584,"ĠApollo":11585,"ĠRussell":11586,"ĠCrowley":11587,"ĠJedi":11588,"Æ¯ÆłNG":11589,"ĠPLAYING":11590,"Catherine":11591,"GRO":11592,"HANN":11593,"Lam":11594,"SÃ³ng":11595,"Yuri":11596,"bÃ´ng":11597,"oor":11598,"wulf":11599,"ÍĢ":11600,"ĠÄĳáº·n":11601,"Ġgiáº¿m":11602,"ChÃ©m":11603,"auer":11604,"ĠMI":11605,"ĠBÃ¡m":11606,"ĠChoi":11607,"ĠLÃŃnh":11608,"ĠDem":11609,"ĠGÃ²n":11610,"ĠPapa":11611,"ĠWay":11612,"ĠTristan":11613,"icate":11614,"ĠAlvin":11615,"ĠZero":11616,"ĠArryn":11617,"Ġname":11618,"ĠBenji":11619,"stant":11620,"ĠCaleb":11621,"MuÃ´":11622,"ĠMadison":11623,"ĠJanice":11624,"Ġanything":11625,"Ġenough":11626,"Megan":11627,"ĠFisher":11628,"Ġheroin":11629,"Ġwrong":11630,"ĠMandarin":11631,"DON":11632,"Gus":11633,"Justin":11634,"Ollie":11635,"Sir":11636,"bot":11637,"mÃ¡y":11638,"som":11639,"á»ĸ":11640,"ĠtÃ¡nh":11641,"Ġlaser":11642,"Ġmui":11643,"Ġsl":11644,"Ġsn":11645,"ĠhÃŃ":11646,"Ġhen":11647,"Ġass":11648,"Tháº£m":11649,"ĠCÆ°ng":11650,"ĠMug":11651,"aritan":11652,"ĠBÃ´":11653,"ĠSS":11654,"ĠSet":11655,"ĠÄĲao":11656,"ĠHorn":11657,"ĠDÅ©ng":11658,"ĠDung":11659,"ĠDec":11660,"ĠGÃ³c":11661,"isky":11662,"ĠKia":11663,"ĠFoster":11664,"ĠWho":11665,"ĠPheebs":11666,"ĠEmil":11667,"berty":11668,"ereen":11669,"quez":11670,"iza":11671,"Stuart":11672,"Ãĥt":11673,"ĠAllison":11674,"Ġleave":11675,"Ġprotein":11676,"ĠHugh":11677,"ĠBoyd":11678,"Judy":11679,"CREAM":11680,"querque":11681,"65":11682,"Kiáº¿n":11683,"LÆ°á»£ng":11684,"Vo":11685,"dal":11686,"Ġtá»Ļt":11687,"Ġtuá»ĳt":11688,"Ġln":11689,"ĠlÃ¡c":11690,"Ġmin":11691,"Ġrá»įi":11692,"ÄĲÄĥ":11693,"ĠBye":11694,"ĠHÃ´":11695,"ĠHannibal":11696,"ĠChen":11697,"ĠLionel":11698,"Trá»Ļm":11699,"ĠDÃ²ng":11700,"elope":11701,"ĠWol":11702,"thday":11703,"Ġwind":11704,"ooth":11705,"ĠStella":11706,"rance":11707,"Ġpass":11708,"ĠXÃŃch":11709,"Ġ98":11710,"aper":11711,"ennie":11712,"ĠUk":11713,"ĠAmelia":11714,"Sammy":11715,"Ġláº»o":11716,"burger":11717,"Sophie":11718,"ĠRichards":11719,"á»ĢN":11720,"ĠSuperman":11721,"Robbie":11722,"ä½ł":11723,"Bing":11724,"Cole":11725,"Coulson":11726,"LÃŃ":11727,"Táº£n":11728,"Tiá»ĩm":11729,"ei":11730,"gáº§n":11731,"gether":11732,"human":11733,"ianne":11734,"má»Ł":11735,"nia":11736,"och":11737,"ĠÆ¯á»Ľc":11738,"Ġláº£i":11739,"Ġlight":11740,"Ġvs":11741,"Ġháº»o":11742,"Chun":11743,"ays":11744,"Ġngháº½n":11745,"chá»Ĺ":11746,"Ġ110":11747,"ĠSir":11748,"ĠChel":11749,"Trao":11750,"Tracy":11751,"ĠAL":11752,"Ġluá»ĵn":11753,"Ìĥ...":11754,"eld":11755,"QuáºŃn":11756,"ĠOf":11757,"ĠOlaf":11758,"ĠNgÃ´n":11759,"ĠHoffman":11760,"trÃ¡nh":11761,"seng":11762,"ovich":11763,"stal":11764,"ullen":11765,"ĠRaph":11766,"Gháº¿":11767,"reek":11768,"Robin":11769,"á»ĺC":11770,"ĠBuff":11771,"ĠBaltimore":11772,"Felix":11773,"Daryl":11774,"Castle":11775,"Ġcocktail":11776,"Dick":11777,"Honey":11778,"Ran":11779,"ears":11780,"hk":11781,"mett":11782,"soo":11783,"vy":11784,"wig":11785,"wicky":11786,"Ġ^":11787,"ĠtÃ¢ng":11788,"ĠthÃ³p":11789,"ĠchÃ²m":11790,"Ġmoney":11791,"Ġbest":11792,"Ġsweet":11793,"Ġnhá»«":11794,"Ġdone":11795,"ĠCáº¢":11796,"ĠBÃłn":11797,"ĠHiá»ĩu":11798,"ĠHáº¡ng":11799,"ĠLon":11800,"ĠLá»Ńa":11801,"TrÃ¬nh":11802,"ĠDiá»ĩn":11803,"ĠJung":11804,"asim":11805,"otta":11806,"ĠPhÃºc":11807,"arly":11808,"ĠHoan":11809,"ĠMarvin":11810,"anni":11811,"acey":11812,"ĠSparrow":11813,"ĠÃĩÃ£":11814,"ĠMinas":11815,"ĠHammond":11816,"ÃĴNG":11817,"sterdam":11818,"ĠThuáºŃt":11819,"Ġchá»Ńng":11820,"ĠDrake":11821,"á»®NG":11822,"ĠGiÃªsu":11823,"ĠPhoenix":11824,"Rapunzel":11825,"Blake":11826,"Pe":11827,"Rá»Ńa":11828,"TÃłn":11829,"cáº£nh":11830,"iott":11831,"mu":11832,"Ġku":11833,"Ġhao":11834,"Ġrang":11835,"ĠtrÄĥn":11836,"NhÃ©":11837,"ĠCur":11838,"ĠCrixus":11839,"ĠTuyÃªn":11840,"aun":11841,"ĠHáº¡m":11842,"ĠChá»«ng":11843,"ĠChá»Ľp":11844,"ĠLui":11845,"ĠDog":11846,"ĠDown":11847,"ĠVáº»":11848,"ĠKathy":11849,"ĠFrances":11850,"ĠWang":11851,"ĠTrinh":11852,"ĠTráº¡m":11853,"ĠTread":11854,"ĠNhÃ¢":11855,"rane":11856,"7849":11857,"ians":11858,"eggy":11859,"LEY":11860,"ĠSimba":11861,"iggins":11862,"ĠSkynet":11863,"gaery":11864,"ĠDurant":11865,"ĠSaiyan":11866,"61":11867,"Agh":11868,"BAL":11869,"Bourne":11870,"Crixus":11871,"DA":11872,"Dana":11873,"FO":11874,"FT":11875,"HÃª":11876,"Luyá»ĩn":11877,"PE":11878,"Rh":11879,"Rá»ĵng":11880,"Sy":11881,"Táº¯m":11882,"Zach":11883,"rand":11884,"Ġten":11885,"Ġmor":11886,"ĠngÃ¢":11887,"Æ¡ng":11888,"NhÃ¢":11889,"erta":11890,"ĠSully":11891,"ĠÄĲI":11892,"ĠHiá»ĩn":11893,"ĠHÃ³a":11894,"ĠChambers":11895,"Ġtogether":11896,"ĠVale":11897,"ĠPerry":11898,"ĠEuro":11899,"ĠHoang":11900,"Ġpao":11901,"rog":11902,"ĠthÃ¹y":11903,"ions":11904,"ĠZack":11905,"ĠSpark":11906,"ĠvÃµng":11907,"ERING":11908,"ĠCruchot":11909,"ĠCHO":11910,"á»¦a":11911,"ĠQueens":11912,"Boom":11913,"ampire":11914,"Ġwebsite":11915,"Christine":11916,"Flash":11917,"lahoma":11918,"Lawrence":11919,"Gá»Łi":11920,"Il":11921,"ME":11922,"Miles":11923,"Ná»ģn":11924,"RY":11925,"Sorry":11926,"háº£":11927,"sÆ°":11928,"Ã·":11929,"Ġlá»¯":11930,"Ġnung":11931,"Ġstop":11932,"ĠhÃªn":11933,"ĠhÃ©o":11934,"Cháº¡m":11935,"ĠMicah":11936,"ĠBO":11937,"ĠBul":11938,"ĠBaby":11939,"ĠSugar":11940,"ĠLinc":11941,"Tris":11942,"ĠGau":11943,"Connor":11944,"ĠRoland":11945,"ĠVar":11946,"elo":11947,"Äĳá»ģu":11948,"ĠIP":11949,"igs":11950,"ighton":11951,"Ġ1944":11952,"ext":11953,"ĠCarr":11954,"ooka":11955,"renaline":11956,"ĠPeterson":11957,"ĠPlay":11958,"Clarke":11959,"ĠBaelish":11960,"Call":11961,"GiÃª":11962,"Jennifer":11963,"SH":11964,"Váº»":11965,"Xi":11966,"del":11967,"eas":11968,"gÃł":11969,"mund":11970,"plor":11971,"rÃ´":11972,"uki":11973,"Â³":11974,"ĠsÃªn":11975,"Ġsá»įc":11976,"Ġhard":11977,"ĠTob":11978,"ĠToby":11979,"ĠMá»ĩnh":11980,"ĠBá»Ĭ":11981,"Triá»ĥn":11982,"asse":11983,"ĠFair":11984,"ĠTrai":11985,"ĠEh":11986,"ĠYale":11987,"GiÃł":11988,"rystal":11989,"Ġfirst":11990,"ĠQuá»³":11991,"ffer":11992,"ival":11993,"ÃįCH":11994,"áº¢o":11995,"ĠDante":11996,"ppa":11997,"KhuÃ´n":11998,"ĠLoáº¡i":11999,"aaa":12000,"ĠJeremy":12001,"ĠEvelyn":12002,"Foreman":12003,"ĠKlingon":12004,"##":12005,"Há»ķ":12006,"Náº¥p":12007,"NÃºi":12008,"Owen":12009,"pere":12010,"wall":12011,"yon":12012,"Ġsá»ĵi":12013,"ĠgÃ¡n":12014,"ĠnhÃ¡p":12015,"Ġphung":12016,"Ġxiá»ģng":12017,"ems":12018,"ĠMÃ¹i":12019,"ĠChip":12020,"ĠLem":12021,"amel":12022,"ĠThÆ°Æ¡ng":12023,"Ġtoan":12024,"ĠNÃ´":12025,"ĠNova":12026,"eton":12027,"QuÃ©t":12028,"ĠWu":12029,"Ġper":12030,"trá»Ł":12031,"ĠAlaska":12032,"ĠBrandy":12033,"ipe":12034,"ĠKhá»ĳi":12035,"á»ľI":12036,"Ġ007":12037,"Hyah":12038,"yland":12039,"ĠGodfrey":12040,"ĠCarolina":12041,"ĠApril":12042,"ĠPoint":12043,"ĠIndy":12044,"ildur":12045,"Rosie":12046,"Delta":12047,"ĠYankee":12048,"ĠDisney":12049,"auntless":12050,"800":12051,"BÃ²":12052,"BÃ£o":12053,"CL":12054,"Les":12055,"gor":12056,"ique":12057,"mang":12058,"Ġáº¯t":12059,"Ġláº·t":12060,"ĠnÃŃu":12061,"Ġbung":12062,"Ġkhuynh":12063,"Ã¬i":12064,"Ġngá»ı":12065,"Ġtráº«m":12066,"Ġdr":12067,"Ġdes":12068,"Ġxá»Ńa":12069,"ĠxÃºi":12070,"ĠTennessee":12071,"ĠMyr":12072,"ĠChÃŃn":12073,"ĠChaney":12074,"ĠRi":12075,"ĠRin":12076,"ĠRÄĥng":12077,"ĠRav":12078,"ĠVá»Ľ":12079,"ĠVampire":12080,"ĠPike":12081,"ĠPope":12082,"ĠFerr":12083,"ĠWith":12084,"Äĳáº·c":12085,"ĠPhÃ¡":12086,"leg":12087,"Ġfight":12088,"ĠHogwarts":12089,"rive":12090,"trung":12091,"ĠKhá»ķng":12092,"ĠArc":12093,"Margaret":12094,"Alfred":12095,"rene":12096,"ĠAbe":12097,"ĠÃĩÃ³":12098,"Heather":12099,"ĠTywin":12100,"Benji":12101,"ĠHammer":12102,"ĠEnc":12103,"ĠMeereen":12104,"ĠOmega":12105,"ĠMichigan":12106,"ĠSerge":12107,"Ãĳn":12108,"entinel":12109,"ACE":12110,"ĠCampbell":12111,"Michelle":12112,"ĠBroadway":12113,"ĠSullivan":12114,"Eggsy":12115,"Karl":12116,"Lewis":12117,"Máº¯c":12118,"Optimus":12119,"Ráº¯n":12120,"vÃłi":12121,"Ġown":12122,"ĠkÃ©p":12123,"ĠvÃ¡ng":12124,"Ġmáº·n":12125,"Ġbá»£":12126,"Ġhá»ĳc":12127,"Ġgone":12128,"Ġgiá»ģng":12129,"ĠnhÄ©":12130,"Ġngá»ĳ":12131,"Ġtrc":12132,"Ġtanh":12133,"ChiÃªu":12134,"onn":12135,"ĠgiÃ²":12136,"ĠCÄĥn":12137,"Ġ160":12138,"ĠÄĲiá»ĥm":12139,"ĠHuyá»ģn":12140,"Emil":12141,"Tráº¡i":12142,"Trá»¥":12143,"ĠDá»ĭ":12144,"ĠDicky":12145,"Ġtop":12146,"ĠJae":12147,"Ġdog":12148,"ited":12149,"7867":12150,"Ġ639":12151,"agle":12152,"ĠMarion":12153,"ĠÃĥ":12154,"ĠSheila":12155,"egan":12156,"Marion":12157,"quin":12158,"ĠMinnes":12159,"ĠLouise":12160,"ĠWeaver":12161,"ĠChristine":12162,"spir":12163,"ĠHobbs":12164,"ĠNikita":12165,"Ġfeeling":12166,"ĠMiranda":12167,"Ã©sar":12168,"Ġgarage":12169,"ĠMinnesota":12170,",//":12171,"ANh":12172,"Bern":12173,"Bryan":12174,"Cathy":12175,"Dá»ĳi":12176,"Dav":12177,"Gollum":12178,"IZ":12179,"Papa":12180,"Rá»«ng":12181,"Win":12182,"ces":12183,"dan":12184,"çļ":12185,"Ġet":12186,"Ġthuy":12187,"ĠniÃª":12188,"ĠsÃ¡m":12189,"Ġháº¥n":12190,"Ġráº¡n":12191,"ĠtrÃª":12192,"ĠCÆ°Æ¡ng":12193,"ĠCáº£ng":12194,"ĠthÃ¬a":12195,"Ġ130":12196,"á»Ńng":12197,"ĠAragorn":12198,"ĠGui":12199,"ĠRy":12200,"ĠNov":12201,"ĠFab":12202,"ĠWars":12203,"Chá»īnh":12204,"Ġvá»ĩt":12205,"ĠPháº£n":12206,"uran":12207,"Hoáº¯c":12208,"ĠAlf":12209,"ĠUp":12210,"ĠScy":12211,"Anne":12212,"ylon":12213,"Ġheh":12214,"ĠDonovan":12215,"Art":12216,"ĠHeights":12217,"Ġbye":12218,"ĠMarks":12219,"ĠHelena":12220,"ĠÄĲoÃ¡n":12221,"ĠGhul":12222,"Ġcoming":12223,"ĠBrandt":12224,"Gabriel":12225,"ourtney":12226,"ĠDwar":12227,"Parker":12228,"Aye":12229,"Caitlin":12230,"Duy":12231,"Eva":12232,"Isaac":12233,"Pl":12234,"Ronnie":12235,"Soo":12236,"Sav":12237,"VÃª":12238,"Wat":12239,"back":12240,"bird":12241,"sburgh":12242,"Ġtá»ģ":12243,"ĠngÃ³c":12244,"ĠrÄĥn":12245,"Ġdance":12246,"NháºŃp":12247,"Äĥc":12248,"ĠTook":12249,"ĠMagn":12250,"ĠÄĲem":12251,"ĠHello":12252,"Ġyoga":12253,"ĠLÃª":12254,"imir":12255,"Ġluá»Ļc":12256,"ĠRun":12257,"ĠVinh":12258,"ĠVaugh":12259,"ĠJensen":12260,"ista":12261,"ĠKam":12262,"Quáº£ng":12263,"avers":12264,"allon":12265,"trá»Ŀi":12266,"ĠBruno":12267,"ĠTake":12268,"Alpha":12269,"ault":12270,"ĠÂ¿":12271,"ĠxÃŃa":12272,"ricks":12273,"ĠNghá»ĩ":12274,"Katara":12275,"ĠChristopher":12276,"Allen":12277,"auser":12278,"ĠProctor":12279,"ĠRenly":12280,"ĠSummer":12281,"Vanessa":12282,"ĠMartinez":12283,"ĠBloom":12284,"ĠLotso":12285,"Cá»¡":12286,"DÆ°Æ¡ng":12287,"Ew":12288,"Here":12289,"Kn":12290,"King":12291,"LÃ´":12292,"Not":12293,"Rox":12294,"Yáº¿n":12295,"cine":12296,"med":12297,"nÄĥm":12298,"rah":12299,"Ġooh":12300,"ĠlÃ¡u":12301,"ĠthÃªu":12302,"Ġvá»ĵng":12303,"Ġkhá»ĳ":12304,"Ġsáº£y":12305,"Ġsá»¥t":12306,"Ġres":12307,"á»ĩp":12308,"Thang":12309,"ĠCreek":12310,"ĠTá»ĳng":12311,"ĠTÃĶI":12312,"ĠMong":12313,"ĠMall":12314,"ĠMama":12315,"ĠMelly":12316,"ĠBart":12317,"ĠChá»ĳng":12318,"Pháº¡m":12319,"ĠLÆ°Æ¡ng":12320,"ĠJr":12321,"uir":12322,"ĠPiper":12323,"ĠWis":12324,"Ġ41":12325,"unn":12326,"ĠStacy":12327,"ĠdÃ¹i":12328,"Ġfine":12329,"ĠMarco":12330,"ndicate":12331,"ĠÃ±":12332,"ĠGiÃł":12333,"ĠKhÃ³":12334,"oldem":12335,"ĠWheeler":12336,"ĠMain":12337,"yder":12338,"á»ļI":12339,"ĠStanley":12340,"Smith":12341,"áº¦U":12342,"ĠAngie":12343,"Caroline":12344,"ĠMercedes":12345,"ĠMorgana":12346,"Barbara":12347,"çļĦ":12348,"Ap":12349,"CT":12350,"ICK":12351,"Láº¹":12352,"MÃ³c":12353,"NN":12354,"SÄĥn":12355,"Sad":12356,"Sant":12357,"Sandy":12358,"Xinh":12359,"XÃºc":12360,"káº¿t":12361,"kie":12362,"liá»ĩu":12363,"lBAL":12364,"of":12365,"sub":12366,"Ġáº»o":12367,"Ġlá»įng":12368,"ĠchÃĴng":12369,"Ġvery":12370,"ĠsÃ¡p":12371,"Ġgáº¡c":12372,"Ġtrá»Ľn":12373,"ĠÄĳÃ³a":12374,"ĠgiÃ²n":12375,"ĠÄĲá»ĺ":12376,"ĠHell":12377,"ĠChester":12378,"amer":12379,"ĠGeo":12380,"ĠGoogle":12381,"Take":12382,"ĠRandy":12383,"atur":12384,"ĠFle":12385,"thel":12386,"ĠYemen":12387,"á»·u":12388,"Ġ81":12389,"Ġearth":12390,"Stu":12391,"Samuel":12392,"Ġstand":12393,"Baymax":12394,"ĠOklahoma":12395,"Ã±a":12396,"Abby":12397,"ĠAdams":12398,"á»¨ng":12399,"ĠBoyka":12400,"ĠItaly":12401,"LAUGHS":12402,"ĠBishop":12403,"Ġbowling":12404,"Ġlá»©a":12405,"HANNlBAL":12406,"Buck":12407,"Cai":12408,"Dá»ĭ":12409,"Háº¯c":12410,"Ned":12411,"Nak":12412,"PING":12413,"Qui":12414,"Sil":12415,"nÆ°á»Ľc":12416,"ugh":12417,"Ġtáº¥c":12418,"Ġcuá»ĳng":12419,"Ġchat":12420,"Ġmatter":12421,"ĠbÄĥm":12422,"Ġbá»ĵng":12423,"ÄĲÆ¡":12424,"Ġchá»ĩ":12425,"ĠMerry":12426,"ĠSO":12427,"ĠLO":12428,"ĠDiane":12429,"ĠThis":12430,"ĠRic":12431,"ĠJong":12432,"ĠFlint":12433,"iev":12434,"Ġmuá»Ĺng":12435,"Ġfar":12436,"evie":12437,"apore":12438,"ĠAlicia":12439,"Ġuá»·":12440,"ĠBrenda":12441,"ĠKha":12442,"ĠScarlet":12443,"Marsh":12444,"inski":12445,"Steven":12446,"ishio":12447,"rench":12448,"Ãĵn":12449,"ĠTimes":12450,"ĠSchmidt":12451,"ĠCaster":12452,"ĠCastor":12453,"Ellen":12454,"quiao":12455,"ĠNgoÃłi":12456,"UYá»ĢN":12457,"Christina":12458,"ĠRobinson":12459,"ĠSolomon":12460,"ĠJarvis":12461,"ĠÄĳá»įa":12462,"ĠOutis":12463,"ĠOregon":12464,"oldemort":12465,"Ana":12466,"Bá»ĵi":12467,"Dáº«u":12468,"EW":12469,"Fuck":12470,"HÆ°":12471,"JU":12472,"Mom":12473,"NÃ´":12474,"PA":12475,"Rip":12476,"Snow":12477,"ViÃª":12478,"car":12479,"dra":12480,"zen":12481,"ĠÄĳay":12482,"Ġláº¡ng":12483,"ĠkhÆ°":12484,"Ġkháº¯t":12485,"Ġgam":12486,"ÄĲe":12487,"ĠTO":12488,"Ngá»įt":12489,"ĠSá»£":12490,"ĠSÃģT":12491,"ĠHee":12492,"ĠChung":12493,"ĠLá»ĭch":12494,"ĠDutch":12495,"ĠThan":12496,"esta":12497,"ĠWright":12498,"usa":12499,"usoe":12500,"Ġ567":12501,"rans":12502,"agrid":12503,"abe":12504,"eech":12505,"Ġ2016":12506,"iani":12507,"ifu":12508,"etting":12509,"ĠAmsterdam":12510,"ĠMcClane":12511,"Ġnhuá»ĩ":12512,"ĠWater":12513,"ĠEverdeen":12514,"ĠAlbu":12515,"grim":12516,"ĠWinston":12517,"ĠATM":12518,"ĠCá»Ńu":12519,"BiÃª":12520,"Há»Ł":12521,"Quill":12522,"RiÃªng":12523,"Sk":12524,"XÃ¢y":12525,"cola":12526,"sinh":12527,"vÃ´":12528,"yy":12529,"ĠmÃ¡ng":12530,"Ġmá»ģ":12531,"Ġkhay":12532,"Ġgáº£":12533,"Ġgá»ī":12534,"Ġnhoi":12535,"phis":12536,"ĠphÃ¤i":12537,"Ġcáº£u":12538,"ĠBÃ¡u":12539,"ĠSÄĥn":12540,"ĠSig":12541,"ĠHom":12542,"ĠHaku":12543,"ĠHades":12544,"TrÆ°á»£t":12545,"ĠDream":12546,"ĠGeeta":12547,"Ġtoáº¡c":12548,"ĠFergus":12549,"Ġ105":12550,"ĠGiÃ¡c":12551,"ĠCliff":12552,"Ġ1945":12553,"ĠLuis":12554,"ĠthÃŃm":12555,"ĠAmazon":12556,"Ġuhm":12557,"áº¾N":12558,"ĠRossi":12559,"ĠJuliet":12560,"Simba":12561,"á»¤C":12562,"khoáº£ng":12563,"ĠBingley":12564,"Ġchá»ĩch":12565,"Ak":12566,"BÃ´ng":12567,"Báº£ng":12568,"CÃłi":12569,"CRI":12570,"DR":12571,"Eo":12572,"Háº¥p":12573,"Miá»ĩng":12574,"RAN":12575,"Váº½":12576,"hÃ¬nh":12577,"tle":12578,"Ġá»Ĳi":12579,"ĠtÃ²ng":12580,"ĠvÆ¡i":12581,"Ġbá»¥c":12582,"Ġbá»īnh":12583,"Ġspe":12584,"ĠhÃ¢u":12585,"Ġháº½m":12586,"Ġdá»ım":12587,"ĠCáº¯t":12588,"ĠCop":12589,"ĠTes":12590,"NgÆ°":12591,"eral":12592,"ĠChá»ĵng":12593,"ĠChuyáº¿n":12594,"Pho":12595,"PhÃŃ":12596,"ĠLÃ¡i":12597,"ĠLev":12598,"ĠDáºŃy":12599,"ĠThiá»ĩt":12600,"ĠRahl":12601,"elin":12602,"Ġgháº¹o":12603,"Khoáº»":12604,"ĠJoker":12605,"Shin":12606,"ĠÃģi":12607,"ĠCambridge":12608,"567":12609,"Elena":12610,"Ġreal":12611,"clip":12612,"Brody":12613,"ĠLeslie":12614,"Ġboxing":12615,"ĠAlbuquerque":12616,"By":12617,"Bri":12618,"Cáº¯n":12619,"Eun":12620,"Fly":12621,"Hector":12622,"Má»Ļc":12623,"Tá»ĳ":12624,"TiÃªm":12625,"mÃ´n":12626,"polis":12627,"stein":12628,"Ġcent":12629,"ĠmÃµm":12630,"Ġbir":12631,"Ġgáº«y":12632,"Ġngá»£m":12633,"ĠrÆ°á»Ľc":12634,"Chai":12635,"ĠxÃ©m":12636,"ThiÃªu":12637,"ĠTáº§ng":12638,"erner":12639,"Ġ132":12640,"ĠBenny":12641,"ĠÄĲÃ¹a":12642,"ĠHind":12643,"ĠHugo":12644,"ĠChá»©ng":12645,"ĠLá»ĩ":12646,"ĠLÆ°á»£ng":12647,"ĠThÃª":12648,"ĠTháº¯ng":12649,"ĠNag":12650,"ĠKap":12651,"Ġ\".":12652,"elcome":12653,"ĠPoe":12654,"ĠPandora":12655,"ĠTranh":12656,"Nghá»ģ":12657,"illin":12658,"ĠÄĳag":12659,"ĠMaroni":12660,"roy":12661,"ĠÃĲ":12662,"Khoang":12663,"eba":12664,"essler":12665,"laine":12666,"toÃłn":12667,"endra":12668,"endelle":12669,"ĠSamantha":12670,"Ġeuro":12671,"ĠGraham":12672,"Ġcame":12673,"ĠÂ¡":12674,"derman":12675,"ÃĵNG":12676,"ĠSteph":12677,"Carlos":12678,"ĠMontana":12679,"ĠMitchell":12680,"Ġtalk":12681,"Hermione":12682,"62":12683,"Four":12684,"LáºŃt":12685,"Sá»£i":12686,"Scofield":12687,"Wade":12688,"cÆ°ng":12689,"ges":12690,"late":12691,"lish":12692,"Ġold":12693,"ħu":12694,"ĠchÃ©t":12695,"Ġkid":12696,"Ġninja":12697,"Ġsá»ĩt":12698,"Ġsteroid":12699,"Ġhell":12700,"Ġhmm":12701,"Ġtrue":12702,"ĠgiÄĥng":12703,"NhiÃª":12704,"ĠCÆ°á»Ŀi":12705,"ĠCuá»ĳn":12706,"ĠHado":12707,"ĠLÃ¡":12708,"ĠLady":12709,"ĠLinderman":12710,"imb":12711,"ĠPu":12712,"Ġkhoanh":12713,"ĠPhÃº":12714,"ÃĢO":12715,"keeter":12716,"Ġ103":12717,"tae":12718,"ĠXuyÃªn":12719,"ĠGib":12720,"uture":12721,"ĠArg":12722,"uben":12723,"ĠTuÃ¢n":12724,"ĠSmurf":12725,"ĠRamon":12726,"ĠMaurice":12727,"nesto":12728,"razen":12729,"ĠBennett":12730,"ĠSyndicate":12731,"ĠRandall":12732,"Ġnháº½o":12733,"ĠElijah":12734,"ĠMetatron":12735,"ĠPinkman":12736,"ĠRiddick":12737,"357":12738,"Bá»Ľt":12739,"DY":12740,"Dol":12741,"GG":12742,"Hun":12743,"Láº¯c":12744,"Pam":12745,"Rá»ĳi":12746,"Sw":12747,"Yay":12748,"bul":12749,"dog":12750,"fi":12751,"jin":12752,"máº·c":12753,"zio":12754,"Ġáº¤":12755,"Ġteen":12756,"ĠvÆ°á»£n":12757,"ĠhÃ¡n":12758,"ĠnhÃºn":12759,"Ġngáº¥m":12760,"KhÄĥn":12761,"Ġvá»īa":12762,"chÃºc":12763,"aria":12764,"ĠHáº³n":12765,"ĠLuna":12766,"ĠAah":12767,"ĠArya":12768,"ĠGa":12769,"ĠGamb":12770,"ĠRico":12771,"ĠNeb":12772,"ĠWy":12773,"thÃ´ng":12774,"rect":12775,"ĠIves":12776,"osau":12777,"andar":12778,"ĠMargaery":12779,"Ġparty":12780,"ĠXi":12781,"ento":12782,"Uhh":12783,"tok":12784,"áº¢N":12785,"ĠCharley":12786,"ĠÃģp":12787,"aldi":12788,"ĠPrinc":12789,"ĠChristmas":12790,"ĠButch":12791,"ĠPanama":12792,"ĠtHáº¿":12793,"Ġsomeone":12794,"Ġlá»§ng":12795,"fleet":12796,"ĠPlaza":12797,"%,":12798,"150":12799,"Báº¡o":12800,"Dá»ĬCH":12801,"Eli":12802,"Ká»µ":12803,"LÃ£ng":12804,"Natalie":12805,"Sáº£n":12806,"cuá»ĳi":12807,"ea":12808,"ih":12809,"Ġáº£m":12810,"Ġtong":12811,"Ġlast":12812,"Ġsync":12813,"ĠngÃľ":12814,"ÄĲÃ¡p":12815,"ĠxÃło":12816,"ĠCU":12817,"erick":12818,"Ì£...":12819,"ĠBom":12820,"ĠBark":12821,"ĠBub":12822,"ĠBanner":12823,"ĠSulu":12824,"ĠChá»©":12825,"ĠVit":12826,"ĠVog":12827,"atsu":12828,"aldo":12829,"Ġgháº»":12830,"ĠEur":12831,"ileen":12832,"oof":12833,"lear":12834,"ĠStalin":12835,"ĠKhá»ıi":12836,"ords":12837,"á»³nh":12838,"assili":12839,"ĠCapua":12840,"lanet":12841,"ĠRosen":12842,"Quyn":12843,"ĠNiki":12844,"ĠMatthews":12845,"ĠRodrig":12846,"titles":12847,"á»¬A":12848,"ĠAugust":12849,"Jarvis":12850,"Ġthought":12851,"ĠSEAL":12852,"sengard":12853,"Corp":12854,"Dutch":12855,"Fr":12856,"HÃ£ng":12857,"LÃ²":12858,"MÃ´n":12859,"Om":12860,"Sol":12861,"Seth":12862,"Vlad":12863,"Wait":12864,"gÃ£":12865,"leman":12866,"okay":12867,"tay":12868,"Ġliáº¿c":12869,"Ġmiá»ĩt":12870,"Ġsur":12871,"ĠhÅ©":12872,"ĠráºŃn":12873,"Ġrum":12874,"Ġpháº£":12875,"inson":12876,"ĠCTU":12877,"ĠTÄĥng":12878,"ĠMÃłu":12879,"ĠMann":12880,"ĠMá»ĺT":12881,"Æ°á»Ŀm":12882,"ĠLáº½":12883,"ĠLamb":12884,"ĠLloyd":12885,"ĠDauntless":12886,"ĠGy":12887,"ĠGog":12888,"Tak":12889,"Ġtour":12890,"ĠRem":12891,"Ġlot":12892,"Ġthuá»Ł":12893,"ĠKre":12894,"asia":12895,"Quáº¹o":12896,"ĠWon":12897,"ÄĳÆ°á»Ŀng":12898,"iling":12899,"ĠPhÃ¡i":12900,"ĠPhÃ¡o":12901,"Ġ53":12902,"ĠNgÆ°Æ¡":12903,"GiÃ´":12904,"Ġfoot":12905,"oder":12906,"azu":12907,"Whit":12908,"7859":12909,"ĠSpr":12910,"ĠHarper":12911,"ĠHarmon":12912,"ibo":12913,"Ġyourself":12914,"ĠCarly":12915,"ĠElliott":12916,"ctic":12917,"Walker":12918,"ĠMedici":12919,"ĠUSS":12920,"rader":12921,"pool":12922,"ĠFeng":12923,"ĠTitanic":12924,"GRUNTS":12925,"'?":12926,"CS":12927,"Daw":12928,"Derek":12929,"Flor":12930,"GB":12931,"Holmes":12932,"Láº·p":12933,"MÃ´i":12934,"pson":12935,"vet":12936,"zooka":12937,"Âļ":12938,"Ġcor":12939,"ĠÄĳun":12940,"Ġnero":12941,"Ġnhá»į":12942,"ĠnháºŃm":12943,"Ġngáº¥y":12944,"ĠngÃ²":12945,"Ġngá»¡":12946,"Ġngá»ım":12947,"ĠrÃ¹i":12948,"ĠquÃłng":12949,"aye":12950,"ĠgiÃ£":12951,"KhÃ´":12952,"ĠCá»±u":12953,"ĠCyrus":12954,"ĠTÃºi":12955,"ĠMÅ©i":12956,"ĠBÃ¡n":12957,"ĠBjorn":12958,"ĠSven":12959,"ĠÄĲáºŃu":12960,"ĠÄĲÃĥ":12961,"ĠHale":12962,"Trai":12963,"ĠAI":12964,"ĠGavin":12965,"ĠThere":12966,"ĠNÄĥng":12967,"ĠNav":12968,"ĠKiá»ĥu":12969,"ĠKeen":12970,"ÄĳÃ´i":12971,"ĠIN":12972,"obi":12973,"GiÆ°":12974,"eville":12975,"ĠGiÃ³":12976,"ĠcÅ©i":12977,"ĠUt":12978,"Ġtrá»£n":12979,"berius":12980,"ÃģP":12981,"Ġonce":12982,"Ahem":12983,"ĠSpeed":12984,"CHÃºng":12985,"iban":12986,"Ġ136":12987,"ĠAbigail":12988,"ierra":12989,"ĠÃ°Ã½c":12990,"Donna":12991,"ASE":12992,"ĠDarhk":12993,"Iáº¾T":12994,"ĠRosa":12995,"ĠShawn":12996,"ÃļNG":12997,"ĠThorne":12998,"Louise":12999,"DOOR":13000,"ĠBooth":13001,"ĠWinstone":13002,"ĠAppa":13003,"ĠLAUGHING":13004,"ĠInhuman":13005,"Ġbelieve":13006,"Cá»Ļt":13007,"Cec":13008,"FK":13009,"GÃ³i":13010,"HA":13011,"LÆ°á»£n":13012,"Má»ĩnh":13013,"MON":13014,"Pro":13015,"gáº·p":13016,"mÃ¡t":13017,"tá»ĳi":13018,"vá»¥":13019,"Ġá»ĳi":13020,"Ġcuá»ĳc":13021,"Ġcred":13022,"Ġchiáº¿t":13023,"Ġmight":13024,"Ġgang":13025,"ĠngÃł":13026,"ĠrÃŃt":13027,"Ġtrá»ĳi":13028,"Ġdáº§m":13029,"onia":13030,"Nhá»ĳt":13031,"ĠMoira":13032,"ĠBun":13033,"ĠHol":13034,"ĠhoÃ¡n":13035,"ĠDrey":13036,"ĠDaddy":13037,"ĠThiáº¿n":13038,"ĠTheresa":13039,"ĠVÄ©nh":13040,"ĠÄĥng":13041,"ĠPad":13042,"ĠPeck":13043,"ĠWong":13044,"Ġnhá»Ľt":13045,"thÃŃch":13046,"ÃĢh":13047,"ĠStock":13048,"Ġfun":13049,"ĠXÆ°Æ¡ng":13050,"ĠClem":13051,"Shane":13052,"ishi":13053,"inois":13054,"ĠPatricia":13055,"ĠMoz":13056,"ĠMills":13057,"ĠMurph":13058,"ĠBlackwood":13059,"ĠNGÃĢY":13060,"ĠBuá»ĵn":13061,"ĠSweet":13062,"KHÃ´ng":13063,"Perseus":13064,"ĠSingapore":13065,"Murphy":13066,"ĠMasters":13067,"ĠSuresh":13068,"ĠdzáºŃy":13069,"emaine":13070,"ĠChurchill":13071,"ĠFreeza":13072,"plorer":13073,",.":13074,"EX":13075,"Gan":13076,"Hen":13077,"Láº¯ng":13078,"Men":13079,"Sel":13080,"Sáº¡ch":13081,"Tua":13082,"crys":13083,"nic":13084,"xuá»ĳng":13085,"±t":13086,"Ãĳng":13087,"ĠÃº":13088,"Ġthiáº¿n":13089,"ĠcháºŃn":13090,"Ġná»¡":13091,"Ġbá»Ł":13092,"Ġháºµng":13093,"Ġgáº·t":13094,"Ġphone":13095,"Ġcá»Ĺi":13096,"erie":13097,"ĠSuy":13098,"ĠSus":13099,"ĠSÃ³i":13100,"ĠÄĲá»ĳi":13101,"TrÃ¹ng":13102,"ĠDj":13103,"ĠDastan":13104,"ĠRáº±ng":13105,"isenberg":13106,"ĠKa":13107,"ĠKu":13108,"eley":13109,"ĠlaÃĮ":13110,"aving":13111,"Ġ109":13112,"Ġmail":13113,"inea":13114,"tráº£":13115,"apolis":13116,"ĠBrighton":13117,"7877":13118,"shon":13119,"tory":13120,"Joffrey":13121,"ĠPrice":13122,"Brenda":13123,"ĠWilder":13124,"ĠGreene":13125,"Amber":13126,"Super":13127,"ĠEllcrys":13128,"Ġxá»īa":13129,"upiter":13130,"racian":13131,"ĠNazca":13132,"ĠDenver":13133,"Ġground":13134,"ĠKendra":13135,"Richie":13136,"Ġhappen":13137,"\")":13138,"Big":13139,"Háº¡m":13140,"Hee":13141,"Jen":13142,"Leg":13143,"Máº¡ch":13144,"Mag":13145,"Mul":13146,"OT":13147,"Oops":13148,"Robot":13149,"Wo":13150,"háº¿t":13151,"nut":13152,"táº¡m":13153,"å¤":13154,"ĠcÃ¡ng":13155,"ĠlÃ¥i":13156,"Ġthong":13157,"ĠchÃ¨n":13158,"Ġká»īnh":13159,"ĠmÃ¡c":13160,"Ġnáº§n":13161,"Ġsw":13162,"Ġhá»ķi":13163,"ĠgÃłn":13164,"ĠdÃ¡i":13165,"ĠdÃ³c":13166,"onzo":13167,"KhiÃªu":13168,"á»«u":13169,"NhÃło":13170,"ĠCav":13171,"ĠBáº§u":13172,"ĠSay":13173,"ĠNash":13174,"ingle":13175,"ĠStu":13176,"ĠStig":13177,"ĠStamper":13178,"7927":13179,"ĠMarse":13180,"ĠGiÃ¡p":13181,"á»ĶI":13182,"ĠAlison":13183,"Ġuá»ķng":13184,"ĠTae":13185,"ĠhuÃ½t":13186,"ĠClaud":13187,"Ġmeet":13188,"ÃģCH":13189,"ĠGretchen":13190,"CHEL":13191,"ÃĤM":13192,"ĠOrlando":13193,"ATO":13194,"COM":13195,"umblebee":13196,"chuáº©n":13197,"Nikita":13198,"ĠJudith":13199,"ĠCostello":13200,"Ġmorning":13201,"ĠScylla":13202,"600":13203,"Face":13204,"HN":13205,"Hoo":13206,"Káº¹t":13207,"Kirk":13208,"LÃ´ng":13209,"Liá»ģu":13210,"Má»ĭa":13211,"Osc":13212,"Tob":13213,"Tara":13214,"Ul":13215,"Veronica":13216,"máº¥t":13217,"ĠliÃªu":13218,"Ġven":13219,"ĠvÃ£ng":13220,"Ġmov":13221,"ĠkhÄĥm":13222,"Ġgl":13223,"Ġgreat":13224,"ÄĲÃ¨":13225,"ÄĲá»īnh":13226,"ĠgiÃ´ng":13227,"Ġngháº¹n":13228,"ania":13229,"ĠCog":13230,"ais":13231,"ĠMom":13232,"ĠBÆ°á»Ľc":13233,"ĠBates":13234,"Travis":13235,"ĠDro":13236,"ĠANH":13237,"ĠGem":13238,"ĠGina":13239,"ĠTham":13240,"Ġtoday":13241,"ĠRA":13242,"ĠRÃºt":13243,"ĠRorschach":13244,"ĠVill":13245,"ĠJoh":13246,"Ġthun":13247,"ĠFloyd":13248,"ĠTru":13249,"thu":13250,"tháºŃm":13251,"ĠtuÃ´ng":13252,"Ġtuáº¿ch":13253,"edo":13254,"Ġ621":13255,"Ġfu":13256,"Ġfound":13257,"roll":13258,"aber":13259,"able":13260,"ĠXáº¥u":13261,"utner":13262,"ubo":13263,"ĠAlexand":13264,"NHÃĢ":13265,"ÃĤU":13266,"arys":13267,"PHONE":13268,"ĠPeach":13269,"ĠDenise":13270,"ĠKitÃ´":13271,"ĠMachete":13272,"ĠSeoul":13273,"Ġmicro":13274,"Dorothy":13275,"ĠPreston":13276,"ĠDiaz":13277,"ĠWitwicky":13278,"911":13279,"Báº§y":13280,"Bá»¥ng":13281,"BÃ³p":13282,"Cá»ĳc":13283,"Dale":13284,"Fish":13285,"Hara":13286,"Nay":13287,"Randy":13288,"VÃ¢y":13289,"VER":13290,"WH":13291,"xÃŃt":13292,"Ä¨":13293,"nguy":13294,"Ġtáº¥u":13295,"Ġláº±ng":13296,"ĠthÃ²ng":13297,"Ġmom":13298,"ĠkhÆ°á»Ľc":13299,"ĠphÃ¬nh":13300,"ĠphÃŃch":13301,"Æ¡c":13302,"onto":13303,"anga":13304,"iner":13305,"TháºŃp":13306,"Ġgiá»ħu":13307,"ĠCá»ĳt":13308,"ĠCutter":13309,"aulder":13310,"ĠMáº«u":13311,"ĠSWAT":13312,"ĠLopez":13313,"ĠDiá»ĩt":13314,"ĠNora":13315,"ĠNháº¡i":13316,"urd":13317,"ĠNgÆ°u":13318,"ĠYáº¿n":13319,"kees":13320,"ĠConnie":13321,"Æ¯i":13322,"Ãģn":13323,"ĠNewton":13324,"pert":13325,"ĠScotch":13326,"Ġruá»Ļng":13327,"ĠPrim":13328,"cuse":13329,"ĠMalik":13330,"ĠDae":13331,"ĠViolet":13332,"ĠIndian":13333,"ĠBaudel":13334,"Ġcarbon":13335,"Ġshoot":13336,"Ã®i":13337,"ĠSUV":13338,"nheim":13339,"ĠPittsburgh":13340,"spirin":13341,"ĠVaughn":13342,"BÃ¢":13343,"Bee":13344,"Dylan":13345,"JJ":13346,"Ká»·":13347,"Loren":13348,"MT":13349,"Of":13350,"ViÃªm":13351,"eh":13352,"kok":13353,"áº¸":13354,"ĠtÃ³":13355,"ĠÄĳáº¿u":13356,"ĠÄĳÃ¨o":13357,"Ã´c":13358,"Ġluyáº¿n":13359,"Ġnua":13360,"ĠnÃĢy":13361,"ĠhÃ³":13362,"ĠnhÃ¡c":13363,"Ġngáº©ng":13364,"Chang":13365,"Ġdark":13366,"ĠCong":13367,"ĠTNS":13368,"ĠHá»§y":13369,"Ġtold":13370,"ĠRoth":13371,"ĠKel":13372,"ĠPav":13373,"itus":13374,"ĠIM":13375,"ĠPhÃ¢n":13376,"urg":13377,"ellÃŃn":13378,"leh":13379,"edro":13380,"ĠHope":13381,"icho":13382,"ĠJody":13383,"ĠLucky":13384,"ĠCarn":13385,"ÄĤN":13386,"ĠRoberto":13387,"ĠElf":13388,"ĠMonte":13389,"ĠviÃªc":13390,"ERO":13391,"hhh":13392,"ĠMindy":13393,"ĠNHÃĢ":13394,"ĠJessup":13395,"Jules":13396,"ĠLoras":13397,"ĠBatiatus":13398,"ĠAntony":13399,"pril":13400,"ĠVerde":13401,"Ġelderman":13402,"ĠAmerica":13403,"ĠJosÃ©":13404,"Iá»ĤM":13405,"Ġwalk":13406,"Pierre":13407,"BáºŃn":13408,"Bull":13409,"Bá»Ĺng":13410,"Cá»©ng":13411,"Hong":13412,"NY":13413,"Nob":13414,"Up":13415,"XuyÃªn":13416,"ceman":13417,"her":13418,"má»Ĺi":13419,"nn":13420,"pect":13421,"Ãķ":13422,"Ġáº¯ng":13423,"ĠcÃ¹":13424,"Ġcau":13425,"ĠÄĳong":13426,"ĠmÃĻt":13427,"Ġsá»¡":13428,"Ġside":13429,"ĠnhÃłn":13430,"Ġtrá»ĩ":13431,"ĠtrÃ¹":13432,"Ġtrá»įt":13433,"phÃ²ng":13434,"Ġpháº¯n":13435,"ĠdáºŃt":13436,"Ġdiá»ĩp":13437,"KhÃ¡m":13438,"Kháº¯p":13439,"ĠCÃºi":13440,"ĠCoun":13441,"ĠTiffany":13442,"ĠSov":13443,"ĠHark":13444,"ĠChad":13445,"ĠDJ":13446,"ĠThay":13447,"ĠtoÃ¡t":13448,"ĠRollo":13449,"ĠVáº¿t":13450,"Äĳá»Ļi":13451,"ĠOdin":13452,"ĠNhá»ĭ":13453,"illac":13454,"ĠSton":13455,"Ġsec":13456,"Ġpa":13457,"Ġopera":13458,"ĠXavier":13459,"entina":13460,"ĠClara":13461,"ĠZo":13462,"lain":13463,"ourke":13464,"ĠLancelot":13465,"liu":13466,"itchen":13467,"ENS":13468,"ĠAven":13469,"ĠMadrid":13470,"ĠBalthazar":13471,"ĠSandra":13472,"ĠHerbie":13473,"ĠBoromir":13474,"ĠEvery":13475,"ĠBrandon":13476,"Ã¼ntze":13477,"ĠMiguel":13478,"Olivia":13479,"ightyear":13480,"Lorenzo":13481,"April":13482,"Gá»¡":13483,"KE":13484,"Láº¡c":13485,"Miáº¿ng":13486,"Mama":13487,"Sá»ĳt":13488,"SÃ³i":13489,"TÆ°á»£ng":13490,"Vik":13491,"loo":13492,"panh":13493,"tiáº¿n":13494,"yah":13495,"Ġles":13496,"ĠlÃ©t":13497,"Ġkar":13498,"ĠkiÃªm":13499,"ĠmÃŃt":13500,"Ġgá»Ŀ":13501,"Ġgá»ĳm":13502,"ChÃ´n":13503,"Ġdáº¥y":13504,"Ġdáº¡n":13505,"Ġgiá»±t":13506,"aise":13507,"ĠTIáº¾NG":13508,"ÃĶa":13509,"ĠChin":13510,"Phá»©c":13511,"ĠLetty":13512,"ĠLazar":13513,"TrÃ¨o":13514,"ĠDÃ¢y":13515,"ĠThiá»ĩu":13516,"ĠThey":13517,"ĠKiÃªn":13518,"Ġdoor":13519,"ĠPolly":13520,"ĠFin":13521,"Ġghiáº¿c":13522,"ical":13523,"ĠEsp":13524,"Ġbur":13525,"adin":13526,"ĠNhiá»ĩm":13527,"ewart":13528,"ĠQuyáº¿t":13529,"ĠBrooke":13530,"ĠKhaleesi":13531,"onda":13532,"redi":13533,"ĠTHE":13534,"ĠBlood":13535,"ibby":13536,"inkle":13537,"ĠCruz":13538,"nghÄ©a":13539,"GhÃ©t":13540,"ĠHampton":13541,"orsche":13542,"uela":13543,"ĠLyle":13544,"ĠJessie":13545,"ĠMycroft":13546,"Jonathan":13547,"ĠSilver":13548,"ĠSingh":13549,"Leonard":13550,"ĠGerald":13551,"ĠWickham":13552,"ĠLockwood":13553,"Angus":13554,"ä¸į":13555,"ĠFalls":13556,"Jeremy":13557,"rezia":13558,"ĠGustave":13559,"Cuddy":13560,"Cersei":13561,"Flint":13562,"Gun":13563,"Lip":13564,"Lá»±u":13565,"Má»ĺT":13566,"RS":13567,"Sta":13568,"Stop":13569,"Sven":13570,"Sync":13571,"Unh":13572,"Yáº¿u":13573,"hel":13574,"rÃ©":13575,"tiá»ģn":13576,"xu":13577,"ä»":13578,"ĠÄĳÃªn":13579,"Ġlimo":13580,"ĠkÃ¬nh":13581,"Ġká»ģm":13582,"Ġmáº£i":13583,"Ġgáº«u":13584,"Ġnheo":13585,"ĠrÃĴi":13586,"Chá»¯a":13587,"ĠÄĳÃ³m":13588,"ĠgiÅ©":13589,"ĠComp":13590,"ĠTá»«ng":13591,"ĠTah":13592,"NgÃ´":13593,"Ġ123":13594,"ĠMoss":13595,"ĠBank":13596,"ĠSÃ´ng":13597,"ĠLilly":13598,"ĠLink":13599,"ĠLá»°C":13600,"oran":13601,"Trevor":13602,"ĠDak":13603,"ĠThÆ°á»Ŀng":13604,"ĠThá»ĭt":13605,"ĠVy":13606,"ĠVá»įng":13607,"ĠPotts":13608,"Ã¨re":13609,"asley":13610,"QuÃª":13611,"ital":13612,"oton":13613,"ident":13614,"rap":13615,"Ġpo":13616,"ffy":13617,"ĠGian":13618,"trid":13619,"ĠZuko":13620,"Sharon":13621,"ĠScorp":13622,"ize":13623,"aza":13624,"ĠDoe":13625,"ĠBlan":13626,"Ġwithout":13627,"ĠNikki":13628,"ĠBaymax":13629,"ancey":13630,"ĠcHÃºng":13631,"ĠOlive":13632,"ĠStevie":13633,"ĠPacquiao":13634,"ĠRapunzel":13635,"Ġfriends":13636,"ĠAtlantic":13637,"Marshall":13638,"Ale":13639,"Bella":13640,"Gwen":13641,"Linc":13642,"London":13643,"TÆ°Æ¡":13644,"Váº¡n":13645,"bach":13646,"cao":13647,"yt":13648,"æĺ":13649,"Ġlá»Łm":13650,"ĠthÄĤ":13651,"ĠmÃ¢m":13652,"ĠnÄ©a":13653,"ĠhÃ£":13654,"Ġgá»Ł":13655,"ĠrÃ¡t":13656,"Chiáº¿m":13657,"Ġquáº¹t":13658,"KhÃ¡ng":13659,"KhÃ´n":13660,"ĠMis":13661,"ĠHm":13662,"ĠChá»¥p":13663,"TrÆ°Æ¡":13664,"ĠDrazen":13665,"ĠRáº¯n":13666,"ĠFernando":13667,"tham":13668,"lein":13669,"Ġkhuá»·u":13670,"ĠState":13671,"khá»ĳn":13672,"ĠMars":13673,"Ġoanh":13674,"Ġ74":13675,"ĠShadow":13676,"Ġ94":13677,"utler":13678,"ovsky":13679,"oken":13680,"Marco":13681,"estro":13682,"ĠSpider":13683,"ourse":13684,"ĠMoria":13685,"stro":13686,"ĠBlade":13687,"ĠAlexis":13688,"ĠPrentiss":13689,"ĠWild":13690,"Ġleft":13691,"ĠNghá»ī":13692,"ĠRamal":13693,"Ã¤t":13694,"ICA":13695,"Ġdays":13696,"USIC":13697,"ĠRaccoon":13698,"Ġbirthday":13699,"71":13700,"Bel":13701,"LV":13702,"NÃŃn":13703,"Over":13704,"RE":13705,"Sue":13706,"Wes":13707,"máº·t":13708,"sol":13709,"varez":13710,"á»¸":13711,"ĠchÅ©i":13712,"Ġmáº§u":13713,"ĠhÃ¡ng":13714,"Ġhoney":13715,"ĠnhÃ´":13716,"ĠnhÃ¡i":13717,"pho":13718,"phim":13719,"Ġac":13720,"ĠdÃ¡y":13721,"ÄĲáº¡p":13722,"ĠTÆ¡":13723,"ĠTessa":13724,"aum":13725,"ĠBed":13726,"ĠHazel":13727,"ĠLáºłI":13728,"Trinh":13729,"Ġtom":13730,"ĠJob":13731,"uild":13732,"thay":13733,"adeo":13734,"ĠNháº¡c":13735,"Ġmafia":13736,"ĠYour":13737,"edict":13738,"Ġsocola":13739,"ĠConne":13740,"Khoai":13741,"ewel":13742,"á»ľm":13743,"Stannis":13744,"Bravo":13745,"enez":13746,"Ġalone":13747,"ÃļC":13748,"ĠJeffrey":13749,"ĠXuáº¥t":13750,"Leh":13751,"ĠEyes":13752,"Ġstress":13753,"eddis":13754,"ĠNakamura":13755,"ĠMendez":13756,"Natasha":13757,"ĠngÃ²ai":13758,"Diana":13759,"Flynn":13760,"Kenny":13761,"NÃ´ng":13762,"NASA":13763,"Pop":13764,"cÃ¢":13765,"má»Ľi":13766,"tá»¥i":13767,"vath":13768,"Ġtáº©n":13769,"Ġkiáº¿ng":13770,"Ġváº¹o":13771,"Ġmm":13772,"Ġnhan":13773,"Ġdong":13774,"Ġdá»ĩt":13775,"ÄĲiá»ĩp":13776,"Ġnghiáº¿n":13777,"ĠCC":13778,"ĠCáº©m":13779,"ĠCron":13780,"ĠCOL":13781,"ĠÄĲÃ¡m":13782,"ĠHiáº¿n":13783,"ĠHáº¡t":13784,"ĠHur":13785,"ĠDora":13786,"ĠDiggle":13787,"ĠAva":13788,"ĠGob":13789,"ĠGra":13790,"ĠGaines":13791,"ĠRas":13792,"ĠJasmine":13793,"ĠNi":13794,"isle":13795,"ĠKey":13796,"ĠKath":13797,"Ġlaze":13798,"thi":13799,"tháº§n":13800,"ĠNháºŃn":13801,"Ġkhuáº¿ch":13802,"umm":13803,"ĠXandar":13804,"rike":13805,"Ġhyd":13806,"apest":13807,"uts":13808,"ĠKhÃ³a":13809,"udio":13810,"Ãģm":13811,"ĠArms":13812,"eca":13813,"ecial":13814,"ĠÃģn":13815,"ĠJonah":13816,"Taylor":13817,"ĠÃ°Ã³":13818,"THE":13819,"ĠSteele":13820,"ĠReddington":13821,"ĠSkyl":13822,"ĠMegatron":13823,"ĠLeonidas":13824,"ĠSwagger":13825,"ĠWhitney":13826,"ĠMiriam":13827,"Jamal":13828,"ĠViktor":13829,"ĠIsaacs":13830,"ĠBorgia":13831,"ĠKingsman":13832,"Nicole":13833,"shaan":13834,"ĠCadillac":13835,"ĠFerguson":13836,"82":13837,"Báº©m":13838,"DÃŃnh":13839,"Fox":13840,"HÃ¡":13841,"Ja":13842,"Mas":13843,"SÆ°á»Ľng":13844,"Ver":13845,"bá»Ļ":13846,"bá»ĳt":13847,"sel":13848,"xes":13849,"æľ":13850,"ĠcÃĶa":13851,"ĠÄĳÃ²":13852,"Ġláº©m":13853,"Ġláº«m":13854,"ĠlÃµng":13855,"Ġthiá»ĥn":13856,"Ġkháº£i":13857,"Ġnhá»įt":13858,"ĠngÃ¹ng":13859,"ĠrÃ¡m":13860,"ĠrÃ¨":13861,"ĠphÃło":13862,"ÄĲáº¿":13863,"Nhiá»ħm":13864,"ĠCer":13865,"ĠCel":13866,"ĠCage":13867,"ĠTáºŃn":13868,"ĠHann":13869,"ĠHub":13870,"enzie":13871,"ĠLino":13872,"Truyá»ĩn":13873,"ĠDane":13874,"ĠAeg":13875,"ĠGran":13876,"ĠThÃ¢n":13877,"ĠVera":13878,"ĠJenn":13879,"ĠKatherine":13880,"ĠPon":13881,"ĠPlanet":13882,"oms":13883,"Äĳá»ĳi":13884,"ÄĳÃ¡ng":13885,"Ġwar":13886,"ĠHoáº¯c":13887,"rod":13888,"ĠsuÃ´ng":13889,"ondie":13890,"Ġonline":13891,"quÃ½":13892,"***":13893,"ront":13894,"ĠColt":13895,"ĠCali":13896,"192":13897,"Blue":13898,"ĠMurray":13899,"ĠSubtitles":13900,"Ã¤n":13901,"Abraham":13902,"Ellie":13903,"ĠLouisiana":13904,"ĠMelanie":13905,"Caleb":13906,"Ġunder":13907,"ĠSummers":13908,"Ġelse":13909,"ĠBudapest":13910,"ĠHollis":13911,"agertha":13912,"Ġknock":13913,"LAUGHING":13914,"ENNIS":13915,"erstand":13916,"Crow":13917,"Cindy":13918,"Dun":13919,"Geeta":13920,"HÃł":13921,"Jill":13922,"Lang":13923,"Lud":13924,"LER":13925,"Ricky":13926,"Set":13927,"Sansa":13928,"biáº¿n":13929,"eat":13930,"ku":13931,"rol":13932,"ress":13933,"vá»ĭ":13934,"Íģ":13935,"ĠuyÃªn":13936,"ĠcÃĢ":13937,"Ġcháº±ng":13938,"ĠvÃ³c":13939,"Ġmon":13940,"Ġmun":13941,"Ġmine":13942,"ĠmÃºn":13943,"Ġmove":13944,"Ġmother":13945,"Ġkhuy":13946,"Ġkhan":13947,"Ġhan":13948,"ĠngÄĥ":13949,"pháº§n":13950,"ÄĲáº¥ng":13951,"ĠxÃ¢u":13952,"Khá»ķng":13953,"Nháº¯n":13954,"eri":13955,"ĠBin":13956,"ĠBus":13957,"ĠSá»¹":13958,"ĠSentinel":13959,"ĠHoney":13960,"ĠChÄĥ":13961,"ĠLil":13962,"ĠLeb":13963,"ĠDrag":13964,"ĠGonz":13965,"ĠThunder":13966,"imli":13967,"ĠRes":13968,"ĠNÃ¢ng":13969,"oup":13970,"QuÃło":13971,"ĠFen":13972,"ĠTrÃ¢n":13973,"ĠTrá»įng":13974,"eds":13975,"roid":13976,"cean":13977,"ĠQuant":13978,"Khoáº£nh":13979,"ĠSharp":13980,"ĠShifu":13981,"ĠBrendan":13982,"ĠClub":13983,"ship":13984,"ĠScully":13985,"etts":13986,"Ġ111":13987,"ĠMorrison":13988,"ristina":13989,"Ġvuá»Ļt":13990,"Ġ140":13991,"ĠCHáº¾T":13992,"Heidi":13993,"ĠErshon":13994,"ĠtÃ²an":13995,"ĠWatch":13996,"ThuÃª":13997,"ĠDunne":13998,"ĠHawk":13999,"ĠEvans":14000,"Dominic":14001,"ĠWesley":14002,"á»ĨN":14003,"ĠYuki":14004,"Juan":14005,"ĠLestr":14006,"ĠSheldon":14007,"Ġknew":14008,"Ġairbender":14009,"forza":14010,"ĠAurora":14011,"âĢĭâĢĭ":14012,"ĠCasterly":14013,"eechum":14014,"Há»«":14015,"HÃ¢y":14016,"Há»ıng":14017,"Ir":14018,"Koba":14019,"Mak":14020,"OM":14021,"RÆ¡i":14022,"Tá»Łm":14023,"Vas":14024,"Wendy":14025,"buck":14026,"jor":14027,"lÅ©":14028,"Ãħ":14029,"ĠmÃ³i":14030,"Ġnáº¯n":14031,"Ġbass":14032,"Ġkhong":14033,"ĠsÆ°a":14034,"Ġsil":14035,"Ġrá»ĩp":14036,"ĠtrÄĥ":14037,"ÄĲÃ¹":14038,"Ġxáº¯c":14039,"KhÃ¡n":14040,"anor":14041,"Thá»ı":14042,"ĠByr":14043,"ĠÄĲá»įc":14044,"ĠÄĲá»¡":14045,"PhÃ¡n":14046,"ĠLightyear":14047,"ĠDoyle":14048,"ĠGollum":14049,"ĠRid":14050,"atus":14051,"atcher":14052,"ĠPeggy":14053,"ĠPorsche":14054,"real":14055,"rebor":14056,"Äĳá»§":14057,"ĠEva":14058,"Ġwa":14059,"ĠNgá»«ng":14060,"GiáºŃn":14061,"khÃ¡c":14062,"sons":14063,"Chuá»ĵn":14064,"odin":14065,"ĠLuther":14066,"ourbon":14067,"Ġmyself":14068,"ĠTHRO":14069,"Ġforever":14070,"ĠDaphne":14071,"ĠSophia":14072,"ĠMartini":14073,"RACHEL":14074,"Cuá»Ļn":14075,"ĠMedellÃŃn":14076,"Isabelle":14077,"ĠWhitaker":14078,"ĠPilgrim":14079,"ngoÃłi":14080,"ĠTalbot":14081,"Saruman":14082,"Antonio":14083,"Ġafter":14084,"Bond":14085,"CA":14086,"CÃ¡t":14087,"HiÃª":14088,"Náº¥u":14089,"Sen":14090,"Sand":14091,"VE":14092,"VÃ¢n":14093,"bay":14094,"cle":14095,"foot":14096,"nst":14097,"seok":14098,"tai":14099,"wal":14100,"åĢ":14101,"ĠcáºŃt":14102,"ĠthÃ³":14103,"Ġnao":14104,"Ġhit":14105,"ĠgÆ¡":14106,"ĠnhÃ£ng":14107,"ĠphÃĢi":14108,"Chuyá»ģn":14109,"Ġdee":14110,"Ġgin":14111,"ĠMister":14112,"ĠSI":14113,"ĠSyria":14114,"Ġchá»īa":14115,"ĠÄĲO":14116,"ĠHang":14117,"ĠLis":14118,"ĠGÃ¡i":14119,"ĠGerry":14120,"ĠThá»ı":14121,"ĠRory":14122,"ĠJav":14123,"ĠJFK":14124,"ĠKung":14125,"ĠKrist":14126,"ĠKrag":14127,"usuf":14128,"thuá»ĳc":14129,"ader":14130,"ĠPhÃ³ng":14131,"Ġwatch":14132,"á»Ĵn":14133,"igu":14134,"Ġpar":14135,"umin":14136,"ĠShen":14137,"beria":14138,"ÃģY":14139,"Ġ126":14140,"shot":14141,"ĠArendelle":14142,"artan":14143,"Marc":14144,"Marcel":14145,"estiny":14146,"ĠSpring":14147,"ĠWhere":14148,"uez":14149,"Mira":14150,"ĠDeath":14151,"ĠAllie":14152,"ĠTorrance":14153,"ymore":14154,"ĠLiberty":14155,"Iá»ĨU":14156,"Ãīp":14157,"ÃĨy":14158,"umpy":14159,"ĠEdwards":14160,"ĠPepes":14161,"ĠEnterprises":14162,"ĠOscorp":14163,"ĠBabylon":14164,"ĠTanya":14165,"Shawn":14166,"Há»Ĺn":14167,"Ġtonight":14168,"WOMAN":14169,"Bá»¥i":14170,"Eep":14171,"Hannibal":14172,"Kay":14173,"Kathy":14174,"Kristoff":14175,"Lola":14176,"Nolan":14177,"SU":14178,"SÄĥ":14179,"Sally":14180,"Toby":14181,"Vá»Ĺ":14182,"Yoko":14183,"hua":14184,"lá»Ŀi":14185,"part":14186,"tÃŃnh":14187,"váº¥n":14188,"xcÆ¡":14189,"Ġ@":14190,"Ġcrazy":14191,"Ġtháº©n":14192,"Ġnong":14193,"ĠsÃĨ":14194,"ĠhÃ£o":14195,"ĠgÆ°á»£ng":14196,"Ġnhang":14197,"Ġngá»Ŀi":14198,"Ġrá»©t":14199,"phÃ¡t":14200,"ChÃ¢m":14201,"Ġdá»Ĺi":14202,"ĠxÃ³c":14203,"emlin":14204,"ĠCá»ĳc":14205,"ĠTÃ³m":14206,"ĠTown":14207,"ĠMA":14208,"ĠMU":14209,"ĠÄĲÃł":14210,"ĠHÃºng":14211,"ĠHá»¯u":14212,"iak":14213,"ĠThá»Ł":14214,"ĠNow":14215,"ĠNur":14216,"ĠKov":14217,"ĠKowalski":14218,"ĠKitchen":14219,"ĠPapi":14220,"ĠPaige":14221,"ĠPascal":14222,"ĠTruyá»ģn":14223,"ĠIII":14224,"Ġ56":14225,"ĠNgÆ°":14226,"ĠNgá»Ļ":14227,"obal":14228,"Holl":14229,"ĠHod":14230,"Ġpat":14231,"roc":14232,"Ġ91":14233,"awk":14234,"Ġ121":14235,"ĠxoÄĥn":14236,"ĠEddy":14237,"Ġ114":14238,"ĠWales":14239,"lands":14240,"ĠHayley":14241,"itchie":14242,"ĠRamona":14243,"ĠMei":14244,"ĠSalt":14245,"Ġprob":14246,"ĠSnape":14247,"ĠbÆ°á»Ľu":14248,"ucc":14249,"áº®N":14250,"áº®NG":14251,"ĠCosette":14252,"ĠYankees":14253,"Ġtrying":14254,"ĠMammy":14255,"ĠRancho":14256,"ĠIvar":14257,"ĠIllinois":14258,"Ġsalad":14259,"ĠGaston":14260,"Sylar":14261,"ĠAvengers":14262,"uirfield":14263,"rected":14264,"ĠTHROAT":14265,"Damien":14266,"Kr":14267,"Micah":14268,"Pal":14269,"Sáº¯c":14270,"Tau":14271,"Vá»Ł":14272,"XÃ©o":14273,"Zoom":14274,"bÃ©":14275,"bat":14276,"cam":14277,"dÃ¹ng":14278,"jack":14279,"nelly":14280,"sáºµn":14281,"tis":14282,"ule":14283,"val":14284,"Ġlá»±":14285,"Ġmat":14286,"ĠmÃºi":14287,"ĠmÆ°á»£t":14288,"Ġnick":14289,"ĠnÃį":14290,"Ġtrá»Ľ":14291,"Ġtrá»Ŀ":14292,"phin":14293,"ĠphÃ´ng":14294,"Chui":14295,"ÄĲinh":14296,"ÄĲá»£t":14297,"Ġxá»ĳp":14298,"onius":14299,"anu":14300,"inem":14301,"inton":14302,"Æ°á»Ľm":14303,"NgÃ´n":14304,"ĠMod":14305,"ĠSá»©":14306,"ĠHiá»ģn":14307,"ĠHÃĴ":14308,"ĠChÃ¬a":14309,"Phe":14310,"PháºŃt":14311,"Tráº£i":14312,"ĠThao":14313,"ĠloÃ£ng":14314,"ĠVicky":14315,"ĠngoÃ¡y":14316,"ĠKol":14317,"Ġdoo":14318,"Quanh":14319,"ĠFusco":14320,"ĠIáº¡i":14321,"oob":14322,"Ġ624":14323,"Ã©oden":14324,"ĠMaryland":14325,"Ġ750":14326,"ĠShar":14327,"iki":14328,"Ġthá»ģm":14329,"ollow":14330,"ĠDoctor":14331,"Ġgoes":14332,"ÆłI":14333,"everus":14334,"everly":14335,"ĠColonel":14336,"ĠMichaels":14337,"ĠAdler":14338,"LEARS":14339,"ĠMalick":14340,"ĠIsildur":14341,"ĠLucius":14342,"ĠDarius":14343,"ggy":14344,"EST":14345,"ĠPeru":14346,"beard":14347,"ĠBellick":14348,"Aww":14349,"ĠTeresa":14350,"ĠBoov":14351,"Leonardo":14352,"Lizzy":14353,"ĠAmerican":14354,"ĠHendricks":14355,"TÃ©i":14356,"Miranda":14357,"ibbiani":14358,"ĠHasan":14359,"ĠFilip":14360,"Ġunderstand":14361,"ĠDexter":14362,"GROANS":14363,"Ġmorphine":14364,"helm":14365,"æĺ¯":14366,"63":14367,"Aaa":14368,"Cá»Ŀ":14369,"Haha":14370,"Jud":14371,"MIN":14372,"Omar":14373,"Port":14374,"Vá»ĳn":14375,"ben":14376,"hÃłnh":14377,"tan":14378,"å°":14379,"ĠÃ¡y":14380,"ĠvÃŃt":14381,"Ġmiss":14382,"Ġmá»ĭa":14383,"Ġsit":14384,"ĠnhÃ¨":14385,"Ġnháº§y":14386,"phi":14387,"Ġphudeviet":14388,"Chá»Ľ":14389,"Ġdá»ĥ":14390,"ÄĲÄĥng":14391,"...'":14392,"NhÃľng":14393,"ĠMáº¡ng":14394,"ĠBáºŃc":14395,"ĠSH":14396,"ĠHive":14397,"ĠLáº¡nh":14398,"Triá»ģu":14399,"ĠDáº«n":14400,"ĠAK":14401,"ĠAus":14402,"ĠGao":14403,"ĠGIá»":14404,"ĠTháºŃm":14405,"ĠRaul":14406,"Ġlow":14407,"ĠNO":14408,"ĠNational":14409,"Ġthui":14410,"eyer":14411,"ĠFloki":14412,"ĠTráº»":14413,"ĠIÃłm":14414,"ooo":14415,"ĠNgÃ³n":14416,"ĠYoko":14417,"ĠmuÃĵn":14418,"rano":14419,"Ġsofa":14420,"ĠMario":14421,"evil":14422,"ĠQuÃ´":14423,"ChuÃ´ng":14424,"apu":14425,"Bain":14426,"toine":14427,"7890":14428,"ĠCarmen":14429,"ĠMormont":14430,"wayne":14431,"ĠChuá»Ļt":14432,"Charley":14433,"ĠIsabella":14434,"ĠSeason":14435,"Ġvoice":14436,"Gray":14437,"ĠDominic":14438,"ÃĻNG":14439,"ĠzáºŃy":14440,"Ġask":14441,"ĠStarfleet":14442,"Serge":14443,"Ã¯ng":14444,"halla":14445,"Brandon":14446,"ĠTesla":14447,";/":14448,"Bud":14449,"FACE":14450,"Gá»Ľm":14451,"Hunt":14452,"Los":14453,"MÃª":14454,"MÄĥ":14455,"MiÃªu":14456,"Mack":14457,"NÃºp":14458,"Run":14459,"Som":14460,"Ts":14461,"Todd":14462,"Zo":14463,"cov":14464,"here":14465,"know":14466,"mun":14467,"táºŃp":14468,"til":14469,"ĠâĢĭâĢĭ":14470,"Ġthree":14471,"Ġnuá»ĳi":14472,"ĠbÃĤn":14473,"Ġsáº©y":14474,"Ġsleep":14475,"ĠhuyÃªn":14476,"Ġhá»Ľp":14477,"ĠgÃ¹":14478,"Ġnháº±ng":14479,"ĠrÃ¡i":14480,"phone":14481,"Ġpháº¥t":14482,"ÄĲua":14483,"ĠquÃły":14484,"Ġrain":14485,"Nhá»ķ":14486,"ĠCÃ¡o":14487,"ĠTÃ¡":14488,"ĠTÄ©nh":14489,"ĠTango":14490,"Ngá»Ńi":14491,"erxes":14492,"ĠBáºŃt":14493,"ĠSáº¯c":14494,"Phá»ĳ":14495,"ĠLie":14496,"ĠLeed":14497,"iser":14498,"Ġvá»¥t":14499,"ouble":14500,"ĠFoot":14501,"ĠFuller":14502,"ĠTribbiani":14503,"usic":14504,"thá»Ń":14505,"andro":14506,"ĠStewart":14507,"Ġpop":14508,"Ġopen":14509,"Ġ89":14510,"utz":14511,"Ġins":14512,"ÃģNH":14513,"ĠSamaritan":14514,"ĠGraves":14515,"ĠBarbie":14516,"Ġ02":14517,"ĠTHá»¨":14518,"ylie":14519,"ONT":14520,"ĠDeacon":14521,"ĠLaurie":14522,"ĠMrs":14523,"Tá»ķn":14524,"ICE":14525,"ĠzÃ¬":14526,"ĠUnion":14527,"Ġclub":14528,"ĠSwan":14529,"ĠCastiel":14530,"ĠGhi":14531,"ĠVirgil":14532,"ĠIrish":14533,"ĠCosta":14534,"Subtitle":14535,"Rocket":14536,"ĠLanding":14537,"SPEAKING":14538,"Klaus":14539,"ĠAlec":14540,"Mikey":14541,"abbit":14542,"Pepper":14543,"ĠFerrari":14544,"ĠPrinceton":14545,"Ay":14546,"Aug":14547,"Bá»ģ":14548,"Báº¥m":14549,"Huyá»ģn":14550,"LÃ¢m":14551,"Love":14552,"Má»Ļ":14553,"Micky":14554,"Ox":14555,"Pan":14556,"Pen":14557,"RÃ³t":14558,"SÆ¡n":14559,"Sur":14560,"SON":14561,"Tess":14562,"XÃ¬":14563,"cáº©n":14564,"náº±m":14565,"pos":14566,"rer":14567,"sburg":14568,"wang":14569,"Ġtáº£o":14570,"ĠcÃµng":14571,"Ġváº¿u":14572,"Ġváº©y":14573,"Ġnoi":14574,"Ġsáº³n":14575,"Ġsoul":14576,"ĠnhÃ³i":14577,"Ġreg":14578,"ChÃ´":14579,"Ġxáº¥c":14580,"...âĻª":14581,"Thung":14582,"ĠTA":14583,"ĠTerr":14584,"ĠMÃ¡t":14585,"ĠMÃ£n":14586,"ĠMIN":14587,"ĠLÃ´ng":14588,"ĠDow":14589,"ĠDixon":14590,"ĠGry":14591,"ĠThurs":14592,"Ġtouch":14593,"ĠNich":14594,"ĠNolan":14595,"ĠKá»¹":14596,"ĠKree":14597,"asma":14598,"QuÄĥng":14599,"ĠFur":14600,"ĠField":14601,"Ġanymore":14602,"ĠIS":14603,"ĠIp":14604,"Ġ59":14605,"iden":14606,"Hodor":14607,"Ġpen":14608,"ĠXá»©":14609,"ego":14610,"egrin":14611,"quáº£":14612,"uhm":14613,"ĠMore":14614,"Ġnháº¹t":14615,"áº¤U":14616,"ibi":14617,"ixie":14618,"ĠvÃŃu":14619,"ĠTRÆ¯á»ļC":14620,"ATT":14621,"ĠRoch":14622,"ĠLannisters":14623,"Ġhamburger":14624,"ĠJeanine":14625,"Ġsá»īn":14626,"ĠDrago":14627,"Philip":14628,"ĠDavos":14629,"ĠNobel":14630,"ĠHopkins":14631,"Ã°i":14632,"äºĨ":14633,"ĠChelsea":14634,"estapo":14635,"Ġkarate":14636,".-":14637,"85":14638,"Ele":14639,"Hang":14640,"Jet":14641,"Jos":14642,"Kev":14643,"Malley":14644,"Nar":14645,"Remy":14646,"War":14647,"dong":14648,"fly":14649,"hee":14650,"kiá»ĥm":14651,"kill":14652,"mand":14653,"rÃµ":14654,"vid":14655,"ÃĦ":14656,"Ġá»Ľn":14657,"áº¼":14658,"ĠnÃ¡":14659,"Ġbring":14660,"ĠkhÃªu":14661,"Ġsá»©a":14662,"Ġnhá»Ļng":14663,"ĠÄĳá»ħ":14664,"ÄĲÃŃch":14665,"Ġquai":14666,"uá»ĳm":14667,"KhÃ³i":14668,"Ã²e":14669,"á»±ng":14670,"Nhu":14671,"ĠCÆ¡n":14672,"ĠCá»Łi":14673,"ĠCora":14674,"ĠMÆ°u":14675,"ĠBach":14676,"ĠHolt":14677,"Ġya":14678,"ĠCháº¥p":14679,"Pheebs":14680,"ĠLÅ©ng":14681,"ĠLara":14682,"eowulf":14683,"orin":14684,"ĠDÃłi":14685,"ĠDáº¥u":14686,"ĠDod":14687,"Ġtoáº¡i":14688,"imi":14689,"Ġlum":14690,"ĠRyu":14691,"Ġlost":14692,"ĠVoldemort":14693,"ĠNico":14694,"ĠNile":14695,"ĠPont":14696,"ĠPippin":14697,"ĠTrá»¥":14698,"ĠTráº¥n":14699,"ĠTrip":14700,"thy":14701,"Ġ350":14702,"Ġ...\"":14703,"ĠOctav":14704,"ads":14705,"Ġpower":14706,"iva":14707,"ĠthÃ¢t":14708,"ĠmÃ£ng":14709,"Tina":14710,"Ġjean":14711,"Toa":14712,"Ġmoon":14713,"Tuá»³":14714,"ĠÃĤn":14715,"ĠiPad":14716,"ĠUhm":14717,"ĠSchrader":14718,"ĠRonald":14719,"ĠNorton":14720,"ĠAtt":14721,"ĠPHIM":14722,"Really":14723,"Duke":14724,"argas":14725,"Ġtequila":14726,"áº®T":14727,"ĠSkipper":14728,"ĠtuÃ½p":14729,"Avatar":14730,"ĠLonely":14731,"ĠCogburn":14732,"BC":14733,"CÆ°á»Ľi":14734,"Fal":14735,"Lao":14736,"Marl":14737,"Ny":14738,"Pau":14739,"Rome":14740,"Tá»ĵi":14741,"Tessa":14742,"With":14743,"cin":14744,"dÆ°á»Ľi":14745,"fasa":14746,"gee":14747,"hÆ¡i":14748,"jean":14749,"ns":14750,"oke":14751,"Ġcry":14752,"ĠÄĳÃºp":14753,"Ġnáº¥c":14754,"Ġbre":14755,"ĠkhÆ¡":14756,"Ġguá»ĳc":14757,"ĠgÃī":14758,"ĠngÃľÃĸi":14759,"pheus":14760,"ĠquÃ¨n":14761,"NhÆ¡":14762,"NhÃ©t":14763,"ĠCÃº":14764,"ĠCart":14765,"ĠCÃĶNG":14766,"ĠTáº«n":14767,"ĠMÆ¡":14768,"ĠBatt":14769,"ĠSkeeter":14770,"ĠHot":14771,"ĠHagrid":14772,"iad":14773,"ĠAP":14774,"ĠGale":14775,"imes":14776,"ĠRik":14777,"ĠRug":14778,"ĠRusty":14779,"ĠJacques":14780,"ĠNáº¯m":14781,"ĠNEW":14782,"ĠKoba":14783,"ĠKGB":14784,"ĠWind":14785,"ĠTro":14786,"ĠTrÃŃ":14787,"ĠTrá»£":14788,"ĠEner":14789,"ĠtuÃ´n":14790,"adre":14791,"ĠwÃ¡":14792,"ĠYang":14793,"unch":14794,"terson":14795,"ĠConstant":14796,"Ġoáº¯t":14797,"ĠAlam":14798,"Ġ2014":14799,"ĠKhá»Łi":14800,"nake":14801,"ĠScooby":14802,"ĠTHáº¾":14803,"ĠRain":14804,"ĠMafia":14805,"ĠHaiti":14806,"Ġlá»£m":14807,"ĠElle":14808,"ations":14809,"Barnes":14810,"ĠForce":14811,"Ãļi":14812,"Elle":14813,"ĠMackenzie":14814,"Glenn":14815,"ĠPenelope":14816,"ĠPollock":14817,"Russell":14818,"ĠBriar":14819,"ĠCohen":14820,"ĠHassan":14821,"irestorm":14822,"ĠEncode":14823,"Are":14824,"Bre":14825,"CAR":14826,"Grant":14827,"Ouch":14828,"Tá»©":14829,"UT":14830,"dad":14831,"fy":14832,"lia":14833,"vel":14834,"ĠÃ£n":14835,"Ġáº»m":14836,"ĠtÃ¢u":14837,"nháº¥t":14838,"ĠkÃ©":14839,"Ġmass":14840,"Ġkhanh":14841,"Ġkháº¡o":14842,"Ġste":14843,"Ġgram":14844,"Ġnhuá»ĳm":14845,"Ġtrá»ķ":14846,"ĠÄĳá»įng":14847,"Ġden":14848,"aynor":14849,"anan":14850,"ĠCáº¡n":14851,"ĠTemp":14852,"ĠMÃ¢y":14853,"ĠMIT":14854,"ĠBá»¯a":14855,"ĠBard":14856,"ĠBald":14857,"ĠSide":14858,"ĠSÃºn":14859,"ĠHess":14860,"PhÃª":14861,"ĠLike":14862,"ĠGaul":14863,"ĠGCPD":14864,"ĠGirl":14865,"Conrad":14866,"ĠRÃ´":14867,"uie":14868,"ĠPi":14869,"ĠPot":14870,"Giá»Ŀi":14871,"tho":14872,"ĠIT":14873,"ĠYO":14874,"Ġ628":14875,"Ġvá»£t":14876,"Ġpart":14877,"Ġpoker":14878,"ĠXá»Ń":14879,"hoÃłn":14880,"rish":14881,"ĠAlo":14882,"ental":14883,"ĠClA":14884,"tock":14885,"chÃºngta":14886,"Shel":14887,"Marvin":14888,"Ġbeh":14889,"ĠAndie":14890,"consin":14891,"Whip":14892,"ĠBenedict":14893,"Wells":14894,"aleigh":14895,"Ġ148":14896,"Ġ135":14897,"ĠAbbott":14898,"Ġknows":14899,"oshiro":14900,"ĠSmÃ©agol":14901,"ĠDarren":14902,"ĠlÆ°Æ¡n":14903,"ĠToronto":14904,"Ã¥ch":14905,"ĠHuÃ¢n":14906,"Jonah":14907,"ĠGregor":14908,"ĠMelissa":14909,"Ġplasma":14910,"ĠTerrence":14911,"Cruchot":14912,"ĠNicolas":14913,"Skye":14914,"ammad":14915,"ĠKitty":14916,"ĠChech":14917,"ĠAmberle":14918,"ĠNatasha":14919,"ĠWebb":14920,"ĠConnors":14921,"ĠSadness":14922,"ĠVladimir":14923,"Boris":14924,"ĠRINGS":14925,"ĠTreadstone":14926,"Bernard":14927,"cticut":14928,"Oscar":14929,"Cáº¯m":14930,"GE":14931,"Gri":14932,"Naz":14933,"Ob":14934,"Perry":14935,"Sme":14936,"Tang":14937,"TON":14938,"Vic":14939,"XÆ°a":14940,"fort":14941,"hey":14942,"lem":14943,"lÃ¢u":14944,"tá»«ng":14945,"wise":14946,"Ã§a":14947,"ĠÃ¹":14948,"Ġáº¹":14949,"Ġá»ıi":14950,"Ġcat":14951,"Ġcourse":14952,"Ġváº¿":14953,"ĠmÃ²ng":14954,"Ġmáº©n":14955,"ĠnÃ¢":14956,"Ġbin":14957,"Ġbal":14958,"Ġsky":14959,"ĠnhÃ²m":14960,"Ã¬t":14961,"Chá»įc":14962,"Ġchocolate":14963,"ĠTad":14964,"ĠBush":14965,"ĠSex":14966,"ĠSforza":14967,"ĠHappy":14968,"ĠHiggins":14969,"eno":14970,"ĠLáº¡":14971,"amily":14972,"ĠAy":14973,"ĠGIA":14974,"esu":14975,"ĠVerm":14976,"ĠVandal":14977,"ĠNixon":14978,"ĠKah":14979,"ĠPry":14980,"eyt":14981,"ÄĳÃ¡":14982,"edith":14983,"Ġfin":14984,"Ġfly":14985,"ĠMargo":14986,"ĠMardon":14987,"ĠSha":14988,"Ġinside":14989,"Ġ129":14990,"Ġ117":14991,"Ġcá»±a":14992,"Ġ142":14993,"Frankenstein":14994,"ĠMercia":14995,"ĠPeters":14996,"Allison":14997,"ĠSalv":14998,"ĠBangkok":14999,"ĠGalavan":15000,"ĠBolt":15001,"Calvin":15002,"ĠDorothy":15003,"McC":15004,"Santa":15005,"ĠCallahan":15006,"ĠPaula":15007,"Ġ^^":15008,"Ġcredit":15009,"ĠIMF":15010,"Bag":15011,"Cá»¥ng":15012,"DÃ¢":15013,"Dog":15014,"Hood":15015,"Kira":15016,"Kendra":15017,"LÃłng":15018,"MI":15019,"MO":15020,"NÃºt":15021,"Par":15022,"Sulu":15023,"Tung":15024,"Toi":15025,"Wayne":15026,"Woa":15027,"__":15028,"bow":15029,"dÃ¢y":15030,"far":15031,"vá»£":15032,"ngu":15033,"Ġcáº³ng":15034,"ĠnÃ²i":15035,"Ġsáº·c":15036,"Ġsame":15037,"Ġgun":15038,"Ġgetting":15039,"Ġapp":15040,"ĠxÃłm":15041,"Ġxá»ķng":15042,"Thuyáº¿t":15043,"chiáº¿c":15044,"ĠCÃ´n":15045,"ĠTÃ¢":15046,"ĠTÃ¡n":15047,"ĠTus":15048,"ĠTÃ¹y":15049,"Ngá»¥y":15050,"ĠBáº£":15051,"ĠBet":15052,"Ã½ng":15053,"ĠHÃ¡t":15054,"ĠHIV":15055,"ĠChekov":15056,"Ġhor":15057,"ĠDad":15058,"ĠThá»ıa":15059,"ĠRO":15060,"ĠJose":15061,"ĠPost":15062,"ĠTrá»«ng":15063,"ĠTree":15064,"ÄĳÆ°":15065,"ĠEg":15066,"Ġ4000":15067,"Ġ450":15068,"Ġ625":15069,"GiÆ°á»Ŀng":15070,"Giam":15071,"ĠnguÃ´i":15072,"á»ĴNG":15073,"rack":15074,"arley":15075,"Ġfool":15076,"ĠtÃ¹m":15077,"ĠShishio":15078,"iving":15079,"mmm":15080,"áº¢O":15081,"Alt":15082,"ustang":15083,"doch":15084,"Jackie":15085,"ĠMcQueen":15086,"ĠColin":15087,"ĠCHUCKLES":15088,"Amelia":15089,"ĠMaxim":15090,"Carmen":15091,"ĠSimpson":15092,"Grond":15093,"ĠSchw":15094,"ĠMadeleine":15095,"ĠFreddie":15096,"aghan":15097,"ĠRivendell":15098,"racula":15099,"ĠBrooks":15100,"ĠAthel":15101,"IDS":15102,"ĠTiberius":15103,"Ġpounds":15104,"Keith":15105,"ĠPhillip":15106,"ä¸Ģ":15107,"ĠVÃĢO":15108,"Cassie":15109,"ĠApple":15110,"ĠPhilippe":15111,"ĠGriff":15112,"ĠMulder":15113,"Mickey":15114,"ĠMisterT":15115,"eytiri":15116,"BÃª":15117,"Bir":15118,"Coll":15119,"Gin":15120,"KÃªnh":15121,"LS":15122,"Like":15123,"Má»ħ":15124,"Os":15125,"Táº¥p":15126,"UI":15127,"bÃ¡o":15128,"dard":15129,"hold":15130,"káº¿":15131,"kiá»ĥu":15132,"ktra":15133,"non":15134,"pot":15135,"rond":15136,"ãĤ":15137,"Ġchampagne":15138,"Ġmá»ĭn":15139,"Ġná»ĭt":15140,"Ġnext":15141,"ĠkhÃŃt":15142,"Ġháº¥t":15143,"ĠrÄ©":15144,"Ġrest":15145,"Ġang":15146,"ĠÄĳá»Ŀ":15147,"Ġxiáº¿t":15148,"Ġgiáº·c":15149,"ement":15150,"ThÃ¹ng":15151,"cháº·n":15152,"ĠComan":15153,"Ġ127":15154,"arine":15155,"ĠSah":15156,"ĠSak":15157,"ĠHÄĥ":15158,"amander":15159,"ĠAhh":15160,"ĠThiÃª":15161,"ĠTheon":15162,"ĠNÃ©m":15163,"ĠNigel":15164,"Quá»¹":15165,"ĠTrÃ¢":15166,"ĠTravers":15167,"thÃªm":15168,"icillin":15169,"Äĳáº¹p":15170,"Äĳá»ĭnh":15171,"ĠNhÃ¬":15172,"Ġworry":15173,"andall":15174,"Ġ106":15175,"Ġfix":15176,"Ġ93":15177,"--?":15178,"Theodore":15179,"egeta":15180,"ĠClan":15181,"berto":15182,"ĠvÃªnh":15183,"Whiskey":15184,"ĠWhip":15185,"ĠElvis":15186,"ĠBeet":15187,"Edit":15188,"Ġstars":15189,"ĠTuáº¥n":15190,"ĠIsabel":15191,"ĠMance":15192,"ĠTRONG":15193,"Violet":15194,"ĠMeade":15195,"ESE":15196,"Ġready":15197,"ROSS":15198,"ĠRocky":15199,"ÃĲá»«ng":15200,"Prim":15201,"ĠÆ¯ng":15202,"ĠGoodwin":15203,"aught":15204,"ĠGeorges":15205,"ĠEywa":15206,"Slade":15207,"bbons":15208,"umbaa":15209,"Lorraine":15210,"ĠCherevin":15211,"Ġdoesn":15212,"ĠSprings":15213,"ĠtÃ³e":15214,"ĠSoviet":15215,"ĠKragle":15216,"Bá»į":15217,"Bog":15218,"BáºŃc":15219,"DE":15220,"Dong":15221,"Krist":15222,"Ninh":15223,"Net":15224,"Naomi":15225,"Poll":15226,"Rourke":15227,"Some":15228,"Yu":15229,"bÃ¡nh":15230,"cat":15231,"hand":15232,"je":15233,"kuru":15234,"names":15235,"pine":15236,"zi":15237,"Ġáº¿m":15238,"ĠtÄ©":15239,"ĠcÃ¹n":15240,"Ġchange":15241,"ĠbÃ¨o":15242,
[...]
